<unk>	0
<s>	0
</s>	0
ar	-0
er	-1
an	-2
in	-3
▁b	-4
en	-5
ın	-6
ir	-7
▁k	-8
il	-9
▁d	-10
▁s	-11
lar	-12
▁y	-13
ma	-14
▁g	-15
▁o	-16
el	-17
ek	-18
al	-19
ak	-20
▁v	-21
et	-22
la	-23
▁t	-24
▁i	-25
un	-26
da	-27
de	-28
ler	-29
▁h	-30
or	-31
▁ve	-32
es	-33
iy	-34
ay	-35
▁bir	-36
im	-37
at	-38
iz	-39
ır	-40
em	-41
ik	-42
▁B	-43
on	-44
ur	-45
as	-46
ed	-47
ün	-48
lı	-49
▁ol	-50
▁ç	-51
▁A	-52
▁m	-53
aş	-54
ey	-55
ul	-56
ür	-57
is	-58
▁a	-59
dı	-60
am	-61
ap	-62
iş	-63
▁K	-64
le	-65
ış	-66
▁S	-67
▁de	-68
ıl	-69
▁ö	-70
it	-71
ah	-72
ların	-73
▁T	-74
dan	-75
▁il	-76
az	-77
um	-78
ız	-79
▁M	-80
ım	-81
ab	-82
li	-83
▁p	-84
ık	-85
ya	-86
▁gö	-87
▁iç	-88
di	-89
du	-90
ları	-91
ağ	-92
st	-93
üz	-94
▁f	-95
ini	-96
ok	-97
▁ş	-98
ine	-99
▁al	-100
▁n	-101
lan	-102
ce	-103
den	-104
▁D	-105
▁İ	-106
▁H	-107
inde	-108
ında	-109
▁bu	-110
ol	-111
ad	-112
ev	-113
▁ar	-114
▁yap	-115
▁E	-116
mak	-117
ük	-118
yor	-119
mas	-120
▁1	-121
▁da	-122
▁Y	-123
uz	-124
esi	-125
ti	-126
▁G	-127
iler	-128
▁için	-129
üm	-130
leri	-131
eler	-132
iyor	-133
tı	-134
▁z	-135
ını	-136
▁2	-137
af	-138
▁gör	-139
uş	-140
▁baş	-141
▁et	-142
▁r	-143
ül	-144
▁an	-145
cak	-146
inin	-147
▁ile	-148
ği	-149
▁ed	-150
ut	-151
uy	-152
oğ	-153
dir	-154
▁P	-155
ec	-156
ına	-157
lik	-158
▁kar	-159
ta	-160
iye	-161
▁O	-162
▁gel	-163
▁son	-164
üş	-165
us	-166
ıs	-167
eç	-168
uk	-169
tir	-170
dır	-171
▁ver	-172
te	-173
▁bil	-174
▁ger	-175
ön	-176
ğı	-177
mek	-178
▁ön	-179
larak	-180
▁oldu	-181
lık	-182
ilir	-183
av	-184
ez	-185
ib	-186
▁in	-187
eb	-188
▁(	-189
mış	-190
eş	-191
tır	-192
..	-193
iniz	-194
len	-195
▁ay	-196
ra	-197
ip	-198
▁kon	-199
▁olarak	-200
▁değ	-201
▁“	-202
cı	-203
anı	-204
▁tar	-205
▁F	-206
▁C	-207
▁Bu	-208
unu	-209
▁iş	-210
▁c	-211
▁en	-212
ması	-213
edi	-214
lay	-215
ından	-216
miş	-217
tan	-218
▁yer	-219
man	-220
ro	-221
▁olan	-222
aha	-223
laş	-224
üy	-225
öy	-226
▁çok	-227
▁kal	-228
se	-229
lem	-230
▁kad	-231
▁bul	-232
op	-233
ibi	-234
ürk	-235
ca	-236
lu	-237
▁ist	-238
ası	-239
▁on	-240
▁ma	-241
▁Ç	-242
ki	-243
eni	-244
imiz	-245
▁R	-246
▁var	-247
▁ken	-248
ih	-249
▁olduğ	-250
▁daha	-251
▁e	-252
ama	-253
▁or	-254
▁aç	-255
▁N	-256
▁gün	-257
▁her	-258
▁kul	-259
ının	-260
▁kur	-261
▁gibi	-262
me	-263
lerin	-264
ör	-265
aki	-266
ka	-267
om	-268
ıyor	-269
▁çık	-270
san	-271
▁sür	-272
eki	-273
▁geç	-274
...	-275
lama	-276
aman	-277
isi	-278
ken	-279
ecek	-280
eye	-281
ili	-282
▁uy	-283
▁yıl	-284
▁kullan	-285
alış	-286
▁el	-287
▁Türk	-288
▁üz	-289
yon	-290
▁Ö	-291
▁yar	-292
▁bel	-293
sa	-294
üt	-295
▁yaş	-296
▁3	-297
ilm	-298
▁20	-299
eden	-300
▁V	-301
ğr	-302
eh	-303
▁üzer	-304
ic	-305
▁çalış	-306
os	-307
ilen	-308
ru	-309
▁kadar	-310
▁düş	-311
aç	-312
▁"	-313
ılı	-314
▁Ş	-315
lara	-316
eli	-317
eri	-318
lü	-319
larını	-320
öz	-321
▁gerek	-322
let	-323
▁An	-324
unda	-325
daki	-326
ımız	-327
▁zaman	-328
inden	-329
yla	-330
ist	-331
oy	-332
iç	-333
▁yan	-334
▁bulun	-335
leş	-336
▁öz	-337
▁olma	-338
ark	-339
iyle	-340
aya	-341
ece	-342
iyet	-343
ers	-344
▁dur	-345
met	-346
▁karş	-347
▁L	-348
tur	-349
▁hal	-350
id	-351
▁sonra	-352
▁u	-353
▁doğ	-354
ılan	-355
▁sağ	-356
ep	-357
▁sor	-358
▁dev	-359
▁say	-360
dığ	-361
▁tek	-362
gi	-363
▁ola	-364
▁yaz	-365
üç	-366
▁top	-367
üyük	-368
asında	-369
öl	-370
▁ek	-371
▁yön	-372
ac	-373
▁ne	-374
ade	-375
ınız	-376
▁kay	-377
▁ak	-378
unun	-379
▁ama	-380
dım	-381
▁ben	-382
ten	-383
arak	-384
üc	-385
▁taraf	-386
men	-387
dığı	-388
erek	-389
alı	-390
if	-391
arı	-392
▁dön	-393
ot	-394
▁kend	-395
▁kap	-396
▁U	-397
▁par	-398
ğini	-399
▁Bir	-400
oc	-401
deki	-402
edir	-403
▁Al	-404
ağı	-405
nin	-406
larda	-407
yi	-408
lerini	-409
▁kat	-410
ğer	-411
▁at	-412
ede	-413
▁hay	-414
▁oy	-415
▁sah	-416
erk	-417
maya	-418
▁Baş	-419
▁4	-420
ef	-421
▁pro	-422
imi	-423
▁şek	-424
üs	-425
▁şey	-426
ans	-427
ada	-428
çek	-429
sel	-430
▁değil	-431
▁ise	-432
▁yak	-433
▁Ü	-434
ter	-435
una	-436
▁uyg	-437
lam	-438
▁ev	-439
▁bak	-440
tr	-441
▁yüz	-442
ıp	-443
▁insan	-444
▁hak	-445
▁uz	-446
▁ür	-447
00	-448
▁ad	-449
dür	-450
▁karşı	-451
▁söy	-452
▁ki	-453
▁l	-454
▁büyük	-455
ci	-456
▁siz	-457
▁-	-458
▁belir	-459
▁es	-460
eleri	-461
yan	-462
▁yol	-463
larının	-464
▁yeni	-465
ısı	-466
▁201	-467
▁5	-468
muş	-469
ley	-470
kin	-471
▁sev	-472
▁gir	-473
▁Ar	-474
▁öğr	-475
▁kiş	-476
elik	-477
▁gen	-478
yı	-479
▁den	-480
abilir	-481
▁veya	-482
▁özel	-483
siniz	-484
esinde	-485
lere	-486
ster	-487
adır	-488
ildi	-489
makt	-490
▁ko	-491
bir	-492
▁gerçek	-493
larına	-494
uh	-495
▁bağ	-496
dü	-497
▁alan	-498
▁as	-499
▁biz	-500
▁tak	-501
art	-502
acak	-503
uyor	-504
iv	-505
▁düz	-506
ğu	-507
▁Türkiye	-508
▁hem	-509
enin	-510
▁har	-511
▁yok	-512
▁ort	-513
sun	-514
▁ilg	-515
rı	-516
kan	-517
ara	-518
▁ilk	-519
tık	-520
▁önem	-521
tedir	-522
▁do	-523
ünü	-524
ne	-525
▁açık	-526
▁ok	-527
lığı	-528
▁olduğu	-529
▁göre	-530
cu	-531
ram	-532
▁der	-533
▁göz	-534
▁böl	-535
ran	-536
nın	-537
▁yük	-538
▁tarafından	-539
▁göster	-540
dık	-541
▁iyi	-542
▁durum	-543
der	-544
▁ya	-545
est	-546
tu	-547
maktadır	-548
▁I	-549
nı	-550
lat	-551
▁fark	-552
etim	-553
▁19	-554
larında	-555
▁san	-556
etir	-557
▁şekil	-558
tik	-559
▁Z	-560
emiz	-561
dur	-562
bilir	-563
izmet	-564
▁iz	-565
▁tarih	-566
iyat	-567
eyi	-568
▁alt	-569
▁söz	-570
▁sır	-571
▁yet	-572
lah	-573
lığ	-574
oz	-575
ğit	-576
mesi	-577
▁çek	-578
öyle	-579
▁getir	-580
▁diye	-581
aat	-582
▁oluş	-583
mektedir	-584
daş	-585
aret	-586
emek	-587
▁tut	-588
up	-589
▁ser	-590
ileri	-591
re	-592
üst	-593
▁hiç	-594
▁değiş	-595
▁aş	-596
▁Ay	-597
aber	-598
lardan	-599
ebilir	-600
abil	-601
▁ih	-602
ret	-603
▁İn	-604
▁olduğunu	-605
▁öl	-606
ça	-607
▁seç	-608
liği	-609
▁iki	-610
▁duy	-611
si	-612
▁şekilde	-613
üv	-614
▁dün	-615
▁etti	-616
esine	-617
▁az	-618
üzel	-619
ıla	-620
bil	-621
sı	-622
▁içinde	-623
iğer	-624
tür	-625
sız	-626
▁tüm	-627
asyon	-628
▁neden	-629
▁Er	-630
siz	-631
▁hizmet	-632
▁dedi	-633
▁kor	-634
ye	-635
alık	-636
tar	-637
▁öğren	-638
azı	-639
▁ada	-640
▁mil	-641
▁6	-642
▁Kur	-643
ocuk	-644
ımı	-645
▁has	-646
▁düşün	-647
▁su	-648
esini	-649
▁ce	-650
ayan	-651
▁bilg	-652
lerde	-653
çe	-654
usu	-655
raf	-656
ütün	-657
▁ül	-658
iyorum	-659
▁haz	-660
lerinin	-661
han	-662
lerine	-663
olo	-664
leştir	-665
▁is	-666
▁kaz	-667
meye	-668
▁olur	-669
ulu	-670
▁sahip	-671
▁önce	-672
▁ilgili	-673
▁İl	-674
ıcı	-675
od	-676
▁devam	-677
▁kıs	-678
▁ede	-679
▁değer	-680
▁faz	-681
▁birlik	-682
ünde	-683
tü	-684
▁bin	-685
▁taş	-686
▁başla	-687
▁arasında	-688
▁ağ	-689
maz	-690
▁zor	-691
istem	-692
larla	-693
▁geliş	-694
▁İst	-695
▁tan	-696
▁ter	-697
▁önemli	-698
ika	-699
ayı	-700
▁yapıl	-701
bul	-702
kanı	-703
ana	-704
ındaki	-705
ğitim	-706
diği	-707
▁bas	-708
ilik	-709
üven	-710
lendir	-711
▁hayat	-712
▁dış	-713
▁fazla	-714
esin	-715
erkez	-716
uv	-717
▁Bel	-718
▁yay	-719
kü	-720
▁kim	-721
na	-722
▁güzel	-723
eğ	-724
▁sonu	-725
▁kö	-726
oş	-727
alan	-728
▁düzen	-729
sek	-730
▁hat	-731
▁kab	-732
▁ülk	-733
▁7	-734
▁alın	-735
▁gelen	-736
ilmiş	-737
▁doğru	-738
▁konuş	-739
▁bur	-740
▁sat	-741
dik	-742
mıştır	-743
▁İs	-744
oloj	-745
▁bek	-746
avaş	-747
likle	-748
tığı	-749
üne	-750
▁kendi	-751
ledi	-752
▁çalışma	-753
▁aynı	-754
▁hakk	-755
▁hazır	-756
▁Öz	-757
eyen	-758
liğ	-759
ide	-760
asıl	-761
▁çıkar	-762
▁diğer	-763
▁içer	-764
anbul	-765
por	-766
adece	-767
nun	-768
▁tes	-769
▁birlikte	-770
▁boy	-771
üp	-772
▁tem	-773
▁Gen	-774
▁üst	-775
ehir	-776
dar	-777
eti	-778
▁etk	-779
▁dik	-780
▁İş	-781
▁ör	-782
.”	-783
▁olmak	-784
aba	-785
▁En	-786
ig	-787
▁im	-788
▁konu	-789
rup	-790
▁sistem	-791
yal	-792
▁bun	-793
eniz	-794
▁git	-795
▁dil	-796
luk	-797
bet	-798
▁dönem	-799
▁çocuk	-800
gu	-801
ilerin	-802
end	-803
▁eden	-804
ğiniz	-805
▁kan	-806
▁Ak	-807
▁mes	-808
▁eş	-809
gün	-810
larından	-811
olu	-812
20	-813
▁sit	-814
▁8	-815
▁Kar	-816
tığ	-817
▁farklı	-818
larımız	-819
▁olacak	-820
lerinde	-821
▁10	-822
ilmesi	-823
ırak	-824
▁mü	-825
▁kazan	-826
▁sal	-827
▁başka	-828
ulan	-829
▁saat	-830
dığını	-831
▁ulaş	-832
▁arka	-833
tör	-834
gram	-835
▁Bak	-836
▁oyun	-837
masını	-838
▁ot	-839
▁yat	-840
ri	-841
eket	-842
▁İstanbul	-843
rak	-844
▁J	-845
▁if	-846
cel	-847
▁tür	-848
▁bütün	-849
▁iliş	-850
cağ	-851
▁görün	-852
anın	-853
▁sık	-854
kı	-855
▁bile	-856
▁em	-857
▁dav	-858
ub	-859
▁Son	-860
ızı	-861
▁kit	-862
lak	-863
▁yapılan	-864
ğimiz	-865
▁nasıl	-866
▁bırak	-867
▁güven	-868
▁görev	-869
▁sen	-870
▁er	-871
▁sadece	-872
▁uygu	-873
kat	-874
▁W	-875
▁gön	-876
▁tama	-877
▁eder	-878
ğü	-879
▁önc	-880
▁ürün	-881
masına	-882
atı	-883
▁Or	-884
▁bölg	-885
▁Ben	-886
iyon	-887
▁‘	-888
▁belirt	-889
lerden	-890
▁haf	-891
▁gid	-892
▁karar	-893
▁sun	-894
▁tel	-895
▁Kon	-896
▁tab	-897
▁güç	-898
ici	-899
layan	-900
▁mut	-901
▁Av	-902
ahat	-903
eme	-904
▁bulunan	-905
üyor	-906
▁Mü	-907
uma	-908
▁üzerine	-909
esinin	-910
▁,	-911
▁sı	-912
▁çev	-913
▁ik	-914
akat	-915
▁etm	-916
asar	-917
▁işlem	-918
▁yardım	-919
og	-920
mi	-921
▁kr	-922
ıldı	-923
ber	-924
malı	-925
ivers	-926
mal	-927
▁hav	-928
iyoruz	-929
▁kaç	-930
▁yür	-931
iyordu	-932
gil	-933
hur	-934
iversit	-935
▁bit	-936
iyas	-937
ğim	-938
▁Bil	-939
▁Pro	-940
duğu	-941
lük	-942
▁biri	-943
ünkü	-944
isinde	-945
sal	-946
▁olduk	-947
▁9	-948
lerinden	-949
▁din	-950
tiy	-951
net	-952
ebil	-953
▁kadın	-954
▁olması	-955
▁mak	-956
lum	-957
van	-958
▁bah	-959
▁kam	-960
▁#	-961
▁sek	-962
sin	-963
lerle	-964
fa	-965
▁te	-966
▁yüksek	-967
edik	-968
▁üzere	-969
▁arkadaş	-970
tal	-971
▁uygun	-972
▁Ama	-973
▁mi	-974
mıştı	-975
▁ara	-976
▁Başkanı	-977
▁geçir	-978
gı	-979
abilirsiniz	-980
usunda	-981
dum	-982
▁üzerinde	-983
▁Her	-984
işim	-985
▁tekn	-986
▁onun	-987
acağ	-988
ing	-989
gel	-990
ket	-991
▁Allah	-992
▁hareket	-993
▁anlam	-994
▁üç	-995
▁'	-996
hal	-997
rar	-998
▁kız	-999
elim	-1000
elerin	-1001
▁dikkat	-1002
enk	-1003
▁uzun	-1004
▁böyle	-1005
▁Bur	-1006
▁kurul	-1007
▁mad	-1008
▁koy	-1009
üçük	-1010
ğin	-1011
ov	-1012
▁bazı	-1013
▁oluştur	-1014
unuz	-1015
ge	-1016
▁adam	-1017
estek	-1018
bar	-1019
▁muh	-1020
▁geldi	-1021
umhur	-1022
▁mal	-1023
▁200	-1024
▁kabul	-1025
▁can	-1026
tım	-1027
ılır	-1028
▁hep	-1029
lanan	-1030
çi	-1031
▁15	-1032
▁eğitim	-1033
emiş	-1034
▁görüş	-1035
▁:	-1036
▁kayn	-1037
▁Beled	-1038
tırma	-1039
▁genel	-1040
mez	-1041
eg	-1042
▁kav	-1043
çı	-1044
▁edil	-1045
▁tam	-1046
▁Mil	-1047
▁Es	-1048
▁kes	-1049
osyal	-1050
▁etmek	-1051
▁hakkında	-1052
▁kı	-1053
▁0	-1054
▁ortaya	-1055
▁Gün	-1056
sam	-1057
ümüz	-1058
▁benim	-1059
ob	-1060
manın	-1061
rıca	-1062
lantı	-1063
suz	-1064
cek	-1065
ER	-1066
▁Ün	-1067
▁fiyat	-1068
isini	-1069
gan	-1070
ladı	-1071
▁bey	-1072
mer	-1073
▁tah	-1074
▁ses	-1075
▁ihtiy	-1076
▁gönder	-1077
▁Genel	-1078
▁devlet	-1079
min	-1080
▁un	-1081
imdi	-1082
."	-1083
undan	-1084
▁art	-1085
asına	-1086
▁onu	-1087
▁hız	-1088
▁seb	-1089
▁kolay	-1090
ort	-1091
isine	-1092
orum	-1093
lamak	-1094
sik	-1095
mayı	-1096
dim	-1097
▁Ev	-1098
ök	-1099
ıt	-1100
çok	-1101
▁gerçekleştir	-1102
▁proj	-1103
▁pay	-1104
▁İb	-1105
▁şu	-1106
▁teş	-1107
▁çöz	-1108
▁fir	-1109
▁As	-1110
▁destek	-1111
▁met	-1112
▁Biz	-1113
▁Dev	-1114
baş	-1115
AN	-1116
miştir	-1117
▁olay	-1118
müş	-1119
▁program	-1120
▁nok	-1121
AR	-1122
ver	-1123
lenen	-1124
▁üy	-1125
▁kom	-1126
oğlu	-1127
leme	-1128
▁üret	-1129
▁merkez	-1130
▁sorun	-1131
▁yılında	-1132
▁bölüm	-1133
▁savaş	-1134
ılması	-1135
ırım	-1136
lerimiz	-1137
gin	-1138
yacak	-1139
▁haber	-1140
▁hiçbir	-1141
duğ	-1142
▁kır	-1143
▁ifade	-1144
▁yakın	-1145
▁mı	-1146
▁yönet	-1147
▁Hal	-1148
onom	-1149
umuz	-1150
▁ancak	-1151
▁Ek	-1152
▁res	-1153
▁ayr	-1154
▁El	-1155
aj	-1156
atan	-1157
▁dok	-1158
▁On	-1159
▁tamam	-1160
üküm	-1161
▁Tek	-1162
▁Ancak	-1163
▁yerine	-1164
▁ün	-1165
▁Cumhur	-1166
▁mod	-1167
ren	-1168
▁mev	-1169
▁yaklaş	-1170
azar	-1171
▁–	-1172
▁man	-1173
),	-1174
▁fa	-1175
indeki	-1176
▁han	-1177
▁kişi	-1178
istan	-1179
meler	-1180
▁vardır	-1181
▁bilin	-1182
det	-1183
madan	-1184
▁yas	-1185
▁rahat	-1186
ültür	-1187
sman	-1188
▁başar	-1189
efon	-1190
mam	-1191
uru	-1192
▁dünya	-1193
eşit	-1194
▁12	-1195
▁Bey	-1196
ud	-1197
lıyor	-1198
▁olabilir	-1199
▁olmuş	-1200
tif	-1201
inizi	-1202
▁Kan	-1203
▁San	-1204
urt	-1205
▁pol	-1206
▁Müdür	-1207
▁Tar	-1208
▁his	-1209
he	-1210
ınır	-1211
tem	-1212
▁bilgi	-1213
▁mer	-1214
▁ediyor	-1215
▁plan	-1216
▁tasar	-1217
▁film	-1218
▁sonr	-1219
▁At	-1220
dından	-1221
▁tal	-1222
▁taşı	-1223
▁hemen	-1224
oğu	-1225
ele	-1226
▁artık	-1227
amaz	-1228
▁istedi	-1229
lâ	-1230
siyon	-1231
▁ziy	-1232
bol	-1233
lemek	-1234
ılacak	-1235
unca	-1236
▁küçük	-1237
-1	-1238
ince	-1239
▁dolay	-1240
▁Dün	-1241
▁tanı	-1242
ent	-1243
for	-1244
ni	-1245
ker	-1246
mir	-1247
▁la	-1248
▁AB	-1249
▁mey	-1250
yle	-1251
▁öğrenc	-1252
ılmış	-1253
▁yine	-1254
▁pek	-1255
▁mo	-1256
▁bunu	-1257
ünün	-1258
▁Par	-1259
ışı	-1260
oğraf	-1261
irket	-1262
▁edilen	-1263
res	-1264
▁yarat	-1265
▁18	-1266
uluk	-1267
sil	-1268
▁anlat	-1269
▁hes	-1270
asını	-1271
▁kez	-1272
tim	-1273
▁gelir	-1274
▁Başkan	-1275
sanız	-1276
per	-1277
▁benz	-1278
trol	-1279
▁görül	-1280
leyen	-1281
▁inan	-1282
▁dem	-1283
▁sar	-1284
ılım	-1285
za	-1286
nek	-1287
▁birçok	-1288
▁ber	-1289
▁Üniversit	-1290
▁Yar	-1291
▁yayın	-1292
201	-1293
uyu	-1294
larıyla	-1295
kara	-1296
▁diy	-1297
▁kol	-1298
▁büy	-1299
ıntı	-1300
ust	-1301
edim	-1302
▁bana	-1303
▁otur	-1304
▁çeşit	-1305
▁sonuç	-1306
▁w	-1307
▁%	-1308
▁anla	-1309
▁konusunda	-1310
bu	-1311
may	-1312
▁olsun	-1313
▁ail	-1314
▁geri	-1315
▁Yön	-1316
▁yanı	-1317
▁toplum	-1318
ilere	-1319
ekk	-1320
▁erk	-1321
▁bağlı	-1322
▁uygulama	-1323
edef	-1324
▁vur	-1325
▁altında	-1326
▁terc	-1327
kün	-1328
▁mem	-1329
vet	-1330
▁11	-1331
ayet	-1332
▁tav	-1333
lardı	-1334
ıda	-1335
nde	-1336
▁paylaş	-1337
▁verdi	-1338
landır	-1339
dav	-1340
▁yaşam	-1341
▁Avrup	-1342
lim	-1343
▁yapan	-1344
▁bar	-1345
▁olup	-1346
kinci	-1347
▁genç	-1348
▁Ne	-1349
▁telefon	-1350
ant	-1351
▁cev	-1352
▁Büyük	-1353
▁yen	-1354
▁fır	-1355
▁para	-1356
▁ona	-1357
lo	-1358
▁Top	-1359
oh	-1360
▁yal	-1361
isinin	-1362
nız	-1363
▁oda	-1364
umu	-1365
tiği	-1366
▁sağlık	-1367
▁Yap	-1368
ekli	-1369
▁[	-1370
sın	-1371
âr	-1372
▁mu	-1373
▁yağ	-1374
▁Osman	-1375
▁değerlendir	-1376
▁diz	-1377
▁kısa	-1378
▁Bunun	-1379
▁birbir	-1380
▁anlaş	-1381
▁ardından	-1382
eceği	-1383
▁eski	-1384
▁içerisinde	-1385
din	-1386
▁araç	-1387
▁isim	-1388
▁mas	-1389
▁Hay	-1390
▁biraz	-1391
▁uç	-1392
kın	-1393
▁sıra	-1394
▁süre	-1395
▁mek	-1396
sunuz	-1397
▁iti	-1398
ize	-1399
▁|	-1400
▁tat	-1401
mel	-1402
▁id	-1403
dın	-1404
▁uzak	-1405
▁söyledi	-1406
▁Has	-1407
.1	-1408
ınıf	-1409
▁Özel	-1410
▁Ön	-1411
▁yüzde	-1412
▁sab	-1413
▁herk	-1414
oğun	-1415
azet	-1416
iyi	-1417
abı	-1418
üb	-1419
▁Merkez	-1420
▁Mah	-1421
▁müm	-1422
ân	-1423
▁hast	-1424
▁Ve	-1425
▁hüküm	-1426
▁müş	-1427
▁kork	-1428
▁Bakan	-1429
▁geçen	-1430
ğinde	-1431
sınız	-1432
deş	-1433
▁/	-1434
duk	-1435
▁Ser	-1436
▁Avrupa	-1437
uyla	-1438
▁ait	-1439
aban	-1440
▁yaptığı	-1441
▁vardı	-1442
▁Ah	-1443
▁koş	-1444
ost	-1445
ıyorum	-1446
▁üc	-1447
▁*	-1448
akk	-1449
arası	-1450
▁oyn	-1451
oğan	-1452
▁günü	-1453
).	-1454
▁sınır	-1455
▁zamanda	-1456
▁indir	-1457
▁yaşa	-1458
ch	-1459
▁bunun	-1460
asının	-1461
▁araş	-1462
▁dah	-1463
▁tekrar	-1464
dem	-1465
ayın	-1466
▁sak	-1467
üf	-1468
▁milyon	-1469
▁başladı	-1470
▁ücret	-1471
▁kalit	-1472
▁size	-1473
tin	-1474
aşa	-1475
▁Der	-1476
gın	-1477
▁kitap	-1478
ışma	-1479
▁sil	-1480
▁ziyaret	-1481
▁kil	-1482
erj	-1483
com	-1484
▁tur	-1485
ali	-1486
medi	-1487
ünden	-1488
▁incel	-1489
▁ağır	-1490
▁İbn	-1491
▁13	-1492
▁hedef	-1493
cü	-1494
▁Ab	-1495
mişti	-1496
▁kaynak	-1497
▁kaldır	-1498
ari	-1499
▁çağ	-1500
▁tercih	-1501
▁kapsam	-1502
▁zar	-1503
▁dönüş	-1504
ola	-1505
elen	-1506
ime	-1507
ücad	-1508
▁Kal	-1509
▁kontrol	-1510
▁geliştir	-1511
aliyet	-1512
ternet	-1513
of	-1514
▁ilişk	-1515
▁İz	-1516
▁şeh	-1517
▁dir	-1518
▁14	-1519
▁mümkün	-1520
lardır	-1521
▁boş	-1522
▁kir	-1523
▁bizim	-1524
üsü	-1525
▁yani	-1526
▁Böl	-1527
▁sosyal	-1528
erli	-1529
ala	-1530
▁orta	-1531
▁renk	-1532
▁açıklama	-1533
▁Ankara	-1534
med	-1535
▁Eğitim	-1536
▁mah	-1537
▁yapmak	-1538
lek	-1539
▁kurum	-1540
▁Yeni	-1541
▁16	-1542
▁değildir	-1543
▁Haz	-1544
▁Han	-1545
▁bildir	-1546
▁çevr	-1547
▁başv	-1548
▁model	-1549
dana	-1550
▁İç	-1551
▁biç	-1552
▁oluyor	-1553
nda	-1554
▁Çünkü	-1555
▁yaşan	-1556
▁li	-1557
otoğraf	-1558
alt	-1559
▁ner	-1560
▁temiz	-1561
▁İngil	-1562
düğ	-1563
▁gereken	-1564
▁boz	-1565
/1	-1566
▁oldukça	-1567
be	-1568
▁ekonom	-1569
▁beraber	-1570
▁Daha	-1571
▁siyas	-1572
imde	-1573
▁Yıl	-1574
tor	-1575
rat	-1576
▁erkek	-1577
uğ	-1578
ecektir	-1579
▁Dr	-1580
▁müz	-1581
hangi	-1582
▁2018	-1583
uslar	-1584
▁şirket	-1585
leriyle	-1586
▁değiştir	-1587
▁Ayrıca	-1588
meden	-1589
▁Kay	-1590
▁sey	-1591
▁değişik	-1592
afa	-1593
▁per	-1594
▁hiss	-1595
▁ders	-1596
▁dak	-1597
iyesi	-1598
anlar	-1599
▁veren	-1600
▁Tem	-1601
▁ABD	-1602
▁karşılaş	-1603
esinden	-1604
▁çar	-1605
ektr	-1606
▁kesin	-1607
▁aşağı	-1608
▁hafta	-1609
▁temel	-1610
▁yeniden	-1611
▁bugün	-1612
▁Devlet	-1613
▁adı	-1614
maları	-1615
▁Yan	-1616
▁ayrı	-1617
▁eğ	-1618
▁1.	-1619
ilerini	-1620
▁sektör	-1621
masının	-1622
pan	-1623
su	-1624
▁Muh	-1625
▁geniş	-1626
bi	-1627
ebilirsiniz	-1628
ğe	-1629
unuyor	-1630
▁kut	-1631
50	-1632
▁adet	-1633
eği	-1634
gam	-1635
ğine	-1636
ast	-1637
▁itibar	-1638
▁burada	-1639
▁olmayan	-1640
▁oğ	-1641
oloji	-1642
▁beni	-1643
▁30	-1644
elere	-1645
▁düny	-1646
▁17	-1647
elerini	-1648
▁ilet	-1649
▁ul	-1650
▁Mar	-1651
▁Çin	-1652
lüm	-1653
▁vatan	-1654
▁aras	-1655
alar	-1656
etmen	-1657
▁Oy	-1658
ve	-1659
eyin	-1660
umlu	-1661
▁for	-1662
▁engel	-1663
▁(1	-1664
cağı	-1665
▁Ok	-1666
lüğü	-1667
▁Üniversitesi	-1668
▁olsa	-1669
ısında	-1670
▁soru	-1671
▁konusu	-1672
▁elde	-1673
isyon	-1674
ydı	-1675
ört	-1676
▁mücad	-1677
▁istem	-1678
izm	-1679
▁sav	-1680
▁üzerinden	-1681
ilerine	-1682
▁TL	-1683
ınca	-1684
manız	-1685
▁yorum	-1686
▁okul	-1687
par	-1688
▁gerekir	-1689
ank	-1690
eyh	-1691
▁karış	-1692
ıyordu	-1693
▁özellikle	-1694
yanın	-1695
acı	-1696
▁Har	-1697
▁takım	-1698
▁rağ	-1699
iyeti	-1700
alama	-1701
ag	-1702
ünüyor	-1703
eyim	-1704
lında	-1705
ale	-1706
▁faaliyet	-1707
▁halk	-1708
▁gez	-1709
▁Öğr	-1710
kaç	-1711
fer	-1712
aten	-1713
▁kah	-1714
▁maç	-1715
▁özellik	-1716
▁sok	-1717
alım	-1718
▁tük	-1719
▁seçim	-1720
▁mik	-1721
▁etkin	-1722
▁yapı	-1723
fes	-1724
▁sanat	-1725
▁Tur	-1726
▁dol	-1727
▁takip	-1728
dak	-1729
▁ilç	-1730
000	-1731
▁oran	-1732
meyi	-1733
▁yalnız	-1734
▁Ey	-1735
imizin	-1736
iydi	-1737
ET	-1738
▁çalışan	-1739
▁dair	-1740
efer	-1741
▁almak	-1742
▁yüksel	-1743
ılıyor	-1744
▁edildi	-1745
▁İlk	-1746
luğ	-1747
▁Kad	-1748
bak	-1749
pr	-1750
▁saldır	-1751
▁Gör	-1752
▁millet	-1753
▁mar	-1754
▁fay	-1755
ıyoruz	-1756
▁yöntem	-1757
▁Meh	-1758
rans	-1759
....	-1760
▁Bun	-1761
▁öde	-1762
▁rağmen	-1763
▁saç	-1764
larınız	-1765
▁Bay	-1766
landı	-1767
şı	-1768
▁kültür	-1769
▁tedav	-1770
▁sağla	-1771
▁herhangi	-1772
ümü	-1773
elerde	-1774
ücü	-1775
inci	-1776
endi	-1777
▁.	-1778
▁bay	-1779
muz	-1780
eygam	-1781
ba	-1782
rim	-1783
▁suç	-1784
alet	-1785
▁çiz	-1786
▁Ali	-1787
▁Eğer	-1788
▁alış	-1789
▁madde	-1790
▁Kom	-1791
▁bor	-1792
las	-1793
▁çıkan	-1794
▁Uz	-1795
▁şekl	-1796
şam	-1797
inc	-1798
▁dayan	-1799
▁ac	-1800
▁2.	-1801
▁teh	-1802
Bu	-1803
ekkür	-1804
▁giriş	-1805
▁şöyle	-1806
▁ikinci	-1807
ilmiştir	-1808
▁ister	-1809
▁av	-1810
kil	-1811
▁ey	-1812
▁gider	-1813
▁kardeş	-1814
▁Uy	-1815
▁davran	-1816
▁dışında	-1817
?”	-1818
▁yemek	-1819
▁kısm	-1820
eygamber	-1821
▁yanında	-1822
▁asker	-1823
emi	-1824
▁dolayı	-1825
lış	-1826
▁ölç	-1827
▁Ko	-1828
lis	-1829
▁hey	-1830
▁Dünya	-1831
ift	-1832
▁cin	-1833
dül	-1834
tiv	-1835
▁Kas	-1836
izi	-1837
uvar	-1838
▁derece	-1839
▁unut	-1840
▁...	-1841
▁yapar	-1842
esiyle	-1843
▁Fakat	-1844
▁rek	-1845
▁öldür	-1846
sat	-1847
eceğini	-1848
▁nedeniyle	-1849
▁köy	-1850
▁serv	-1851
▁Rus	-1852
lül	-1853
▁bakım	-1854
oma	-1855
▁yarar	-1856
ısından	-1857
▁yönelik	-1858
eci	-1859
▁öyle	-1860
▁vak	-1861
▁Mal	-1862
uştur	-1863
▁gerekli	-1864
▁sınıf	-1865
▁Mes	-1866
▁sizin	-1867
▁örg	-1868
▁şehir	-1869
▁24	-1870
▁aldı	-1871
▁oku	-1872
▁boyunca	-1873
ınav	-1874
anıyor	-1875
▁bize	-1876
cut	-1877
doğan	-1878
▁fotoğraf	-1879
▁hâ	-1880
▁adım	-1881
tiğini	-1882
▁tep	-1883
30	-1884
EN	-1885
yo	-1886
enek	-1887
▁amacı	-1888
dıkları	-1889
▁hatır	-1890
▁uğr	-1891
ukuk	-1892
▁ihtiyaç	-1893
▁demek	-1894
▁uygulan	-1895
AL	-1896
taj	-1897
laştır	-1898
▁şimdi	-1899
▁grup	-1900
▁Kul	-1901
▁yönetim	-1902
ılma	-1903
enc	-1904
▁gec	-1905
dam	-1906
meyen	-1907
azi	-1908
▁iler	-1909
▁med	-1910
ırken	-1911
▁iy	-1912
mesini	-1913
▁ortak	-1914
ultan	-1915
ha	-1916
▁Gel	-1917
▁anda	-1918
luluk	-1919
▁Belediye	-1920
▁sürdür	-1921
▁türlü	-1922
▁Sağ	-1923
▁Osmanlı	-1924
▁Hat	-1925
makta	-1926
▁ilişkin	-1927
taş	-1928
▁ruh	-1929
▁öner	-1930
inize	-1931
▁iddi	-1932
▁Tan	-1933
▁des	-1934
▁num	-1935
▁giy	-1936
▁ban	-1937
uslararası	-1938
▁durumda	-1939
ıyla	-1940
emin	-1941
▁ortam	-1942
anlı	-1943
▁kas	-1944
dığımız	-1945
▁vatandaş	-1946
gun	-1947
▁İnsan	-1948
▁Amer	-1949
▁çeşitli	-1950
ere	-1951
imize	-1952
▁AK	-1953
▁spor	-1954
▁yık	-1955
▁Mer	-1956
▁bab	-1957
▁çözüm	-1958
▁fik	-1959
▁ederek	-1960
▁sebep	-1961
▁cevap	-1962
▁şart	-1963
▁amaç	-1964
▁gerçekleş	-1965
▁hızlı	-1966
▁Ot	-1967
abancı	-1968
▁gece	-1969
▁çünkü	-1970
lanmış	-1971
▁nokta	-1972
masında	-1973
▁25	-1974
▁hesap	-1975
▁hava	-1976
amp	-1977
▁Alman	-1978
meli	-1979
▁doğr	-1980
▁ah	-1981
▁men	-1982
ırı	-1983
▁mez	-1984
▁isteyen	-1985
cağını	-1986
▁halinde	-1987
▁ora	-1988
HP	-1989
icaret	-1990
ow	-1991
▁cih	-1992
▁dal	-1993
▁ettiği	-1994
ina	-1995
▁sahibi	-1996
ira	-1997
▁yazı	-1998
▁inş	-1999
âh	-2000
üslüm	-2001
▁Kap	-2002
▁yatırım	-2003
▁edecek	-2004
▁özg	-2005
rik	-2006
▁kendini	-2007
▁kuş	-2008
▁edin	-2009
iştir	-2010
imizi	-2011
apor	-2012
▁dar	-2013
ült	-2014
▁Em	-2015
▁organ	-2016
isk	-2017
uç	-2018
ilerinin	-2019
▁istiyor	-2020
▁yardımcı	-2021
sak	-2022
âm	-2023
▁Çok	-2024
▁bilim	-2025
▁Ad	-2026
adolu	-2027
ile	-2028
▁toplantı	-2029
▁birkaç	-2030
▁Böyle	-2031
▁internet	-2032
▁zorunda	-2033
▁sayesinde	-2034
ga	-2035
laması	-2036
br	-2037
elerinin	-2038
▁enerj	-2039
olojik	-2040
▁ayak	-2041
cısı	-2042
▁kötü	-2043
isay	-2044
iri	-2045
▁zarar	-2046
▁satış	-2047
▁üretim	-2048
▁yoğun	-2049
▁Ör	-2050
▁gi	-2051
▁giz	-2052
▁Doğ	-2053
▁edilm	-2054
▁belli	-2055
İN	-2056
fet	-2057
▁sıcak	-2058
▁mevcut	-2059
▁yerde	-2060
▁pat	-2061
▁sürekli	-2062
uan	-2063
▁yaptı	-2064
ii	-2065
▁gül	-2066
▁hoş	-2067
▁Dem	-2068
▁ana	-2069
ışık	-2070
lilik	-2071
▁Kr	-2072
etay	-2073
mayan	-2074
▁Res	-2075
yet	-2076
luğu	-2077
ite	-2078
▁Sur	-2079
▁le	-2080
▁of	-2081
larım	-2082
▁herkes	-2083
mem	-2084
▁çıktı	-2085
dığım	-2086
▁teşekkür	-2087
▁Erdoğan	-2088
▁ölüm	-2089
mesine	-2090
▁fakat	-2091
usal	-2092
lif	-2093
▁ıs	-2094
lüğ	-2095
lendi	-2096
▁Hav	-2097
ebek	-2098
▁firma	-2099
pit	-2100
▁kayıt	-2101
1.	-2102
▁örnek	-2103
▁belg	-2104
▁yere	-2105
▁verilen	-2106
▁düşünc	-2107
▁araştırma	-2108
emez	-2109
▁Ul	-2110
▁gazet	-2111
▁nit	-2112
düğü	-2113
▁lis	-2114
▁Tab	-2115
ısıyla	-2116
erson	-2117
uvvet	-2118
rah	-2119
eder	-2120
▁hale	-2121
▁ekip	-2122
▁doğal	-2123
▁vide	-2124
▁insanlar	-2125
onu	-2126
▁kalan	-2127
▁ann	-2128
lin	-2129
▁aday	-2130
▁beş	-2131
▁tarihi	-2132
lıkla	-2133
▁Ger	-2134
ülen	-2135
▁gelecek	-2136
▁ele	-2137
▁sonunda	-2138
▁Hak	-2139
▁tık	-2140
ate	-2141
▁polit	-2142
üğ	-2143
▁kuruluş	-2144
ıldığı	-2145
ES	-2146
EL	-2147
▁yüzden	-2148
▁sez	-2149
dığınız	-2150
▁yum	-2151
▁vermek	-2152
▁ip	-2153
ht	-2154
▁çoc	-2155
ukarı	-2156
▁Anadolu	-2157
▁Kor	-2158
▁Aç	-2159
ke	-2160
▁malz	-2161
▁dost	-2162
▁2017	-2163
-2	-2164
ğa	-2165
▁temsil	-2166
▁â	-2167
▁Yük	-2168
▁199	-2169
!”	-2170
ustafa	-2171
ula	-2172
▁Tr	-2173
diler	-2174
▁olacaktır	-2175
▁Paşa	-2176
AK	-2177
▁kapsamında	-2178
menin	-2179
etin	-2180
iliği	-2181
▁it	-2182
▁Do	-2183
eştir	-2184
▁Siz	-2185
üler	-2186
mey	-2187
tiler	-2188
▁vüc	-2189
▁canlı	-2190
AT	-2191
▁götür	-2192
▁kelim	-2193
▁kalk	-2194
▁teknik	-2195
dük	-2196
▁mis	-2197
tep	-2198
▁Şub	-2199
▁başarı	-2200
▁pazar	-2201
▁dört	-2202
malıdır	-2203
▁tart	-2204
▁elektr	-2205
▁adına	-2206
▁sin	-2207
▁kims	-2208
lerdir	-2209
▁İngiliz	-2210
▁Tekn	-2211
▁Mehmet	-2212
layarak	-2213
yar	-2214
▁don	-2215
▁tarihinde	-2216
▁halde	-2217
isayar	-2218
yas	-2219
ullah	-2220
lığını	-2221
▁diyor	-2222
▁kullanıcı	-2223
▁konuda	-2224
▁Söz	-2225
irler	-2226
üncü	-2227
▁cid	-2228
şehir	-2229
▁olmaz	-2230
▁İm	-2231
▁şah	-2232
▁sırasında	-2233
2.	-2234
elerine	-2235
▁hangi	-2236
▁kaf	-2237
miyor	-2238
teki	-2239
▁j	-2240
▁Tarih	-2241
▁mağ	-2242
▁yapılacak	-2243
▁parç	-2244
▁işaret	-2245
▁sol	-2246
talya	-2247
▁eser	-2248
▁toplam	-2249
mat	-2250
▁dakika	-2251
▁Kurulu	-2252
▁Merkezi	-2253
utbol	-2254
▁parça	-2255
▁geliyor	-2256
▁yoktur	-2257
dığında	-2258
▁söylem	-2259
vek	-2260
▁meydana	-2261
▁yaklaşık	-2262
▁nedenle	-2263
ğın	-2264
▁Sen	-2265
imleri	-2266
liyor	-2267
▁vaz	-2268
▁arasındaki	-2269
▁Geç	-2270
▁Say	-2271
lanması	-2272
üle	-2273
▁Peygamber	-2274
▁anlay	-2275
▁geçmiş	-2276
▁Mustafa	-2277
▁İşte	-2278
▁işlet	-2279
▁bulunduğu	-2280
▁açısından	-2281
▁nokt	-2282
▁kapı	-2283
▁talep	-2284
▁um	-2285
▁yaptığ	-2286
▁rak	-2287
▁şeklinde	-2288
unan	-2289
▁Man	-2290
ağa	-2291
▁dahil	-2292
▁Belediyesi	-2293
/2	-2294
abilecek	-2295
▁Sultan	-2296
▁Su	-2297
▁olabil	-2298
▁ateş	-2299
rin	-2300
ğiz	-2301
▁Bar	-2302
▁toprak	-2303
can	-2304
▁am	-2305
▁Cumhurbaş	-2306
▁güçlü	-2307
▁kendisine	-2308
▁baz	-2309
iran	-2310
fak	-2311
▁hik	-2312
▁Ch	-2313
ser	-2314
▁başına	-2315
▁Kend	-2316
bo	-2317
▁100	-2318
esel	-2319
▁yürüt	-2320
▁Kı	-2321
sen	-2322
air	-2323
▁etkil	-2324
ilerek	-2325
▁Ol	-2326
▁kişinin	-2327
ator	-2328
ohbet	-2329
evi	-2330
▁Ter	-2331
IN	-2332
▁cam	-2333
▁Sel	-2334
▁tanım	-2335
ısını	-2336
▁Çocuk	-2337
mekte	-2338
▁Sonra	-2339
▁tespit	-2340
▁düşünüyor	-2341
▁akıl	-2342
▁st	-2343
▁hatta	-2344
yıl	-2345
▁dağ	-2346
lerce	-2347
kem	-2348
▁Sev	-2349
▁sonucu	-2350
▁yurt	-2351
▁hayvan	-2352
ind	-2353
▁onların	-2354
▁şeyi	-2355
▁tamamen	-2356
adde	-2357
▁detay	-2358
▁bilgiler	-2359
▁beklen	-2360
▁kaybet	-2361
madı	-2362
▁ark	-2363
meleri	-2364
▁yanlış	-2365
▁net	-2366
▁kapat	-2367
▁silah	-2368
▁bes	-2369
▁izin	-2370
engin	-2371
▁3.	-2372
ormal	-2373
▁olmalı	-2374
eceğiniz	-2375
▁kurt	-2376
▁onları	-2377
▁içine	-2378
emen	-2379
▁deniz	-2380
▁buna	-2381
işi	-2382
▁Müslüm	-2383
teri	-2384
10	-2385
ener	-2386
imin	-2387
▁tasarım	-2388
emal	-2389
liğini	-2390
▁veril	-2391
▁iletişim	-2392
▁yaptık	-2393
ıza	-2394
▁Deniz	-2395
▁uzman	-2396
.)	-2397
▁İzmir	-2398
osu	-2399
▁geçti	-2400
▁nak	-2401
asyonu	-2402
▁müşter	-2403
▁Tüm	-2404
lamaya	-2405
▁gerçekten	-2406
▁Kat	-2407
▁verdiği	-2408
ucu	-2409
▁haline	-2410
obil	-2411
▁Kasım	-2412
▁May	-2413
▁ileri	-2414
ia	-2415
▁başarılı	-2416
▁onlar	-2417
arkı	-2418
cılık	-2419
▁insanların	-2420
▁başkan	-2421
▁mesaj	-2422
▁sur	-2423
▁Parti	-2424
lanır	-2425
▁konuştu	-2426
▁etmiş	-2427
▁şeyler	-2428
▁gar	-2429
▁ham	-2430
otor	-2431
inç	-2432
lıklı	-2433
▁Millet	-2434
▁50	-2435
dıktan	-2436
ku	-2437
▁örgüt	-2438
elerinde	-2439
atif	-2440
elikle	-2441
▁sınav	-2442
▁verir	-2443
▁Mec	-2444
AS	-2445
▁İslam	-2446
▁Haber	-2447
▁zaten	-2448
isel	-2449
▁X	-2450
▁hasta	-2451
lığın	-2452
▁arada	-2453
ij	-2454
▁bayan	-2455
▁Ver	-2456
▁sayf	-2457
bah	-2458
emizde	-2459
ildiği	-2460
▁teslim	-2461
2,	-2462
▁tüket	-2463
▁sebeb	-2464
lulu	-2465
▁sizi	-2466
all	-2467
▁acı	-2468
ısına	-2469
ediye	-2470
imler	-2471
▁kamu	-2472
▁üniversit	-2473
▁23	-2474
▁ab	-2475
▁belki	-2476
▁Şimdi	-2477
oya	-2478
eşil	-2479
▁sistemi	-2480
ene	-2481
▁kullanılan	-2482
ati	-2483
▁key	-2484
▁21	-2485
▁Kit	-2486
ünüz	-2487
amı	-2488
▁sayılı	-2489
gar	-2490
▁Milli	-2491
▁Temmuz	-2492
▁Alt	-2493
▁Sa	-2494
▁Aş	-2495
▁kullanım	-2496
gisi	-2497
▁ordu	-2498
▁Sal	-2499
▁rapor	-2500
▁yabancı	-2501
zım	-2502
▁itibaren	-2503
▁aslında	-2504
lığa	-2505
▁cihaz	-2506
yum	-2507
▁Yaş	-2508
▁terör	-2509
▁akşam	-2510
▁dö	-2511
üyle	-2512
acağı	-2513
uzey	-2514
▁mutlak	-2515
▁list	-2516
▁çarp	-2517
▁adlı	-2518
▁aldığı	-2519
▁Ür	-2520
▁hukuk	-2521
altı	-2522
muştur	-2523
▁çift	-2524
manı	-2525
▁Af	-2526
taki	-2527
▁edilir	-2528
▁yaptır	-2529
▁>	-2530
▁ef	-2531
▁aktar	-2532
İR	-2533
▁dos	-2534
siy	-2535
▁Genç	-2536
▁hastalık	-2537
▁gerekiyor	-2538
parator	-2539
▁öğretmen	-2540
▁oyuncu	-2541
ınızı	-2542
anış	-2543
sta	-2544
bilirsiniz	-2545
▁yana	-2546
▁varsa	-2547
İL	-2548
▁Tak	-2549
▁Eylül	-2550
iir	-2551
▁bula	-2552
▁sig	-2553
▁servis	-2554
AM	-2555
ektör	-2556
▁yazar	-2557
one	-2558
▁sefer	-2559
▁defa	-2560
▁Mart	-2561
▁derin	-2562
▁2016	-2563
mıyor	-2564
zer	-2565
▁tip	-2566
enler	-2567
▁çevir	-2568
▁bağım	-2569
▁altına	-2570
?"	-2571
▁nerede	-2572
▁önünde	-2573
▁ayrıca	-2574
▁karak	-2575
AD	-2576
fi	-2577
anlık	-2578
▁Ara	-2579
▁koşul	-2580
▁aracı	-2581
adan	-2582
▁Et	-2583
▁Spor	-2584
blem	-2585
▁Hun	-2586
▁ir	-2587
izyon	-2588
▁Aynı	-2589
▁beri	-2590
▁Kür	-2591
isan	-2592
▁oluşan	-2593
▁artır	-2594
▁durumu	-2595
▁kayb	-2596
▁Bah	-2597
▁Yani	-2598
▁kişiler	-2599
▁Kara	-2600
▁Yak	-2601
neğin	-2602
lanma	-2603
ayi	-2604
▁Kadın	-2605
▁idi	-2606
▁kok	-2607
▁oper	-2608
▁satın	-2609
line	-2610
▁merak	-2611
▁soy	-2612
ital	-2613
▁Sar	-2614
▁ta	-2615
▁_	-2616
▁sırada	-2617
▁başvur	-2618
▁ekonomik	-2619
▁du	-2620
▁düzenlenen	-2621
▁dünyanın	-2622
▁arz	-2623
▁28	-2624
ton	-2625
▁In	-2626
▁gru	-2627
▁ettik	-2628
uzur	-2629
▁açı	-2630
▁senin	-2631
▁buy	-2632
▁süreç	-2633
▁Ef	-2634
▁yıllık	-2635
masından	-2636
▁Yardım	-2637
▁çat	-2638
▁bağlantı	-2639
▁idar	-2640
▁yavaş	-2641
atürk	-2642
▁ic	-2643
▁hastan	-2644
ğinden	-2645
▁dep	-2646
lamaz	-2647
aket	-2648
memiş	-2649
yız	-2650
▁söyley	-2651
▁kullanıl	-2652
ılabilir	-2653
▁piyas	-2654
1,	-2655
EM	-2656
▁olun	-2657
imli	-2658
enüz	-2659
▁tec	-2660
▁Bul	-2661
▁fel	-2662
▁bi	-2663
▁Sam	-2664
▁re	-2665
▁amacıyla	-2666
▁Çalış	-2667
geç	-2668
rek	-2669
▁ayır	-2670
▁bahs	-2671
▁22	-2672
say	-2673
▁şaş	-2674
▁str	-2675
▁istiyorum	-2676
▁web	-2677
▁27	-2678
▁ciddi	-2679
▁güvenlik	-2680
iddet	-2681
▁tehlik	-2682
▁emek	-2683
,”	-2684
▁yaşayan	-2685
5,	-2686
▁bulunuyor	-2687
▁kuvvet	-2688
amız	-2689
izik	-2690
▁Yönet	-2691
ıma	-2692
ras	-2693
▁bizi	-2694
tül	-2695
▁katılım	-2696
▁zengin	-2697
▁person	-2698
▁part	-2699
▁Bakanlığı	-2700
▁tarz	-2701
▁başında	-2702
▁Fran	-2703
▁düzey	-2704
▁26	-2705
3,	-2706
▁otel	-2707
▁sorum	-2708
neği	-2709
▁memnun	-2710
▁Can	-2711
ersiz	-2712
▁Ahmet	-2713
rafik	-2714
▁yolu	-2715
▁alır	-2716
▁polis	-2717
▁ilan	-2718
AY	-2719
▁benzer	-2720
▁dolu	-2721
inal	-2722
▁orada	-2723
▁içeri	-2724
lenmesi	-2725
çev	-2726
▁yandan	-2727
▁40	-2728
▁Müdürlüğü	-2729
▁özgür	-2730
▁eksik	-2731
▁miktar	-2732
▁Mak	-2733
▁Bas	-2734
▁nes	-2735
▁Yaz	-2736
▁Yüksek	-2737
▁boyut	-2738
ılmaz	-2739
▁mutlu	-2740
EK	-2741
.0	-2742
ledik	-2743
▁sabah	-2744
ete	-2745
aları	-2746
▁katkı	-2747
▁Cumhuriyet	-2748
▁bulunmaktadır	-2749
ımda	-2750
▁malzem	-2751
▁alma	-2752
▁sezon	-2753
uc	-2754
▁isten	-2755
ınıza	-2756
eyle	-2757
▁rol	-2758
▁Ekim	-2759
mızı	-2760
▁cez	-2761
▁olmadığını	-2762
bur	-2763
▁hayal	-2764
▁araya	-2765
▁Haziran	-2766
ediler	-2767
dası	-2768
üme	-2769
▁ekran	-2770
▁dek	-2771
▁savun	-2772
▁Halk	-2773
▁izle	-2774
▁fil	-2775
▁beyaz	-2776
düm	-2777
▁onlara	-2778
▁Mayıs	-2779
▁beğ	-2780
▁Hz	-2781
uar	-2782
▁devr	-2783
ımıza	-2784
eng	-2785
▁teklif	-2786
▁sohbet	-2787
▁kent	-2788
▁Kır	-2789
▁önceki	-2790
▁Kam	-2791
▁yapıyor	-2792
▁işi	-2793
▁çal	-2794
mamız	-2795
▁video	-2796
asından	-2797
▁çocuğ	-2798
lenmiş	-2799
▁Kim	-2800
▁yılı	-2801
▁sıkıntı	-2802
etler	-2803
egor	-2804
ons	-2805
▁problem	-2806
ova	-2807
▁çer	-2808
4,	-2809
▁doktor	-2810
eyece	-2811
▁sonuc	-2812
▁kimse	-2813
▁dönemde	-2814
▁seviy	-2815
▁günde	-2816
eyhis	-2817
▁Kö	-2818
9,	-2819
go	-2820
▁Diğer	-2821
▁Güven	-2822
▁yeterli	-2823
veriş	-2824
▁Sosyal	-2825
▁tarif	-2826
vi	-2827
▁günlük	-2828
▁soğ	-2829
İK	-2830
▁Fak	-2831
▁Atatürk	-2832
▁uyar	-2833
elerden	-2834
cort	-2835
▁kendine	-2836
▁Tel	-2837
▁ülke	-2838
acaktır	-2839
▁düşman	-2840
▁eğer	-2841
▁yukarı	-2842
onik	-2843
▁Prof	-2844
ex	-2845
lüyor	-2846
har	-2847
▁Özellikle	-2848
asa	-2849
hat	-2850
▁sana	-2851
Ben	-2852
▁başlayan	-2853
▁bulundu	-2854
▁II	-2855
▁bilgisayar	-2856
▁uc	-2857
deniz	-2858
▁güc	-2859
ağıt	-2860
▁gay	-2861
▁bat	-2862
▁Yönetim	-2863
▁eğlen	-2864
dern	-2865
▁alınan	-2866
▁makin	-2867
▁gitti	-2868
ult	-2869
▁Pol	-2870
▁olmadığı	-2871
▁insanın	-2872
leşme	-2873
▁Bugün	-2874
▁ilaç	-2875
şem	-2876
▁Ül	-2877
▁başvuru	-2878
inizin	-2879
▁arama	-2880
eyhissel	-2881
▁cil	-2882
▁mücadel	-2883
▁yapma	-2884
▁karşısında	-2885
▁hisset	-2886
üph	-2887
8,	-2888
▁fak	-2889
▁güncel	-2890
▁sayısı	-2891
kar	-2892
▁kendisini	-2893
▁kop	-2894
▁huzur	-2895
▁De	-2896
adaki	-2897
▁bundan	-2898
▁Burada	-2899
duğunu	-2900
amet	-2901
▁mük	-2902
▁dök	-2903
▁sap	-2904
▁tas	-2905
▁basın	-2906
▁Rusya	-2907
içek	-2908
UR	-2909
lisi	-2910
esiz	-2911
▁Müslüman	-2912
Türk	-2913
lığına	-2914
▁müzik	-2915
▁29	-2916
forman	-2917
ratik	-2918
ladığı	-2919
▁alıyor	-2920
7,	-2921
▁mekan	-2922
▁esas	-2923
▁Savaş	-2924
▁doldur	-2925
▁mec	-2926
▁sonrası	-2927
ebilecek	-2928
bay	-2929
▁bunlar	-2930
▁stan	-2931
▁Yer	-2932
mayacak	-2933
▁kurtar	-2934
▁ediyorum	-2935
dikleri	-2936
▁yansı	-2937
mu	-2938
ise	-2939
3.	-2940
eyn	-2941
▁başlan	-2942
▁öğ	-2943
▁CHP	-2944
▁Proj	-2945
▁olursa	-2946
lerdi	-2947
ğinin	-2948
gen	-2949
gesi	-2950
5.	-2951
tıyor	-2952
oman	-2953
▁Kemal	-2954
larınızı	-2955
6,	-2956
▁düşük	-2957
▁durumunda	-2958
▁Kültür	-2959
▁teknoloj	-2960
▁sürec	-2961
sızlık	-2962
▁min	-2963
ıştır	-2964
▁konuşma	-2965
iyan	-2966
hend	-2967
▁fırsat	-2968
urdu	-2969
▁gerektiğini	-2970
▁başlat	-2971
▁futbol	-2972
▁güneş	-2973
pek	-2974
rol	-2975
▁Ağ	-2976
▁Kız	-2977
yım	-2978
eksiyon	-2979
▁meş	-2980
ilecek	-2981
▁olmuştur	-2982
.,	-2983
▁hizmeti	-2984
▁duygu	-2985
▁Val	-2986
▁Bağ	-2987
▁kendisi	-2988
”,	-2989
▁Nisan	-2990
▁marka	-2991
▁tesis	-2992
▁yeri	-2993
▁hafif	-2994
▁ka	-2995
▁sel	-2996
▁birey	-2997
utan	-2998
▁dile	-2999
lenir	-3000
▁Per	-3001
▁bal	-3002
ilendir	-3003
tığını	-3004
▁Sür	-3005
60	-3006
▁değişiklik	-3007
siye	-3008
elidir	-3009
▁Gök	-3010
40	-3011
▁zev	-3012
rac	-3013
▁dolar	-3014
istik	-3015
lenme	-3016
▁Hizmet	-3017
▁Gö	-3018
▁etkili	-3019
▁Gal	-3020
▁Başbak	-3021
ediy	-3022
mar	-3023
▁görüyor	-3024
larca	-3025
log	-3026
▁mutlaka	-3027
▁kart	-3028
▁gide	-3029
▁Gir	-3030
uyordu	-3031
usun	-3032
▁mücadele	-3033
asıyla	-3034
ören	-3035
▁puan	-3036
▁Bazı	-3037
dal	-3038
▁deneyim	-3039
▁çerçev	-3040
ısının	-3041
▁ceza	-3042
80	-3043
▁Göz	-3044
▁normal	-3045
ros	-3046
vekili	-3047
▁Bütün	-3048
▁kıy	-3049
matik	-3050
▁işte	-3051
▁görmek	-3052
▁biçimde	-3053
niyet	-3054
▁Bakanı	-3055
▁henüz	-3056
▁Aleyhissel	-3057
▁dam	-3058
▁bahis	-3059
▁Bunu	-3060
seniz	-3061
anan	-3062
▁Kaz	-3063
ısır	-3064
▁esn	-3065
▁sizlere	-3066
cil	-3067
▁buluş	-3068
▁keş	-3069
▁kurtul	-3070
maktan	-3071
tak	-3072
▁davranış	-3073
▁kaliteli	-3074
▁edilmesi	-3075
▁edilmiş	-3076
▁yerleş	-3077
▁eylem	-3078
▁Beş	-3079
▁Sor	-3080
nak	-3081
▁sene	-3082
mayın	-3083
resi	-3084
yse	-3085
tuk	-3086
▁Ocak	-3087
aliz	-3088
▁hüc	-3089
dek	-3090
▁Orta	-3091
▁**	-3092
abet	-3093
▁şiddet	-3094
▁ünlü	-3095
▁alıp	-3096
▁bitir	-3097
Bir	-3098
▁etkinlik	-3099
esindeki	-3100
▁dışarı	-3101
panya	-3102
▁mark	-3103
yonel	-3104
▁Ma	-3105
▁kural	-3106
ayla	-3107
ampiyon	-3108
▁Cumhurbaşkanı	-3109
▁2015	-3110
▁diş	-3111
dî	-3112
▁kavram	-3113
imizde	-3114
âz	-3115
iyim	-3116
▁edece	-3117
▁Suriye	-3118
▁ödül	-3119
▁cep	-3120
lediği	-3121
ON	-3122
liler	-3123
▁ib	-3124
▁koru	-3125
edeki	-3126
mür	-3127
ımızı	-3128
▁ez	-3129
▁kararı	-3130
ger	-3131
İT	-3132
▁heyec	-3133
▁deste	-3134
▁sem	-3135
▁Onun	-3136
▁mesel	-3137
▁önüne	-3138
cılar	-3139
best	-3140
▁medya	-3141
▁Müdürü	-3142
▁davet	-3143
▁adres	-3144
çiler	-3145
▁banka	-3146
▁ayar	-3147
▁del	-3148
ımızda	-3149
İM	-3150
▁ettir	-3151
ata	-3152
▁Demir	-3153
▁motor	-3154
▁sayıda	-3155
edeni	-3156
▁duvar	-3157
▁işe	-3158
▁yetk	-3159
ğust	-3160
4.	-3161
▁merkezi	-3162
fen	-3163
▁sayı	-3164
▁Sit	-3165
▁Gül	-3166
keri	-3167
umsuz	-3168
çak	-3169
▁eğit	-3170
ho	-3171
▁ışık	-3172
▁##	-3173
▁şans	-3174
fesyonel	-3175
▁sağlamak	-3176
▁tedavi	-3177
▁yor	-3178
urum	-3179
▁fayd	-3180
ılmıştır	-3181
sini	-3182
▁tabi	-3183
▁St	-3184
▁yarış	-3185
iliyor	-3186
lıklar	-3187
uman	-3188
gili	-3189
▁piş	-3190
▁aydın	-3191
etik	-3192
▁yüzyıl	-3193
▁oyna	-3194
her	-3195
**	-3196
laşma	-3197
▁hayır	-3198
▁emin	-3199
▁mahal	-3200
yen	-3201
▁sağlar	-3202
▁değerli	-3203
son	-3204
▁süt	-3205
▁siyasi	-3206
▁Sağlık	-3207
▁yalnızca	-3208
▁Yüz	-3209
,"	-3210
▁milyar	-3211
▁seçenek	-3212
nu	-3213
yüz	-3214
▁resmi	-3215
▁Program	-3216
rens	-3217
▁yapılması	-3218
▁olmas	-3219
ümüzde	-3220
▁Amerika	-3221
▁imz	-3222
▁Oyun	-3223
▁karakter	-3224
▁yapmış	-3225
▁alacak	-3226
acağız	-3227
layıp	-3228
ulması	-3229
▁bunların	-3230
ğustos	-3231
▁alarak	-3232
▁girişim	-3233
▁gal	-3234
meniz	-3235
▁Buna	-3236
▁beden	-3237
▁iddia	-3238
tey	-3239
allah	-3240
dılar	-3241
▁Lis	-3242
▁enerji	-3243
iyah	-3244
▁Mur	-3245
▁demok	-3246
▁not	-3247
▁öğrenciler	-3248
▁gem	-3249
▁yoksa	-3250
▁Böylece	-3251
▁poz	-3252
▁Türkçe	-3253
▁performan	-3254
▁ederim	-3255
tern	-3256
▁yem	-3257
sine	-3258
▁altın	-3259
liğe	-3260
▁ayında	-3261
▁saldırı	-3262
▁ücretsiz	-3263
dız	-3264
liğin	-3265
▁ikti	-3266
LAR	-3267
](	-3268
▁girdi	-3269
▁İran	-3270
larımızın	-3271
▁gösteren	-3272
▁alanında	-3273
▁yerleştir	-3274
▁eg	-3275
▁sağlıklı	-3276
▁şar	-3277
sim	-3278
uklu	-3279
.2	-3280
isinden	-3281
▁test	-3282
▁Almanya	-3283
▁bol	-3284
▁Bal	-3285
▁Büyükşehir	-3286
▁uluslararası	-3287
▁Benim	-3288
▁altı	-3289
▁reklam	-3290
arken	-3291
▁nüf	-3292
▁almış	-3293
▁namaz	-3294
oca	-3295
elerle	-3296
▁\	-3297
ekim	-3298
▁Ber	-3299
▁azal	-3300
▁yapacak	-3301
atör	-3302
▁ilgi	-3303
▁:)	-3304
▁etmeye	-3305
▁etraf	-3306
▁Fa	-3307
mı	-3308
▁Taş	-3309
▁(2	-3310
ayıf	-3311
iğ	-3312
▁Fat	-3313
▁tr	-3314
▁yola	-3315
▁şiir	-3316
▁ted	-3317
▁Müz	-3318
▁fikir	-3319
▁Açık	-3320
lıkları	-3321
▁edip	-3322
layın	-3323
dart	-3324
▁pan	-3325
▁Dön	-3326
▁fon	-3327
▁neler	-3328
▁aşk	-3329
▁Üst	-3330
▁oğlu	-3331
▁yaparak	-3332
▁çoğu	-3333
iyorlar	-3334
brıs	-3335
▁asla	-3336
▁sayfa	-3337
▁Doğu	-3338
▁Sistem	-3339
▁duyg	-3340
▁day	-3341
▁Dav	-3342
▁İki	-3343
▁takdir	-3344
▁Sah	-3345
ımızın	-3346
hendis	-3347
larımızı	-3348
gör	-3349
▁nedir	-3350
▁zih	-3351
▁eleştir	-3352
ima	-3353
▁konum	-3354
▁Dış	-3355
▁Tes	-3356
▁yerinde	-3357
▁müda	-3358
tere	-3359
▁vazgeç	-3360
▁olmaya	-3361
▁4.	-3362
▁kıl	-3363
uldu	-3364
▁personel	-3365
dat	-3366
▁Az	-3367
▁)	-3368
▁risk	-3369
▁imk	-3370
abilmek	-3371
▁Yine	-3372
mur	-3373
▁yada	-3374
▁Gazet	-3375
▁sonrasında	-3376
▁Hem	-3377
9.	-3378
▁seni	-3379
haba	-3380
▁Film	-3381
▁değildi	-3382
▁bebek	-3383
▁eşya	-3384
arlar	-3385
▁yaşında	-3386
▁onay	-3387
▁yoktu	-3388
rüb	-3389
▁ticaret	-3390
red	-3391
▁basit	-3392
ığ	-3393
ınızda	-3394
▁2014	-3395
▁yetiş	-3396
▁Ap	-3397
▁aray	-3398
▁ces	-3399
▁hap	-3400
Al	-3401
▁Yal	-3402
ulmuş	-3403
aza	-3404
elt	-3405
öyl	-3406
▁kredi	-3407
ban	-3408
▁mobil	-3409
▁Şu	-3410
▁Gerçek	-3411
▁lazım	-3412
▁birisi	-3413
ediği	-3414
▁Sab	-3415
sizlik	-3416
▁nef	-3417
liğinde	-3418
▁Mev	-3419
▁lider	-3420
elerinden	-3421
▁sert	-3422
sem	-3423
▁çab	-3424
▁yaşama	-3425
▁öne	-3426
▁yazılı	-3427
▁Fakült	-3428
kır	-3429
▁Muham	-3430
erken	-3431
ipar	-3432
▁yönetic	-3433
▁kür	-3434
▁Br	-3435
alığı	-3436
▁giden	-3437
7.	-3438
malar	-3439
▁İyi	-3440
▁Birliği	-3441
OR	-3442
6.	-3443
▁trans	-3444
▁Part	-3445
▁elektrik	-3446
rail	-3447
▁Bor	-3448
▁Aralık	-3449
ündeki	-3450
▁İmparator	-3451
▁zam	-3452
▁söylüyor	-3453
▁görüntü	-3454
▁bunları	-3455
▁Kullan	-3456
▁Te	-3457
▁araştır	-3458
▁ağr	-3459
▁Tay	-3460
▁bakış	-3461
▁ide	-3462
adem	-3463
▁kaş	-3464
▁birden	-3465
▁sonraki	-3466
adiş	-3467
▁Araş	-3468
▁alanda	-3469
▁düşür	-3470
raman	-3471
▁çalışmaları	-3472
hi	-3473
▁operasyon	-3474
▁ha	-3475
▁gelmiş	-3476
▁def	-3477
▁31	-3478
▁başlar	-3479
▁tartış	-3480
AŞ	-3481
▁Arap	-3482
▁dışı	-3483
kenin	-3484
▁psik	-3485
▁Fir	-3486
ılabil	-3487
▁Kurul	-3488
▁dünyada	-3489
▁aile	-3490
biyat	-3491
▁Ağustos	-3492
to	-3493
▁uyan	-3494
▁Hastan	-3495
muyor	-3496
▁kaldı	-3497
evizyon	-3498
rika	-3499
bette	-3500
▁başta	-3501
▁Aydın	-3502
emmel	-3503
▁Cam	-3504
▁Antalya	-3505
hak	-3506
ST	-3507
rum	-3508
▁olduğuna	-3509
day	-3510
▁kanal	-3511
▁borç	-3512
nam	-3513
▁artış	-3514
▁Eski	-3515
▁köş	-3516
▁yaşanan	-3517
▁sitesi	-3518
lâm	-3519
▁Hiç	-3520
▁sağlan	-3521
▁us	-3522
ze	-3523
▁gören	-3524
▁gerekmektedir	-3525
▁Kıbrıs	-3526
▁içi	-3527
▁alanı	-3528
▁madd	-3529
▁kesinlikle	-3530
70	-3531
▁şüph	-3532
▁bilir	-3533
▁sağlayan	-3534
▁belirten	-3535
▁Çev	-3536
8.	-3537
dıklarını	-3538
lamış	-3539
▁kilo	-3540
aka	-3541
▁Tanrı	-3542
▁Batı	-3543
atej	-3544
▁Bursa	-3545
▁sokak	-3546
▁İk	-3547
▁arası	-3548
üper	-3549
▁yıldız	-3550
▁yapılır	-3551
▁yolc	-3552
▁Go	-3553
ılıç	-3554
▁po	-3555
▁yanıt	-3556
▁bazen	-3557
▁Ham	-3558
▁dedim	-3559
▁diyerek	-3560
▁şarkı	-3561
▁pas	-3562
inans	-3563
▁ihtiyac	-3564
ivil	-3565
▁Ban	-3566
▁uğ	-3567
▁numar	-3568
tay	-3569
şık	-3570
omobil	-3571
LER	-3572
acağını	-3573
▁şik	-3574
▁taz	-3575
▁döneminde	-3576
orm	-3577
maktay	-3578
ılış	-3579
▁yararlan	-3580
dikten	-3581
▁vurgu	-3582
▁Sanat	-3583
▁dolaş	-3584
isiyle	-3585
ulur	-3586
▁Yunan	-3587
gal	-3588
rem	-3589
era	-3590
▁uğraş	-3591
▁Mo	-3592
▁ölçü	-3593
▁bilgileri	-3594
▁kitab	-3595
▁Am	-3596
▁kullanarak	-3597
▁aylık	-3598
▁gol	-3599
▁hus	-3600
▁yayım	-3601
ED	-3602
larındaki	-3603
sef	-3604
▁temsilc	-3605
sas	-3606
▁zorun	-3607
▁öğret	-3608
▁Re	-3609
▁oyunu	-3610
▁Sat	-3611
▁düğ	-3612
▁tavsiye	-3613
▁hala	-3614
dit	-3615
▁Eş	-3616
▁etme	-3617
▁istediğiniz	-3618
işleri	-3619
▁yıldır	-3620
▁politik	-3621
▁tahmin	-3622
▁kategor	-3623
▁zevk	-3624
tarı	-3625
▁öy	-3626
ham	-3627
▁anne	-3628
artesi	-3629
ımın	-3630
12	-3631
erler	-3632
▁Sadece	-3633
▁hikay	-3634
usunu	-3635
▁ap	-3636
süz	-3637
▁demiş	-3638
ütfen	-3639
▁peş	-3640
▁Yayın	-3641
▁Med	-3642
▁proje	-3643
▁ton	-3644
ğan	-3645
ard	-3646
▁dahi	-3647
imar	-3648
üstü	-3649
▁Önc	-3650
▁198	-3651
liğine	-3652
▁kayde	-3653
▁tecrüb	-3654
▁Yol	-3655
▁yanına	-3656
▁zayıf	-3657
latfor	-3658
ron	-3659
meni	-3660
▁?	-3661
▁olumsuz	-3662
LI	-3663
▁korun	-3664
▁taşın	-3665
▁form	-3666
sinin	-3667
▁ifad	-3668
mamış	-3669
▁belirtti	-3670
▁Kah	-3671
▁yürüy	-3672
▁Kıs	-3673
▁Sey	-3674
▁anlamda	-3675
▁Seç	-3676
▁\-	-3677
▁yiy	-3678
▁fizik	-3679
▁veriyor	-3680
-3	-3681
▁kanı	-3682
yacağ	-3683
▁Gazi	-3684
tis	-3685
▁Düz	-3686
▁edebil	-3687
▁Yet	-3688
▁etmektedir	-3689
▁Diy	-3690
▁cinsel	-3691
▁kem	-3692
iği	-3693
pa	-3694
▁olmasına	-3695
▁mektu	-3696
▁and	-3697
zet	-3698
▁verildi	-3699
▁izley	-3700
▁hayata	-3701
▁meslek	-3702
▁Değ	-3703
▁Bilg	-3704
▁kış	-3705
▁cen	-3706
yası	-3707
ýn	-3708
ire	-3709
▁uçak	-3710
AB	-3711
▁Abd	-3712
▁Şeh	-3713
▁yeter	-3714
An	-3715
▁birinci	-3716
▁taleb	-3717
lerim	-3718
eğin	-3719
▁Mahall	-3720
▁Peygamberimiz	-3721
▁Dair	-3722
▁baskı	-3723
▁yıllarda	-3724
ransız	-3725
omet	-3726
▁türk	-3727
book	-3728
▁lim	-3729
▁saygı	-3730
adişah	-3731
▁lez	-3732
▁öt	-3733
▁okuy	-3734
▁Şah	-3735
▁kazandır	-3736
bel	-3737
▁hazırlan	-3738
▁isimli	-3739
▁profesyonel	-3740
▁had	-3741
▁Şubat	-3742
▁Hakk	-3743
ılarak	-3744
▁gizli	-3745
▁gaz	-3746
▁ortadan	-3747
gulama	-3748
▁bed	-3749
▁kendilerine	-3750
▁arttır	-3751
▁verilm	-3752
▁Alan	-3753
▁tatlı	-3754
▁rah	-3755
▁doğum	-3756
▁Bek	-3757
▁ürünleri	-3758
▁rast	-3759
ogle	-3760
▁Muhammed	-3761
▁şer	-3762
▁eşit	-3763
▁asıl	-3764
▁sona	-3765
▁Güney	-3766
▁yetiştir	-3767
▁Küçük	-3768
▁Li	-3769
leriniz	-3770
ork	-3771
▁sonucunda	-3772
are	-3773
▁tez	-3774
▁sordu	-3775
▁boğ	-3776
▁eve	-3777
▁Aleyhisselâm	-3778
eyecek	-3779
lev	-3780
encer	-3781
▁Var	-3782
▁Uzun	-3783
▁beğen	-3784
▁gerektir	-3785
▁göç	-3786
▁öden	-3787
▁Derneği	-3788
gıç	-3789
▁üstün	-3790
ink	-3791
AP	-3792
▁modern	-3793
lerinizi	-3794
▁sahiptir	-3795
▁dokun	-3796
▁serbest	-3797
▁genellikle	-3798
▁öğrenci	-3799
▁müdahal	-3800
▁erken	-3801
▁çap	-3802
▁olduğundan	-3803
▁alışveriş	-3804
▁hayatını	-3805
lacak	-3806
▁ediyoruz	-3807
▁Samsun	-3808
▁keyif	-3809
üley	-3810
▁resim	-3811
▁yapmaya	-3812
▁60	-3813
▁vakit	-3814
▁Uluslararası	-3815
▁ince	-3816
▁Kürt	-3817
▁ters	-3818
▁gördüğ	-3819
▁gönül	-3820
2018	-3821
▁Vak	-3822
▁tutar	-3823
▁Fil	-3824
▁Ürün	-3825
▁Hep	-3826
fat	-3827
▁Üç	-3828
▁biliyor	-3829
str	-3830
▁Amerik	-3831
▁2013	-3832
kim	-3833
lit	-3834
▁tane	-3835
▁salon	-3836
▁döv	-3837
irk	-3838
ülü	-3839
▁Fakültesi	-3840
▁müdür	-3841
▁Örneğin	-3842
▁Hüs	-3843
rahim	-3844
▁kısmı	-3845
▁Ticaret	-3846
▁yaygın	-3847
diğini	-3848
▁Mut	-3849
▁İlçe	-3850
▁Artık	-3851
▁Yah	-3852
▁soğuk	-3853
no	-3854
90	-3855
▁İngiltere	-3856
tepe	-3857
▁askeri	-3858
abz	-3859
öğr	-3860
▁Ka	-3861
▁Sayın	-3862
ess	-3863
▁Düş	-3864
▁üçüncü	-3865
iyer	-3866
UL	-3867
▁bağır	-3868
tp	-3869
▁sanki	-3870
htm	-3871
ırlar	-3872
▁nedeni	-3873
îr	-3874
▁çiçek	-3875
liye	-3876
unları	-3877
▁kişisel	-3878
va	-3879
▁çıkış	-3880
▁Araştırma	-3881
mail	-3882
▁Haf	-3883
ane	-3884
▁And	-3885
urken	-3886
▁vb	-3887
▁sunuyor	-3888
aca	-3889
▁bec	-3890
estiv	-3891
▁ödeme	-3892
▁yapıldı	-3893
▁bilinen	-3894
▁haft	-3895
uf	-3896
▁Kol	-3897
▁doğrudan	-3898
▁adını	-3899
▁red	-3900
tılar	-3901
▁paket	-3902
spor	-3903
▁oldukları	-3904
▁üzerindeki	-3905
▁bö	-3906
▁günlerde	-3907
abiliyor	-3908
/3	-3909
▁Bunlar	-3910
ât	-3911
ümüş	-3912
▁söylen	-3913
▁çalışmalar	-3914
erseniz	-3915
DE	-3916
▁biçim	-3917
15	-3918
sur	-3919
▁the	-3920
▁karşılık	-3921
▁işbir	-3922
▁derec	-3923
▁+	-3924
▁yazılım	-3925
▁Güzel	-3926
▁tatil	-3927
▁kişilik	-3928
ısız	-3929
▁be	-3930
▁çay	-3931
▁karıştır	-3932
▁anlamına	-3933
▁ağaç	-3934
▁gelip	-3935
▁Köy	-3936
dip	-3937
▁vermiş	-3938
▁tuz	-3939
▁katıl	-3940
▁amel	-3941
▁ins	-3942
zi	-3943
▁mükemmel	-3944
ipariş	-3945
▁escort	-3946
▁saf	-3947
▁Başbakan	-3948
yer	-3949
omatik	-3950
▁Teknik	-3951
▁taşıma	-3952
▁Fransız	-3953
▁standart	-3954
25	-3955
▁baba	-3956
▁uygula	-3957
▁Ro	-3958
▁kalp	-3959
▁odak	-3960
co	-3961
ılıp	-3962
▁Lig	-3963
▁Dur	-3964
▁imza	-3965
▁hepsi	-3966
▁fer	-3967
▁aşağıdaki	-3968
lığıyla	-3969
lığının	-3970
▁programı	-3971
▁No	-3972
▁fayda	-3973
▁yasak	-3974
alim	-3975
▁bağımsız	-3976
▁Nur	-3977
▁sürede	-3978
▁sözleş	-3979
▁teb	-3980
▁cüm	-3981
▁Fransa	-3982
▁Bank	-3983
sını	-3984
başı	-3985
ond	-3986
▁istek	-3987
▁kırmızı	-3988
▁lira	-3989
▁işç	-3990
yap	-3991
▁sahn	-3992
cilik	-3993
▁nitelik	-3994
onya	-3995
▁ondan	-3996
cık	-3997
mut	-3998
▁balık	-3999
▁yeşil	-4000
▁anlayış	-4001
▁ism	-4002
int	-4003
▁tır	-4004
▁İngilizce	-4005
▁araba	-4006
arım	-4007
izasyon	-4008
▁dey	-4009
19	-4010
ersin	-4011
▁çoğ	-4012
▁kadro	-4013
▁politika	-4014
▁Tam	-4015
▁İbrahim	-4016
▁The	-4017
ıyorlar	-4018
▁aşırı	-4019
makla	-4020
ilebilir	-4021
üny	-4022
▁Bölüm	-4023
ura	-4024
edek	-4025
eceğiz	-4026
▁pop	-4027
▁neredeyse	-4028
...]	-4029
▁hükümet	-4030
diş	-4031
zu	-4032
dağ	-4033
▁rad	-4034
▁giren	-4035
▁müşteri	-4036
23	-4037
▁Hol	-4038
▁fiyatları	-4039
obüs	-4040
▁şaşır	-4041
▁5.	-4042
emizin	-4043
▁Yat	-4044
âb	-4045
▁yerini	-4046
▁Tarihi	-4047
▁uzat	-4048
bey	-4049
▁2012	-4050
▁akl	-4051
ikat	-4052
▁Den	-4053
▁hakkı	-4054
▁kapalı	-4055
▁üye	-4056
▁geçerli	-4057
▁ısı	-4058
▁Pazar	-4059
ai	-4060
iber	-4061
▁Hasan	-4062
▁bilm	-4063
▁1,	-4064
▁Bizim	-4065
▁kalma	-4066
oyu	-4067
ûl	-4068
▁barış	-4069
▁elem	-4070
▁Dil	-4071
▁Bat	-4072
▁evde	-4073
lardaki	-4074
▁özelliği	-4075
▁arac	-4076
▁rahatsız	-4077
▁yerel	-4078
masıyla	-4079
▁bahç	-4080
▁bulunma	-4081
▁toplumsal	-4082
▁birer	-4083
▁Yardımcısı	-4084
düz	-4085
▁dakik	-4086
▁toplu	-4087
▁müt	-4088
▁belirli	-4089
lemeye	-4090
▁Sır	-4091
▁tit	-4092
▁Meclis	-4093
\.	-4094
▁Rab	-4095
▁Mısır	-4096
ây	-4097
▁terk	-4098
//	-4099
▁Dok	-4100
▁danış	-4101
iki	-4102
▁içindeki	-4103
üya	-4104
▁Erk	-4105
▁dosya	-4106
▁giderek	-4107
▁getiren	-4108
ndan	-4109
▁açıklamada	-4110
İY	-4111
ou	-4112
uyorum	-4113
▁hesab	-4114
▁Serv	-4115
kiler	-4116
ğında	-4117
▁olumlu	-4118
▁arab	-4119
▁çocuklar	-4120
▁lisans	-4121
▁yapılmış	-4122
▁Evet	-4123
eytin	-4124
iyatro	-4125
▁Ülk	-4126
▁sorunu	-4127
▁katıldı	-4128
▁hük	-4129
▁İsrail	-4130
▁itir	-4131
▁gelenek	-4132
▁olanlar	-4133
▁Cen	-4134
▁ayrıntı	-4135
▁Sin	-4136
▁yatak	-4137
▁karşılı	-4138
▁Mas	-4139
▁olmadan	-4140
▁içerik	-4141
lerimizi	-4142
▁kahv	-4143
acağım	-4144
nden	-4145
-0	-4146
▁af	-4147
lıdır	-4148
▁teşkil	-4149
▁şif	-4150
▁gur	-4151
şey	-4152
layıcı	-4153
▁avan	-4154
▁kişilerin	-4155
▁Sak	-4156
▁civ	-4157
▁etmesi	-4158
▁olmasını	-4159
▁getirdi	-4160
▁şiş	-4161
▁Arka	-4162
▁inşa	-4163
sey	-4164
▁siyah	-4165
udi	-4166
ağın	-4167
▁mon	-4168
iktaş	-4169
▁düştü	-4170
likleri	-4171
▁ağz	-4172
▁birik	-4173
ekil	-4174
▁etkisi	-4175
▁Bin	-4176
ındır	-4177
dığına	-4178
racat	-4179
▁197	-4180
▁gök	-4181
45	-4182
KK	-4183
▁Mus	-4184
▁Ebu	-4185
▁yarı	-4186
▁büt	-4187
▁İslâm	-4188
▁gücü	-4189
▁Tat	-4190
▁Ya	-4191
▁yılda	-4192
▁Kurum	-4193
▁Tah	-4194
▁mesaf	-4195
▁çağır	-4196
ner	-4197
▁harika	-4198
ord	-4199
▁olacağ	-4200
adet	-4201
▁dolayısıyla	-4202
▁Bayram	-4203
▁İkinci	-4204
stik	-4205
▁tören	-4206
▁gelin	-4207
▁kuru	-4208
▁Un	-4209
▁kans	-4210
▁ülkenin	-4211
muştu	-4212
▁kaçır	-4213
▁yaşlı	-4214
hane	-4215
▁Kuzey	-4216
▁kendilerini	-4217
mız	-4218
▁yaşındaki	-4219
ese	-4220
▁İh	-4221
▁35	-4222
▁Gür	-4223
irken	-4224
▁şim	-4225
▁yüzünden	-4226
▁Okul	-4227
▁Cez	-4228
dev	-4229
://	-4230
illa	-4231
▁Peki	-4232
sında	-4233
▁hır	-4234
▁kâ	-4235
▁heyecan	-4236
▁yalan	-4237
▁önemlidir	-4238
▁bekl	-4239
lasyon	-4240
ÜR	-4241
lili	-4242
▁deney	-4243
osta	-4244
▁düzenlen	-4245
IR	-4246
▁eriş	-4247
bahçe	-4248
gr	-4249
bin	-4250
tuğ	-4251
▁Kir	-4252
▁Cev	-4253
▁Hatta	-4254
iya	-4255
▁çeken	-4256
ıb	-4257
▁olduğumuz	-4258
▁anlama	-4259
▁Irak	-4260
▁suyu	-4261
▁iken	-4262
▁açıkla	-4263
adi	-4264
üce	-4265
▁iktidar	-4266
▁herkesin	-4267
▁oranı	-4268
▁parti	-4269
▁şehit	-4270
▁süresi	-4271
▁hızla	-4272
▁belirtilen	-4273
▁[...]	-4274
▁Ömer	-4275
▁temin	-4276
âl	-4277
▁’	-4278
sına	-4279
▁otomobil	-4280
▁Üy	-4281
▁stratej	-4282
▁kaydet	-4283
▁belirterek	-4284
larımıza	-4285
üleyman	-4286
▁imkan	-4287
▁olanak	-4288
▁avantaj	-4289
▁göl	-4290
▁hac	-4291
▁demektir	-4292
▁kanun	-4293
▁Bit	-4294
uğu	-4295
imden	-4296
▁sp	-4297
arında	-4298
▁çoğun	-4299
ıf	-4300
▁şeyin	-4301
▁diren	-4302
▁ışı	-4303
iklet	-4304
▁park	-4305
▁üstüne	-4306
estor	-4307
▁öncesi	-4308
▁Fener	-4309
▁sa	-4310
▁kurulu	-4311
oto	-4312
▁Mahallesi	-4313
99	-4314
asit	-4315
▁detaylı	-4316
bal	-4317
afer	-4318
eth	-4319
ayım	-4320
▁gıda	-4321
▁iyice	-4322
ani	-4323
▁birinin	-4324
orta	-4325
▁önceden	-4326
dukları	-4327
▁akıllı	-4328
▁kus	-4329
▁ucuz	-4330
▁Kanun	-4331
▁Yok	-4332
▁Hayat	-4333
▁konut	-4334
▁Sek	-4335
▁taşıyan	-4336
cebook	-4337
elek	-4338
▁birini	-4339
▁bon	-4340
▁doğrult	-4341
lığında	-4342
▁Kab	-4343
▁suret	-4344
▁AKP	-4345
▁böylece	-4346
▁elb	-4347
▁dünyaya	-4348
▁suy	-4349
▁demir	-4350
ela	-4351
▁grub	-4352
▁kızı	-4353
▁koruma	-4354
▁verecek	-4355
▁becer	-4356
▁sağlayacak	-4357
▁aklı	-4358
▁sorumlu	-4359
▁yaralan	-4360
▁Bundan	-4361
▁Aslında	-4362
▁Başkanlığı	-4363
▁Fer	-4364
▁Madde	-4365
▁insanları	-4366
▁Çar	-4367
../	-4368
▁sim	-4369
afir	-4370
▁görür	-4371
▁yapım	-4372
memek	-4373
▁Murat	-4374
usuna	-4375
OS	-4376
▁Le	-4377
▁ortalama	-4378
▁istih	-4379
ilerden	-4380
▁fi	-4381
İS	-4382
icari	-4383
▁başlıyor	-4384
▁düzenlem	-4385
▁vücut	-4386
▁hizmetleri	-4387
▁Bab	-4388
inizde	-4389
ârî	-4390
](../	-4391
▁okuma	-4392
▁Zaman	-4393
▁Eb	-4394
▁buraya	-4395
▁Hava	-4396
▁yumuş	-4397
▁sivil	-4398
uzu	-4399
▁vit	-4400
güne	-4401
▁ihti	-4402
▁kere	-4403
▁öğretim	-4404
kal	-4405
mesinin	-4406
▁çıkıyor	-4407
▁Google	-4408
▁bür	-4409
▁ilgilen	-4410
▁Süleyman	-4411
▁sakin	-4412
▁New	-4413
▁Sh	-4414
ation	-4415
▁kadının	-4416
öğretim	-4417
▁mahk	-4418
ry	-4419
▁Şehir	-4420
▁ku	-4421
▁kavuş	-4422
▁500	-4423
fı	-4424
▁Kitap	-4425
kel	-4426
▁kalın	-4427
mekten	-4428
▁Nasıl	-4429
İn	-4430
▁edebilir	-4431
▁işin	-4432
▁kod	-4433
ilim	-4434
▁Ac	-4435
▁varlık	-4436
▁kök	-4437
▁Herk	-4438
▁bilinç	-4439
▁Milletvekili	-4440
▁Cem	-4441
▁düşünüyorum	-4442
lasik	-4443
atasar	-4444
▁Beşiktaş	-4445
▁milli	-4446
▁aşama	-4447
▁süs	-4448
▁ilçesinde	-4449
▁hissed	-4450
▁boya	-4451
▁zamanlarda	-4452
tiğimiz	-4453
18	-4454
▁Trabz	-4455
ınar	-4456
dırım	-4457
liyet	-4458
▁Ker	-4459
▁mül	-4460
▁inşaat	-4461
jans	-4462
▁platfor	-4463
▁reh	-4464
▁Güneş	-4465
▁birleş	-4466
▁sine	-4467
pt	-4468
liyat	-4469
amış	-4470
atasaray	-4471
cının	-4472
▁km	-4473
sp	-4474
▁Dolay	-4475
▁faiz	-4476
▁atan	-4477
▁Belki	-4478
eceğimiz	-4479
▁yedi	-4480
▁iyil	-4481
▁Mu	-4482
▁Yılmaz	-4483
▁TV	-4484
eter	-4485
▁özellikleri	-4486
▁istik	-4487
▁roman	-4488
▁elinde	-4489
▁bakımından	-4490
▁se	-4491
▁Rum	-4492
ksiyon	-4493
▁siyaset	-4494
▁yetkil	-4495
dun	-4496
▁parçası	-4497
▁durdur	-4498
▁felsef	-4499
müştür	-4500
IM	-4501
▁Ort	-4502
▁işlemi	-4503
ıldız	-4504
▁gür	-4505
▁Ana	-4506
▁ima	-4507
▁Mac	-4508
▁ihtiyacı	-4509
▁kulak	-4510
▁büny	-4511
diğim	-4512
▁Adam	-4513
▁istedik	-4514
▁güvenli	-4515
▁Ahmed	-4516
div	-4517
ecep	-4518
iyiz	-4519
ilmektedir	-4520
▁VE	-4521
▁Güvenlik	-4522
▁Pat	-4523
itik	-4524
▁prens	-4525
var	-4526
▁Din	-4527
.000	-4528
giler	-4529
ternatif	-4530
''	-4531
▁sağlam	-4532
▁Mek	-4533
▁Fatih	-4534
▁tıp	-4535
▁içeren	-4536
▁çalışıyor	-4537
▁Sav	-4538
▁enf	-4539
emesi	-4540
ebe	-4541
▁ı	-4542
yip	-4543
17	-4544
▁cm	-4545
▁seyahat	-4546
▁çaba	-4547
mediği	-4548
▁üyesi	-4549
▁nin	-4550
▁Çağ	-4551
▁aktif	-4552
▁ilişki	-4553
▁duyar	-4554
▁ır	-4555
▁kullanımı	-4556
▁por	-4557
▁80	-4558
amam	-4559
▁olmuştu	-4560
▁bulunur	-4561
▁tarihli	-4562
▁fab	-4563
▁almaya	-4564
▁ayn	-4565
▁Oğ	-4566
▁binlerce	-4567
▁rez	-4568
▁geldiği	-4569
diğimiz	-4570
luluğu	-4571
▁yenil	-4572
▁online	-4573
▁Elektr	-4574
▁kral	-4575
okul	-4576
▁düzenli	-4577
▁ürünler	-4578
teşem	-4579
▁Hüseyin	-4580
▁doğrultusunda	-4581
▁bayram	-4582
▁söyleyen	-4583
▁tutuk	-4584
▁yatır	-4585
▁teknoloji	-4586
▁yaparken	-4587
▁ettiğini	-4588
eceğim	-4589
çesi	-4590
▁televizyon	-4591
luluğ	-4592
▁geçiş	-4593
!"	-4594
▁ref	-4595
▁yakalan	-4596
▁tanış	-4597
▁soruştur	-4598
▁olacağını	-4599
▁niyet	-4600
▁cilt	-4601
nik	-4602
UN	-4603
▁Hüküm	-4604
▁2011	-4605
▁ba	-4606
ğimi	-4607
▁istediği	-4608
mada	-4609
▁yönetimi	-4610
ınacak	-4611
leyin	-4612
etleri	-4613
▁ren	-4614
uşu	-4615
ly	-4616
vik	-4617
nün	-4618
▁süren	-4619
▁şeker	-4620
▁dönüştür	-4621
▁kalmış	-4622
▁kadınlar	-4623
ple	-4624
▁vergi	-4625
▁memur	-4626
▁maliyet	-4627
▁görünüyor	-4628
▁nefes	-4629
▁»	-4630
celi	-4631
lanıyor	-4632
tıcı	-4633
▁ht	-4634
and	-4635
▁mus	-4636
liğinin	-4637
cisi	-4638
▁birbirine	-4639
tion	-4640
▁Met	-4641
▁diyen	-4642
isin	-4643
▁Sanayi	-4644
▁prot	-4645
ekt	-4646
unuzu	-4647
▁açıkladı	-4648
▁gidip	-4649
▁yasa	-4650
les	-4651
▁ettim	-4652
iter	-4653
▁bahset	-4654
▁unsur	-4655
ong	-4656
Ar	-4657
▁sevin	-4658
▁geçer	-4659
▁bozuk	-4660
▁###	-4661
▁çıkart	-4662
▁hediye	-4663
emize	-4664
▁harca	-4665
▁önlem	-4666
▁duyur	-4667
leyerek	-4668
▁Dir	-4669
▁tanrı	-4670
▁kurulan	-4671
▁Değer	-4672
▁donan	-4673
▁Roma	-4674
▁sonuna	-4675
▁kullanılır	-4676
▁70	-4677
lanmıştır	-4678
▁Öğretmen	-4679
▁Adana	-4680
▁İnş	-4681
▁Onlar	-4682
vel	-4683
▁eğitimi	-4684
▁üstünde	-4685
▁Hır	-4686
▁Altın	-4687
▁HD	-4688
▁yönlendir	-4689
İZ	-4690
layacak	-4691
sul	-4692
ılmasına	-4693
▁kitabı	-4694
ice	-4695
▁edilmiştir	-4696
abileceğiniz	-4697
▁''	-4698
▁göm	-4699
▁2/	-4700
▁Yıldırım	-4701
▁analiz	-4702
▁32	-4703
▁Recep	-4704
▁güvenilir	-4705
▁katılan	-4706
▁göğ	-4707
enn	-4708
▁yılın	-4709
▁sipariş	-4710
▁Çan	-4711
▁sam	-4712
▁ilişkiler	-4713
▁tehdit	-4714
▁pla	-4715
16	-4716
▁kara	-4717
ses	-4718
▁görülen	-4719
▁ayı	-4720
ore	-4721
ahtar	-4722
▁seks	-4723
▁özen	-4724
▁toz	-4725
▁gözlem	-4726
▁Kendi	-4727
▁gerçe	-4728
▁tanıt	-4729
▁bulundur	-4730
▁sinir	-4731
▁Meg	-4732
amazan	-4733
▁Teş	-4734
▁Merhaba	-4735
▁devrim	-4736
bek	-4737
▁tanın	-4738
▁tad	-4739
▁çerçevesinde	-4740
▁çekti	-4741
▁bölümü	-4742
ilmez	-4743
yalı	-4744
▁hâlâ	-4745
▁bende	-4746
kur	-4747
duğumuz	-4748
▁metre	-4749
▁Sonuç	-4750
sit	-4751
▁birim	-4752
▁buz	-4753
▁Etik	-4754
▁dikkate	-4755
▁işler	-4756
undaki	-4757
▁gelişim	-4758
üldü	-4759
▁Konya	-4760
▁bekliyor	-4761
▁ülkede	-4762
▁rakam	-4763
▁koc	-4764
▁çocukların	-4765
emli	-4766
anları	-4767
▁Müş	-4768
▁alb	-4769
▁sunu	-4770
▁kabil	-4771
▁sahib	-4772
usuz	-4773
▁ismi	-4774
▁Cumhuriyeti	-4775
▁hayatı	-4776
53	-4777
▁eb	-4778
▁etik	-4779
▁alım	-4780
leyici	-4781
▁ker	-4782
unç	-4783
ijital	-4784
▁döndü	-4785
▁transfer	-4786
▁lütfen	-4787
▁Sil	-4788
▁Tasar	-4789
land	-4790
▁bom	-4791
▁otomatik	-4792
▁yapabilir	-4793
ori	-4794
▁belirlen	-4795
manızı	-4796
-4	-4797
▁almaktadır	-4798
:00	-4799
▁Galatasaray	-4800
▁hakim	-4801
▁endiş	-4802
▁Erz	-4803
▁performans	-4804
▁İnternet	-4805
▁mens	-4806
▁mahkem	-4807
▁hata	-4808
▁Mey	-4809
▁tor	-4810
gaz	-4811
▁ilav	-4812
▁sorumluluk	-4813
▁modelleri	-4814
▁ederken	-4815
▁kıya	-4816
▁yıllar	-4817
▁sebebi	-4818
tıkları	-4819
▁küt	-4820
eliği	-4821
isiniz	-4822
▁site	-4823
▁ürünü	-4824
ebilmek	-4825
AZ	-4826
meyecek	-4827
▁pozisyon	-4828
mos	-4829
▁kalab	-4830
▁bölgede	-4831
▁bina	-4832
▁ameliyat	-4833
▁şık	-4834
▁Yas	-4835
▁kanıt	-4836
▁gösterir	-4837
raz	-4838
▁müşteriler	-4839
▁Tayyip	-4840
▁finans	-4841
ciler	-4842
▁Karşı	-4843
▁alabilirsiniz	-4844
▁mezun	-4845
▁kısım	-4846
▁tedbir	-4847
lerken	-4848
▁Men	-4849
▁değeri	-4850
▁2010	-4851
▁Kut	-4852
▁tartışma	-4853
sızın	-4854
▁Erkek	-4855
▁korku	-4856
▁kaçın	-4857
kol	-4858
▁şub	-4859
▁kişiye	-4860
▁tabii	-4861
köy	-4862
Biz	-4863
▁6.	-4864
▁şikayet	-4865
ino	-4866
▁yav	-4867
▁sarı	-4868
13	-4869
▁beb	-4870
▁süreci	-4871
▁ölçüde	-4872
dığından	-4873
▁yerden	-4874
14	-4875
ko	-4876
diye	-4877
▁renkli	-4878
▁makam	-4879
▁Oysa	-4880
usunun	-4881
ümüzdeki	-4882
▁Boz	-4883
▁Web	-4884
▁lezzet	-4885
▁Fenerbahçe	-4886
▁ayrıl	-4887
Hay	-4888
▁yoluyla	-4889
▁olmalıdır	-4890
▁kapasit	-4891
AH	-4892
▁Koca	-4893
▁bilimsel	-4894
▁Ekonom	-4895
kiş	-4896
▁sessiz	-4897
▁okun	-4898
▁kalır	-4899
▁usul	-4900
▁Mem	-4901
▁hazırlanan	-4902
▁insanı	-4903
▁36	-4904
▁filmi	-4905
▁ilginç	-4906
▁Şirket	-4907
▁uyum	-4908
▁Mahkem	-4909
▁Kılıç	-4910
▁devletin	-4911
tanın	-4912
ang	-4913
▁veri	-4914
▁”	-4915
▁x	-4916
▁Oda	-4917
▁Diyar	-4918
▁eşi	-4919
müyor	-4920
▁ten	-4921
▁bölge	-4922
▁takdirde	-4923
▁dağıt	-4924
rop	-4925
lari	-4926
▁harit	-4927
▁şef	-4928
lal	-4929
uro	-4930
▁babası	-4931
▁etmiştir	-4932
itir	-4933
▁ufak	-4934
▁Fır	-4935
▁dis	-4936
OL	-4937
ğını	-4938
▁işçi	-4939
▁sik	-4940
▁Ed	-4941
▁etkilen	-4942
▁196	-4943
▁umut	-4944
▁Dolayısıyla	-4945
▁Kes	-4946
▁kaynağı	-4947
--	-4948
▁çeki	-4949
▁İliş	-4950
▁hassas	-4951
▁zorunlu	-4952
▁deng	-4953
▁başk	-4954
▁pil	-4955
▁azalt	-4956
▁vermeye	-4957
imizden	-4958
arya	-4959
▁Yapılan	-4960
........	-4961
oj	-4962
car	-4963
▁dizi	-4964
▁belediye	-4965
▁http	-4966
▁gib	-4967
▁yaşadığı	-4968
▁45	-4969
sar	-4970
▁Ders	-4971
akkabı	-4972
▁edebilirsiniz	-4973
▁Tal	-4974
müştü	-4975
▁birleştir	-4976
▁Kiş	-4977
▁Gaz	-4978
his	-4979
▁tarım	-4980
▁denetim	-4981
ukat	-4982
mit	-4983
▁görsel	-4984
▁kuzey	-4985
▁sanatçı	-4986
abileceği	-4987
▁fonksiyon	-4988
▁gr	-4989
uyucu	-4990
▁muhal	-4991
▁birbirinden	-4992
▁diler	-4993
▁Asya	-4994
▁toplan	-4995
▁gülüm	-4996
▁zek	-4997
▁benzeri	-4998
▁!	-4999
▁halkın	-5000
ilip	-5001
▁İdar	-5002
▁Yen	-5003
fil	-5004
ray	-5005
ows	-5006
▁itibariyle	-5007
▁zamanı	-5008
▁ekib	-5009
▁bölgesinde	-5010
rag	-5011
sev	-5012
▁Ada	-5013
▁Kil	-5014
▁söyl	-5015
▁söylemek	-5016
ferans	-5017
▁kimi	-5018
▁düşünce	-5019
ayacak	-5020
▁90	-5021
▁imkân	-5022
.[	-5023
▁yargı	-5024
▁meydan	-5025
▁Mark	-5026
▁iptal	-5027
▁Abdullah	-5028
▁Partisi	-5029
▁ettiler	-5030
▁Fiyat	-5031
▁alındı	-5032
uluyor	-5033
▁yasal	-5034
▁eklen	-5035
ebiliyor	-5036
▁açıdan	-5037
gü	-5038
yu	-5039
▁sıkı	-5040
▁Kaymak	-5041
hone	-5042
▁dava	-5043
▁mektup	-5044
▁depo	-5045
olog	-5046
▁demokras	-5047
▁işlemleri	-5048
âzî	-5049
▁inanıyor	-5050
urta	-5051
Türkiye	-5052
▁alternatif	-5053
▁inanç	-5054
▁saha	-5055
maye	-5056
ena	-5057
▁hücr	-5058
▁gitmek	-5059
iciler	-5060
▁Saat	-5061
umaş	-5062
▁gelince	-5063
Ne	-5064
▁vs	-5065
▁Ann	-5066
▁numara	-5067
▁hab	-5068
masın	-5069
▁Başka	-5070
▁tap	-5071
▁dini	-5072
▁gördük	-5073
▁Uygulama	-5074
▁olduklarını	-5075
stit	-5076
▁PKK	-5077
▁Ordu	-5078
▁fat	-5079
esef	-5080
ülebilir	-5081
▁kesim	-5082
▁33	-5083
▁onunla	-5084
▁alınması	-5085
▁bakan	-5086
▁Tıp	-5087
ınızın	-5088
▁mür	-5089
▁Sig	-5090
24	-5091
▁elbette	-5092
▁2,	-5093
html	-5094
▁kahraman	-5095
▁Se	-5096
lerimizin	-5097
▁sabit	-5098
ilmesini	-5099
▁misafir	-5100
▁Sp	-5101
ordin	-5102
▁cok	-5103
▁şampiyon	-5104
▁kullandı	-5105
düğünü	-5106
▁kriz	-5107
▁öncelikle	-5108
▁uğra	-5109
▁öngör	-5110
▁yerli	-5111
▁alg	-5112
▁yaptıkları	-5113
▁Otel	-5114
▁Bilim	-5115
▁rüz	-5116
▁çevre	-5117
ydi	-5118
sinde	-5119
▁incelem	-5120
insel	-5121
▁karanlık	-5122
ağını	-5123
kon	-5124
▁sıv	-5125
▁insanlara	-5126
▁faydalan	-5127
▁gördü	-5128
▁fık	-5129
gre	-5130
▁bez	-5131
▁değişim	-5132
▁pişir	-5133
amik	-5134
▁dağı	-5135
...”	-5136
▁durumlarda	-5137
▁kullanmak	-5138
.3	-5139
▁tepki	-5140
erv	-5141
11	-5142
▁Sarı	-5143
▁Cuma	-5144
▁Bankası	-5145
▁aldım	-5146
▁Emniyet	-5147
manlık	-5148
▁halkı	-5149
acağınız	-5150
▁Arkadaş	-5151
▁oyunc	-5152
▁trafik	-5153
▁Sınıf	-5154
▁çalışması	-5155
▁noktada	-5156
▁çök	-5157
▁komp	-5158
ülmesi	-5159
EV	-5160
▁hazırlık	-5161
▁çıkmış	-5162
▁(1)	-5163
▁kalb	-5164
▁Kanunu	-5165
▁Zaten	-5166
▁Odası	-5167
▁hoc	-5168
▁başını	-5169
▁kıv	-5170
türk	-5171
▁Mon	-5172
▁ticari	-5173
▁açılan	-5174
wit	-5175
▁Pr	-5176
asındaki	-5177
▁adamı	-5178
seri	-5179
▁Komisyon	-5180
▁ye	-5181
▁harek	-5182
zat	-5183
çuk	-5184
▁Jap	-5185
▁olası	-5186
▁kolayca	-5187
▁gösterdi	-5188
madığı	-5189
▁Car	-5190
▁düşen	-5191
duğum	-5192
▁İçin	-5193
▁zamanlar	-5194
illi	-5195
▁Plan	-5196
eğe	-5197
tın	-5198
▁verilir	-5199
istin	-5200
anet	-5201
emizi	-5202
otel	-5203
leket	-5204
onun	-5205
▁Is	-5206
▁duruma	-5207
▁Mic	-5208
şu	-5209
▁otobüs	-5210
▁Bana	-5211
▁ihracat	-5212
▁öf	-5213
▁mün	-5214
tığımız	-5215
▁yönel	-5216
▁üm	-5217
▁görevi	-5218
âkı	-5219
▁Of	-5220
ie	-5221
▁Amerikan	-5222
▁tay	-5223
▁köpek	-5224
▁Çalışma	-5225
▁olmaktadır	-5226
▁adeta	-5227
bat	-5228
▁vücud	-5229
▁gidiyor	-5230
▁şehr	-5231
▁sağlıyor	-5232
alandır	-5233
27	-5234
▁Kral	-5235
▁dip	-5236
98	-5237
▁aralarında	-5238
ack	-5239
▁restor	-5240
ılmasını	-5241
mesiyle	-5242
▁kaybol	-5243
▁ediliyor	-5244
nan	-5245
▁görünt	-5246
eral	-5247
okulu	-5248
liy	-5249
itap	-5250
alay	-5251
▁Bölg	-5252
yasal	-5253
▁vah	-5254
▁Far	-5255
▁Str	-5256
ümr	-5257
▁sırt	-5258
Sen	-5259
▁Arab	-5260
▁ağrı	-5261
▁muhteşem	-5262
▁uygulaması	-5263
▁yaşat	-5264
▁baktı	-5265
lemiş	-5266
▁bedel	-5267
▁kum	-5268
▁AL	-5269
maktır	-5270
▁kayıp	-5271
.00	-5272
▁desteği	-5273
▁etki	-5274
▁popüler	-5275
▁parmak	-5276
▁bı	-5277
liliği	-5278
▁kimsenin	-5279
▁başkanı	-5280
▁gittik	-5281
▁dönemi	-5282
indows	-5283
isa	-5284
bon	-5285
▁Balık	-5286
▁eh	-5287
ESİ	-5288
▁Hukuk	-5289
ock	-5290
irketi	-5291
▁anlamı	-5292
▁sevgil	-5293
▁bence	-5294
uydu	-5295
▁Yıldız	-5296
▁Gar	-5297
▁çalıştır	-5298
pany	-5299
▁ideal	-5300
▁maddi	-5301
ell	-5302
altına	-5303
MM	-5304
▁yağmur	-5305
ışın	-5306
roid	-5307
▁dua	-5308
▁Boğ	-5309
▁ulusal	-5310
▁ulaşabilirsiniz	-5311
tansiy	-5312
kırı	-5313
do	-5314
-5	-5315
▁bilgilendir	-5316
48	-5317
tesi	-5318
▁pet	-5319
kir	-5320
▁Süper	-5321
▁yarım	-5322
▁Hazır	-5323
ann	-5324
ebiliriz	-5325
▁büyü	-5326
▁üniversite	-5327
our	-5328
▁kilomet	-5329
▁görünüm	-5330
▁yolunda	-5331
lerindeki	-5332
medik	-5333
▁teşvik	-5334
▁gösteriyor	-5335
ıklı	-5336
▁başlamış	-5337
▁konak	-5338
▁akadem	-5339
▁Sınav	-5340
lima	-5341
▁İşlet	-5342
▁edebiyat	-5343
▁kıyafet	-5344
▁açılış	-5345
lor	-5346
▁yüzey	-5347
▁kayded	-5348
leyip	-5349
▁Siv	-5350
▁buyur	-5351
tacak	-5352
▁doy	-5353
▁adamın	-5354
▁bazıları	-5355
▁dedik	-5356
▁uyku	-5357
▁Mühendis	-5358
ıldığında	-5359
▁adalet	-5360
▁faktör	-5361
▁Neden	-5362
tez	-5363
Allah	-5364
uyoruz	-5365
lendirme	-5366
▁izlen	-5367
▁sonuçları	-5368
▁yaklaşım	-5369
3)	-5370
laya	-5371
▁Belediy	-5372
amaya	-5373
▁yiyecek	-5374
ayasa	-5375
▁topr	-5376
▁Gru	-5377
adir	-5378
mesinde	-5379
▁bilen	-5380
▁ge	-5381
▁Efendi	-5382
SK	-5383
▁yolda	-5384
▁tutan	-5385
▁organizasyon	-5386
▁derecede	-5387
▁gerektiği	-5388
akkale	-5389
▁gereği	-5390
▁kadınların	-5391
bakır	-5392
▁Bayan	-5393
dün	-5394
▁ilave	-5395
▁bulama	-5396
▁fiyatı	-5397
▁yerlerde	-5398
▁adlandır	-5399
ÜN	-5400
ck	-5401
▁komut	-5402
▁yaşay	-5403
▁sö	-5404
▁yitir	-5405
▁böyl	-5406
▁kültürel	-5407
laşık	-5408
abilm	-5409
▁buradan	-5410
▁Gerek	-5411
▁dekor	-5412
▁üyeleri	-5413
II	-5414
▁çocuğun	-5415
▁Feder	-5416
▁Öğrenc	-5417
▁sevgi	-5418
▁coğraf	-5419
22	-5420
▁günün	-5421
▁yeme	-5422
▁Megâzî	-5423
▁Bunların	-5424
ext	-5425
adı	-5426
▁bulmak	-5427
▁yapabilirsiniz	-5428
▁maaş	-5429
▁düzelt	-5430
▁yapımı	-5431
andar	-5432
",	-5433
anti	-5434
▁aktiv	-5435
▁Sok	-5436
siyet	-5437
▁aşa	-5438
▁şeye	-5439
▁olamaz	-5440
▁Onu	-5441
▁yapısı	-5442
tum	-5443
▁adr	-5444
▁aşağıda	-5445
▁görünce	-5446
▁elektronik	-5447
ris	-5448
layabilir	-5449
▁muhaf	-5450
larımı	-5451
ETÖ	-5452
▁Po	-5453
▁yolcu	-5454
eya	-5455
▁imkanı	-5456
maması	-5457
▁başlangıç	-5458
▁Van	-5459
ılmaktadır	-5460
▁Nak	-5461
46	-5462
likler	-5463
▁iade	-5464
abilen	-5465
▁çö	-5466
▁sevk	-5467
▁boyu	-5468
▁ep	-5469
▁Hastanesi	-5470
▁tablo	-5471
▁istiyorsanız	-5472
▁istif	-5473
▁şark	-5474
İŞ	-5475
▁Dik	-5476
▁zamanında	-5477
▁sözleri	-5478
▁kampanya	-5479
▁Savaşı	-5480
▁İd	-5481
▁sorunun	-5482
kâr	-5483
▁darbe	-5484
▁sonsuz	-5485
▁ani	-5486
▁sözü	-5487
▁olmayacak	-5488
▁tarihleri	-5489
▁Ramazan	-5490
▁başı	-5491
▁hastalı	-5492
▁bulan	-5493
▁işleri	-5494
▁vererek	-5495
▁manz	-5496
En	-5497
▁mahall	-5498
▁geldiğini	-5499
▁blog	-5500
▁Çık	-5501
▁Birleş	-5502
▁kamp	-5503
▁Del	-5504
IL	-5505
▁karşılan	-5506
eceksiniz	-5507
pat	-5508
▁nas	-5509
gah	-5510
diğiniz	-5511
▁platform	-5512
▁bağış	-5513
▁yenilik	-5514
tek	-5515
▁Kanunun	-5516
ildiğini	-5517
▁sesi	-5518
ysa	-5519
▁Öyle	-5520
▁mutluluk	-5521
▁Yalnız	-5522
fik	-5523
usuf	-5524
errah	-5525
üye	-5526
▁Öğren	-5527
▁biridir	-5528
▁sergil	-5529
▁Yeşil	-5530
▁Mod	-5531
▁karşıya	-5532
▁azından	-5533
▁Tarım	-5534
▁işgal	-5535
▁to	-5536
▁İt	-5537
▁bl	-5538
▁Toplantı	-5539
▁güney	-5540
kent	-5541
diniz	-5542
▁olduğunuz	-5543
▁sıf	-5544
▁selam	-5545
▁edilecek	-5546
emedi	-5547
▁Vâkı	-5548
▁içinden	-5549
diklerini	-5550
▁kapan	-5551
▁pencer	-5552
▁olağan	-5553
▁sad	-5554
▁yürür	-5555
▁kenar	-5556
teş	-5557
▁projesi	-5558
▁yarın	-5559
▁sizler	-5560
▁Sem	-5561
▁MHP	-5562
▁;	-5563
▁ilçe	-5564
uluğ	-5565
melidir	-5566
atya	-5567
▁çor	-5568
▁Günü	-5569
▁Öl	-5570
▁efend	-5571
eyerek	-5572
▁istiyoruz	-5573
biy	-5574
rama	-5575
▁gerekti	-5576
teyiz	-5577
mede	-5578
▁değin	-5579
▁besin	-5580
▁gördüm	-5581
▁Vâkıdî	-5582
▁getirmek	-5583
led	-5584
▁ithal	-5585
▁lir	-5586
▁Bilgi	-5587
ürken	-5588
istiyan	-5589
▁orman	-5590
▁vermektedir	-5591
▁galib	-5592
75	-5593
irmi	-5594
▁kendimi	-5595
▁Kurt	-5596
emeyen	-5597
▁potansiy	-5598
rom	-5599
▁Boy	-5600
▁kumaş	-5601
likte	-5602
örü	-5603
▁Kamu	-5604
▁Paris	-5605
▁7.	-5606
▁iP	-5607
ity	-5608
▁sistemleri	-5609
▁Avust	-5610
▁far	-5611
▁günümüz	-5612
▁gündem	-5613
fe	-5614
▁harekete	-5615
▁Şampiyon	-5616
▁Üzer	-5617
▁sevg	-5618
▁arkadaşlar	-5619
▁AN	-5620
▁şeyleri	-5621
▁Facebook	-5622
▁rej	-5623
▁Mad	-5624
▁taban	-5625
anız	-5626
ment	-5627
▁gayret	-5628
▁büyüm	-5629
▁yürüyüş	-5630
▁parlak	-5631
▁yakından	-5632
▁Cumhurbaşkan	-5633
▁haklı	-5634
layabilirsiniz	-5635
erji	-5636
▁farkında	-5637
UM	-5638
rada	-5639
▁nesn	-5640
▁İsmail	-5641
▁konuk	-5642
▁herkese	-5643
amın	-5644
▁aykırı	-5645
▁Hemen	-5646
▁fazlası	-5647
):	-5648
tuğu	-5649
landığı	-5650
ug	-5651
▁beyan	-5652
▁gelişmeler	-5653
▁ust	-5654
amıyor	-5655
▁Grup	-5656
▁Bununla	-5657
▁ortamda	-5658
çisi	-5659
▁modeli	-5660
▁olmadı	-5661
▁Devleti	-5662
▁Turizm	-5663
▁Kaf	-5664
▁Fark	-5665
▁sebebiyle	-5666
melik	-5667
udak	-5668
▁esnasında	-5669
▁aracılığıyla	-5670
▁ölü	-5671
▁Ses	-5672
▁öğrencilerin	-5673
▁kitl	-5674
lıca	-5675
26	-5676
denin	-5677
▁evlen	-5678
▁hapis	-5679
lî	-5680
▁günah	-5681
lüğe	-5682
▁Etiketler	-5683
▁düşünül	-5684
imle	-5685
▁efsan	-5686
▁attı	-5687
▁kullanan	-5688
▁falan	-5689
kişehir	-5690
.’	-5691
▁Cih	-5692
▁Adı	-5693
▁faydalı	-5694
▁çağr	-5695
▁grubu	-5696
CI	-5697
▁konuşan	-5698
masyon	-5699
▁34	-5700
ilerinden	-5701
ruf	-5702
▁Ner	-5703
ığı	-5704
ral	-5705
▁takv	-5706
ben	-5707
İş	-5708
▁Don	-5709
Text	-5710
▁bugüne	-5711
▁ediyordu	-5712
▁edilebilir	-5713
▁cesaret	-5714
▁vitam	-5715
▁Be	-5716
irv	-5717
▁bahsed	-5718
/0	-5719
yken	-5720
lıkta	-5721
▁olduğum	-5722
âlâ	-5723
▁Karadeniz	-5724
▁sever	-5725
ebi	-5726
ahh	-5727
asız	-5728
▁sanayi	-5729
▁isterseniz	-5730
▁Yurt	-5731
▁çıkacak	-5732
▁nih	-5733
▁fiziksel	-5734
▁acaba	-5735
▁oyunları	-5736
▁hanım	-5737
▁hayran	-5738
4)	-5739
▁Akdeniz	-5740
▁mor	-5741
▁olacağı	-5742
umartesi	-5743
▁katı	-5744
cılığı	-5745
mr	-5746
▁buldu	-5747
▁anti	-5748
-6	-5749
▁kullanma	-5750
▁pratik	-5751
▁Olay	-5752
▁köpr	-5753
▁plak	-5754
▁konser	-5755
▁Kart	-5756
▁yılından	-5757
▁mac	-5758
sü	-5759
▁Bahç	-5760
▁hazırla	-5761
demir	-5762
-201	-5763
▁300	-5764
▁anlatan	-5765
indistan	-5766
isiz	-5767
▁Beyaz	-5768
▁Kav	-5769
ung	-5770
▁duruş	-5771
35	-5772
▁hali	-5773
▁toplumun	-5774
▁yarg	-5775
▁geçici	-5776
▁edildiği	-5777
▁Gön	-5778
▁kendisinin	-5779
▁Eğit	-5780
▁val	-5781
▁inc	-5782
lılar	-5783
PS	-5784
▁uyarı	-5785
▁mensup	-5786
▁Toplum	-5787
▁Dar	-5788
los	-5789
▁bilgiye	-5790
▁Ceza	-5791
eyse	-5792
larken	-5793
tic	-5794
▁mantık	-5795
▁Sez	-5796
▁dür	-5797
yaj	-5798
EB	-5799
osk	-5800
▁kamer	-5801
lıktan	-5802
▁esir	-5803
▁arasından	-5804
▁önde	-5805
▁Aşağı	-5806
veren	-5807
tren	-5808
▁oldum	-5809
▁2008	-5810
▁Sı	-5811
▁olmayı	-5812
▁görmüş	-5813
çu	-5814
▁netic	-5815
▁geçtiğimiz	-5816
▁bask	-5817
lanarak	-5818
▁İtalya	-5819
▁olunca	-5820
▁siteleri	-5821
şi	-5822
▁kaydetti	-5823
▁işbirliği	-5824
▁turizm	-5825
gür	-5826
▁olmay	-5827
▁kurs	-5828
▁Rabb	-5829
▁teor	-5830
alesef	-5831
antep	-5832
▁beklent	-5833
▁elini	-5834
▁söyler	-5835
▁darb	-5836
▁arasına	-5837
übü	-5838
▁karma	-5839
▁seçen	-5840
▁rakip	-5841
▁Çelik	-5842
28	-5843
▁paylaşım	-5844
▁küç	-5845
▁İsv	-5846
▁müs	-5847
▁yetkili	-5848
▁gurur	-5849
▁başlayacak	-5850
▁aralık	-5851
Evet	-5852
▁Gençlik	-5853
▁yükselt	-5854
danı	-5855
cük	-5856
▁padişah	-5857
vekil	-5858
▁taraftan	-5859
▁Ede	-5860
▁Karar	-5861
TL	-5862
pe	-5863
cret	-5864
▁alak	-5865
95	-5866
işik	-5867
▁gayet	-5868
▁Diyarbakır	-5869
▁güçlendir	-5870
ilmesine	-5871
th	-5872
▁Port	-5873
▁mutfak	-5874
▁hadis	-5875
ograf	-5876
▁genelde	-5877
▁İlet	-5878
▁temizlik	-5879
▁yenilen	-5880
▁kusur	-5881
▁Yusuf	-5882
▁ayakkabı	-5883
ife	-5884
▁amaçlı	-5885
▁Yağ	-5886
itler	-5887
otik	-5888
▁yör	-5889
ceği	-5890
▁cumhur	-5891
▁Mobil	-5892
▁egemen	-5893
▁çıkıp	-5894
▁emir	-5895
▁uzaklaş	-5896
lerimize	-5897
▁refer	-5898
▁müdahale	-5899
▁olmaktan	-5900
▁yeten	-5901
▁futbolcu	-5902
lukla	-5903
isiklet	-5904
deri	-5905
landa	-5906
▁seyir	-5907
▁oranında	-5908
witter	-5909
/201	-5910
▁açtı	-5911
paşa	-5912
▁dük	-5913
▁işlev	-5914
▁sayede	-5915
▁kimlik	-5916
ağına	-5917
▁şunları	-5918
▁uçuş	-5919
▁servisi	-5920
▁sorunları	-5921
▁ekipleri	-5922
▁koltuk	-5923
▁38	-5924
▁Baz	-5925
slan	-5926
▁Tabii	-5927
OB	-5928
▁ww	-5929
▁mevcuttur	-5930
▁anahtar	-5931
▁maden	-5932
▁yayınlanan	-5933
enizi	-5934
lemesi	-5935
▁Çek	-5936
▁itiraz	-5937
▁kartı	-5938
irim	-5939
▁yumurta	-5940
▁Ulusal	-5941
▁klasik	-5942
anların	-5943
tel	-5944
▁Demok	-5945
▁kör	-5946
▁metin	-5947
ruk	-5948
▁Yür	-5949
▁vası	-5950
▁kafa	-5951
▁çocukları	-5952
ünce	-5953
lerimi	-5954
▁www	-5955
▁halka	-5956
▁denet	-5957
▁verilmesi	-5958
▁muhtem	-5959
▁kup	-5960
47	-5961
▁Park	-5962
36	-5963
Ey	-5964
▁yerler	-5965
▁suretiyle	-5966
▁sunan	-5967
▁Hey	-5968
▁Th	-5969
▁eline	-5970
▁Festiv	-5971
▁ob	-5972
▁2009	-5973
▁Önce	-5974
▁gözaltına	-5975
elerek	-5976
işam	-5977
ılacağı	-5978
lanacak	-5979
▁0,	-5980
isyen	-5981
▁mümkündür	-5982
▁görüşmeler	-5983
▁biy	-5984
▁gecik	-5985
ona	-5986
rip	-5987
▁sız	-5988
▁saray	-5989
elle	-5990
ıldığını	-5991
:)	-5992
▁Zira	-5993
dışı	-5994
▁alışkan	-5995
▁barındır	-5996
▁amac	-5997
▁mezar	-5998
▁dan	-5999
iyel	-6000
▁kanser	-6001
▁genelinde	-6002
▁günden	-6003
leki	-6004
▁anal	-6005
mamak	-6006
▁maddesi	-6007
▁akr	-6008
imet	-6009
odrum	-6010
ısal	-6011
▁evlilik	-6012
▁Ödül	-6013
▁yetenek	-6014
▁Mat	-6015
▁esk	-6016
SO	-6017
▁kurumsal	-6018
▁lok	-6019
▁yumuşak	-6020
▁bitk	-6021
▁yönünde	-6022
▁mevzu	-6023
▁indirim	-6024
▁günler	-6025
▁bölümünde	-6026
DA	-6027
▁rahmet	-6028
▁makal	-6029
▁isyan	-6030
▁kıymet	-6031
▁Pet	-6032
▁Çanakkale	-6033
▁iman	-6034
duğunuz	-6035
▁ödem	-6036
▁Yunanistan	-6037
▁tok	-6038
EY	-6039
▁Yukarı	-6040
▁noktası	-6041
▁oraya	-6042
▁yah	-6043
▁altyap	-6044
▁Yazı	-6045
acık	-6046
▁arzu	-6047
▁edilmektedir	-6048
▁anı	-6049
▁hatırlat	-6050
▁yaşamak	-6051
ica	-6052
▁konularda	-6053
lav	-6054
▁gerekse	-6055
tifak	-6056
▁8.	-6057
▁Hayır	-6058
▁mühendis	-6059
▁harf	-6060
▁üretimi	-6061
enkul	-6062
▁memleket	-6063
▁civarında	-6064
▁tev	-6065
▁sığın	-6066
▁yangın	-6067
andarma	-6068
lus	-6069
▁geleneksel	-6070
▁kelime	-6071
▁37	-6072
▁usta	-6073
anda	-6074
▁İshak	-6075
▁vad	-6076
▁İmam	-6077
▁yazık	-6078
▁bulabilirsiniz	-6079
▁oğl	-6080
▁Fu	-6081
▁Kent	-6082
▁pah	-6083
▁uzan	-6084
tikten	-6085
▁Telefon	-6086
▁sos	-6087
▁nesil	-6088
şap	-6089
▁ihtimal	-6090
▁dans	-6091
oft	-6092
▁acil	-6093
diven	-6094
▁birine	-6095
▁sürece	-6096
▁takımı	-6097
▁alınarak	-6098
▁gelece	-6099
▁zinc	-6100
▁tanesi	-6101
ğına	-6102
▁güne	-6103
▁yapıp	-6104
ull	-6105
şiv	-6106
▁Kuş	-6107
▁kalem	-6108
▁taraftar	-6109
▁türü	-6110
▁Beni	-6111
▁oğul	-6112
▁elbis	-6113
▁albüm	-6114
OK	-6115
▁yaptım	-6116
▁TB	-6117
▁Windows	-6118
ump	-6119
cıların	-6120
▁Düzen	-6121
irli	-6122
▁bünyesinde	-6123
▁yüküm	-6124
▁Kaynak	-6125
▁beyin	-6126
itesi	-6127
AV	-6128
▁söylemiş	-6129
▁Hız	-6130
▁benden	-6131
▁hakları	-6132
ektörü	-6133
▁Nit	-6134
▁Geçen	-6135
▁aleyh	-6136
▁kamera	-6137
▁Aka	-6138
▁gerekç	-6139
leyecek	-6140
düstr	-6141
▁gündeme	-6142
▁yapıldığı	-6143
▁düzeyde	-6144
▁Afrika	-6145
▁denir	-6146
▁lan	-6147
▁Pek	-6148
▁çocuğu	-6149
mekle	-6150
▁sanırım	-6151
▁Şim	-6152
▁Kısa	-6153
unma	-6154
▁hediy	-6155
▁vir	-6156
▁Tho	-6157
eleriyle	-6158
▁Doktor	-6159
▁kaza	-6160
▁Mez	-6161
mm	-6162
▁dilek	-6163
▁ağız	-6164
▁FETÖ	-6165
ansiyon	-6166
ami	-6167
▁yolculuk	-6168
ick	-6169
▁evren	-6170
▁Trabzon	-6171
21	-6172
TC	-6173
▁AR	-6174
ilmişti	-6175
satı	-6176
yak	-6177
▁sekiz	-6178
▁kazanç	-6179
▁elinden	-6180
▁ilah	-6181
IK	-6182
gat	-6183
▁Şube	-6184
bas	-6185
elli	-6186
▁mir	-6187
▁neş	-6188
▁yöntemi	-6189
▁Kurumu	-6190
▁zeytin	-6191
▁depr	-6192
▁kov	-6193
▁ofis	-6194
▁yapın	-6195
▁For	-6196
▁Eskişehir	-6197
▁maruz	-6198
▁olsay	-6199
▁yedek	-6200
▁may	-6201
▁ahlak	-6202
▁pr	-6203
▁malzeme	-6204
▁günümüzde	-6205
sede	-6206
96	-6207
▁Organ	-6208
▁muk	-6209
▁Tun	-6210
▁incelen	-6211
▁miktarda	-6212
▁yel	-6213
ümrük	-6214
▁kolaylaştır	-6215
▁delik	-6216
oda	-6217
▁geril	-6218
▁hayatta	-6219
ette	-6220
▁op	-6221
▁olama	-6222
tıktan	-6223
▁di	-6224
ibe	-6225
▁ikisi	-6226
▁kalite	-6227
▁Hik	-6228
▁Con	-6229
▁Öte	-6230
▁Bölümü	-6231
▁dikkatli	-6232
▁Birçok	-6233
▁husus	-6234
larınızın	-6235
oli	-6236
▁Saç	-6237
▁anlatıyor	-6238
▁La	-6239
▁sonuçlar	-6240
▁dijital	-6241
▁tutul	-6242
▁Min	-6243
▁Hast	-6244
▁mavi	-6245
▁peygamber	-6246
içi	-6247
org	-6248
▁ört	-6249
▁çatışma	-6250
▁Kup	-6251
▁etmez	-6252
mesinden	-6253
▁görüntül	-6254
urlar	-6255
▁Futbol	-6256
▁belediy	-6257
▁temas	-6258
▁ülkemizde	-6259
▁Kaç	-6260
▁olayı	-6261
▁Ligi	-6262
▁çalışır	-6263
▁no	-6264
▁Art	-6265
split	-6266
▁gelişmiş	-6267
▁nüfus	-6268
▁Ona	-6269
▁dediler	-6270
▁hoca	-6271
▁üretic	-6272
iyetini	-6273
▁alınır	-6274
atın	-6275
ys	-6276
▁dönüşüm	-6277
▁Mersin	-6278
▁düşünür	-6279
▁Enstit	-6280
▁özgürlük	-6281
▁evet	-6282
▁Cadde	-6283
elendir	-6284
İD	-6285
▁denk	-6286
ulacak	-6287
EC	-6288
▁gördüğü	-6289
▁dayalı	-6290
▁keyifli	-6291
▁Thomas	-6292
iyede	-6293
▁savunma	-6294
▁belirlenen	-6295
ress	-6296
▁Hayvan	-6297
▁bireysel	-6298
▁gözük	-6299
inda	-6300
▁sınırlı	-6301
▁mimar	-6302
▁Paz	-6303
diy	-6304
43	-6305
▁kalabalık	-6306
meyin	-6307
▁kağıt	-6308
▁Hakkında	-6309
melerini	-6310
▁Ege	-6311
▁verici	-6312
▁Nih	-6313
▁48	-6314
▁metal	-6315
▁çan	-6316
▁Görün	-6317
▁tanıtım	-6318
ph	-6319
▁alınacak	-6320
▁çağrı	-6321
ilerle	-6322
▁olurdu	-6323
elal	-6324
▁kilit	-6325
üyordu	-6326
▁2000	-6327
▁gözden	-6328
▁Ta	-6329
▁uyumlu	-6330
▁Lisesi	-6331
▁tiyatro	-6332
▁istihdam	-6333
Her	-6334
▁Doğan	-6335
▁est	-6336
▁açıkça	-6337
▁yetersiz	-6338
ısıt	-6339
▁işit	-6340
emeyece	-6341
üyü	-6342
▁başlama	-6343
▁anında	-6344
▁bilet	-6345
▁irade	-6346
MA	-6347
gulan	-6348
▁hâkim	-6349
▁Pas	-6350
▁Malatya	-6351
▁gelmesi	-6352
laştırma	-6353
▁Dışişleri	-6354
▁cas	-6355
▁Pan	-6356
▁hayırlı	-6357
▁sıvı	-6358
▁Kuvvet	-6359
▁kullandığı	-6360
▁denilen	-6361
EF	-6362
▁Ex	-6363
mis	-6364
▁ekmek	-6365
▁Ha	-6366
▁kalıcı	-6367
97	-6368
▁sabır	-6369
jen	-6370
▁TR	-6371
▁hatırla	-6372
▁evden	-6373
▁Temiz	-6374
dınız	-6375
yiz	-6376
▁Grubu	-6377
▁karşın	-6378
orat	-6379
▁çıkarı	-6380
▁Hindistan	-6381
▁bileş	-6382
▁müh	-6383
▁Rad	-6384
maktayız	-6385
▁Vol	-6386
▁maçı	-6387
▁kimyasal	-6388
▁Tür	-6389
▁stat	-6390
US	-6391
laz	-6392
▁Üstelik	-6393
▁tasarımı	-6394
▁Danış	-6395
memesi	-6396
▁çekici	-6397
▁egz	-6398
▁verme	-6399
▁cüml	-6400
▁sürü	-6401
▁Sitesi	-6402
yeni	-6403
▁anlattı	-6404
▁ettikleri	-6405
bür	-6406
▁yuvar	-6407
▁Doğru	-6408
▁Lond	-6409
▁Ras	-6410
▁Sivas	-6411
▁batı	-6412
ülür	-6413
▁dili	-6414
▁sürük	-6415
▁mülk	-6416
▁küresel	-6417
▁şunu	-6418
stanbul	-6419
▁sektöründe	-6420
▁olmasa	-6421
kor	-6422
▁Kons	-6423
▁Çevre	-6424
▁Gaziantep	-6425
▁Bizans	-6426
▁oradan	-6427
▁vücu	-6428
▁tavır	-6429
▁çabuk	-6430
▁Doç	-6431
tematik	-6432
▁tasarruf	-6433
▁yaprak	-6434
▁masa	-6435
▁sün	-6436
▁150	-6437
▁Ken	-6438
▁Dünyanın	-6439
.'	-6440
▁tedavisi	-6441
▁tuş	-6442
▁ulaştır	-6443
kun	-6444
okol	-6445
▁Küt	-6446
atistik	-6447
uva	-6448
▁başlıklı	-6449
▁Koç	-6450
▁muhab	-6451
eydi	-6452
▁Naz	-6453
▁Meslek	-6454
▁kardeşi	-6455
2)	-6456
▁şahıs	-6457
ürr	-6458
▁verimli	-6459
▁bölün	-6460
▁öncesinde	-6461
▁arkasında	-6462
âyet	-6463
▁Gerçekten	-6464
▁Di	-6465
▁kahvaltı	-6466
▁bağımlı	-6467
▁İşleri	-6468
▁çey	-6469
▁beklem	-6470
▁Turk	-6471
▁geldiğinde	-6472
▁Sabah	-6473
ww	-6474
▁olmaları	-6475
▁artan	-6476
▁Ücret	-6477
▁kaps	-6478
▁öp	-6479
▁Dig	-6480
▁Sayfa	-6481
öv	-6482
▁geriye	-6483
Dev	-6484
▁hastalığı	-6485
yaş	-6486
▁omuz	-6487
▁bizzat	-6488
dıkça	-6489
▁Araç	-6490
▁cezası	-6491
▁Vakfı	-6492
iti	-6493
larınıza	-6494
uyum	-6495
▁sebeple	-6496
▁yüzü	-6497
▁Çift	-6498
▁Reh	-6499
▁tehlikeli	-6500
▁Görev	-6501
oot	-6502
▁Yav	-6503
iplin	-6504
▁Apple	-6505
▁ekibi	-6506
▁Nec	-6507
▁şük	-6508
,5	-6509
▁mini	-6510
maat	-6511
▁Vali	-6512
▁Gez	-6513
▁Şahin	-6514
▁alanları	-6515
dil	-6516
▁biliyorum	-6517
▁nefret	-6518
▁Tabi	-6519
▁send	-6520
dış	-6521
▁adıyla	-6522
▁Öncelikle	-6523
▁karşılaştır	-6524
▁rengi	-6525
tığım	-6526
amaş	-6527
38	-6528
▁anlaşma	-6529
▁Tok	-6530
▁yorgun	-6531
anıp	-6532
▁Tim	-6533
▁bulunması	-6534
▁Efend	-6535
▁korumak	-6536
lup	-6537
ansız	-6538
▁Aile	-6539
ınan	-6540
▁esnaf	-6541
▁oluşturan	-6542
▁diyebilir	-6543
▁sunul	-6544
▁olab	-6545
▁İletişim	-6546
▁istis	-6547
▁seven	-6548
▁yaşıyor	-6549
abiliriz	-6550
▁çel	-6551
▁meclis	-6552
▁Eğitimi	-6553
▁zorluk	-6554
▁Güç	-6555
▁alama	-6556
▁diyet	-6557
▁öv	-6558
▁olduğunda	-6559
arik	-6560
melerin	-6561
▁Destek	-6562
des	-6563
▁emr	-6564
şe	-6565
mes	-6566
▁sigara	-6567
▁komisyon	-6568
lon	-6569
▁Siyas	-6570
▁Programı	-6571
▁kutsal	-6572
▁Escort	-6573
▁ederiz	-6574
▁Tor	-6575
EO	-6576
▁moda	-6577
ÜM	-6578
▁Hizmetleri	-6579
▁halı	-6580
▁ulaşım	-6581
▁meyv	-6582
olar	-6583
▁zemin	-6584
▁Dağ	-6585
▁eğlenceli	-6586
tığında	-6587
▁değilim	-6588
▁Elektrik	-6589
▁olmaması	-6590
▁piyasa	-6591
▁olaylar	-6592
▁kötül	-6593
▁köp	-6594
▁bunlara	-6595
has	-6596
ue	-6597
▁süreli	-6598
▁Bölge	-6599
▁duran	-6600
▁alması	-6601
▁farkı	-6602
▁verdim	-6603
▁dakikada	-6604
▁süredir	-6605
▁yarışma	-6606
▁Temel	-6607
▁kuman	-6608
▁hâl	-6609
▁Co	-6610
▁Erzurum	-6611
▁yaratıcı	-6612
▁Duy	-6613
til	-6614
▁Android	-6615
▁Ardından	-6616
▁rekabet	-6617
amak	-6618
▁çekil	-6619
ırıl	-6620
www	-6621
▁korkunç	-6622
▁gerçekleşen	-6623
▁doğur	-6624
aklı	-6625
▁üs	-6626
▁göstermek	-6627
urk	-6628
▁Öğretim	-6629
utma	-6630
▁Bilgisayar	-6631
▁algı	-6632
▁şirketi	-6633
▁güz	-6634
suzluk	-6635
▁Vatan	-6636
▁verim	-6637
▁Hiçbir	-6638
duktan	-6639
▁sön	-6640
▁yukarıda	-6641
▁Meclisi	-6642
▁odası	-6643
▁kemik	-6644
▁nö	-6645
sının	-6646
▁rehber	-6647
▁kurban	-6648
1)	-6649
▁Ven	-6650
▁Hac	-6651
▁güzellik	-6652
ebilen	-6653
▁haberi	-6654
▁imparator	-6655
ılmıştı	-6656
menizi	-6657
soy	-6658
▁gelmiştir	-6659
▁serg	-6660
▁getirdiği	-6661
▁dudak	-6662
abilirler	-6663
▁firması	-6664
▁önemi	-6665
▁gazetec	-6666
.5	-6667
yim	-6668
▁55	-6669
▁belirtildi	-6670
▁insana	-6671
tih	-6672
▁buyurdu	-6673
▁evine	-6674
▁bilmiyorum	-6675
▁avukat	-6676
▁olmakla	-6677
ft	-6678
▁pazarlama	-6679
▁bacak	-6680
▁bulut	-6681
▁şeyden	-6682
▁görülür	-6683
▁Türkler	-6684
▁sunulan	-6685
dular	-6686
ediğini	-6687
▁kullanılması	-6688
▁rezerv	-6689
halde	-6690
▁duruyor	-6691
asi	-6692
▁kısıt	-6693
▁göstermektedir	-6694
▁Târî	-6695
▁port	-6696
▁kararlı	-6697
tip	-6698
▁yoğ	-6699
▁arkadaşı	-6700
▁final	-6701
▁bütç	-6702
▁şehrin	-6703
▁cenaz	-6704
▁bilgisi	-6705
▁ifadelerini	-6706
▁hariç	-6707
▁halen	-6708
▁çak	-6709
▁çelik	-6710
▁ömr	-6711
▁Haberleri	-6712
ida	-6713
▁Konuş	-6714
▁adayı	-6715
▁bet	-6716
▁etmişti	-6717
medim	-6718
ider	-6719
ediğiniz	-6720
lığından	-6721
▁pen	-6722
luyor	-6723
▁sertif	-6724
▁çalışmalarını	-6725
▁kazanan	-6726
▁tanık	-6727
▁Hakan	-6728
▁Bulgar	-6729
▁bakın	-6730
▁tutum	-6731
uncu	-6732
▁hükm	-6733
▁Orman	-6734
irin	-6735
▁gidecek	-6736
▁konfor	-6737
tes	-6738
ulmaz	-6739
▁na	-6740
▁altını	-6741
▁ikin	-6742
▁Yemek	-6743
▁yirmi	-6744
▁bakalım	-6745
▁geçiyor	-6746
▁..	-6747
▁yolunu	-6748
▁Filistin	-6749
▁yapılıyor	-6750
▁sürücü	-6751
ýr	-6752
▁1/	-6753
▁telefonu	-6754
▁195	-6755
▁gelerek	-6756
▁Müdürlüğ	-6757
▁Not	-6758
doğ	-6759
▁Tut	-6760
şet	-6761
▁onur	-6762
▁Konu	-6763
▁Dep	-6764
fed	-6765
▁gözlerini	-6766
▁zafer	-6767
▁vesil	-6768
ich	-6769
▁Yayınları	-6770
▁hayatın	-6771
işan	-6772
▁yılları	-6773
▁araz	-6774
▁bastır	-6775
▁ülkeler	-6776
▁üstü	-6777
▁sözler	-6778
▁nakliyat	-6779
▁sinema	-6780
▁muay	-6781
▁hasar	-6782
emektedir	-6783
▁Abdül	-6784
▁garip	-6785
▁cami	-6786
▁düğün	-6787
ülmüş	-6788
▁meyve	-6789
veya	-6790
49	-6791
▁Tav	-6792
▁kılı	-6793
▁evr	-6794
barı	-6795
▁Polis	-6796
▁daima	-6797
dava	-6798
OM	-6799
▁yönde	-6800
▁sorunlar	-6801
▁Soru	-6802
▁Şen	-6803
▁anlamak	-6804
▁sigorta	-6805
stagram	-6806
araj	-6807
istler	-6808
▁bağlan	-6809
İs	-6810
▁Rek	-6811
ağının	-6812
▁Hişam	-6813
▁Fotoğraf	-6814
▁Biraz	-6815
▁tef	-6816
▁okur	-6817
üks	-6818
idi	-6819
▁deri	-6820
▁konuyu	-6821
▁ısrar	-6822
▁ayakta	-6823
▁öncelik	-6824
▁kursu	-6825
▁Hanım	-6826
bahar	-6827
▁edilerek	-6828
▁Ge	-6829
lilerin	-6830
▁derken	-6831
▁naz	-6832
▁Padişah	-6833
ilerde	-6834
▁evinde	-6835
▁kiralama	-6836
eğine	-6837
▁sembol	-6838
▁rüya	-6839
▁kred	-6840
sav	-6841
▁masraf	-6842
▁güvenliği	-6843
▁gözleri	-6844
aydı	-6845
▁Müzik	-6846
şamba	-6847
ayas	-6848
▁Enerji	-6849
▁gelmektedir	-6850
şembe	-6851
▁Birinci	-6852
▁sığ	-6853
▁İnşaat	-6854
▁edici	-6855
▁yakala	-6856
▁önümüzdeki	-6857
▁alanlar	-6858
▁link	-6859
▁Projesi	-6860
▁MAD	-6861
▁Târîh	-6862
▁belgesi	-6863
▁Sistemi	-6864
▁tepk	-6865
▁aydınlat	-6866
âye	-6867
▁nez	-6868
▁yaptığımız	-6869
▁Şeyh	-6870
cağız	-6871
▁yapması	-6872
▁Yönetimi	-6873
▁Proje	-6874
▁sözleşme	-6875
we	-6876
▁mm	-6877
▁çıkardı	-6878
▁tipi	-6879
▁örgütü	-6880
otos	-6881
▁III	-6882
▁uyandır	-6883
▁sigort	-6884
▁sizleri	-6885
▁sermaye	-6886
▁sağlığı	-6887
ende	-6888
mini	-6889
▁kendileri	-6890
▁olmanın	-6891
danın	-6892
▁kapital	-6893
büs	-6894
▁hikây	-6895
ükle	-6896
▁Ph	-6897
▁kıyı	-6898
▁kırık	-6899
zan	-6900
▁şehri	-6901
▁Nev	-6902
için	-6903
39	-6904
▁göğüs	-6905
▁ederler	-6906
lerdeki	-6907
emiyor	-6908
▁çalışmak	-6909
eşme	-6910
▁dalga	-6911
37	-6912
omo	-6913
▁kahve	-6914
▁silin	-6915
Ama	-6916
ates	-6917
ladım	-6918
sk	-6919
▁dalg	-6920
▁doğa	-6921
▁çekin	-6922
luğun	-6923
▁seyret	-6924
▁bildirdi	-6925
omp	-6926
▁öfk	-6927
▁lig	-6928
▁benimle	-6929
▁Mahkemesi	-6930
▁mağdur	-6931
▁senar	-6932
▁birliği	-6933
▁Başv	-6934
▁sıfır	-6935
▁Karab	-6936
▁Satış	-6937
▁tahta	-6938
avuş	-6939
▁Selim	-6940
▁TBMM	-6941
▁som	-6942
▁numaralı	-6943
▁Kocaeli	-6944
▁hatt	-6945
▁göze	-6946
▁kalıp	-6947
▁kısmını	-6948
▁Karak	-6949
▁yıllardır	-6950
▁yürü	-6951
▁devir	-6952
▁ulaşmak	-6953
abilmesi	-6954
100	-6955
lıyorum	-6956
▁Mel	-6957
▁Tanı	-6958
▁etmeyi	-6959
▁ceph	-6960
▁Herkes	-6961
▁sorgu	-6962
tein	-6963
lidir	-6964
▁demokratik	-6965
ağında	-6966
▁2007	-6967
▁anlar	-6968
▁tüketim	-6969
out	-6970
▁tren	-6971
▁Rapor	-6972
isindeki	-6973
▁doğu	-6974
laşması	-6975
▁Kayseri	-6976
▁süreçte	-6977
▁teker	-6978
▁sevgili	-6979
▁Saf	-6980
Ay	-6981
▁zehir	-6982
▁kaçak	-6983
▁canlandır	-6984
▁kullanı	-6985
amızda	-6986
▁annesi	-6987
▁öğrenmek	-6988
▁başladım	-6989
▁erişim	-6990
▁niteli	-6991
▁mecbur	-6992
▁adresi	-6993
▁riv	-6994
▁kulüp	-6995
desi	-6996
▁ordus	-6997
▁özgü	-6998
▁Gıda	-6999
▁yılının	-7000
ohn	-7001
▁iPhone	-7002
▁damar	-7003
▁kişiyi	-7004
▁emniyet	-7005
▁Üyesi	-7006
▁diyorum	-7007
▁garant	-7008
▁yerleri	-7009
▁kanat	-7010
▁zul	-7011
▁Euro	-7012
▁Toplam	-7013
▁boyun	-7014
▁Sol	-7015
▁nem	-7016
▁Teb	-7017
▁Ho	-7018
▁Cumartesi	-7019
”.	-7020
ılabilecek	-7021
▁alanlarda	-7022
▁iyileştir	-7023
ılmak	-7024
▁nam	-7025
▁keyf	-7026
▁Fen	-7027
kusuz	-7028
▁psikolojik	-7029
▁Ruh	-7030
▁birşey	-7031
▁Banka	-7032
ji	-7033
ektif	-7034
▁Rah	-7035
▁Aşk	-7036
gul	-7037
▁çalışmaya	-7038
unlar	-7039
▁Uzman	-7040
▁tamamlan	-7041
mediğini	-7042
▁2/1	-7043
▁kendinizi	-7044
▁ırk	-7045
▁evin	-7046
▁petrol	-7047
▁kaydı	-7048
ünc	-7049
▁tazmin	-7050
▁siyasal	-7051
▁yapmanız	-7052
▁kalacak	-7053
▁budur	-7054
sis	-7055
▁yazdığı	-7056
▁toh	-7057
▁bıraktı	-7058
malarını	-7059
giliz	-7060
▁gemi	-7061
▁Sonr	-7062
▁olabilirsiniz	-7063
YA	-7064
▁Ziy	-7065
▁çekiyor	-7066
▁görüyoruz	-7067
▁anlayışı	-7068
▁uygulanan	-7069
und	-7070
ılab	-7071
ukur	-7072
▁bozul	-7073
▁aran	-7074
▁Resmi	-7075
▁çekim	-7076
▁arayan	-7077
▁cinayet	-7078
▁onlardan	-7079
kınma	-7080
örd	-7081
ûlullah	-7082
▁yüzlerce	-7083
▁Sekret	-7084
▁hakkını	-7085
▁diplo	-7086
▁süper	-7087
▁yansıt	-7088
Bur	-7089
tre	-7090
amuk	-7091
▁Yapı	-7092
caya	-7093
uğla	-7094
▁havuz	-7095
ebileceği	-7096
şek	-7097
▁soruşturma	-7098
▁baştan	-7099
▁Ala	-7100
▁tör	-7101
▁çıktığı	-7102
zir	-7103
luğa	-7104
▁ec	-7105
29	-7106
▁geride	-7107
▁1/1	-7108
memiz	-7109
▁akış	-7110
▁icra	-7111
▁oyunun	-7112
▁oluşur	-7113
▁kullanılabilir	-7114
▁isterim	-7115
▁özet	-7116
▁Zor	-7117
uhaf	-7118
44	-7119
priz	-7120
ges	-7121
▁planı	-7122
▁karşılıklı	-7123
▁büyüme	-7124
beri	-7125
▁Trump	-7126
▁metrek	-7127
▁York	-7128
▁tarafında	-7129
▁ömür	-7130
güt	-7131
▁firmamız	-7132
▁genişlet	-7133
▁festiv	-7134
▁İlç	-7135
▁alıcı	-7136
▁Mehmed	-7137
▁istedim	-7138
▁görevlendir	-7139
▁komşu	-7140
talyan	-7141
▁kurmak	-7142
▁Baba	-7143
alel	-7144
▁ibaret	-7145
sh	-7146
▁Gelen	-7147
▁açıldı	-7148
▁Servisi	-7149
▁mesle	-7150
▁Yun	-7151
▁bunlardan	-7152
▁Çay	-7153
▁65	-7154
▁duygusal	-7155
▁Yazar	-7156
▁AT	-7157
▁Tasarım	-7158
OĞ	-7159
dağı	-7160
▁Dan	-7161
▁Teknoloji	-7162
▁Kulübü	-7163
▁mali	-7164
çilik	-7165
ÜRK	-7166
kz	-7167
▁yapmayı	-7168
▁beslenme	-7169
allı	-7170
▁istediğini	-7171
lamayı	-7172
▁Maç	-7173
▁Lev	-7174
paz	-7175
▁rahatlıkla	-7176
65	-7177
▁dönüp	-7178
▁mit	-7179
▁uygulamaları	-7180
▁fırsatı	-7181
▁3/	-7182
▁doğan	-7183
▁gösterdiği	-7184
▁Psik	-7185
▁kazandı	-7186
▁Sch	-7187
ceğini	-7188
▁Bazen	-7189
uşturucu	-7190
▁Edir	-7191
▁vefat	-7192
▁bizlere	-7193
▁yaptığını	-7194
izmin	-7195
▁koku	-7196
▁Stan	-7197
▁almıştır	-7198
▁gelmişti	-7199
▁Orhan	-7200
ilenin	-7201
▁durumun	-7202
▁Hunlar	-7203
▁karışık	-7204
oter	-7205
ılmaya	-7206
▁tarafı	-7207
▁Bet	-7208
▁emekli	-7209
▁altındaki	-7210
üman	-7211
▁bilinc	-7212
▁delil	-7213
cıları	-7214
▁ürünlerin	-7215
▁coş	-7216
▁Edebiyat	-7217
imini	-7218
Baş	-7219
▁sporcu	-7220
▁titr	-7221
▁karşımıza	-7222
▁log	-7223
▁utan	-7224
OT	-7225
▁400	-7226
▁hekim	-7227
▁fen	-7228
peryal	-7229
▁olabilecek	-7230
▁aksine	-7231
▁şair	-7232
▁gereksin	-7233
▁ortada	-7234
sün	-7235
ube	-7236
▁44	-7237
▁dışına	-7238
▁Mesela	-7239
▁hakkındaki	-7240
▁girer	-7241
▁ortasında	-7242
unuza	-7243
▁dosy	-7244
▁Mekk	-7245
ılığı	-7246
▁Etkin	-7247
▁başarısız	-7248
▁geldik	-7249
▁Mağ	-7250
alimanı	-7251
umun	-7252
▁çalıştı	-7253
▁hepsini	-7254
▁sof	-7255
ımlı	-7256
▁sus	-7257
33	-7258
▁MADDE	-7259
nü	-7260
▁değerlendirme	-7261
▁bulur	-7262
▁bulunduğunu	-7263
balaj	-7264
▁makyaj	-7265
▁idare	-7266
▁panel	-7267
▁yur	-7268
▁ayda	-7269
sesuar	-7270
gur	-7271
▁kıyas	-7272
▁bekleyen	-7273
▁Yatırım	-7274
mıyorum	-7275
▁Londra	-7276
▁Bebek	-7277
▁Bodrum	-7278
türü	-7279
▁Sun	-7280
▁topluluk	-7281
▁Nitekim	-7282
▁Emek	-7283
▁ücreti	-7284
▁ikram	-7285
▁hayli	-7286
▁koruy	-7287
▁ran	-7288
▁seçenekleri	-7289
▁Fik	-7290
▁İL	-7291
▁mağaz	-7292
▁başlamıştı	-7293
eceğine	-7294
▁Lisans	-7295
▁tarihinden	-7296
unuzun	-7297
İl	-7298
▁Anayasa	-7299
ste	-7300
ceğim	-7301
▁beslen	-7302
▁ürünün	-7303
▁sanay	-7304
▁va	-7305
ketbol	-7306
▁İspanya	-7307
▁Kaymakam	-7308
▁açan	-7309
▁Mahmut	-7310
ecik	-7311
▁Mor	-7312
▁Doğal	-7313
▁sisteminin	-7314
kas	-7315
▁potansiyel	-7316
▁şeref	-7317
▁erkekler	-7318
edeniyet	-7319
▁tıpkı	-7320
âk	-7321
▁Günümüzde	-7322
▁Lim	-7323
▁istanbul	-7324
luğunu	-7325
▁üretilen	-7326
iğeri	-7327
▁bank	-7328
▁9.	-7329
▁vel	-7330
mus	-7331
▁sahil	-7332
▁koca	-7333
▁devleti	-7334
▁söyledik	-7335
▁kutu	-7336
▁Me	-7337
▁Ajans	-7338
▁sözcük	-7339
▁lek	-7340
▁Saray	-7341
▁imzalan	-7342
▁verilecek	-7343
▁He	-7344
obot	-7345
▁mıs	-7346
▁Çak	-7347
▁gücünü	-7348
▁Adalet	-7349
mıştım	-7350
tük	-7351
▁10.	-7352
▁Prens	-7353
▁oynan	-7354
▁öğrencileri	-7355
▁Farklı	-7356
▁öldü	-7357
▁Bül	-7358
▁etken	-7359
iyorsunuz	-7360
tılı	-7361
▁işyer	-7362
▁karşısına	-7363
▁mikro	-7364
▁bonus	-7365
200	-7366
amayan	-7367
▁hitap	-7368
▁saatlerinde	-7369
▁taht	-7370
▁Sizin	-7371
ürriyet	-7372
▁kül	-7373
LU	-7374
▁olgun	-7375
abilmektedir	-7376
▁47	-7377
▁kula	-7378
▁miktarı	-7379
▁kalmak	-7380
alog	-7381
▁sonradan	-7382
▁Pay	-7383
ndeki	-7384
▁Yoksa	-7385
▁istey	-7386
ledim	-7387
▁Hes	-7388
.10	-7389
▁anlatır	-7390
▁Kaya	-7391
▁denem	-7392
▁gündüz	-7393
SB	-7394
ilmelidir	-7395
▁kaldığı	-7396
▁tayin	-7397
▁evi	-7398
▁beklenen	-7399
▁muhalef	-7400
▁aşkın	-7401
▁uzay	-7402
▁Digit	-7403
liğiyle	-7404
▁düşüş	-7405
▁39	-7406
▁gibidir	-7407
▁haberleri	-7408
Er	-7409
usundaki	-7410
tikleri	-7411
▁oranda	-7412
▁bakar	-7413
avi	-7414
▁atık	-7415
▁yerlere	-7416
▁Devam	-7417
▁kaybetti	-7418
▁sürecinde	-7419
!..	-7420
▁Bo	-7421
▁başladığı	-7422
▁Faz	-7423
▁mekaniz	-7424
oper	-7425
▁milletvekili	-7426
▁yeterince	-7427
ach	-7428
▁yapılmaktadır	-7429
▁bahar	-7430
▁Özgür	-7431
▁redde	-7432
▁Bölgesi	-7433
▁etrafında	-7434
lamaları	-7435
▁sınırları	-7436
▁görünen	-7437
▁Sün	-7438
mara	-7439
▁rö	-7440
üphan	-7441
▁küf	-7442
▁icin	-7443
▁ibadet	-7444
gâh	-7445
▁getirir	-7446
▁sizlerle	-7447
▁çevresinde	-7448
▁fabrika	-7449
Lİ	-7450
imizle	-7451
▁olanı	-7452
▁Ale	-7453
▁çizgi	-7454
▁doğrusu	-7455
▁antren	-7456
▁sunum	-7457
▁bitki	-7458
ımdan	-7459
takım	-7460
▁Komutan	-7461
▁dönemin	-7462
▁gelişme	-7463
▁dola	-7464
▁versiyon	-7465
▁Kredi	-7466
▁büyüy	-7467
▁izlemek	-7468
emiştir	-7469
▁yönetmen	-7470
▁yürüm	-7471
▁İşlem	-7472
▁dayanıklı	-7473
▁maalesef	-7474
Hayır	-7475
ülecek	-7476
▁alana	-7477
engiz	-7478
▁numarası	-7479
▁çizg	-7480
▁kargo	-7481
▁vade	-7482
▁sahne	-7483
▁merkezinde	-7484
IZ	-7485
▁şartı	-7486
▁TÜ	-7487
-10	-7488
▁sesle	-7489
▁Yabancı	-7490
▁geb	-7491
▁Oku	-7492
AC	-7493
sever	-7494
▁Barış	-7495
ester	-7496
▁örneği	-7497
▁Size	-7498
IS	-7499
▁3/1	-7500
▁evvel	-7501
rit	-7502
▁sermay	-7503
▁banyo	-7504
▁Kızıl	-7505
▁Pa	-7506
▁çekir	-7507
Kar	-7508
▁tarzı	-7509
▁çıkması	-7510
▁kuy	-7511
▁olduğunun	-7512
▁pu	-7513
▁ziyade	-7514
TÜ	-7515
ill	-7516
▁Vide	-7517
▁Yönetmeli	-7518
▁saati	-7519
▁çıl	-7520
ding	-7521
▁belge	-7522
aseb	-7523
uki	-7524
▁İsa	-7525
.»	-7526
▁ilişkileri	-7527
▁Hotel	-7528
▁Taraf	-7529
ağan	-7530
▁Kahraman	-7531
▁Bayramı	-7532
▁dediği	-7533
▁manevi	-7534
▁gene	-7535
das	-7536
▁edeceğiz	-7537
▁çığ	-7538
cağım	-7539
▁dernek	-7540
▁üstlen	-7541
▁âlem	-7542
▁Ağır	-7543
▁inceleme	-7544
▁Tesis	-7545
malısınız	-7546
▁DE	-7547
▁çik	-7548
bank	-7549
▁mevsim	-7550
6)	-7551
yid	-7552
▁sunmaktadır	-7553
▁sandal	-7554
▁Boğaz	-7555
▁kadını	-7556
▁makinesi	-7557
▁anlamında	-7558
ördüncü	-7559
▁sömür	-7560
▁Edirne	-7561
LERİ	-7562
▁şeri	-7563
▁fuar	-7564
ebî	-7565
uvalet	-7566
lanmaktadır	-7567
▁BM	-7568
lanabilir	-7569
▁zamanla	-7570
duğunda	-7571
▁Pen	-7572
incan	-7573
▁Sakarya	-7574
▁Sad	-7575
▁Des	-7576
5)	-7577
▁sorular	-7578
ınıyor	-7579
liydi	-7580
tüm	-7581
▁birinde	-7582
▁zamana	-7583
▁Roman	-7584
▁kilometre	-7585
▁işini	-7586
▁oluşum	-7587
işe	-7588
▁fet	-7589
▁bizimle	-7590
▁yapıyoruz	-7591
▁teşekkürler	-7592
▁göv	-7593
▁süz	-7594
▁Malz	-7595
▁anlamlı	-7596
▁düzgün	-7597
▁John	-7598
▁Net	-7599
▁kulüb	-7600
ıbbi	-7601
▁Onların	-7602
▁zirv	-7603
▁girmiş	-7604
▁Op	-7605
madım	-7606
▁tamir	-7607
▁verilmiştir	-7608
▁bisiklet	-7609
▁sunduğu	-7610
▁vic	-7611
▁Komisyonu	-7612
▁Işık	-7613
▁alkol	-7614
çileri	-7615
aberî	-7616
çın	-7617
▁dünyayı	-7618
▁gitmiş	-7619
▁Pazartesi	-7620
▁daire	-7621
▁Kazan	-7622
hiş	-7623
▁katıldığı	-7624
▁İr	-7625
▁koyu	-7626
▁Silah	-7627
-8	-7628
ood	-7629
▁duyarlı	-7630
leyece	-7631
▁Ail	-7632
▁garanti	-7633
▁Soy	-7634
▁Yaşam	-7635
▁sıradan	-7636
eker	-7637
▁yeryüz	-7638
▁hip	-7639
▁hareketi	-7640
▁cennet	-7641
▁yoksul	-7642
▁günleri	-7643
▁yoluna	-7644
▁ailesi	-7645
▁Hacı	-7646
▁bölgeye	-7647
▁Caddesi	-7648
▁ayrıntılı	-7649
▁seyr	-7650
▁bilmiyor	-7651
▁Takım	-7652
▁Person	-7653
ts	-7654
▁Jo	-7655
▁eşlik	-7656
▁etkiley	-7657
▁Bunlardan	-7658
▁geçirmek	-7659
▁Dönem	-7660
▁şartları	-7661
▁kade	-7662
itif	-7663
ûm	-7664
âde	-7665
▁suyun	-7666
▁şekli	-7667
▁birinc	-7668
▁tabak	-7669
▁yağı	-7670
▁Mücad	-7671
▁gümüş	-7672
▁razı	-7673
▁Ortak	-7674
yat	-7675
çilerin	-7676
ebilmesi	-7677
▁satışa	-7678
▁sayılır	-7679
▁Hoca	-7680
▁zararlı	-7681
masız	-7682
▁kariyer	-7683
▁birbirlerine	-7684
rî	-7685
▁Gece	-7686
▁defter	-7687
teydi	-7688
▁uydur	-7689
▁onlarla	-7690
▁deprem	-7691
▁Orada	-7692
▁şifr	-7693
▁Servis	-7694
▁ötürü	-7695
ks	-7696
▁ittifak	-7697
▁ris	-7698
▁baktığ	-7699
teryal	-7700
▁devamlı	-7701
▁mobilya	-7702
lüğünü	-7703
oks	-7704
▁Diz	-7705
▁bağlam	-7706
▁düzenlediği	-7707
▁haş	-7708
umuzun	-7709
▁misiniz	-7710
▁açma	-7711
▁Şehit	-7712
raç	-7713
▁İtalyan	-7714
ğının	-7715
ayol	-7716
▁projeler	-7717
▁dü	-7718
yaz	-7719
▁olmuyor	-7720
▁Çarşamba	-7721
▁işletme	-7722
▁düzenleme	-7723
▁mide	-7724
▁kiralık	-7725
rimenkul	-7726
▁seviyorum	-7727
▁eşliğinde	-7728
▁pis	-7729
▁Göl	-7730
▁milletvekil	-7731
▁dışındaki	-7732
▁kaşığı	-7733
LARI	-7734
artman	-7735
po	-7736
▁konular	-7737
▁aylarında	-7738
▁bulunmak	-7739
▁büyüt	-7740
▁Cil	-7741
▁Kud	-7742
34	-7743
▁olmazsa	-7744
larıdır	-7745
tral	-7746
▁olağanüstü	-7747
▁ÖZ	-7748
▁görevini	-7749
▁varmış	-7750
▁gönderdi	-7751
ava	-7752
▁iletişime	-7753
▁Kontrol	-7754
▁ihal	-7755
▁köken	-7756
Siz	-7757
▁alırken	-7758
▁Geçtiğimiz	-7759
▁Ba	-7760
▁Anne	-7761
▁döviz	-7762
▁değişikliği	-7763
▁çır	-7764
▁pahalı	-7765
▁me	-7766
▁katkıda	-7767
▁seçimi	-7768
▁Twitter	-7769
▁duyduğu	-7770
▁eseri	-7771
▁Ulu	-7772
set	-7773
▁biliyoruz	-7774
-7	-7775
▁öldürül	-7776
▁ülkelerin	-7777
▁Müs	-7778
▁Yakın	-7779
▁Senin	-7780
çılık	-7781
çılar	-7782
▁müst	-7783
▁cevab	-7784
▁lideri	-7785
▁üyelik	-7786
dırma	-7787
▁kons	-7788
▁İnsanlar	-7789
▁sürüyor	-7790
▁Kork	-7791
▁ahşap	-7792
▁arkadaşları	-7793
ılav	-7794
ASI	-7795
▁nereye	-7796
▁Kâ	-7797
▁laf	-7798
▁Hu	-7799
▁traf	-7800
daroğlu	-7801
▁materyal	-7802
▁verg	-7803
▁keşfet	-7804
mec	-7805
▁Model	-7806
ole	-7807
▁Da	-7808
İH	-7809
▁gev	-7810
zel	-7811
▁ajans	-7812
esidir	-7813
▁ettiğimiz	-7814
ânı	-7815
▁gelişen	-7816
▁yıla	-7817
manıza	-7818
▁gözet	-7819
ovyet	-7820
▁dert	-7821
▁kalıyor	-7822
▁Çöz	-7823
▁Tep	-7824
▁saatleri	-7825
▁belirgin	-7826
api	-7827
eddin	-7828
▁prim	-7829
▁savaşı	-7830
ersiniz	-7831
▁Engel	-7832
▁Perşembe	-7833
▁köylü	-7834
▁girip	-7835
▁geçerek	-7836
▁Gazete	-7837
umuzu	-7838
▁peyn	-7839
▁çıkarak	-7840
▁Hanbel	-7841
▁Tiyatro	-7842
ğur	-7843
iret	-7844
▁aldık	-7845
▁Hazret	-7846
lý	-7847
aşı	-7848
cın	-7849
▁horm	-7850
▁Temsil	-7851
▁ettiğiniz	-7852
▁kendime	-7853
▁250	-7854
▁bilgilere	-7855
▁Akadem	-7856
cusu	-7857
gresi	-7858
▁Mir	-7859
▁görülmektedir	-7860
▁oynay	-7861
▁Mik	-7862
▁ard	-7863
kap	-7864
lerinize	-7865
▁boğaz	-7866
▁Diş	-7867
▁taze	-7868
▁Kapı	-7869
▁doku	-7870
▁alınmış	-7871
leştirme	-7872
▁2019	-7873
lası	-7874
▁sürpriz	-7875
▁sizden	-7876
▁rahatsızlık	-7877
▁ekonomi	-7878
▁ayağa	-7879
olojisi	-7880
▁Örgüt	-7881
▁Ermeni	-7882
▁Pla	-7883
▁isteyenler	-7884
▁hayatına	-7885
▁plana	-7886
▁cevabı	-7887
gut	-7888
▁matematik	-7889
ayıt	-7890
isar	-7891
▁Piyas	-7892
▁Federasyonu	-7893
▁oyunlar	-7894
▁Cevap	-7895
▁Emre	-7896
aklar	-7897
▁Enstitüsü	-7898
▁radyo	-7899
amadı	-7900
▁Daire	-7901
▁musunuz	-7902
ive	-7903
▁veriler	-7904
posta	-7905
lob	-7906
▁46	-7907
▁bitti	-7908
abileceğini	-7909
▁Taberî	-7910
üsünü	-7911
▁döner	-7912
▁enfeksiyon	-7913
▁sakın	-7914
▁fan	-7915
▁olsaydı	-7916
▁görevl	-7917
likten	-7918
▁Yaklaşık	-7919
▁Oğuz	-7920
▁karşılığında	-7921
▁AD	-7922
▁maçında	-7923
▁yardımıyla	-7924
GS	-7925
iver	-7926
▁kamyon	-7927
▁mim	-7928
gari	-7929
▁koyun	-7930
▁yapılmıştır	-7931
ERS	-7932
▁1-	-7933
▁Ziyaret	-7934
▁yüzüne	-7935
▁Def	-7936
▁İndir	-7937
itasyon	-7938
▁kızın	-7939
▁Nik	-7940
▁alanına	-7941
▁HDP	-7942
vin	-7943
▁Emir	-7944
▁3,	-7945
▁Azer	-7946
▁demokrasi	-7947
32	-7948
▁gelmez	-7949
▁montaj	-7950
▁yara	-7951
▁Dal	-7952
▁post	-7953
▁kuvvetli	-7954
▁gibiydi	-7955
▁cemaat	-7956
oo	-7957
▁terörist	-7958
▁güv	-7959
▁konferans	-7960
▁çıkma	-7961
▁arşiv	-7962
azz	-7963
ıplak	-7964
▁denize	-7965
▁tl	-7966
▁Birleşik	-7967
▁kısmında	-7968
▁varlığı	-7969
▁sayısının	-7970
▁Kupası	-7971
▁Kullanıcı	-7972
▁başından	-7973
▁Metin	-7974
▁Manisa	-7975
▁farklılık	-7976
▁Üs	-7977
▁Böyl	-7978
▁istenen	-7979
UK	-7980
labilir	-7981
▁geçirdi	-7982
▁alabilir	-7983
▁çekmek	-7984
▁halkının	-7985
▁Şanlı	-7986
AĞ	-7987
liğinden	-7988
▁düşündüğ	-7989
izli	-7990
▁Seb	-7991
▁vermesi	-7992
▁araçları	-7993
tası	-7994
▁reng	-7995
▁Köpr	-7996
larımızda	-7997
▁derg	-7998
▁kamuoy	-7999
▁fabrik	-8000
▁Mekke	-8001
ısındaki	-8002
▁cezalandır	-8003
42	-8004
▁hızı	-8005
▁Yahud	-8006
▁kurulmuş	-8007
ecekler	-8008
maktaydı	-8009
▁Ermen	-8010
▁koleksiyon	-8011
▁sağlanması	-8012
▁yardımı	-8013
▁kel	-8014
▁olayları	-8015
▁yemeği	-8016
▁akla	-8017
▁bununla	-8018
▁2006	-8019
▁değişen	-8020
▁dönemlerde	-8021
▁meşhur	-8022
▁etiket	-8023
▁birtakım	-8024
▁1/2	-8025
▁gerekirse	-8026
▁şaşkın	-8027
▁bölümde	-8028
▁ikna	-8029
▁gram	-8030
kenti	-8031
▁Kör	-8032
amayacak	-8033
▁fikr	-8034
▁Para	-8035
▁Hareket	-8036
▁istemez	-8037
▁bileti	-8038
▁deli	-8039
ceğiz	-8040
adın	-8041
▁bekleniyor	-8042
liyoruz	-8043
▁kâğı	-8044
▁merh	-8045
tıklarını	-8046
▁rivayet	-8047
▁firmalar	-8048
AF	-8049
▁Jandarma	-8050
dön	-8051
▁konuya	-8052
▁cerrah	-8053
esir	-8054
▁itibarı	-8055
üğün	-8056
▁bilem	-8057
▁Festivali	-8058
öly	-8059
▁satır	-8060
akal	-8061
IŞ	-8062
▁seviş	-8063
▁örgütün	-8064
▁açıklaması	-8065
LAN	-8066
▁çam	-8067
▁Giriş	-8068
▁aktivit	-8069
▁kimseye	-8070
▁merhaba	-8071
▁malzemeleri	-8072
▁kodu	-8073
▁hemş	-8074
Or	-8075
▁yolları	-8076
▁görevli	-8077
▁noktasında	-8078
▁ant	-8079
▁inceley	-8080
▁gözler	-8081
▁tablet	-8082
▁bizden	-8083
burg	-8084
▁Hıristiyan	-8085
▁lam	-8086
▁müsa	-8087
akları	-8088
▁hükümdar	-8089
esince	-8090
▁Terör	-8091
▁caz	-8092
▁İmparatorluğu	-8093
▁satı	-8094
▁Asker	-8095
▁tey	-8096
inler	-8097
▁idari	-8098
▁120	-8099
çuklu	-8100
▁inanılmaz	-8101
▁Aziz	-8102
▁amaçla	-8103
▁Vüc	-8104
▁tüy	-8105
▁gerçeği	-8106
mad	-8107
▁190	-8108
darı	-8109
▁hil	-8110
umuş	-8111
▁çalışmalarına	-8112
▁stres	-8113
leniyor	-8114
▁tebrik	-8115
▁kaybı	-8116
▁75	-8117
▁herkesi	-8118
▁yüzünü	-8119
jinal	-8120
âil	-8121
esto	-8122
avv	-8123
▁protokol	-8124
▁yakal	-8125
▁yi	-8126
▁geçmek	-8127
ilmek	-8128
▁Avustur	-8129
bert	-8130
iraat	-8131
▁seri	-8132
▁Birkaç	-8133
▁Renk	-8134
▁iklim	-8135
▁haftada	-8136
▁Por	-8137
▁lay	-8138
▁giderken	-8139
▁ente	-8140
▁gülüms	-8141
▁akım	-8142
linik	-8143
ülüyor	-8144
▁kader	-8145
▁devreye	-8146
▁yakış	-8147
▁kişilere	-8148
▁Halil	-8149
▁payı	-8150
ğiyle	-8151
larımızla	-8152
▁Örnek	-8153
▁başlamıştır	-8154
▁Yavuz	-8155
▁edenler	-8156
7)	-8157
▁yapılabilir	-8158
OP	-8159
▁tamamı	-8160
▁yahut	-8161
▁Dek	-8162
▁karşılığı	-8163
adoğu	-8164
▁önemlisi	-8165
▁bulma	-8166
▁yemin	-8167
▁varsay	-8168
▁ilçesi	-8169
▁eklem	-8170
▁uyarınca	-8171
▁bırakıp	-8172
▁Ebû	-8173
▁kazanmak	-8174
▁düşündü	-8175
use	-8176
▁çil	-8177
larsa	-8178
▁öğrencilere	-8179
▁koordin	-8180
▁Oper	-8181
▁endüstr	-8182
▁tarafa	-8183
name	-8184
▁irti	-8185
▁yararlı	-8186
▁yılına	-8187
▁Görüş	-8188
▁disiplin	-8189
▁yerinden	-8190
▁ordusu	-8191
▁Seçim	-8192
▁babasının	-8193
mali	-8194
▁ocak	-8195
ash	-8196
▁bugünkü	-8197
lülük	-8198
▁Ölüm	-8199
▁sitesinde	-8200
▁beklet	-8201
▁gerçekleşti	-8202
Son	-8203
▁Fet	-8204
▁bomb	-8205
ışlı	-8206
urfa	-8207
▁Bol	-8208
▁42	-8209
▁aracın	-8210
iner	-8211
▁ilanı	-8212
▁alet	-8213
▁çıkarmak	-8214
cik	-8215
▁anım	-8216
▁akademik	-8217
ebilirim	-8218
laç	-8219
isti	-8220
▁ödey	-8221
▁Online	-8222
cev	-8223
▁Gec	-8224
ılışı	-8225
▁Uk	-8226
▁özür	-8227
▁kayıtlı	-8228
don	-8229
▁mağaza	-8230
▁Yarış	-8231
▁şiddetli	-8232
işle	-8233
▁gezeg	-8234
▁kapsamlı	-8235
▁tavsiy	-8236
▁Ağa	-8237
îm	-8238
▁Ünlü	-8239
▁vizyon	-8240
▁lüks	-8241
eğini	-8242
▁tali	-8243
▁masaj	-8244
mesin	-8245
▁sitemiz	-8246
▁örneğin	-8247
▁değerleri	-8248
▁Kaş	-8249
▁şimdiden	-8250
▁Uğur	-8251
▁zik	-8252
▁kullanılarak	-8253
▁Tük	-8254
▁denen	-8255
hay	-8256
▁Tez	-8257
▁slog	-8258
▁çeş	-8259
▁saniye	-8260
▁imam	-8261
▁Salı	-8262
çer	-8263
▁kendisinden	-8264
▁işlemler	-8265
▁Arslan	-8266
▁Emin	-8267
▁tuhaf	-8268
ınd	-8269
▁paralel	-8270
baycan	-8271
▁sanal	-8272
emeyecek	-8273
tıp	-8274
▁kalitesi	-8275
▁ayrım	-8276
sından	-8277
lıyoruz	-8278
fez	-8279
inizden	-8280
▁Öğrenci	-8281
▁etkileri	-8282
▁asit	-8283
▁maz	-8284
▁2/2	-8285
▁olmasın	-8286
▁yazıyor	-8287
▁Çiçek	-8288
▁tarifi	-8289
▁mahkeme	-8290
▁(2)	-8291
▁direk	-8292
▁mahalle	-8293
▁kuşat	-8294
ılırken	-8295
▁hizmetler	-8296
▁karmaşık	-8297
lamalar	-8298
▁Denizli	-8299
▁kontrolü	-8300
▁bizler	-8301
▁bilmek	-8302
▁çocuklara	-8303
▁grafik	-8304
▁Elbette	-8305
▁yürek	-8306
▁Köyü	-8307
▁gününde	-8308
▁kek	-8309
▁enflasyon	-8310
gaç	-8311
▁bıçak	-8312
▁Akıl	-8313
▁mail	-8314
▁Motor	-8315
▁şirketin	-8316
espor	-8317
▁heykel	-8318
▁İlgili	-8319
ebilmektedir	-8320
▁ata	-8321
iyetle	-8322
▁merdiven	-8323
▁Sovyet	-8324
▁Kardeş	-8325
▁karbon	-8326
▁canım	-8327
▁herhalde	-8328
▁Koc	-8329
▁verilmiş	-8330
▁Kore	-8331
▁olmasının	-8332
▁Mimar	-8333
kaya	-8334
▁sistemin	-8335
▁Türkmen	-8336
▁Kadınlar	-8337
▁Hangi	-8338
▁ısıt	-8339
▁şö	-8340
▁Kılıçdaroğlu	-8341
▁paz	-8342
▁Yorum	-8343
▁Ur	-8344
▁Cep	-8345
layınız	-8346
âhil	-8347
malıyız	-8348
ümde	-8349
▁istasyon	-8350
41	-8351
▁firmaları	-8352
üğü	-8353
ps	-8354
▁makine	-8355
▁zamandır	-8356
▁yaralı	-8357
▁yoldan	-8358
hu	-8359
▁Valisi	-8360
lub	-8361
▁eşsiz	-8362
gül	-8363
▁lâ	-8364
buki	-8365
▁deh	-8366
▁tedarik	-8367
lasman	-8368
▁sürdü	-8369
abi	-8370
▁vatandaşlar	-8371
yn	-8372
▁verip	-8373
▁kaybeden	-8374
▁dürüst	-8375
..."	-8376
▁görünür	-8377
▁edecektir	-8378
▁maçta	-8379
▁sultan	-8380
▁egzersiz	-8381
78	-8382
▁şi	-8383
▁KAR	-8384
▁alay	-8385
▁olanların	-8386
▁çapında	-8387
▁tatmin	-8388
▁köt	-8389
dığın	-8390
▁sayg	-8391
▁kolaylıkla	-8392
▁Selçuklu	-8393
▁tutmak	-8394
▁boşluk	-8395
▁zihn	-8396
rın	-8397
▁Bahçeli	-8398
▁konuları	-8399
rosoft	-8400
▁estetik	-8401
▁diğeri	-8402
▁kullanıcılar	-8403
▁çıkmak	-8404
▁Geliş	-8405
ükleer	-8406
▁Marmara	-8407
eyiz	-8408
▁istediğim	-8409
▁engelli	-8410
▁çadır	-8411
▁yıllarında	-8412
▁eleman	-8413
ulma	-8414
bı	-8415
▁başa	-8416
▁ismini	-8417
▁çalıştığı	-8418
▁geliyordu	-8419
▁uzaklaştır	-8420
▁iğ	-8421
▁şahit	-8422
▁zincir	-8423
▁tahsil	-8424
▁müd	-8425
▁Göster	-8426
▁nihayet	-8427
▁dokuz	-8428
▁bekledi	-8429
▁liste	-8430
▁Komut	-8431
▁yapış	-8432
yaspor	-8433
▁uğur	-8434
▁yürürlüğe	-8435
▁Sonunda	-8436
▁Sorum	-8437
▁Bes	-8438
▁perde	-8439
▁Soğ	-8440
▁Öy	-8441
▁girmek	-8442
çası	-8443
▁bulabil	-8444
▁döndür	-8445
▁tarihine	-8446
▁getiriyor	-8447
▁Yüce	-8448
▁yıkama	-8449
top	-8450
▁faaliyetleri	-8451
On	-8452
▁11.	-8453
▁ölçek	-8454
mışlar	-8455
▁hesabı	-8456
▁silahlı	-8457
▁pir	-8458
▁Mis	-8459
eciler	-8460
▁gü	-8461
▁lab	-8462
tihar	-8463
ure	-8464
▁zem	-8465
▁İnce	-8466
▁Başvuru	-8467
▁kullanıyor	-8468
cağına	-8469
▁dondur	-8470
çısı	-8471
▁giyim	-8472
tığınız	-8473
▁intik	-8474
▁Ateş	-8475
▁rüzgar	-8476
▁plastik	-8477
▁Okulu	-8478
▁müte	-8479
▁alev	-8480
▁medyum	-8481
▁fe	-8482
▁tıkan	-8483
▁rica	-8484
masıdır	-8485
yr	-8486
onlar	-8487
devu	-8488
▁Finans	-8489
▁yarattığı	-8490
▁Rüya	-8491
ux	-8492
▁ülkelerde	-8493
▁uygulamaya	-8494
▁blok	-8495
▁atmos	-8496
▁set	-8497
▁işletim	-8498
▁çöp	-8499
▁uzanan	-8500
▁uyu	-8501
▁müzak	-8502
▁sağlamaktadır	-8503
▁Konseyi	-8504
▁taşıyor	-8505
▁eğlence	-8506
▁Gümüş	-8507
31	-8508
în	-8509
▁ölen	-8510
▁Dost	-8511
▁boşal	-8512
▁festival	-8513
▁imar	-8514
emişti	-8515
ÜL	-8516
▁arkadaşım	-8517
ûr	-8518
▁Akşam	-8519
dıköy	-8520
doğu	-8521
▁İnan	-8522
▁alakalı	-8523
▁Pap	-8524
▁Boş	-8525
▁orij	-8526
▁müslüm	-8527
▁Bi	-8528
▁nereden	-8529
68	-8530
▁öte	-8531
▁otor	-8532
▁geleceği	-8533
▁izledi	-8534
▁saçma	-8535
▁Günlük	-8536
▁burun	-8537
▁verdik	-8538
▁organize	-8539
▁soruları	-8540
▁inf	-8541
unacak	-8542
▁ağırlık	-8543
▁Dairesi	-8544
▁tüketic	-8545
iliğin	-8546
ırt	-8547
▁sunar	-8548
▁sektörü	-8549
▁gergin	-8550
kender	-8551
▁rüzg	-8552
▁topla	-8553
▁milletin	-8554
▁Bekir	-8555
▁antik	-8556
’’	-8557
▁Geçmiş	-8558
irt	-8559
iyeli	-8560
▁yı	-8561
del	-8562
▁pap	-8563
larımızdan	-8564
.(	-8565
▁samimi	-8566
▁katli	-8567
▁cis	-8568
▁bölgesi	-8569
▁saatte	-8570
▁varlığını	-8571
▁sinyal	-8572
▁Ortadoğu	-8573
▁işken	-8574
TK	-8575
▁Japonya	-8576
▁talimat	-8577
▁raporu	-8578
▁getirildi	-8579
▁kurtu	-8580
].	-8581
cuk	-8582
▁sahipleri	-8583
▁istatistik	-8584
▁üzeri	-8585
▁yayımlanan	-8586
▁niye	-8587
taç	-8588
▁neticesinde	-8589
▁Balkan	-8590
ight	-8591
▁uyuşturucu	-8592
iyen	-8593
▁kopar	-8594
▁Buh	-8595
▁tutun	-8596
▁başladılar	-8597
▁heyet	-8598
▁izleyen	-8599
▁edeb	-8600
ülerek	-8601
▁ER	-8602
▁düzel	-8603
▁adamları	-8604
▁olmasından	-8605
▁kanaat	-8606
▁gönüllü	-8607
▁Samsung	-8608
▁görüşme	-8609
▁Kerim	-8610
rü	-8611
▁hayatında	-8612
resyon	-8613
▁ihmal	-8614
ym	-8615
▁finansal	-8616
ilya	-8617
▁bulacak	-8618
▁âyet	-8619
▁2005	-8620
▁Doğum	-8621
▁karn	-8622
!!	-8623
▁hakaret	-8624
▁oturan	-8625
▁kimin	-8626
MS	-8627
▁ayet	-8628
▁buluştur	-8629
▁çırp	-8630
▁medeniyet	-8631
▁Medine	-8632
▁sistemini	-8633
▁beklemek	-8634
▁bildirildi	-8635
▁Bos	-8636
▁bardak	-8637
dig	-8638
▁arıyor	-8639
▁2-	-8640
▁Hollanda	-8641
ith	-8642
▁oto	-8643
▁musun	-8644
laşmış	-8645
▁İle	-8646
vanı	-8647
▁ülkeye	-8648
▁içerir	-8649
▁piyasaya	-8650
▁tescil	-8651
yurt	-8652
▁Sinan	-8653
▁muhafaza	-8654
▁açar	-8655
ebilm	-8656
▁turn	-8657
▁çağdaş	-8658
▁koydu	-8659
▁doktora	-8660
tah	-8661
▁bayrak	-8662
▁Sık	-8663
▁düşer	-8664
onsor	-8665
▁görme	-8666
▁41	-8667
▁Sayf	-8668
Dün	-8669
ikal	-8670
▁Hastalık	-8671
ûn	-8672
▁Mün	-8673
▁olgu	-8674
▁bakarak	-8675
▁noktaya	-8676
▁oluşturmak	-8677
▁programları	-8678
▁ekipman	-8679
▁sanıyor	-8680
▁Sokak	-8681
elif	-8682
▁bölgenin	-8683
▁kısaca	-8684
▁Tev	-8685
▁seksi	-8686
poz	-8687
ülasyon	-8688
ERİ	-8689
▁kılıç	-8690
▁olmasıdır	-8691
▁yürütülen	-8692
▁Zeytin	-8693
▁gittim	-8694
▁topar	-8695
▁koz	-8696
▁zorundadır	-8697
şa	-8698
▁dinlen	-8699
▁turist	-8700
▁yaşamını	-8701
▁mel	-8702
cin	-8703
kiralama	-8704
▁gözü	-8705
9)	-8706
▁sizinle	-8707
▁kavga	-8708
pınar	-8709
graf	-8710
▁raf	-8711
▁müthiş	-8712
▁Kem	-8713
▁tarihsel	-8714
66	-8715
▁somut	-8716
▁üzün	-8717
▁kaynakları	-8718
▁forma	-8719
uyorlar	-8720
▁muc	-8721
abildi	-8722
▁istiyordu	-8723
maktadırlar	-8724
▁inşallah	-8725
▁gereğ	-8726
▁Col	-8727
▁öbür	-8728
▁dizisi	-8729
▁ilim	-8730
▁Söy	-8731
çü	-8732
dığının	-8733
▁Dağı	-8734
▁ilgilendir	-8735
85	-8736
▁Musa	-8737
▁kaybed	-8738
▁kazı	-8739
tiz	-8740
iliğinden	-8741
ilirken	-8742
▁geliştirme	-8743
▁Yay	-8744
▁ihale	-8745
▁Trans	-8746
SY	-8747
▁obj	-8748
▁Pak	-8749
▁öğrenildi	-8750
▁değilse	-8751
ebileceğiniz	-8752
▁milliyet	-8753
▁Gazetesi	-8754
▁danışman	-8755
ille	-8756
▁oğlum	-8757
▁oynanan	-8758
▁içten	-8759
▁uygulamalar	-8760
▁zorla	-8761
İstanbul	-8762
▁Kayıt	-8763
▁Geri	-8764
▁leh	-8765
▁vazgeçilmez	-8766
▁tohum	-8767
▁sars	-8768
▁Mari	-8769
▁sistemine	-8770
▁gönderilen	-8771
▁iyilik	-8772
▁protein	-8773
ivan	-8774
amıyorum	-8775
sus	-8776
▁arkasından	-8777
▁geçip	-8778
▁Bülent	-8779
▁suya	-8780
▁Savunma	-8781
▁Uç	-8782
UT	-8783
▁verilmektedir	-8784
Tar	-8785
▁Basın	-8786
ilecektir	-8787
EŞ	-8788
amaşır	-8789
▁yargılan	-8790
▁ispat	-8791
üh	-8792
▁reddet	-8793
▁kategorisinde	-8794
Ak	-8795
▁evrak	-8796
▁Azerbaycan	-8797
şun	-8798
▁başlay	-8799
ahil	-8800
▁zah	-8801
▁köprü	-8802
▁Teşkil	-8803
▁yakıt	-8804
▁yazan	-8805
ırdı	-8806
▁satışı	-8807
fir	-8808
▁İçer	-8809
▁İŞ	-8810
yeri	-8811
▁Çel	-8812
▁Yahudi	-8813
▁düşünceler	-8814
▁düzenlendi	-8815
ME	-8816
!’	-8817
▁epey	-8818
▁durumuna	-8819
▁açığa	-8820
▁fıkr	-8821
▁Alış	-8822
▁Sözleş	-8823
Kur	-8824
▁Toprak	-8825
▁TC	-8826
▁olayın	-8827
▁Canlı	-8828
▁dinamik	-8829
▁Air	-8830
▁içeriği	-8831
▁kriter	-8832
▁komutan	-8833
▁yazarı	-8834
ld	-8835
▁hazırlanmış	-8836
▁teknolojik	-8837
▁Değişik	-8838
▁Atilla	-8839
▁ekledi	-8840
antol	-8841
▁melek	-8842
▁aksesuar	-8843
▁yavru	-8844
▁önder	-8845
göz	-8846
▁toplantısı	-8847
stra	-8848
kili	-8849
▁yüzyılda	-8850
melerine	-8851
▁meşgul	-8852
▁fı	-8853
stil	-8854
ozof	-8855
▁ro	-8856
▁başlık	-8857
lamada	-8858
ski	-8859
▁koruyucu	-8860
▁Tanr	-8861
▁sakat	-8862
▁değişiklikler	-8863
enize	-8864
simum	-8865
▁klima	-8866
▁ın	-8867
ladılar	-8868
▁Ec	-8869
▁profil	-8870
▁yarısı	-8871
▁kg	-8872
▁filmin	-8873
▁mutf	-8874
▁Sim	-8875
ilmeye	-8876
▁önlemek	-8877
▁Türklerin	-8878
▁hur	-8879
▁etmekte	-8880
ÖL	-8881
asın	-8882
▁oluşturduğu	-8883
▁sıcaklık	-8884
acağımız	-8885
dilik	-8886
xy	-8887
▁Suudi	-8888
▁boru	-8889
iyye	-8890
▁Eg	-8891
▁ulaştı	-8892
ırda	-8893
▁inci	-8894
▁tarafta	-8895
▁br	-8896
▁yerleşim	-8897
▁Makin	-8898
▁haksız	-8899
▁Üret	-8900
▁Fi	-8901
▁Konut	-8902
▁söylediği	-8903
▁çür	-8904
▁ikili	-8905
sed	-8906
ümüze	-8907
ğimde	-8908
▁Müzesi	-8909
▁emperyal	-8910
▁dekorasyon	-8911
▁yazdı	-8912
ont	-8913
2017	-8914
▁2004	-8915
▁gidiş	-8916
▁kaçınılmaz	-8917
enlerin	-8918
▁başkenti	-8919
▁mesela	-8920
2’	-8921
▁bakımdan	-8922
kış	-8923
▁işten	-8924
▁feth	-8925
▁misin	-8926
▁fikri	-8927
▁sürüm	-8928
Ah	-8929
▁etkiler	-8930
urun	-8931
▁aldığını	-8932
▁getirilen	-8933
▁rekor	-8934
▁izlem	-8935
▁buton	-8936
ılacaktır	-8937
▁Arabistan	-8938
indan	-8939
▁Bakım	-8940
▁krem	-8941
▁gölg	-8942
ekili	-8943
▁Com	-8944
ındık	-8945
culuk	-8946
▁çiğ	-8947
▁Hükümet	-8948
▁boşan	-8949
▁Esas	-8950
lüğüne	-8951
▁şarj	-8952
mik	-8953
▁tac	-8954
▁çeliş	-8955
▁sevinç	-8956
▁aşamasında	-8957
▁kilis	-8958
▁Üniversite	-8959
▁yetişkin	-8960
▁isteği	-8961
▁uf	-8962
▁sözünü	-8963
▁Gol	-8964
ect	-8965
ehr	-8966
▁isimler	-8967
▁Dergisi	-8968
▁kadına	-8969
▁verin	-8970
▁etkileş	-8971
▁Salih	-8972
▁istikrar	-8973
▁özellikler	-8974
▁düzenlenecek	-8975
▁toplantısında	-8976
▁vicdan	-8977
ndaki	-8978
ocuğ	-8979
▁Cengiz	-8980
eyt	-8981
▁yöntemleri	-8982
0,	-8983
lenerek	-8984
▁yaşamış	-8985
▁katk	-8986
▁okula	-8987
▁ediyorlar	-8988
▁Git	-8989
▁Feth	-8990
▁1000	-8991
▁fit	-8992
55	-8993
▁merkezine	-8994
▁robot	-8995
▁hukuki	-8996
▁yıldan	-8997
▁Veli	-8998
▁kib	-8999
▁kızar	-9000
▁Mete	-9001
▁tarihte	-9002
▁sök	-9003
▁şok	-9004
rağı	-9005
▁AV	-9006
uluğu	-9007
▁Tro	-9008
▁Kış	-9009
gilizce	-9010
yol	-9011
▁rız	-9012
▁vadeli	-9013
Çok	-9014
▁Başar	-9015
▁yapacağı	-9016
▁ita	-9017
▁alımı	-9018
▁so	-9019
▁sef	-9020
irkin	-9021
▁sis	-9022
▁Aslan	-9023
▁Tedav	-9024
▁özgün	-9025
▁bozukluk	-9026
▁oluyordu	-9027
▁09	-9028
▁Havalimanı	-9029
mî	-9030
▁teklifi	-9031
▁Sohbet	-9032
sinden	-9033
▁almayı	-9034
▁vas	-9035
ref	-9036
TA	-9037
önü	-9038
▁Hasta	-9039
ucusu	-9040
▁imalat	-9041
▁Fel	-9042
▁çatı	-9043
▁Ku	-9044
▁mevki	-9045
dola	-9046
▁bekliyoruz	-9047
▁Digiturk	-9048
▁bakımı	-9049
▁Je	-9050
▁Çeşit	-9051
lıyordu	-9052
▁laborat	-9053
▁dib	-9054
enç	-9055
akkak	-9056
▁semin	-9057
▁ihlal	-9058
▁ilişkisi	-9059
▁varol	-9060
gelen	-9061
umuza	-9062
▁taksit	-9063
gn	-9064
▁Geliştir	-9065
▁bedava	-9066
▁içerisine	-9067
▁maddesinin	-9068
▁otuz	-9069
▁43	-9070
▁Güncel	-9071
evî	-9072
▁oyuncak	-9073
▁oldular	-9074
▁Dol	-9075
TR	-9076
düler	-9077
▁Amerikalı	-9078
▁konaklama	-9079
▁Selçuk	-9080
dinde	-9081
▁porno	-9082
▁buğ	-9083
▁yazma	-9084
▁vermeden	-9085
row	-9086
▁elbise	-9087
▁yükselen	-9088
▁taahh	-9089
▁tuvalet	-9090
▁insanlık	-9091
▁çalışıyoruz	-9092
▁geliştirmek	-9093
vat	-9094
bit	-9095
▁gösterilen	-9096
odu	-9097
ifi	-9098
▁Seyyid	-9099
ayolu	-9100
hid	-9101
▁alanlarında	-9102
▁yaralandı	-9103
El	-9104
▁maddeler	-9105
▁Aday	-9106
▁uzaktan	-9107
leyse	-9108
▁Sc	-9109
onspor	-9110
STAN	-9111
▁Harek	-9112
own	-9113
▁Şanlıurfa	-9114
▁izni	-9115
jan	-9116
▁Bize	-9117
▁Kilis	-9118
▁layık	-9119
▁Eser	-9120
dere	-9121
▁Reis	-9122
▁YÖ	-9123
▁isimleri	-9124
▁gereklidir	-9125
▁aldıkları	-9126
▁Amaç	-9127
▁keskin	-9128
Ima	-9129
▁Konferans	-9130
ebileceğini	-9131
▁eğil	-9132
▁orijinal	-9133
▁diliyorum	-9134
▁yoksun	-9135
ish	-9136
dunuz	-9137
▁hel	-9138
lobal	-9139
▁Camii	-9140
▁topu	-9141
▁hizmete	-9142
▁bedeli	-9143
▁yüzyılın	-9144
ülük	-9145
▁12.	-9146
▁seçeneği	-9147
▁Resûlullah	-9148
ano	-9149
Bil	-9150
▁katılımcı	-9151
sizin	-9152
▁altından	-9153
▁direkt	-9154
▁üyeler	-9155
dukça	-9156
▁rezervasyon	-9157
▁değişken	-9158
▁Demek	-9159
İV	-9160
▁İstik	-9161
▁konusundaki	-9162
▁acel	-9163
▁kitabın	-9164
▁pozitif	-9165
▁bası	-9166
▁bakıyor	-9167
▁Yargı	-9168
▁teşkilat	-9169
▁AY	-9170
▁kullanmaya	-9171
▁lise	-9172
▁dâhil	-9173
▁Alı	-9174
▁görünüş	-9175
▁esnek	-9176
................	-9177
▁Aleyhisselâmın	-9178
lamanın	-9179
▁58	-9180
▁mezh	-9181
▁öykü	-9182
▁hızlandır	-9183
▁Geb	-9184
ildiğinde	-9185
idir	-9186
▁kötülük	-9187
▁dönen	-9188
▁skor	-9189
▁unutmayın	-9190
▁uydu	-9191
▁Dis	-9192
▁Üçüncü	-9193
▁etmeden	-9194
▁yurtdış	-9195
▁nik	-9196
▁Şer	-9197
▁semt	-9198
luğunda	-9199
▁itiraf	-9200
▁kırk	-9201
▁Karaman	-9202
▁desen	-9203
▁bilgilerin	-9204
omuz	-9205
▁Bon	-9206
▁olurken	-9207
▁öğrenme	-9208
▁aldır	-9209
ence	-9210
▁öteki	-9211
▁Avusturya	-9212
▁Şey	-9213
panyol	-9214
▁gazete	-9215
▁Ukray	-9216
▁yalı	-9217
abilme	-9218
▁ülkemizin	-9219
▁Balıkesir	-9220
▁çalışırken	-9221
▁ilerleyen	-9222
▁olabileceğini	-9223
tüğü	-9224
nel	-9225
▁şarap	-9226
▁okumak	-9227
▁Ob	-9228
▁kaynaklanan	-9229
▁Çavuş	-9230
tiğiniz	-9231
ımlar	-9232
Eğer	-9233
lip	-9234
▁yerin	-9235
▁koşulları	-9236
▁biliyordu	-9237
ayıp	-9238
ınma	-9239
▁sahte	-9240
▁yüce	-9241
▁eli	-9242
▁Hoc	-9243
▁biber	-9244
iller	-9245
▁Siyah	-9246
▁ikiye	-9247
▁odaklı	-9248
▁hek	-9249
▁Önemli	-9250
▁Şeri	-9251
▁Modern	-9252
dy	-9253
lusu	-9254
▁metr	-9255
mece	-9256
▁yaptığım	-9257
larımın	-9258
ox	-9259
▁kesi	-9260
▁yaşar	-9261
▁istifa	-9262
madığını	-9263
▁Nef	-9264
▁ambalaj	-9265
▁sizlerin	-9266
not	-9267
▁Hâ	-9268
▁sürüc	-9269
▁bizleri	-9270
gazi	-9271
laşan	-9272
▁ülkemiz	-9273
▁Keş	-9274
▁derhal	-9275
▁forum	-9276
▁ceb	-9277
▁600	-9278
çık	-9279
brek	-9280
▁lik	-9281
maların	-9282
▁öyl	-9283
▁Ze	-9284
▁Üretim	-9285
iğe	-9286
▁çoğunlukla	-9287
iğin	-9288
▁mekân	-9289
▁tamamla	-9290
▁titiz	-9291
eğinin	-9292
ânî	-9293
idor	-9294
rist	-9295
▁lezzetli	-9296
▁müddet	-9297
▁Sk	-9298
▁zamanın	-9299
▁istemiyor	-9300
üzün	-9301
▁etsin	-9302
▁haftalık	-9303
▁minik	-9304
biye	-9305
▁endek	-9306
▁seviyede	-9307
astik	-9308
▁PR	-9309
▁Personel	-9310
▁Muğla	-9311
▁yaratan	-9312
▁çarpış	-9313
▁durdu	-9314
▁kaya	-9315
zaman	-9316
▁durak	-9317
▁Yönetmelik	-9318
▁yolun	-9319
▁katılma	-9320
işli	-9321
▁göreve	-9322
▁artar	-9323
▁Kel	-9324
igür	-9325
▁denli	-9326
▁nöbet	-9327
▁Muhar	-9328
▁haberler	-9329
▁Mosk	-9330
umda	-9331
olik	-9332
▁İlçesi	-9333
▁uygar	-9334
▁lak	-9335
akar	-9336
▁sağlay	-9337
▁girdiği	-9338
▁Ra	-9339
▁Kuvvetleri	-9340
▁planda	-9341
▁ortamı	-9342
▁oynayan	-9343
embe	-9344
utin	-9345
▁yüklen	-9346
▁Play	-9347
▁bağlıdır	-9348
EP	-9349
▁zan	-9350
dığınızda	-9351
▁belirsiz	-9352
▁eyalet	-9353
ita	-9354
▁dünyasında	-9355
▁alçak	-9356
▁boyn	-9357
▁açıp	-9358
▁kağı	-9359
▁verebilir	-9360
▁Kesin	-9361
▁midir	-9362
▁Dört	-9363
▁sözlerini	-9364
▁Normal	-9365
▁sanık	-9366
▁Dikkat	-9367
eten	-9368
▁olduğumu	-9369
▁Mücadele	-9370
▁kurdu	-9371
▁havada	-9372
▁muhtemelen	-9373
▁Kudüs	-9374
▁BİR	-9375
▁Num	-9376
▁talebi	-9377
▁gökyüz	-9378
ýþ	-9379
8)	-9380
▁kampan	-9381
▁kaleme	-9382
▁anlamıyla	-9383
▁menf	-9384
▁Evren	-9385
▁korunması	-9386
İB	-9387
▁Sn	-9388
▁etmeniz	-9389
▁nis	-9390
▁kavg	-9391
oğol	-9392
▁düşünen	-9393
▁Mühendisliği	-9394
▁![	-9395
▁paylaşmak	-9396
ion	-9397
▁ihraç	-9398
▁kalmadı	-9399
:0	-9400
▁Tip	-9401
▁başlıca	-9402
▁Microsoft	-9403
asebe	-9404
▁‘’	-9405
▁Ekonomi	-9406
▁seçilen	-9407
▁İskender	-9408
▁içe	-9409
▁ışığı	-9410
▁bırakın	-9411
▁sıkış	-9412
yolu	-9413
ÖR	-9414
▁atış	-9415
▁yazılmış	-9416
ölüm	-9417
Bak	-9418
▁eliyle	-9419
ert	-9420
miz	-9421
▁kedi	-9422
▁sınıfı	-9423
▁dükkan	-9424
▁Had	-9425
▁Lat	-9426
▁altyapı	-9427
▁öyk	-9428
▁sıç	-9429
▁benims	-9430
▁Sine	-9431
▁büyüsü	-9432
▁dilim	-9433
▁açmak	-9434
io	-9435
portaj	-9436
▁Maliye	-9437
lini	-9438
▁Kitabı	-9439
▁Ata	-9440
ümin	-9441
▁ayrılan	-9442
▁parayı	-9443
tiş	-9444
▁karın	-9445
▁fatur	-9446
▁kitapları	-9447
▁İsviç	-9448
??	-9449
▁vol	-9450
▁Dalı	-9451
▁Forum	-9452
▁bakıldığında	-9453
▁görebilirsiniz	-9454
▁Sektör	-9455
▁fatura	-9456
▁referans	-9457
▁parçaları	-9458
▁sorunsuz	-9459
tikçe	-9460
▁Bolu	-9461
▁zorlu	-9462
yaman	-9463
▁Bilin	-9464
▁gereksiz	-9465
ğince	-9466
▁Macar	-9467
yada	-9468
▁şansı	-9469
▁çözümü	-9470
▁durumlar	-9471
▁olayların	-9472
▁Süt	-9473
▁geçtiği	-9474
▁Star	-9475
▁organiz	-9476
ünür	-9477
▁Birbir	-9478
▁demişti	-9479
▁tırman	-9480
▁beraberinde	-9481
▁açıklan	-9482
idin	-9483
edikleri	-9484
âv	-9485
▁Hedef	-9486
▁aldığım	-9487
itan	-9488
67	-9489
▁oluşturur	-9490
▁meşru	-9491
ÜK	-9492
▁Mate	-9493
▁lit	-9494
▁riski	-9495
▁ilham	-9496
▁organik	-9497
▁lev	-9498
acası	-9499
▁kitaplar	-9500
▁Sana	-9501
▁gözyaş	-9502
▁iştir	-9503
▁öğle	-9504
▁kast	-9505
▁yolculuğ	-9506
▁şirketleri	-9507
▁biçimi	-9508
▁görmez	-9509
▁Bunları	-9510
ebir	-9511
▁yapmaktadır	-9512
▁ölçüm	-9513
▁gelmek	-9514
▁toplanan	-9515
▁ilgisi	-9516
▁nazar	-9517
▁Albay	-9518
▁KK	-9519
▁miras	-9520
birliği	-9521
lamen	-9522
▁mesleki	-9523
IT	-9524
▁konulu	-9525
▁araçlar	-9526
▁yanıl	-9527
▁Bür	-9528
▁Koruma	-9529
▁Kadıköy	-9530
▁ceh	-9531
▁geldim	-9532
▁dağıtım	-9533
üphe	-9534
▁IV	-9535
PG	-9536
▁milyonlarca	-9537
▁len	-9538
olos	-9539
inizle	-9540
ehri	-9541
▁Akın	-9542
▁Gay	-9543
▁Sıcak	-9544
▁ifadesi	-9545
ılmalıdır	-9546
▁yapılarak	-9547
▁Hafta	-9548
▁Salonu	-9549
▁hid	-9550
▁dünyadaki	-9551
▁tıklayın	-9552
▁sesini	-9553
▁Üzerine	-9554
âd	-9555
▁Öztürk	-9556
dığımı	-9557
andum	-9558
▁sünnet	-9559
▁anlatı	-9560
▁cadde	-9561
▁yapay	-9562
▁Durum	-9563
kes	-9564
▁Sağlığı	-9565
ımızdan	-9566
▁stratejik	-9567
cell	-9568
miyorum	-9569
▁itibarıyla	-9570
izmi	-9571
▁mağlup	-9572
▁istenilen	-9573
▁ihtiyaçlarını	-9574
sir	-9575
▁Trabzonspor	-9576
▁itaat	-9577
▁arayış	-9578
▁atılan	-9579
▁olacaktı	-9580
▁teknolojisi	-9581
▁kâr	-9582
amda	-9583
▁muam	-9584
▁amir	-9585
▁eğilim	-9586
ürt	-9587
▁sisteme	-9588
▁etmem	-9589
encere	-9590
▁ümit	-9591
▁tv	-9592
▁bakmak	-9593
▁projenin	-9594
▁tazminat	-9595
▁fakir	-9596
▁müsab	-9597
▁2003	-9598
▁Bilimleri	-9599
▁Kalkınma	-9600
▁olursunuz	-9601
▁hükümeti	-9602
nav	-9603
düğünde	-9604
otosiklet	-9605
iet	-9606
▁Kırmızı	-9607
▁tutk	-9608
▁şimdiye	-9609
▁Vatandaş	-9610
▁düzeni	-9611
▁kullanır	-9612
▁pilot	-9613
▁gecesi	-9614
▁görmeye	-9615
▁sözcü	-9616
ağından	-9617
alik	-9618
▁aldığımız	-9619
▁ötesinde	-9620
▁19.	-9621
▁tarihten	-9622
▁şehirde	-9623
▁çoktan	-9624
▁başarılar	-9625
▁tadını	-9626
EZ	-9627
▁başlığı	-9628
uel	-9629
yacağız	-9630
▁vakti	-9631
▁Nes	-9632
değer	-9633
▁kalkış	-9634
▁kurduğu	-9635
▁duv	-9636
▁Fab	-9637
▁Kanal	-9638
▁sesli	-9639
▁hattı	-9640
atlı	-9641
▁ailenin	-9642
▁lastik	-9643
▁konuyla	-9644
▁Büyükel	-9645
▁arıza	-9646
▁kombin	-9647
lazığ	-9648
▁Ref	-9649
▁ölümü	-9650
adam	-9651
▁Komutanı	-9652
▁zira	-9653
ilerinde	-9654
▁savaşa	-9655
▁Ziraat	-9656
lıkların	-9657
▁harc	-9658
▁kapısı	-9659
▁görülüyor	-9660
mazlar	-9661
▁donanım	-9662
dedi	-9663
▁durumunu	-9664
omotiv	-9665
▁sunucu	-9666
▁sahipliği	-9667
▁Sınır	-9668
As	-9669
▁bizde	-9670
▁kaygı	-9671
▁Şam	-9672
▁Nas	-9673
▁Yılı	-9674
▁karan	-9675
masi	-9676
▁sindir	-9677
▁tarihinin	-9678
larınızda	-9679
ekom	-9680
▁liman	-9681
DV	-9682
-20	-9683
▁Tuz	-9684
▁girecek	-9685
▁Turgut	-9686
▁yetki	-9687
▁dostu	-9688
▁sayılan	-9689
lil	-9690
▁cümle	-9691
▁yazın	-9692
▁Acil	-9693
iyanet	-9694
▁ayrıldı	-9695
eysel	-9696
rib	-9697
▁projeleri	-9698
Yeni	-9699
mektir	-9700
▁peşinde	-9701
▁hayatının	-9702
arda	-9703
▁attığı	-9704
▁rejim	-9705
cüsü	-9706
berg	-9707
▁verdiğini	-9708
▁inanıyorum	-9709
▁müj	-9710
▁reç	-9711
▁Çank	-9712
▁değişimi	-9713
▁doğdu	-9714
▁Alp	-9715
▁Çocuklar	-9716
▁açtığı	-9717
▁Takımı	-9718
▁yazısı	-9719
▁Kesîr	-9720
▁tersine	-9721
▁eskiden	-9722
▁şap	-9723
tiğim	-9724
▁si	-9725
▁Kitab	-9726
__	-9727
▁listesi	-9728
▁olanları	-9729
▁Gülen	-9730
▁hakikat	-9731
▁düşünü	-9732
▁tehlike	-9733
ınızdan	-9734
ileriyle	-9735
▁istedikleri	-9736
melisiniz	-9737
▁şeytan	-9738
▁Nok	-9739
▁Sup	-9740
▁TÜRK	-9741
▁Cas	-9742
▁geçiren	-9743
1’	-9744
ılacağını	-9745
dükten	-9746
▁Çetin	-9747
▁sözlerine	-9748
▁kadros	-9749
▁ikamet	-9750
▁tamamladı	-9751
▁kucak	-9752
emem	-9753
▁Hil	-9754
-15	-9755
şak	-9756
uluş	-9757
▁verileri	-9758
▁tavuk	-9759
▁casino	-9760
▁za	-9761
olata	-9762
landırıcı	-9763
ng	-9764
BUL	-9765
▁aşık	-9766
▁dediğimiz	-9767
▁iktis	-9768
iyetin	-9769
▁hang	-9770
▁dolarlık	-9771
▁hamur	-9772
▁kalmıştı	-9773
▁kendinden	-9774
ame	-9775
▁Müst	-9776
▁nın	-9777
▁kaba	-9778
▁sıfat	-9779
▁stok	-9780
acaat	-9781
▁https	-9782
▁Kartal	-9783
memişti	-9784
▁Suç	-9785
▁damla	-9786
ersek	-9787
ahattin	-9788
82	-9789
▁sınırsız	-9790
▁niçin	-9791
▁gençler	-9792
▁olacağız	-9793
▁atmosfer	-9794
▁yükseldi	-9795
▁temsilcisi	-9796
▁Terc	-9797
▁İçişleri	-9798
▁dönük	-9799
▁ağac	-9800
▁Japon	-9801
▁Zeh	-9802
kurmay	-9803
▁Meydanı	-9804
▁kritik	-9805
▁Eve	-9806
▁otop	-9807
ersen	-9808
▁hissede	-9809
bakan	-9810
▁muhalefet	-9811
▁deplasman	-9812
▁ch	-9813
▁Günde	-9814
barat	-9815
▁idam	-9816
▁Kızı	-9817
▁Ağr	-9818
▁Hab	-9819
▁Müslümanlar	-9820
▁mat	-9821
amin	-9822
▁çekip	-9823
▁hic	-9824
▁Ki	-9825
▁gelebilir	-9826
▁bayanlar	-9827
▁ortamında	-9828
▁öğrencisi	-9829
▁verdiğimiz	-9830
mışlardır	-9831
▁Seni	-9832
lana	-9833
▁hissettir	-9834
inip	-9835
▁dördüncü	-9836
▁medyada	-9837
duklarını	-9838
▁aynen	-9839
uzun	-9840
▁Uzak	-9841
▁Eh	-9842
▁tavan	-9843
▁vatandaşların	-9844
▁fazlasıyla	-9845
▁Ayr	-9846
▁Mit	-9847
▁vurgulayan	-9848
▁çözümler	-9849
mil	-9850
▁düşmüş	-9851
▁EN	-9852
▁tutuklu	-9853
▁şüphesiz	-9854
sör	-9855
▁vermiştir	-9856
▁Biy	-9857
▁Yüksel	-9858
▁subay	-9859
▁kocaman	-9860
▁önemini	-9861
▁elden	-9862
▁gerekçesiyle	-9863
▁Du	-9864
▁vekil	-9865
▁mesajı	-9866
▁çanta	-9867
▁Şekil	-9868
▁mevzuat	-9869
▁sektörünün	-9870
▁kurma	-9871
▁anılan	-9872
▁kapıyı	-9873
HA	-9874
▁Reklam	-9875
▁pak	-9876
▁İhal	-9877
▁filozof	-9878
▁Moğol	-9879
▁Nakliyat	-9880
▁sergilen	-9881
▁sevdiği	-9882
▁dayanan	-9883
▁borc	-9884
▁Kongresi	-9885
▁aittir	-9886
▁protesto	-9887
▁sunmak	-9888
yaya	-9889
▁kendimizi	-9890
▁resimleri	-9891
rasi	-9892
▁hev	-9893
-19	-9894
▁açıklandı	-9895
▁Gr	-9896
▁sec	-9897
▁kapak	-9898
▁geçecek	-9899
▁deneyimi	-9900
▁Moskova	-9901
▁08	-9902
▁Gu	-9903
ington	-9904
▁asgari	-9905
▁kendinize	-9906
▁pantol	-9907
TM	-9908
obi	-9909
ğrul	-9910
▁Öde	-9911
▁hakem	-9912
▁Ez	-9913
▁mıdır	-9914
▁tarihe	-9915
▁resmen	-9916
▁etmel	-9917
yın	-9918
tıkça	-9919
▁Dayan	-9920
▁soluk	-9921
▁Hatay	-9922
▁şartlar	-9923
▁BİL	-9924
▁kaynaklı	-9925
▁cumhurbaş	-9926
▁oynadığı	-9927
▁Lab	-9928
abey	-9929
▁olas	-9930
▁haberdar	-9931
dıran	-9932
ğinizi	-9933
▁tüf	-9934
lanmaya	-9935
▁İşletme	-9936
eyş	-9937
▁takımın	-9938
▁zamanlı	-9939
▁sade	-9940
▁Koordin	-9941
▁etek	-9942
▁02	-9943
▁başladık	-9944
▁Yaşar	-9945
GB	-9946
latı	-9947
▁hedefi	-9948
▁Haberler	-9949
▁gönderildi	-9950
▁performansı	-9951
▁güçlük	-9952
▁Zar	-9953
▁3-	-9954
▁babam	-9955
▁hepimiz	-9956
▁donat	-9957
▁getirerek	-9958
▁kuz	-9959
îh	-9960
▁Ekonomik	-9961
▁IŞ	-9962
▁sir	-9963
▁sayısını	-9964
▁farkına	-9965
▁sunuyoruz	-9966
ılırsa	-9967
▁20.	-9968
▁işlen	-9969
Dr	-9970
▁Medya	-9971
▁Cin	-9972
ıh	-9973
▁fes	-9974
itör	-9975
zade	-9976
▁Herhangi	-9977
▁bölümünü	-9978
▁oluşturulan	-9979
▁Sanki	-9980
▁yut	-9981
▁onlarca	-9982
▁özelliklerini	-9983
avüz	-9984
▁çıplak	-9985
▁Zeyn	-9986
▁çılgın	-9987
▁günümüze	-9988
▁araştırmalar	-9989
▁Arapça	-9990
▁oturma	-9991
ayn	-9992
▁kurulum	-9993
▁sağladığı	-9994
▁eğlenc	-9995
▁Kategor	-9996
▁bilgilerini	-9997
▁Pal	-9998
▁diyordu	-9999
▁verdikleri	-10000
▁buldum	-10001
▁Koz	-10002
▁sıklıkla	-10003
▁uygulanır	-10004
)’	-10005
▁bekliyorum	-10006
▁Cor	-10007
▁ış	-10008
▁edilemez	-10009
elin	-10010
▁abon	-10011
▁21.	-10012
▁köl	-10013
▁anlatmak	-10014
▁almıştı	-10015
▁haric	-10016
▁00	-10017
▁Kendisi	-10018
▁masal	-10019
▁okuyan	-10020
▁tir	-10021
▁taşır	-10022
▁Video	-10023
▁dersi	-10024
Benim	-10025
.11.	-10026
▁bilinçli	-10027
▁Üskü	-10028
âs	-10029
▁randevu	-10030
▁maddenin	-10031
▁Char	-10032
▁49	-10033
▁ayrıc	-10034
ecilik	-10035
▁anlatım	-10036
▁düşünmek	-10037
▁başlı	-10038
▁kültürü	-10039
▁verdiler	-10040
unt	-10041
▁ov	-10042
usa	-10043
▁yapıldığını	-10044
▁bilmeyen	-10045
landığını	-10046
▁ex	-10047
▁konse	-10048
▁bildiği	-10049
▁ettiğim	-10050
▁dahilinde	-10051
arş	-10052
▁sağlama	-10053
▁devamı	-10054
tezi	-10055
▁savaşın	-10056
edin	-10057
beyaz	-10058
▁ulaşan	-10059
razam	-10060
▁trend	-10061
▁ÜN	-10062
cal	-10063
▁başlayarak	-10064
metik	-10065
▁Ukrayna	-10066
▁kasab	-10067
▁boyutu	-10068
▁(%	-10069
▁4,	-10070
STANBUL	-10071
▁dostluk	-10072
▁görüldü	-10073
▁olurlar	-10074
operatif	-10075
dis	-10076
▁Kuran	-10077
▁olursak	-10078
▁Arda	-10079
▁geçirdiği	-10080
hem	-10081
▁vermez	-10082
▁çirkin	-10083
▁Bakanlık	-10084
▁şan	-10085
▁Genellikle	-10086
▁yazılan	-10087
▁işleme	-10088
▁markası	-10089
▁Selam	-10090
▁yönetici	-10091
▁sendika	-10092
▁hamil	-10093
umuzda	-10094
oför	-10095
atçı	-10096
oni	-10097
▁Kişisel	-10098
▁gerektiren	-10099
▁süresince	-10100
▁Şeker	-10101
▁duyulan	-10102
▁kısmen	-10103
gini	-10104
▁bomba	-10105
▁vakt	-10106
cam	-10107
▁Cemal	-10108
▁istemiyorum	-10109
▁car	-10110
▁atama	-10111
lanıp	-10112
▁şeylerin	-10113
ald	-10114
▁domat	-10115
▁anlaya	-10116
▁Bid	-10117
▁zeytinya	-10118
zı	-10119
Gün	-10120
acaksınız	-10121
ılıyordu	-10122
:30	-10123
▁Ant	-10124
▁üreten	-10125
▁kaydeden	-10126
▁temsilcileri	-10127
▁erkeklerin	-10128
▁parma	-10129
Sİ	-10130
▁nakliye	-10131
▁sizde	-10132
▁go	-10133
▁Mag	-10134
▁farkınd	-10135
▁hormon	-10136
!)	-10137
che	-10138
▁edildiğini	-10139
▁posta	-10140
leşmiş	-10141
▁Elazığ	-10142
▁edemez	-10143
oban	-10144
▁Sigorta	-10145
▁fot	-10146
▁hür	-10147
▁Çat	-10148
▁İspanyol	-10149
77	-10150
kale	-10151
▁anket	-10152
▁bardağı	-10153
▁Türkç	-10154
jp	-10155
▁Mali	-10156
GK	-10157
▁çekerek	-10158
▁açıklamalarda	-10159
▁duyurdu	-10160
▁yapıyorum	-10161
▁Ülkemizde	-10162
▁gerekiyordu	-10163
▁tuttu	-10164
▁uzmanı	-10165
▁birlikt	-10166
▁maksimum	-10167
ellef	-10168
NA	-10169
▁Bayrak	-10170
tına	-10171
▁ilanları	-10172
▁getirmiş	-10173
▁ked	-10174
TV	-10175
▁mol	-10176
SD	-10177
▁gümrük	-10178
İC	-10179
▁Berlin	-10180
İnsan	-10181
▁İlan	-10182
▁hastaneye	-10183
iyete	-10184
▁gönl	-10185
▁İsveç	-10186
▁Gelin	-10187
▁yapacağız	-10188
▁Kadir	-10189
▁Fin	-10190
▁kardeşim	-10191
▁akraba	-10192
▁Afyon	-10193
oid	-10194
▁2002	-10195
▁görüp	-10196
▁kaplama	-10197
▁tüp	-10198
▁çalışmaların	-10199
ılımı	-10200
▁--	-10201
▁kud	-10202
▁cehenn	-10203
▁etkisini	-10204
▁olabileceği	-10205
▁başarıyla	-10206
miyordu	-10207
▁menfaat	-10208
▁dünyasının	-10209
▁boşalt	-10210
▁işletmeler	-10211
ürler	-10212
▁13.	-10213
▁To	-10214
▁Mutfak	-10215
▁söyleyerek	-10216
▁felaket	-10217
▁toplantıda	-10218
▁toplamda	-10219
▁Uzmanı	-10220
▁Olan	-10221
▁Adnan	-10222
eğinde	-10223
▁bulunmayan	-10224
▁kimseler	-10225
▁Diyanet	-10226
▁beyler	-10227
▁hocam	-10228
▁küp	-10229
pi	-10230
kul	-10231
▁gittikçe	-10232
Bel	-10233
eveyn	-10234
▁satılık	-10235
▁OL	-10236
▁çeyrek	-10237
▁05	-10238
▁hazin	-10239
▁yanından	-10240
▁bag	-10241
alaxy	-10242
▁Kuruluş	-10243
▁yaşamı	-10244
▁Ücretsiz	-10245
▁sarf	-10246
▁erdi	-10247
▁Şubesi	-10248
▁Sevgili	-10249
ereket	-10250
▁dikkati	-10251
ikler	-10252
▁kurumlar	-10253
▁Çocuğ	-10254
unum	-10255
çin	-10256
Ğİ	-10257
▁aklıma	-10258
▁Delâil	-10259
▁sesleri	-10260
▁yönelt	-10261
▁dönüm	-10262
ARA	-10263
ümüzü	-10264
▁örnekleri	-10265
▁Otobüs	-10266
▁Hor	-10267
▁hastane	-10268
dini	-10269
lov	-10270
▁ardı	-10271
ezz	-10272
leyebilirsiniz	-10273
SA	-10274
▁deyip	-10275
▁ülkeleri	-10276
▁kalması	-10277
▁veriyoruz	-10278
▁tetik	-10279
▁nadir	-10280
▁artıyor	-10281
▁annem	-10282
▁yağlı	-10283
▁Lütfen	-10284
▁Dub	-10285
rut	-10286
▁çı	-10287
ever	-10288
ATO	-10289
▁kapsamda	-10290
leşen	-10291
▁plaj	-10292
▁oluşturul	-10293
▁limon	-10294
▁180	-10295
▁dinlem	-10296
▁edilmelidir	-10297
▁gelişimi	-10298
▁yazmak	-10299
ames	-10300
osunu	-10301
▁Turan	-10302
▁tâ	-10303
▁Detay	-10304
ruz	-10305
icisi	-10306
▁yolla	-10307
▁burj	-10308
▁Instagram	-10309
adüf	-10310
▁fiyatlar	-10311
▁oturup	-10312
▁kavuştur	-10313
pagan	-10314
▁krizi	-10315
raj	-10316
▁yapıştır	-10317
▁sponsor	-10318
▁etmedi	-10319
▁kokusu	-10320
▁şikâyet	-10321
);	-10322
▁vuruş	-10323
▁yaptığınız	-10324
▁tahsis	-10325
▁etkileyen	-10326
usuyla	-10327
▁işine	-10328
▁sep	-10329
▁yaşamın	-10330
▁odasına	-10331
rid	-10332
▁firmaların	-10333
ech	-10334
▁oksi	-10335
▁mask	-10336
üsünde	-10337
▁sertifik	-10338
▁Teknoloj	-10339
▁(19	-10340
▁Rektör	-10341
▁emret	-10342
▁Davut	-10343
▁List	-10344
▁belgeler	-10345
▁temizliği	-10346
▁kurucu	-10347
▁sürdürüyor	-10348
Images	-10349
load	-10350
▁düşündüm	-10351
ümüzün	-10352
landırma	-10353
▁Eğ	-10354
▁Hepsi	-10355
alılar	-10356
▁neyse	-10357
▁sayfada	-10358
▁taahhüt	-10359
ason	-10360
tüel	-10361
▁İsviçre	-10362
▁tarihlerinde	-10363
acağına	-10364
▁ağrısı	-10365
▁hastanın	-10366
▁cüz	-10367
▁kana	-10368
▁rady	-10369
76	-10370
▁Yerel	-10371
▁Ola	-10372
irse	-10373
▁arma	-10374
▁bölgelerde	-10375
▁kılav	-10376
esun	-10377
▁vermişti	-10378
▁fin	-10379
▁suçlu	-10380
▁beton	-10381
▁kenara	-10382
▁aklım	-10383
▁Hunların	-10384
▁ertesi	-10385
zen	-10386
▁İnsanların	-10387
▁olmanız	-10388
▁intihar	-10389
III	-10390
▁göstererek	-10391
ebilirler	-10392
▁vazif	-10393
▁dünyası	-10394
▁yüklü	-10395
▁girerek	-10396
eğim	-10397
▁üyelerinin	-10398
▁kişiden	-10399
▁atarak	-10400
▁İlaç	-10401
▁bilgiyi	-10402
tive	-10403
mo	-10404
eyip	-10405
▁okuyucu	-10406
▁Cel	-10407
stri	-10408
▁Hızlı	-10409
▁evlat	-10410
▁Bilimler	-10411
▁döş	-10412
▁Müşteri	-10413
▁kusursuz	-10414
ılda	-10415
▁yakında	-10416
▁düşünerek	-10417
▁Genelkurmay	-10418
▁Unut	-10419
▁kalmaz	-10420
▁sorunların	-10421
▁Başsav	-10422
▁Fizik	-10423
▁01	-10424
▁çatış	-10425
▁derler	-10426
▁yaban	-10427
▁geleni	-10428
oğul	-10429
4’	-10430
▁Onur	-10431
▁Çoğu	-10432
▁yılların	-10433
▁Kahv	-10434
▁evrensel	-10435
▁ila	-10436
▁parçalan	-10437
▁stil	-10438
note	-10439
▁çant	-10440
▁arkasına	-10441
niz	-10442
▁göçmen	-10443
DP	-10444
▁Tatil	-10445
baba	-10446
▁vitamini	-10447
▁uyuş	-10448
▁ağırlıklı	-10449
▁vasıt	-10450
▁akın	-10451
larý	-10452
▁virüs	-10453
▁1/3	-10454
▁dökül	-10455
▁sh	-10456
▁çif	-10457
lâh	-10458
▁çoğal	-10459
▁açılması	-10460
▁dinin	-10461
▁emanet	-10462
SP	-10463
laşım	-10464
▁malzemeler	-10465
mosyon	-10466
▁insanlarla	-10467
▁Marka	-10468
▁hemde	-10469
▁Çinli	-10470
▁Mardin	-10471
▁personeli	-10472
amanın	-10473
▁tüken	-10474
▁tıbbi	-10475
▁basınç	-10476
▁disk	-10477
dîn	-10478
▁geçmesi	-10479
▁söyledim	-10480
▁Anal	-10481
▁serin	-10482
▁şüpheli	-10483
▁Elektronik	-10484
tüğ	-10485
lıklarını	-10486
▁güçleri	-10487
▁testi	-10488
▁etmeleri	-10489
▁Aksi	-10490
▁Çam	-10491
▁Nedir	-10492
Av	-10493
▁yang	-10494
OD	-10495
▁ileride	-10496
▁etkisiyle	-10497
LIK	-10498
▁kurulması	-10499
▁Örgütü	-10500
▁etmesini	-10501
▁sorumluluğ	-10502
▁katlı	-10503
▁tarafına	-10504
▁yapmıştır	-10505
▁Mahal	-10506
yalım	-10507
hisar	-10508
▁Koş	-10509
▁Vergi	-10510
▁gelecekte	-10511
▁EK	-10512
▁burası	-10513
ğimizi	-10514
▁giys	-10515
▁BÖL	-10516
▁katılmak	-10517
▁dönemine	-10518
alarda	-10519
▁gerçekleştirdi	-10520
▁bütçe	-10521
aport	-10522
antin	-10523
▁ulus	-10524
▁konularında	-10525
▁rolü	-10526
▁Uygun	-10527
▁Kamp	-10528
▁hastalıkları	-10529
▁nolu	-10530
ıy	-10531
▁Yukarıda	-10532
▁yorumlar	-10533
▁ihtiyaçları	-10534
▁format	-10535
▁hareketleri	-10536
▁1980	-10537
▁Tom	-10538
▁herşey	-10539
iden	-10540
▁Vad	-10541
je	-10542
▁Tabgaç	-10543
▁cem	-10544
▁ihtiyacınız	-10545
lüğünde	-10546
▁açıl	-10547
▁We	-10548
edd	-10549
mıyordu	-10550
▁depolama	-10551
▁Fırat	-10552
▁deneyimli	-10553
low	-10554
▁Amas	-10555
▁çeker	-10556
▁aşı	-10557
▁miydi	-10558
▁Oto	-10559
▁Eur	-10560
press	-10561
▁vesile	-10562
▁Brez	-10563
▁yuvarlak	-10564
ranı	-10565
▁hareketli	-10566
▁Üz	-10567
coin	-10568
▁rit	-10569
▁bulup	-10570
▁tanıma	-10571
▁gittiği	-10572
▁kullanıcıların	-10573
ünüzü	-10574
▁beyn	-10575
▁yükleme	-10576
▁kıskan	-10577
âmil	-10578
▁tabir	-10579
ışıklık	-10580
▁yönünden	-10581
▁Birlik	-10582
▁gelsin	-10583
▁oranları	-10584
▁cezaev	-10585
▁sırala	-10586
fan	-10587
mayacaktır	-10588
▁kararlar	-10589
▁nice	-10590
iliğe	-10591
▁ihtimali	-10592
▁oyuna	-10593
▁sorgulama	-10594
iriz	-10595
▁öğrenim	-10596
▁Başak	-10597
▁böcek	-10598
enleri	-10599
▁adında	-10600
▁Bakanlar	-10601
ier	-10602
▁edelim	-10603
▁hele	-10604
▁Milletler	-10605
▁atmak	-10606
cilerin	-10607
▁Nerede	-10608
▁artı	-10609
▁müracaat	-10610
luğunun	-10611
▁kavramı	-10612
▁bulmuş	-10613
avallı	-10614
▁muhtemel	-10615
▁Dönüş	-10616
▁içecek	-10617
▁Bence	-10618
▁çeşitleri	-10619
▁muhakkak	-10620
▁ellerini	-10621
lanmaz	-10622
▁Fuarı	-10623
▁vitamin	-10624
▁Hakları	-10625
▁haykır	-10626
rekans	-10627
SM	-10628
iyordum	-10629
LİK	-10630
▁saptan	-10631
▁adama	-10632
anızı	-10633
▁oynama	-10634
mışlardı	-10635
laj	-10636
▁iyileş	-10637
▁vurguladı	-10638
▁Pir	-10639
▁ışın	-10640
bilecek	-10641
▁Resul	-10642
▁periy	-10643
▁Venedik	-10644
layı	-10645
▁atar	-10646
▁yönlü	-10647
▁şüphe	-10648
▁cinsiyet	-10649
▁Os	-10650
▁deneme	-10651
▁geçin	-10652
▁solu	-10653
▁aklına	-10654
▁Çelebi	-10655
▁nükleer	-10656
▁asans	-10657
▁koyup	-10658
▁inanc	-10659
▁rüy	-10660
▁çıkmıştır	-10661
▁Dünyada	-10662
▁ili	-10663
▁işçiler	-10664
▁chat	-10665
▁şiirleri	-10666
▁anlata	-10667
▁yaşamaya	-10668
▁namazı	-10669
▁sağladı	-10670
▁değerini	-10671
▁tapın	-10672
▁keç	-10673
▁Tef	-10674
▁sektörde	-10675
▁kendiliğinden	-10676
▁SP	-10677
▁Çor	-10678
▁oruç	-10679
atlar	-10680
▁gelmeye	-10681
▁kullanılma	-10682
▁kurucusu	-10683
▁gazeteci	-10684
▁Trak	-10685
▁Abdur	-10686
▁kurtulmak	-10687
▁misyon	-10688
ilmesinin	-10689
▁kuralları	-10690
▁Dernek	-10691
▁firmanın	-10692
IF	-10693
▁problemi	-10694
▁Tas	-10695
memiştir	-10696
▁uğrat	-10697
▁bürok	-10698
▁aşağıya	-10699
88	-10700
▁röportaj	-10701
tra	-10702
▁Na	-10703
▁arttı	-10704
▁yapılacaktır	-10705
▁Sürekli	-10706
icileri	-10707
▁geleceğini	-10708
▁Büy	-10709
▁Firma	-10710
▁ettiklerini	-10711
▁unutma	-10712
▁işlerini	-10713
▁fırın	-10714
▁yaşandı	-10715
▁mühim	-10716
▁devre	-10717
▁belirlendi	-10718
▁Malzem	-10719
▁vize	-10720
".	-10721
▁Kalite	-10722
▁uygulanması	-10723
▁yıkan	-10724
▁det	-10725
▁fed	-10726
by	-10727
▁4/	-10728
▁efendim	-10729
▁türkçe	-10730
▁İhtiy	-10731
▁sevilen	-10732
▁toprağa	-10733
▁Cihaz	-10734
▁Gelir	-10735
▁belgeleri	-10736
▁üzül	-10737
▁programına	-10738
afe	-10739
Ön	-10740
▁toplama	-10741
▁komik	-10742
İYE	-10743
fesör	-10744
▁kızlar	-10745
epe	-10746
▁yüc	-10747
▁hangisi	-10748
▁Vakıf	-10749
▁merkezli	-10750
▁fıs	-10751
ora	-10752
▁iftar	-10753
▁herş	-10754
▁aracılığı	-10755
▁katil	-10756
▁aşamada	-10757
▁başlandı	-10758
▁görem	-10759
▁yakalay	-10760
▁Tamam	-10761
▁Sayı	-10762
▁halini	-10763
▁Bulgaristan	-10764
▁hazırladığı	-10765
▁elli	-10766
mayıp	-10767
▁zann	-10768
▁hain	-10769
▁Karş	-10770
▁Matematik	-10771
▁Mol	-10772
▁çub	-10773
▁değerler	-10774
▁sag	-10775
▁bulunuyordu	-10776
▁sevdiğim	-10777
▁çıkmaya	-10778
▁Platfor	-10779
itab	-10780
▁Gönül	-10781
▁senden	-10782
▁haliyle	-10783
bası	-10784
▁yuv	-10785
▁baskın	-10786
▁birbirini	-10787
▁gebelik	-10788
▁üste	-10789
▁tecrübe	-10790
▁ayının	-10791
▁değiştirmek	-10792
▁aldılar	-10793
▁KKTC	-10794
ahya	-10795
▁kadınları	-10796
▁edilecektir	-10797
ültü	-10798
▁Holding	-10799
▁davası	-10800
▁Beden	-10801
▁Bidâye	-10802
▁başardı	-10803
yayı	-10804
5’	-10805
▁kıp	-10806
▁İlişkin	-10807
▁İsmet	-10808
▁Tablo	-10809
▁kelimeler	-10810
▁örgü	-10811
▁Adet	-10812
▁bilinmeyen	-10813
▁kütüphan	-10814
feri	-10815
▁sebze	-10816
acılık	-10817
▁keşfed	-10818
▁co	-10819
▁küm	-10820
ojistik	-10821
âf	-10822
▁ülkeyi	-10823
emde	-10824
eğiyle	-10825
▁yollar	-10826
▁sevdik	-10827
▁oluşmaktadır	-10828
▁market	-10829
▁içerisindeki	-10830
▁belirtmek	-10831
▁Ajansı	-10832
▁onarım	-10833
▁yaptıklarını	-10834
▁teşeb	-10835
▁yağış	-10836
ower	-10837
▁Kırım	-10838
▁görüyorum	-10839
▁Sayılı	-10840
▁geliştirilen	-10841
▁Parkı	-10842
▁tanr	-10843
▁sürer	-10844
▁maddeleri	-10845
diki	-10846
▁Hürriyet	-10847
ysanız	-10848
cunun	-10849
▁işveren	-10850
▁unvan	-10851
▁tanıyor	-10852
▁çim	-10853
▁keyfini	-10854
hoş	-10855
▁tüc	-10856
tisiz	-10857
▁duygusu	-10858
▁kablo	-10859
/24	-10860
▁almadan	-10861
▁harcama	-10862
latma	-10863
▁kullanıldığı	-10864
▁doz	-10865
_0	-10866
▁korkut	-10867
▁ilerlem	-10868
▁imkansız	-10869
▁yıp	-10870
ýz	-10871
▁geçerlidir	-10872
▁cihazı	-10873
▁odaları	-10874
▁bilinmektedir	-10875
▁aldat	-10876
▁İçinde	-10877
▁İN	-10878
göl	-10879
TT	-10880
▁Dak	-10881
▁Çiz	-10882
ırh	-10883
▁bo	-10884
▁pasta	-10885
epyeni	-10886
▁So	-10887
▁kuruş	-10888
▁Bla	-10889
▁öncü	-10890
▁bölgedeki	-10891
▁diyorlar	-10892
▁sürdüren	-10893
▁Cilt	-10894
▁Duvar	-10895
▁kararını	-10896
▁parsel	-10897
▁sayfasında	-10898
▁koridor	-10899
▁duyul	-10900
▁açıklamaya	-10901
▁bran	-10902
▁takdim	-10903
▁Yunus	-10904
▁dilerim	-10905
lemektedir	-10906
▁düşmanı	-10907
▁çamaşır	-10908
▁Tol	-10909
hats	-10910
▁meselesi	-10911
şk	-10912
▁Esîr	-10913
▁oynat	-10914
▁atom	-10915
▁Komutanlığı	-10916
▁gençlik	-10917
ünist	-10918
alya	-10919
▁kampany	-10920
▁deyişle	-10921
▁IŞİD	-10922
▁ekstra	-10923
▁rüzgâr	-10924
▁kabar	-10925
▁balkon	-10926
losuz	-10927
▁Ağrı	-10928
▁Müslim	-10929
▁vakıf	-10930
imum	-10931
▁zamanki	-10932
luğuna	-10933
▁gönderdiği	-10934
▁şirketler	-10935
▁Kişi	-10936
▁Ayşe	-10937
▁Ödülü	-10938
▁gereğince	-10939
▁Tekrar	-10940
▁Rak	-10941
▁getirilmesi	-10942
akende	-10943
▁Klima	-10944
▁Mc	-10945
atta	-10946
▁toptan	-10947
▁Hele	-10948
Ek	-10949
▁Kurban	-10950
lerimizde	-10951
▁sağlayacaktır	-10952
▁pür	-10953
▁fazlasını	-10954
▁arı	-10955
▁con	-10956
▁Evde	-10957
▁tanınan	-10958
▁bırakmak	-10959
▁idrar	-10960
▁|--	-10961
leden	-10962
▁kuran	-10963
cesi	-10964
▁manzar	-10965
▁aptal	-10966
▁Galaxy	-10967
▁çıkarıp	-10968
lerimizden	-10969
memektedir	-10970
▁masum	-10971
▁devrimci	-10972
▁Beyhak	-10973
▁Onları	-10974
ğimizde	-10975
▁anlatmaya	-10976
erin	-10977
▁türden	-10978
ücük	-10979
▁kuram	-10980
▁Öğ	-10981
▁kurşun	-10982
▁Nil	-10983
...)	-10984
▁isminin	-10985
▁düzenledi	-10986
▁güler	-10987
▁sözlü	-10988
lenin	-10989
▁kaldım	-10990
▁şen	-10991
57	-10992
▁Edin	-10993
▁artması	-10994
▁zihinsel	-10995
utu	-10996
▁programında	-10997
▁gor	-10998
oza	-10999
▁yaptılar	-11000
▁%100	-11001
▁arkadaşlık	-11002
▁Kürd	-11003
▁ailesinin	-11004
tınız	-11005
oyun	-11006
amızı	-11007
▁kadarıyla	-11008
▁bam	-11009
tefik	-11010
delik	-11011
▁özlem	-11012
▁bahçe	-11013
▁Fuar	-11014
86	-11015
▁güzer	-11016
▁eminim	-11017
▁arazi	-11018
▁danışmanlık	-11019
▁yayınlandı	-11020
▁Bilge	-11021
▁gelişmeleri	-11022
▁Polit	-11023
▁Müslümanların	-11024
▁nitelikli	-11025
▁Mavi	-11026
▁Hint	-11027
▁dikkatle	-11028
▁Bağdat	-11029
elikop	-11030
▁propagan	-11031
▁etkinliği	-11032
▁TRT	-11033
▁Körfez	-11034
▁ihtil	-11035
▁kale	-11036
▁Beyhakî	-11037
ticaret	-11038
▁yapılabil	-11039
▁Böylelikle	-11040
?»	-11041
▁saatlik	-11042
▁5,	-11043
▁adlandırılan	-11044
▁Murad	-11045
▁EL	-11046
▁sürdürülebilir	-11047
sy	-11048
icil	-11049
▁karşılamak	-11050
▁haklarını	-11051
▁akar	-11052
▁artışı	-11053
▁2-3	-11054
▁yapabil	-11055
▁yapabilecek	-11056
▁Resim	-11057
diğinde	-11058
▁buğday	-11059
▁dışarıdan	-11060
▁formu	-11061
▁gündür	-11062
▁kalktı	-11063
▁yetin	-11064
miştim	-11065
▁çekilen	-11066
▁tecavüz	-11067
▁eksiksiz	-11068
▁hizmetlerini	-11069
▁Buhârî	-11070
▁giyin	-11071
▁1990	-11072
▁Tüket	-11073
▁ruhsal	-11074
▁üretici	-11075
▁eti	-11076
▁buradaki	-11077
▁Ast	-11078
tının	-11079
▁kısmına	-11080
San	-11081
▁santral	-11082
▁senaryo	-11083
▁Şüph	-11084
▁yuk	-11085
▁aldığınız	-11086
▁kurtuluş	-11087
▁tün	-11088
▁mesele	-11089
sağ	-11090
▁memnuniyet	-11091
tas	-11092
çinin	-11093
avan	-11094
▁56	-11095
▁macer	-11096
▁sordum	-11097
▁restoran	-11098
▁Berk	-11099
lamıyor	-11100
lediğiniz	-11101
▁kime	-11102
▁kuruluşları	-11103
▁diyebiliriz	-11104
▁duruyordu	-11105
▁Nor	-11106
▁öğüt	-11107
▁haberine	-11108
▁yapama	-11109
▁öğrencinin	-11110
▁serisi	-11111
▁erkeğin	-11112
▁Bakır	-11113
▁siv	-11114
▁zihin	-11115
▁hisse	-11116
alığın	-11117
▁işle	-11118
▁sandık	-11119
HK	-11120
▁Geniş	-11121
▁reform	-11122
▁bük	-11123
▁tırnak	-11124
parta	-11125
siyle	-11126
▁Çözüm	-11127
ým	-11128
Tek	-11129
▁Şef	-11130
▁adresine	-11131
ix	-11132
▁hususunda	-11133
▁Gran	-11134
etice	-11135
▁geçmişte	-11136
▁vasıtasıyla	-11137
▁oluşuyor	-11138
▁bilmez	-11139
▁verirken	-11140
▁sıralarda	-11141
▁Abbas	-11142
▁İlişkiler	-11143
▁peynir	-11144
▁iri	-11145
▁gerçekleştirmek	-11146
▁konuşmak	-11147
faf	-11148
▁hükümetin	-11149
rd	-11150
ıklık	-11151
▁yapıya	-11152
▁ürünlerini	-11153
üsüne	-11154
▁Umar	-11155
▁gezi	-11156
▁Tatlı	-11157
ID	-11158
üminyum	-11159
▁Lo	-11160
▁Sarayı	-11161
▁Onlara	-11162
▁iyisi	-11163
▁hissi	-11164
▁gayrimenkul	-11165
▁Rüyada	-11166
çının	-11167
inceye	-11168
▁salonu	-11169
▁politikası	-11170
▁domates	-11171
▁Avustral	-11172
▁Gem	-11173
▁dönüyor	-11174
▁Tanıtım	-11175
▁Ark	-11176
▁seçin	-11177
▁buçuk	-11178
▁Burak	-11179
over	-11180
▁sayısız	-11181
▁yama	-11182
▁Müşter	-11183
barek	-11184
▁köşe	-11185
▁alına	-11186
▁figür	-11187
▁gözle	-11188
▁Rize	-11189
▁Kafkas	-11190
şir	-11191
▁Alev	-11192
▁motoru	-11193
▁kullanın	-11194
AA	-11195
▁57	-11196
▁çiç	-11197
▁alman	-11198
ary	-11199
▁muz	-11200
▁atöly	-11201
▁Pe	-11202
saray	-11203
▁başlamak	-11204
▁muayene	-11205
▁yanındaki	-11206
▁muv	-11207
nâ	-11208
▁Antik	-11209
Pro	-11210
▁Bahar	-11211
▁işley	-11212
▁Bizler	-11213
▁görüldüğü	-11214
▁geçmeden	-11215
▁Milliyet	-11216
▁Katılım	-11217
▁söndür	-11218
▁müşrik	-11219
▁Test	-11220
▁dışarıda	-11221
rupa	-11222
▁daim	-11223
faiye	-11224
▁çoğunluğu	-11225
▁köyü	-11226
▁mücadelesi	-11227
▁İmar	-11228
▁isabet	-11229
tısı	-11230
▁Zafer	-11231
▁kurb	-11232
ongul	-11233
amızın	-11234
ülk	-11235
iyo	-11236
▁izleme	-11237
▁bulgu	-11238
▁muhtar	-11239
▁muhalif	-11240
▁duş	-11241
’,	-11242
▁fiil	-11243
▁üstelik	-11244
▁âlim	-11245
▁kuruluşu	-11246
▁oyunda	-11247
▁haram	-11248
lunun	-11249
üydü	-11250
irdağ	-11251
▁yaşına	-11252
▁Öğrenciler	-11253
▁alındığı	-11254
cular	-11255
▁çözül	-11256
▁önündeki	-11257
▁Şampiyonası	-11258
▁çıkmaz	-11259
▁kıymetli	-11260
87	-11261
▁kâğıt	-11262
ledikleri	-11263
▁öylesine	-11264
▁satan	-11265
▁yapılmasını	-11266
56	-11267
▁serp	-11268
▁grubun	-11269
▁bulundukları	-11270
▁dolara	-11271
▁yönden	-11272
▁İncel	-11273
▁ilahi	-11274
mun	-11275
▁Mahk	-11276
▁Us	-11277
▁koltuğ	-11278
usundan	-11279
▁işg	-11280
ÜZ	-11281
9’	-11282
▁çalışarak	-11283
onguldak	-11284
▁Çukur	-11285
▁yaşta	-11286
biz	-11287
▁hikmet	-11288
▁bulunmuş	-11289
▁gövde	-11290
▁hükümleri	-11291
▁çıkardığı	-11292
▁redded	-11293
▁15.	-11294
▁Teşekkür	-11295
▁kalkıp	-11296
lığımız	-11297
▁Şar	-11298
▁adamlar	-11299
▁İdaresi	-11300
▁Adıyaman	-11301
▁giriyor	-11302
▁yazmış	-11303
▁Sistemleri	-11304
▁yardımcısı	-11305
▁olmaksızın	-11306
▁çıkarma	-11307
▁göstergesi	-11308
▁felsefe	-11309
▁olacaksınız	-11310
▁şirketlerin	-11311
work	-11312
ğım	-11313
▁ayırt	-11314
▁Stratej	-11315
▁akşamı	-11316
▁kudret	-11317
▁Ürünleri	-11318
▁çıkaran	-11319
ecekti	-11320
▁kelimesi	-11321
navut	-11322
lının	-11323
▁istemiş	-11324
IC	-11325
ınıp	-11326
▁söylenen	-11327
▁Muharrem	-11328
▁noktaları	-11329
▁Neyse	-11330
▁bölgesel	-11331
▁boyutlu	-11332
▁gürült	-11333
▁toplumu	-11334
lop	-11335
kif	-11336
▁NATO	-11337
▁Tık	-11338
▁dikkatini	-11339
▁münaseb	-11340
Daha	-11341
liliğini	-11342
ational	-11343
▁baktım	-11344
▁bağırdı	-11345
▁bildirim	-11346
YD	-11347
▁tespiti	-11348
başka	-11349
▁çaresiz	-11350
orld	-11351
▁görevleri	-11352
▁cenaze	-11353
▁alkış	-11354
▁çalışmalarının	-11355
atörü	-11356
▁Fon	-11357
üsünün	-11358
▁sıkça	-11359
▁kestir	-11360
▁hayvanlar	-11361
föy	-11362
▁yetkilileri	-11363
▁çalışıyorum	-11364
▁kralı	-11365
laki	-11366
lib	-11367
▁kalıntı	-11368
▁kadınlara	-11369
▁oyuncusu	-11370
▁Kök	-11371
▁best	-11372
▁örne	-11373
▁antrenman	-11374
▁kef	-11375
▁koymak	-11376
▁görüşü	-11377
▁maddesinde	-11378
ifor	-11379
▁kira	-11380
▁yumurt	-11381
▁okudum	-11382
▁sark	-11383
▁yöneticileri	-11384
çağ	-11385
▁Kanada	-11386
ml	-11387
▁sırf	-11388
ıklar	-11389
işimi	-11390
▁kişileri	-11391
▁filan	-11392
▁Özal	-11393
▁hikaye	-11394
▁kalitesini	-11395
▁Salon	-11396
▁Dam	-11397
grama	-11398
▁dinle	-11399
▁tesadüf	-11400
▁Şük	-11401
▁Bl	-11402
▁insani	-11403
▁oranla	-11404
▁Fre	-11405
▁Kars	-11406
▁kapsayan	-11407
▁ilke	-11408
▁KUR	-11409
▁benzet	-11410
▁Gümrük	-11411
▁yetmez	-11412
▁ekleyin	-11413
▁içindir	-11414
▁Rıza	-11415
▁53	-11416
▁asansör	-11417
▁yaşadıkları	-11418
▁doğrul	-11419
▁hareketle	-11420
▁konunun	-11421
▁noktasına	-11422
▁İnşallah	-11423
▁olabiliyor	-11424
▁Belg	-11425
▁yapmadan	-11426
▁BAŞ	-11427
▁manzara	-11428
▁Şem	-11429
menize	-11430
▁Eng	-11431
▁bilinir	-11432
▁sürecinin	-11433
▁başkent	-11434
teb	-11435
▁nda	-11436
omb	-11437
▁Kırk	-11438
▁XV	-11439
▁onar	-11440
%20	-11441
▁tüketici	-11442
▁Anti	-11443
▁Bildir	-11444
▁Aşağıdaki	-11445
vir	-11446
▁yatan	-11447
▁kanalı	-11448
▁Üsküdar	-11449
▁rev	-11450
lükte	-11451
amıza	-11452
▁Yeter	-11453
Ev	-11454
▁ilaçlar	-11455
yacağım	-11456
▁emri	-11457
Ve	-11458
▁Afgan	-11459
▁opsiyon	-11460
▁Televizyon	-11461
langıç	-11462
▁he	-11463
▁konul	-11464
▁nar	-11465
▁buhar	-11466
▁Cerrah	-11467
▁çıkarılan	-11468
elerimiz	-11469
▁kıt	-11470
ass	-11471
LE	-11472
▁oturdu	-11473
▁kullanılacak	-11474
ilme	-11475
▁Trafik	-11476
▁alınmıştır	-11477
▁kazanmış	-11478
▁kazanır	-11479
▁geldiler	-11480
▁ekme	-11481
▁katılımıyla	-11482
▁Giresun	-11483
93	-11484
▁İp	-11485
▁tadı	-11486
▁kanlı	-11487
▁soğan	-11488
▁tasarlanmış	-11489
▁böbrek	-11490
düstri	-11491
dalı	-11492
ootnote	-11493
▁gazetesi	-11494
▁staj	-11495
▁ruhu	-11496
▁vergisi	-11497
▁tamamını	-11498
▁cevabını	-11499
▁deyince	-11500
▁16.	-11501
▁duyan	-11502
▁zekâ	-11503
▁durumdan	-11504
▁bağlamda	-11505
ney	-11506
▁Kimi	-11507
▁gençlerin	-11508
▁karg	-11509
üldüğü	-11510
▁etmiyor	-11511
▁patates	-11512
▁emeği	-11513
▁adresinden	-11514
▁çektiği	-11515
cası	-11516
▁yaratmak	-11517
▁Erdem	-11518
▁Ondan	-11519
▁bot	-11520
▁Direktörü	-11521
▁eserleri	-11522
▁tencer	-11523
▁satıcı	-11524
▁entegre	-11525
▁yanlı	-11526
▁kömür	-11527
▁mükellef	-11528
▁partiler	-11529
▁Radyo	-11530
LAM	-11531
sten	-11532
▁Devrim	-11533
▁şur	-11534
▁sürdürdü	-11535
▁hücum	-11536
▁zorlan	-11537
▁topluma	-11538
▁İÇ	-11539
▁sözde	-11540
▁poş	-11541
kö	-11542
▁2001	-11543
▁soya	-11544
maraş	-11545
▁bırakarak	-11546
▁Önceki	-11547
▁GB	-11548
▁parçalar	-11549
▁kendisiyle	-11550
▁etmeyen	-11551
▁görüle	-11552
▁52	-11553
▁hayret	-11554
amay	-11555
▁Ir	-11556
▁havaya	-11557
▁pik	-11558
eneral	-11559
▁Mesleki	-11560
▁tarla	-11561
masa	-11562
▁seviyesi	-11563
▁trav	-11564
▁oyuncular	-11565
kân	-11566
▁yeğ	-11567
▁kılan	-11568
▁olduktan	-11569
▁BÖLÜM	-11570
▁çıkmaktadır	-11571
▁merhamet	-11572
▁ruhsat	-11573
afak	-11574
ciğer	-11575
▁okulda	-11576
▁Gökhan	-11577
▁Başk	-11578
▁kandır	-11579
▁zer	-11580
▁Belç	-11581
eron	-11582
▁frag	-11583
▁sitede	-11584
▁sektörün	-11585
▁Ceb	-11586
▁Kalit	-11587
▁seviyor	-11588
▁mahkum	-11589
▁töreni	-11590
▁elindeki	-11591
png	-11592
▁artırmak	-11593
▁zarf	-11594
▁Full	-11595
▁Il	-11596
edan	-11597
▁hırsız	-11598
baz	-11599
▁fotoğrafları	-11600
▁adli	-11601
emeye	-11602
▁dersleri	-11603
Ge	-11604
▁yukarıdaki	-11605
▁içini	-11606
▁Toto	-11607
▁konuşmaya	-11608
osun	-11609
▁apartman	-11610
▁Ayak	-11611
▁Otur	-11612
▁18.	-11613
▁kurulmuştur	-11614
▁muhabbet	-11615
▁Ce	-11616
▁Frank	-11617
▁detayları	-11618
▁elektrikli	-11619
▁Cey	-11620
▁Hesap	-11621
örek	-11622
▁Bizi	-11623
izme	-11624
▁Yaşlı	-11625
▁müf	-11626
▁1.5	-11627
▁mült	-11628
ılmasının	-11629
▁izliyor	-11630
lerince	-11631
ijyen	-11632
iliğini	-11633
app	-11634
▁Kaymakamı	-11635
dunun	-11636
▁çalışmalara	-11637
mişler	-11638
▁Oyunları	-11639
▁Kolay	-11640
▁mum	-11641
▁14.	-11642
▁Acı	-11643
▁taşıy	-11644
▁mesafe	-11645
tiniz	-11646
▁Kağan	-11647
▁Kureyş	-11648
▁Sekreteri	-11649
LA	-11650
▁(3)	-11651
▁sex	-11652
▁edeceğini	-11653
▁Site	-11654
▁endişe	-11655
▁nitelendir	-11656
▁hor	-11657
▁Gre	-11658
▁Telekom	-11659
▁görülebilir	-11660
▁Birden	-11661
atik	-11662
▁kimseyi	-11663
▁adımlar	-11664
▁okulu	-11665
▁Turkcell	-11666
mine	-11667
▁değiliz	-11668
mü	-11669
▁uyk	-11670
meliyiz	-11671
▁partner	-11672
▁Kurumsal	-11673
▁Askeri	-11674
▁deyim	-11675
▁sahibinin	-11676
▁dolap	-11677
▁hafız	-11678
▁mineral	-11679
▁Kast	-11680
▁Yarı	-11681
▁çıkmıştı	-11682
afet	-11683
94	-11684
▁ibar	-11685
▁hücre	-11686
▁kısmının	-11687
▁toplumda	-11688
▁Araba	-11689
▁belirlenir	-11690
▁prensip	-11691
▁diğerleri	-11692
▁yazdır	-11693
▁büyüyen	-11694
▁başrol	-11695
▁Kum	-11696
▁sürecek	-11697
aciğer	-11698
▁Devamı	-11699
▁takib	-11700
▁pantolon	-11701
Doğ	-11702
▁huzurlu	-11703
▁Basketbol	-11704
▁Dos	-11705
▁İçeri	-11706
▁Şiir	-11707
▁askerlik	-11708
▁uğruna	-11709
▁okut	-11710
tün	-11711
▁nişan	-11712
▁tecrübeli	-11713
▁mutluluğ	-11714
▁İpek	-11715
▁geçerken	-11716
leks	-11717
▁çocuğa	-11718
▁Vah	-11719
▁Mesaj	-11720
enizin	-11721
ARI	-11722
▁Esen	-11723
▁evli	-11724
▁kızım	-11725
▁kuruldu	-11726
▁vermeyi	-11727
azzam	-11728
▁Duru	-11729
▁muhtaç	-11730
▁referandum	-11731
▁imkânı	-11732
▁Yarat	-11733
▁AS	-11734
▁dog	-11735
▁etkinlikleri	-11736
alamak	-11737
▁66	-11738
▁düşünün	-11739
▁kongr	-11740
▁1,5	-11741
▁Zey	-11742
liyordu	-11743
▁anayas	-11744
▁hakik	-11745
▁ederse	-11746
▁yıllarca	-11747
-30	-11748
▁şeklindeki	-11749
▁tasavv	-11750
IV	-11751
▁tıklayarak	-11752
▁Angel	-11753
▁aniden	-11754
▁Belgesi	-11755
▁Bed	-11756
▁ilişkili	-11757
▁yapacağınız	-11758
▁direnç	-11759
▁adaylar	-11760
deler	-11761
▁Oyunu	-11762
Kim	-11763
▁gerilim	-11764
▁bulaş	-11765
salar	-11766
▁seviyesine	-11767
▁başlayıp	-11768
▁Soğuk	-11769
▁17.	-11770
▁buluyor	-11771
▁basamak	-11772
yetik	-11773
▁Şarkı	-11774
▁Afrin	-11775
üsk	-11776
▁Um	-11777
pro	-11778
▁Sof	-11779
▁maliyeti	-11780
▁sandaly	-11781
▁çalışanları	-11782
ens	-11783
▁Pil	-11784
▁öncelikli	-11785
▁oynamak	-11786
▁gruplar	-11787
▁IP	-11788
92	-11789
EFA	-11790
lâk	-11791
▁mahkûm	-11792
▁tutarak	-11793
▁birimi	-11794
içe	-11795
▁Tap	-11796
▁belirlenmesi	-11797
leyebilir	-11798
▁Yüzyıl	-11799
▁gerektirir	-11800
lash	-11801
▁alacağı	-11802
▁belirlemek	-11803
▁metrekare	-11804
▁PC	-11805
▁karısı	-11806
▁mantar	-11807
footnote	-11808
bulans	-11809
▁Pop	-11810
▁çet	-11811
▁baktığımızda	-11812
▁baraj	-11813
▁ağı	-11814
▁sıkıştır	-11815
▁kont	-11816
▁Ümit	-11817
▁masaya	-11818
yumu	-11819
▁galibiyet	-11820
▁defalarca	-11821
▁reak	-11822
ografi	-11823
▁Yık	-11824
▁âdet	-11825
ırnak	-11826
▁keşif	-11827
▁nelerdir	-11828
tuğrul	-11829
▁kurtarmak	-11830
▁Kongre	-11831
▁tesisat	-11832
▁haricinde	-11833
▁bağlantısı	-11834
▁kaplı	-11835
▁Birleşmiş	-11836
▁ca	-11837
larımla	-11838
HAL	-11839
itt	-11840
▁sitemizde	-11841
▁sınavı	-11842
▁dayanarak	-11843
▁etnik	-11844
▁etmekten	-11845
▁geleceğe	-11846
▁filtr	-11847
NET	-11848
▁Çevr	-11849
▁Vekili	-11850
BA	-11851
▁karşıt	-11852
▁yepyeni	-11853
hassa	-11854
▁yorumları	-11855
▁ayın	-11856
▁mimari	-11857
▁kalkın	-11858
▁ü	-11859
▁çalıştım	-11860
UZ	-11861
▁katliam	-11862
alisyon	-11863
▁Halbuki	-11864
▁malı	-11865
▁hakkına	-11866
▁çevrim	-11867
▁tarihin	-11868
▁Bulun	-11869
enni	-11870
avar	-11871
▁kullanıma	-11872
▁Emlak	-11873
dirler	-11874
▁Kendisine	-11875
▁Yalçın	-11876
▁kayg	-11877
▁Kazak	-11878
aci	-11879
▁Çeşitli	-11880
Tab	-11881
▁Fiyatları	-11882
▁ithalat	-11883
aydın	-11884
mişlerdir	-11885
▁mezunu	-11886
▁gun	-11887
▁Biri	-11888
▁varken	-11889
endim	-11890
▁Kalp	-11891
▁KDV	-11892
▁kaldırdı	-11893
▁seminer	-11894
▁girişi	-11895
▁64	-11896
▁yapıt	-11897
▁paramet	-11898
▁buzdola	-11899
▁kitapta	-11900
▁çekildi	-11901
▁durur	-11902
▁enerjisi	-11903
steri	-11904
▁olmadığına	-11905
▁sahada	-11906
lüt	-11907
▁niş	-11908
▁kep	-11909
▁Amasya	-11910
cim	-11911
▁İf	-11912
ıklığı	-11913
▁motosiklet	-11914
▁Silahlı	-11915
▁kentin	-11916
▁filmleri	-11917
▁benzeyen	-11918
▁sırasıyla	-11919
▁vermedi	-11920
anik	-11921
ahtarı	-11922
▁çikolata	-11923
EH	-11924
▁tutup	-11925
2016	-11926
▁odasında	-11927
▁fas	-11928
▁ortala	-11929
naz	-11930
▁hafifçe	-11931
▁göğs	-11932
▁General	-11933
.4	-11934
▁oldug	-11935
gatif	-11936
ladığımız	-11937
▁Key	-11938
▁satılan	-11939
▁gördüğüm	-11940
yani	-11941
▁şak	-11942
▁işlemlerini	-11943
▁bekler	-11944
val	-11945
▁Evden	-11946
▁başlatılan	-11947
▁Çinliler	-11948
▁bebeğin	-11949
▁görünüyordu	-11950
▁Belediyespor	-11951
▁işareti	-11952
▁sebz	-11953
▁mantıklı	-11954
acaklar	-11955
▁vurdu	-11956
▁depresyon	-11957
söz	-11958
iha	-11959
▁konuşmada	-11960
▁full	-11961
lanın	-11962
lilere	-11963
▁çekme	-11964
iper	-11965
astır	-11966
▁sürecini	-11967
▁katılacak	-11968
',	-11969
▁bilgilendirme	-11970
▁değiştirme	-11971
▁fena	-11972
▁je	-11973
▁süv	-11974
▁Hani	-11975
▁kesintisiz	-11976
▁Yör	-11977
izy	-11978
▁diledi	-11979
▁nakit	-11980
▁Nat	-11981
▁müziği	-11982
▁getirecek	-11983
▁giydir	-11984
▁ucu	-11985
asan	-11986
▁direktör	-11987
END	-11988
▁Standart	-11989
▁yiye	-11990
nes	-11991
▁Olarak	-11992
]](../	-11993
▁olanlara	-11994
▁hepsinin	-11995
▁Buz	-11996
▁yu	-11997
/200	-11998
▁göreceksiniz	-11999
ularak	-12000
▁Hoş	-12001
▁nimet	-12002
▁seçkin	-12003
▁çektir	-12004
lenmiştir	-12005
▁Buradan	-12006
▁şehre	-12007
▁800	-12008
▁şekeri	-12009
melerde	-12010
IP	-12011
▁Post	-12012
▁hastanede	-12013
▁hesaba	-12014
▁sevimli	-12015
▁Paul	-12016
▁avuç	-12017
▁düzeyinde	-12018
▁yapalım	-12019
▁Ste	-12020
▁çıkarken	-12021
▁Timur	-12022
▁düşüyor	-12023
İTESİ	-12024
▁şehrinde	-12025
▁Metal	-12026
Muh	-12027
▁Başkanımız	-12028
▁Giz	-12029
▁Taşıma	-12030
▁dergi	-12031
▁Memur	-12032
▁sınırı	-12033
gim	-12034
-200	-12035
▁cesur	-12036
▁grupları	-12037
▁4/1	-12038
▁çıktığını	-12039
▁etkileyici	-12040
▁otob	-12041
▁etmeyin	-12042
▁başlamadan	-12043
▁Mevcut	-12044
tuğunu	-12045
▁Amir	-12046
▁miyim	-12047
▁ürk	-12048
ilde	-12049
ladık	-12050
▁bulduğu	-12051
ilemez	-12052
▁alışkanlık	-12053
▁Meş	-12054
▁özelliğini	-12055
▁bakter	-12056
imine	-12057
▁kurut	-12058
▁kin	-12059
▁yaşadı	-12060
▁ankara	-12061
▁anlaşılır	-12062
▁yelpaz	-12063
▁vaat	-12064
ğinizde	-12065
▁yazıyı	-12066
▁Özdemir	-12067
▁İster	-12068
▁Nihayet	-12069
▁Ep	-12070
eleme	-12071
▁yaptıktan	-12072
sî	-12073
▁edilmesini	-12074
▁Maden	-12075
▁Anlat	-12076
▁Faruk	-12077
▁MÜ	-12078
▁derinlik	-12079
tülü	-12080
▁gördüğünüz	-12081
gir	-12082
GE	-12083
piyat	-12084
▁Tir	-12085
▁lif	-12086
▁aksi	-12087
eddüt	-12088
outube	-12089
▁You	-12090
▁süp	-12091
▁Kıy	-12092
▁dk	-12093
▁başkalarının	-12094
▁odaya	-12095
bire	-12096
▁veriyorum	-12097
▁cerrahi	-12098
PSS	-12099
atılık	-12100
▁konuşuyor	-12101
dest	-12102
ardı	-12103
▁My	-12104
▁Henüz	-12105
▁ihanet	-12106
▁kilometr	-12107
▁etmenin	-12108
▁nasip	-12109
▁oturum	-12110
▁Kurtuluş	-12111
▁siteler	-12112
▁Gerçi	-12113
imizdeki	-12114
▁zamandan	-12115
minin	-12116
lanmak	-12117
▁izmir	-12118
▁kitle	-12119
▁partinin	-12120
▁parası	-12121
▁tank	-12122
▁galiba	-12123
▁vat	-12124
8’	-12125
▁aldıktan	-12126
▁araçların	-12127
▁başlarında	-12128
▁Zeus	-12129
▁salladı	-12130
▁aya	-12131
▁yollarını	-12132
▁Yolu	-12133
▁pişman	-12134
▁kanseri	-12135
▁seninle	-12136
yacağı	-12137
▁nefis	-12138
▁ÜNİV	-12139
▁başkanlık	-12140
▁imaj	-12141
▁bereket	-12142
▁Lef	-12143
Ya	-12144
abilim	-12145
▁açılır	-12146
edektif	-12147
▁müc	-12148
▁Tekirdağ	-12149
▁Mutlu	-12150
▁çekiş	-12151
▁veriliyor	-12152
?’	-12153
▁lar	-12154
▁kalmıştır	-12155
lerse	-12156
aze	-12157
lerinizin	-12158
▁tebliğ	-12159
▁Est	-12160
unup	-12161
▁liraya	-12162
▁İstiklal	-12163
▁yığın	-12164
▁fav	-12165
▁memnuniyeti	-12166
▁oluşturuyor	-12167
▁eksikliği	-12168
▁ebeveyn	-12169
Gel	-12170
▁sayın	-12171
▁değişir	-12172
▁1-2	-12173
▁erit	-12174
onomik	-12175
▁kasa	-12176
▁Kendini	-12177
▁derdi	-12178
Ger	-12179
▁istediklerini	-12180
▁Firmamız	-12181
▁Kahramanmaraş	-12182
▁yaşadığımız	-12183
▁atıyor	-12184
▁çare	-12185
açık	-12186
▁edebilecek	-12187
▁karara	-12188
▁bırakır	-12189
▁ifadesini	-12190
▁nerde	-12191
lot	-12192
▁veda	-12193
abgu	-12194
▁sürüş	-12195
64	-12196
▁degil	-12197
▁Mahkeme	-12198
▁versin	-12199
▁Hikay	-12200
▁hayv	-12201
▁sih	-12202
zim	-12203
▁İnsanın	-12204
▁asır	-12205
▁oturt	-12206
▁boyunda	-12207
▁sust	-12208
adar	-12209
SS	-12210
▁Bing	-12211
▁arız	-12212
▁İslami	-12213
akâr	-12214
▁işsiz	-12215
▁Bö	-12216
aladı	-12217
▁meme	-12218
▁edeceği	-12219
▁deg	-12220
losu	-12221
▁TEK	-12222
▁Avukat	-12223
▁Klasik	-12224
3’	-12225
incisi	-12226
arlı	-12227
▁140	-12228
elikopter	-12229
▁Faaliyet	-12230
▁İY	-12231
▁Efendimiz	-12232
▁Hük	-12233
▁çalışanların	-12234
▁coşk	-12235
▁Müt	-12236
▁eserler	-12237
▁tıklayınız	-12238
▁gezin	-12239
nut	-12240
▁görevlisi	-12241
kam	-12242
ril	-12243
bab	-12244
▁Milyon	-12245
au	-12246
▁diyoruz	-12247
▁yığ	-12248
▁kapitalist	-12249
▁54	-12250
▁Evi	-12251
nci	-12252
ımsız	-12253
▁değişti	-12254
linin	-12255
hy	-12256
dine	-12257
▁sertifika	-12258
▁Kanununun	-12259
▁sorusuna	-12260
▁Tv	-12261
▁kurmuş	-12262
▁Moda	-12263
▁ışığında	-12264
▁planlanan	-12265
Tan	-12266
▁Avustralya	-12267
▁açıktır	-12268
▁hom	-12269
evler	-12270
▁aralı	-12271
▁iltih	-12272
▁Hikmet	-12273
▁türleri	-12274
▁muhat	-12275
Tarih	-12276
▁başlattı	-12277
alıp	-12278
▁anlık	-12279
▁başvurusu	-12280
▁kaldırılması	-12281
▁06	-12282
▁açıklamalar	-12283
ûmet	-12284
▁Yeniden	-12285
▁birde	-12286
▁Çer	-12287
▁karakteri	-12288
Şimdi	-12289
▁husu	-12290
▁vücudun	-12291
▁Zonguldak	-12292
▁85	-12293
▁yapılacağı	-12294
▁ilçesine	-12295
▁konforlu	-12296
▁kuşkusuz	-12297
▁Abdul	-12298
Hal	-12299
ule	-12300
▁sonuçlarını	-12301
ediyesi	-12302
▁sitesinden	-12303
cid	-12304
▁bırakma	-12305
▁gerçekleşecek	-12306
▁şekillendir	-12307
OG	-12308
ella	-12309
▁İhracat	-12310
▁düşüncesi	-12311
▁ateşli	-12312
▁Dijital	-12313
▁Vez	-12314
▁Devletleri	-12315
taları	-12316
▁eğitime	-12317
▁Girişim	-12318
▁gelmiyor	-12319
çeri	-12320
▁ÜNİVERS	-12321
Gör	-12322
edia	-12323
insan	-12324
alanı	-12325
şah	-12326
▁boşa	-12327
▁bilmem	-12328
▁girişimi	-12329
+1	-12330
▁odada	-12331
▁güncellem	-12332
lahi	-12333
etle	-12334
▁eks	-12335
▁resimler	-12336
▁istediğimiz	-12337
▁suyunu	-12338
▁İSTANBUL	-12339
▁4-	-12340
▁ayrıcalık	-12341
▁zırh	-12342
▁aktör	-12343
▁elveriş	-12344
▁müdürü	-12345
▁bağlantılı	-12346
The	-12347
▁İktis	-12348
▁menü	-12349
▁ayna	-12350
cağınız	-12351
▁Göç	-12352
▁ihtiyar	-12353
▁yazılar	-12354
▁koyduğu	-12355
▁Cami	-12356
▁moral	-12357
▁telaf	-12358
▁atın	-12359
▁ilgisini	-12360
ayıcı	-12361
▁negatif	-12362
▁kökenli	-12363
▁genetik	-12364
▁müzaker	-12365
atları	-12366
▁Düğün	-12367
▁seviyesinde	-12368
▁metro	-12369
▁sonuca	-12370
▁uygundur	-12371
▁açılmış	-12372
MAN	-12373
▁Adem	-12374
▁şuan	-12375
▁piyasada	-12376
▁günlerinde	-12377
▁yoğurt	-12378
ÖZ	-12379
kik	-12380
▁kuşak	-12381
▁Hakkı	-12382
▁bağırsak	-12383
▁Başbakanı	-12384
▁İkin	-12385
▁kazanma	-12386
▁etkisiz	-12387
ayeti	-12388
▁kolu	-12389
▁Sta	-12390
sika	-12391
▁UEFA	-12392
ashington	-12393
general	-12394
▁Hayred	-12395
▁kaldırıldı	-12396
▁Millî	-12397
▁inkâr	-12398
▁vil	-12399
Bugün	-12400
▁Arif	-12401
▁gördüğümüz	-12402
▁kampanyası	-12403
▁kullanışlı	-12404
▁Ertuğrul	-12405
▁yükümlülük	-12406
▁varan	-12407
yacağınız	-12408
▁savaşta	-12409
▁verildiği	-12410
▁aşkı	-12411
▁).	-12412
▁yatırımcı	-12413
▁YAP	-12414
▁nur	-12415
▁neye	-12416
▁limit	-12417
▁Üm	-12418
▁Ekran	-12419
▁Profesyonel	-12420
▁şimdilik	-12421
▁planlama	-12422
▁faaliyetlerini	-12423
▁girmesi	-12424
OC	-12425
▁Cal	-12426
▁Kapalı	-12427
▁arayıp	-12428
kileri	-12429
▁yükseliş	-12430
resel	-12431
▁Ekip	-12432
▁om	-12433
▁çocuklarının	-12434
▁mekanik	-12435
▁gelişmesi	-12436
▁Akıllı	-12437
▁rakib	-12438
▁ünit	-12439
▁Sahîh	-12440
ling	-12441
▁yapılandır	-12442
▁direniş	-12443
yah	-12444
▁Arnavut	-12445
▁meraklı	-12446
▁İşçi	-12447
▁talih	-12448
▁Sekreter	-12449
enizde	-12450
▁by	-12451
▁Gelecek	-12452
▁saygın	-12453
▁şe	-12454
▁Şöyle	-12455
▁temizleme	-12456
▁Uygur	-12457
▁yapmam	-12458
ekler	-12459
▁War	-12460
▁biçiminde	-12461
-18	-12462
İSİ	-12463
▁vaziyet	-12464
Bana	-12465
daa	-12466
▁gerçekte	-12467
▁07	-12468
▁aydır	-12469
▁ihtiyacını	-12470
▁Büt	-12471
▁Çorum	-12472
-12	-12473
▁filmde	-12474
amonu	-12475
▁bakıp	-12476
▁yanaş	-12477
tihat	-12478
▁sağlanır	-12479
▁merkezleri	-12480
▁Dolar	-12481
▁ilaçlama	-12482
ýk	-12483
▁askerî	-12484
▁sadık	-12485
Şu	-12486
▁yaşandığı	-12487
▁laboratuvar	-12488
yem	-12489
▁tüketimi	-12490
özel	-12491
▁ülkeden	-12492
▁Fatma	-12493
▁çalışmanın	-12494
▁Politika	-12495
▁patron	-12496
▁hd	-12497
▁üzüm	-12498
▁sorumluluğu	-12499
▁haftasında	-12500
▁pembe	-12501
▁kırsal	-12502
▁Sevgil	-12503
▁gezdir	-12504
oker	-12505
▁sisteminde	-12506
▁vaj	-12507
▁Yum	-12508
▁Asıl	-12509
lediğini	-12510
▁adil	-12511
▁(3	-12512
▁Batman	-12513
▁samim	-12514
▁izn	-12515
ymış	-12516
▁kılın	-12517
lendiğini	-12518
▁fotoğrafı	-12519
▁fakült	-12520
▁doğalgaz	-12521
isy	-12522
▁izah	-12523
▁hazırlamak	-12524
lerimizle	-12525
▁Gid	-12526
▁Alanya	-12527
▁frekans	-12528
▁siteye	-12529
▁kenarında	-12530
ubu	-12531
▁klas	-12532
enci	-12533
▁:))	-12534
bağ	-12535
eller	-12536
▁şudur	-12537
▁çözünür	-12538
▁kızıl	-12539
▁atıldı	-12540
▁zahmet	-12541
lerinizde	-12542
▁Eyüp	-12543
▁Olağan	-12544
▁Kütahya	-12545
▁Pamuk	-12546
▁1)	-12547
▁çorba	-12548
▁hastalığın	-12549
▁şeydir	-12550
▁dağın	-12551
ikli	-12552
▁ayrılmış	-12553
▁Max	-12554
▁harita	-12555
▁yazıda	-12556
▁sütü	-12557
▁Alex	-12558
▁müslüman	-12559
▁söyle	-12560
▁Müsteş	-12561
▁sorar	-12562
▁biriydi	-12563
ahisar	-12564
▁yönetmelik	-12565
▁Lok	-12566
▁müşterilerine	-12567
alanan	-12568
iyse	-12569
▁Cennet	-12570
▁iv	-12571
ojen	-12572
▁Ens	-12573
▁evrim	-12574
▁patlama	-12575
▁Red	-12576
▁hüzün	-12577
▁emlak	-12578
omen	-12579
▁kenti	-12580
▁diyalog	-12581
▁sevinirim	-12582
Büyük	-12583
http	-12584
ezid	-12585
▁hamile	-12586
▁puanı	-12587
▁Serdar	-12588
▁viz	-12589
▁saldırgan	-12590
▁niteliğinde	-12591
▁rahatla	-12592
▁Sivil	-12593
▁Lak	-12594
▁küfür	-12595
▁Ofis	-12596
▁logo	-12597
▁yaşı	-12598
▁işkence	-12599
yaka	-12600
eck	-12601
▁03	-12602
▁turnuv	-12603
▁bulunmamaktadır	-12604
▁Portek	-12605
▁yenilikçi	-12606
▁servet	-12607
.00’	-12608
▁sorunlarını	-12609
▁soruyu	-12610
eliğin	-12611
âlet	-12612
▁Doğa	-12613
▁Değerlendirme	-12614
▁durumları	-12615
▁seçimleri	-12616
▁kullanılıyor	-12617
▁miz	-12618
▁zaf	-12619
ilmeli	-12620
▁kot	-12621
▁destan	-12622
▁başladığını	-12623
▁arıyorum	-12624
▁Kurs	-12625
çelik	-12626
▁Laz	-12627
▁muht	-12628
larıma	-12629
viş	-12630
▁ayrılır	-12631
dara	-12632
▁Bart	-12633
▁zulüm	-12634
▁Usta	-12635
▁muazzam	-12636
▁işçilerin	-12637
▁gürültü	-12638
▁pul	-12639
▁kararlaştır	-12640
Ad	-12641
gıcı	-12642
eyz	-12643
mazlık	-12644
▁seslendir	-12645
naf	-12646
▁tarihini	-12647
Hiç	-12648
larm	-12649
▁bireylerin	-12650
▁zordur	-12651
▁sola	-12652
▁UN	-12653
iba	-12654
▁akan	-12655
▁duyuru	-12656
▁borcu	-12657
▁Cinsel	-12658
▁kalkan	-12659
▁okumaya	-12660
ned	-12661
▁Ca	-12662
▁çarpıcı	-12663
daha	-12664
▁hazırlanıyor	-12665
▁çocukluk	-12666
▁galip	-12667
▁engellemek	-12668
▁Peter	-12669
▁bitkiler	-12670
▁heyecanlı	-12671
▁kendilerinin	-12672
iyenin	-12673
61	-12674
Tİ	-12675
stan	-12676
▁Üye	-12677
▁şoför	-12678
anıyordu	-12679
▁niteliği	-12680
▁bant	-12681
▁Ayn	-12682
beti	-12683
▁maçın	-12684
▁elma	-12685
▁kurab	-12686
▁Teh	-12687
▁kalbi	-12688
▁kurumları	-12689
▁yağma	-12690
▁(200	-12691
▁binanın	-12692
▁mesafede	-12693
▁içki	-12694
▁Ertesi	-12695
ışıklı	-12696
▁Denetim	-12697
▁destekleyen	-12698
omi	-12699
meme	-12700
▁bireyler	-12701
▁faydası	-12702
▁gitmeye	-12703
▁Otomobil	-12704
▁geliştirilmesi	-12705
▁söylüyorum	-12706
▁beraberlik	-12707
▁arasındadır	-12708
▁bölgesine	-12709
▁klinik	-12710
▁dönmek	-12711
▁tüzel	-12712
▁koyan	-12713
▁renkleri	-12714
▁gerektiğine	-12715
uyuz	-12716
▁analizi	-12717
▁hastaların	-12718
▁Pazarlama	-12719
▁yurttaş	-12720
▁Sağlıklı	-12721
▁Mük	-12722
sama	-12723
▁Altı	-12724
▁Fay	-12725
▁ümmet	-12726
▁700	-12727
DK	-12728
▁renkler	-12729
lendiği	-12730
▁KON	-12731
Res	-12732
▁Yüc	-12733
kırım	-12734
▁konusudur	-12735
▁yönü	-12736
▁doğumlu	-12737
kisi	-12738
▁teşebbüs	-12739
▁taşınmaz	-12740
lenmektedir	-12741
limat	-12742
▁İzmit	-12743
▁ıslak	-12744
▁farz	-12745
▁Uc	-12746
▁suda	-12747
▁Kül	-12748
ahan	-12749
▁açarak	-12750
▁Hastalıkları	-12751
▁belirtir	-12752
▁ettikten	-12753
▁David	-12754
▁astr	-12755
▁tezgah	-12756
▁Si	-12757
▁insanlığın	-12758
▁tereddüt	-12759
inat	-12760
▁köklü	-12761
▁huy	-12762
▁Bende	-12763
▁kurtarı	-12764
▁Erol	-12765
▁burn	-12766
▁lâzım	-12767
▁ası	-12768
saspor	-12769
▁kararları	-12770
▁söyleş	-12771
şan	-12772
▁Toplantısı	-12773
▁Hadi	-12774
▁teminat	-12775
▁umu	-12776
▁kılavuz	-12777
▁22.	-12778
Yap	-12779
▁facebook	-12780
▁ayağı	-12781
lic	-12782
▁aziz	-12783
▁tema	-12784
▁gereksinim	-12785
▁Dede	-12786
emediği	-12787
▁tarafın	-12788
▁Bırak	-12789
▁mıydı	-12790
▁çalışanlar	-12791
▁iskel	-12792
▁Cat	-12793
▁Devamını	-12794
▁çalışacak	-12795
ucak	-12796
▁konsept	-12797
▁artarak	-12798
▁cal	-12799
▁imkânsız	-12800
▁Erzincan	-12801
▁Anayas	-12802
▁dilediğiniz	-12803
91	-12804
▁Mars	-12805
▁67	-12806
▁promosyon	-12807
▁simg	-12808
▁burs	-12809
▁ödülü	-12810
▁Geliştirme	-12811
ilet	-12812
▁gelmedi	-12813
duğuna	-12814
bun	-12815
▁keyfi	-12816
ilmi	-12817
▁modeller	-12818
▁Mini	-12819
▁unutulmaz	-12820
▁ÜNİVERSİTESİ	-12821
▁sigortalı	-12822
üd	-12823
atay	-12824
▁Alışveriş	-12825
▁çekirdek	-12826
▁hayvanların	-12827
▁cihazlar	-12828
▁ded	-12829
▁bürün	-12830
iyorsa	-12831
▁halkına	-12832
istal	-12833
aleti	-12834
▁yükümlü	-12835
▁birbirleriyle	-12836
▁karşılaşma	-12837
▁Eşya	-12838
▁Borç	-12839
▁çıkışı	-12840
▁Hy	-12841
▁onda	-12842
âne	-12843
▁ömrü	-12844
▁bırakan	-12845
ıldım	-12846
lig	-12847
ostan	-12848
▁Devr	-12849
▁Kullanım	-12850
▁yazmaya	-12851
▁Hazine	-12852
▁tatb	-12853
▁sözleşmesi	-12854
▁bakır	-12855
▁aradan	-12856
▁tümüyle	-12857
▁Fah	-12858
▁olanağı	-12859
ayarak	-12860
▁döneme	-12861
olan	-12862
-16	-12863
ıdır	-12864
58	-12865
▁ağacı	-12866
▁lanet	-12867
▁açıklamasında	-12868
▁yöntemler	-12869
▁Mâ	-12870
seler	-12871
▁pamuk	-12872
▁Cer	-12873
-11	-12874
▁1999	-12875
▁Komitesi	-12876
▁atıp	-12877
▁Kiralık	-12878
▁kullanılmıştır	-12879
▁bitkisel	-12880
▁cuma	-12881
▁ödün	-12882
▁6,	-12883
▁hu	-12884
▁şeyh	-12885
▁Sınavı	-12886
Öğr	-12887
hen	-12888
▁yazımızda	-12889
▁lazer	-12890
asay	-12891
▁Belçika	-12892
▁gerçekleştiren	-12893
▁Ten	-12894
▁yapıyorlar	-12895
▁Kelim	-12896
▁dinley	-12897
▁gelmesini	-12898
▁paketi	-12899
sadı	-12900
falt	-12901
▁AP	-12902
▁insanlardan	-12903
demi	-12904
eld	-12905
luyum	-12906
▁hayati	-12907
▁Mektu	-12908
▁komş	-12909
▁Mobilya	-12910
Cİ	-12911
ço	-12912
▁Washington	-12913
▁kavray	-12914
▁mırıl	-12915
abilirim	-12916
▁Gelenek	-12917
▁keşf	-12918
▁mısınız	-12919
▁Aksaray	-12920
lediklerini	-12921
dia	-12922
▁ediniz	-12923
▁sınava	-12924
▁pres	-12925
▁şiddetle	-12926
▁ceket	-12927
▁ailesine	-12928
▁Sonuçta	-12929
fone	-12930
▁karışım	-12931
▁1960	-12932
▁euro	-12933
▁zeki	-12934
orge	-12935
▁görecek	-12936
▁videosu	-12937
alaş	-12938
▁mân	-12939
▁ekrana	-12940
biyotik	-12941
▁130	-12942
▁Trakya	-12943
▁Sizi	-12944
▁aşan	-12945
▁fındık	-12946
▁sezonu	-12947
▁sürecin	-12948
▁yapının	-12949
▁atma	-12950
▁öğretmenler	-12951
koş	-12952
▁soyut	-12953
▁Yargıtay	-12954
▁Serbest	-12955
▁kimliği	-12956
ilmesinde	-12957
eçh	-12958
abol	-12959
▁vez	-12960
▁azın	-12961
▁Lib	-12962
utb	-12963
cer	-12964
▁Hekim	-12965
▁cı	-12966
▁birebir	-12967
▁biten	-12968
▁Anlaş	-12969
▁ihbar	-12970
▁tutarı	-12971
▁sitenin	-12972
iyeler	-12973
▁Adası	-12974
▁bilginin	-12975
▁Sus	-12976
▁ülkesi	-12977
▁Erg	-12978
▁ret	-12979
dükleri	-12980
larınızla	-12981
▁Yazılım	-12982
▁olmam	-12983
/10	-12984
asıdır	-12985
ruklu	-12986
▁Bilgiler	-12987
▁gelecektir	-12988
▁şaşırtıcı	-12989
▁hepimizin	-12990
▁müttefik	-12991
▁İşin	-12992
▁formül	-12993
▁iddialı	-12994
▁81	-12995
▁Brezilya	-12996
liyorum	-12997
mud	-12998
▁algılan	-12999
▁1970	-13000
52	-13001
çiliği	-13002
füm	-13003
tivasyon	-13004
▁bulabilir	-13005
▁indi	-13006
▁kentinde	-13007
idd	-13008
▁düşünüyoruz	-13009
leridir	-13010
▁Tuğ	-13011
asal	-13012
▁kaldırmak	-13013
▁duman	-13014
▁þ	-13015
Dünya	-13016
▁acımasız	-13017
▁Bulut	-13018
▁nüfusu	-13019
oterapi	-13020
▁olabilirdi	-13021
▁söyleyebiliriz	-13022
emiyorum	-13023
▁laik	-13024
lileri	-13025
▁Engin	-13026
▁acele	-13027
▁nehir	-13028
fiye	-13029
▁oluruz	-13030
▁sergi	-13031
▁51	-13032
▁Form	-13033
▁İnönü	-13034
▁Prot	-13035
▁sağlayarak	-13036
▁Tuna	-13037
▁İlhan	-13038
ılmadan	-13039
At	-13040
▁OR	-13041
▁ilişkilerin	-13042
▁muayen	-13043
▁ordusunun	-13044
▁olduğumuzu	-13045
▁şebek	-13046
▁arayarak	-13047
▁varoluş	-13048
▁taşıt	-13049
▁dizayn	-13050
ideki	-13051
▁bölümüne	-13052
kay	-13053
win	-13054
▁kahk	-13055
▁Artvin	-13056
▁Gi	-13057
▁Sipariş	-13058
▁fikirler	-13059
td	-13060
▁ninni	-13061
▁taciz	-13062
▁kitabında	-13063
▁sonuçta	-13064
gusu	-13065
▁türb	-13066
▁ert	-13067
▁Zeynep	-13068
▁vurgulan	-13069
▁atmış	-13070
urî	-13071
▁hikayesi	-13072
▁edeceğim	-13073
▁işlemini	-13074
▁tutuyor	-13075
▁savaşçı	-13076
▁pasaport	-13077
▁geçirilen	-13078
▁çöl	-13079
▁içme	-13080
▁doğuş	-13081
▁Yüksekokulu	-13082
▁kombi	-13083
▁arsa	-13084
anıyla	-13085
▁mülkiyet	-13086
▁kaçan	-13087
▁tamamlayan	-13088
▁Temizlik	-13089
▁Nuri	-13090
▁sıralama	-13091
▁koyarak	-13092
▁pırıl	-13093
▁dersler	-13094
▁110	-13095
▁Olim	-13096
▁cild	-13097
▁yoğunlaş	-13098
▁Yaşa	-13099
▁ceviz	-13100
▁Umarım	-13101
temiz	-13102
▁işlerin	-13103
▁andan	-13104
▁Sermaye	-13105
▁alıyoruz	-13106
verengi	-13107
▁GÜN	-13108
▁konumda	-13109
▁seçmen	-13110
▁Ünal	-13111
▁yerlerden	-13112
▁TH	-13113
▁kapasitesi	-13114
▁yeterlidir	-13115
▁Suriyeli	-13116
▁kuşku	-13117
▁Jack	-13118
▁ferah	-13119
▁dünyasına	-13120
▁TSK	-13121
▁dövüş	-13122
▁yüzlü	-13123
aktif	-13124
▁Umut	-13125
TS	-13126
▁Ted	-13127
▁sağa	-13128
▁öğrendim	-13129
lüğün	-13130
Ap	-13131
OĞLU	-13132
▁tansiyon	-13133
▁bölgeler	-13134
▁söylemişti	-13135
▁Gönder	-13136
▁Bus	-13137
▁bildiğimiz	-13138
▁seviyeye	-13139
▁memuru	-13140
▁gerçekçi	-13141
▁şeylere	-13142
▁dereceye	-13143
▁Herkesin	-13144
▁Buraya	-13145
▁aleyhine	-13146
▁basketbol	-13147
▁Dekor	-13148
▁yaşıyoruz	-13149
▁paylaştı	-13150
▁Parça	-13151
▁oksijen	-13152
▁Kaptan	-13153
▁esin	-13154
▁Lüb	-13155
mayınız	-13156
▁filmler	-13157
▁umur	-13158
▁zeka	-13159
▁haftanın	-13160
▁aza	-13161
▁sayıları	-13162
lamıştı	-13163
▁terim	-13164
▁olmayacaktır	-13165
iyana	-13166
▁kayd	-13167
▁sokağa	-13168
▁Güvenliği	-13169
▁savcı	-13170
▁ster	-13171
▁yalvar	-13172
ELİ	-13173
Sev	-13174
▁askerleri	-13175
▁koşullarda	-13176
▁Kans	-13177
▁temeli	-13178
▁etkinlikler	-13179
▁Rehberi	-13180
▁Hel	-13181
▁iht	-13182
▁köle	-13183
▁düştüğ	-13184
▁yapacağını	-13185
▁anlamaya	-13186
▁Bud	-13187
▁Alek	-13188
▁yöneticisi	-13189
▁ipek	-13190
▁Konser	-13191
▁düştüğü	-13192
▁koşullar	-13193
elerindeki	-13194
talama	-13195
▁klav	-13196
IA	-13197
▁Saldır	-13198
▁belgesel	-13199
ekte	-13200
▁Müf	-13201
▁gücüne	-13202
▁devlete	-13203
▁anayasa	-13204
▁birbirlerini	-13205
▁telefondan	-13206
hab	-13207
dumuz	-13208
▁Uygu	-13209
arac	-13210
▁denildi	-13211
Bölüm	-13212
▁gri	-13213
▁Fazla	-13214
▁Zehebî	-13215
▁aydınlatma	-13216
▁dehşet	-13217
▁kavim	-13218
▁heyeti	-13219
▁yaşadık	-13220
▁dönmüş	-13221
▁konudaki	-13222
Devlet	-13223
▁kazandığı	-13224
▁plakalı	-13225
▁toplantıya	-13226
▁kala	-13227
ersem	-13228
▁barındıran	-13229
▁yüze	-13230
▁alanındaki	-13231
▁koyar	-13232
▁yil	-13233
sınlar	-13234
▁Bro	-13235
▁Dah	-13236
▁kendim	-13237
▁gecenin	-13238
▁merakla	-13239
▁güneşin	-13240
mon	-13241
▁farklıdır	-13242
gor	-13243
▁bıraktığı	-13244
▁abi	-13245
▁getirip	-13246
▁van	-13247
▁Dakika	-13248
kanın	-13249
artma	-13250
▁Düzce	-13251
▁makul	-13252
TE	-13253
▁Wat	-13254
▁görüntüler	-13255
esih	-13256
▁neyi	-13257
▁sanı	-13258
▁ürünlerinin	-13259
▁Seyahat	-13260
▁Dili	-13261
▁sayfası	-13262
bih	-13263
▁fiyata	-13264
▁LED	-13265
▁Ziya	-13266
▁açıyor	-13267
▁isterse	-13268
acaktı	-13269
▁Benî	-13270
▁videoyu	-13271
irdi	-13272
▁gücünün	-13273
▁kuv	-13274
▁taşımaktadır	-13275
ýl	-13276
▁turu	-13277
▁harcan	-13278
▁seçildi	-13279
▁umarım	-13280
İyi	-13281
▁hiz	-13282
▁çamur	-13283
▁hatalı	-13284
▁yaptırım	-13285
▁dor	-13286
▁AVM	-13287
▁Belir	-13288
▁uzakta	-13289
▁Derin	-13290
▁elle	-13291
▁sürecine	-13292
▁duyguları	-13293
▁feder	-13294
▁geçtiğini	-13295
▁bazında	-13296
▁Gölü	-13297
▁annesinin	-13298
limi	-13299
ff	-13300
▁tet	-13301
yük	-13302
olsun	-13303
irmen	-13304
▁vadede	-13305
▁dışarıya	-13306
▁başarısı	-13307
▁USB	-13308
eneğini	-13309
▁Fas	-13310
▁farket	-13311
ydım	-13312
Özel	-13313
cım	-13314
▁Acaba	-13315
▁oluşu	-13316
▁konuşmasında	-13317
nat	-13318
▁nüfuz	-13319
▁sağlanan	-13320
▁Hur	-13321
▁örnekler	-13322
lant	-13323
▁Zeki	-13324
▁2)	-13325
▁ışıl	-13326
eteriner	-13327
ocu	-13328
▁Güler	-13329
▁Uçak	-13330
YK	-13331
▁Sy	-13332
▁inç	-13333
▁terap	-13334
▁İstih	-13335
▁kullanıcıları	-13336
aliman	-13337
▁Teâlâ	-13338
FF	-13339
Top	-13340
mert	-13341
ünüze	-13342
▁heves	-13343
▁Sinema	-13344
▁derim	-13345
▁bilerek	-13346
rahman	-13347
▁ellerinde	-13348
#_	-13349
▁saklı	-13350
▁Sib	-13351
▁tedavisinde	-13352
▁cer	-13353
▁kabuk	-13354
Yar	-13355
▁Bilişim	-13356
▁yapmakta	-13357
▁konsan	-13358
▁özenle	-13359
istir	-13360
▁rüt	-13361
▁alanın	-13362
▁faş	-13363
ordu	-13364
ettin	-13365
▁şanslı	-13366
▁konusunu	-13367
▁olursanız	-13368
▁zarif	-13369
▁salonunda	-13370
▁kaydedildi	-13371
▁terey	-13372
▁Rüz	-13373
▁şeffaf	-13374
▁Sanırım	-13375
▁başkası	-13376
▁anlatılan	-13377
▁yazıp	-13378
crip	-13379
30’	-13380
71	-13381
▁geceleri	-13382
vis	-13383
▁Ley	-13384
▁hijyen	-13385
▁bilmedi	-13386
▁anladım	-13387
▁Arist	-13388
▁verilerine	-13389
▁pomp	-13390
▁68	-13391
▁olmadığından	-13392
▁Ülke	-13393
▁yapısını	-13394
▁Yangın	-13395
▁önünden	-13396
iyorlardı	-13397
▁birç	-13398
▁İleri	-13399
▁160	-13400
▁iyidir	-13401
atür	-13402
▁Ele	-13403
ıtma	-13404
▁çekilmiş	-13405
▁3-4	-13406
▁Gur	-13407
cül	-13408
▁Polonya	-13409
lish	-13410
▁kalmaya	-13411
▁hazret	-13412
▁yürütül	-13413
▁konuştuk	-13414
▁yapılmalıdır	-13415
pir	-13416
▁mısır	-13417
deres	-13418
▁butonuna	-13419
▁seslen	-13420
▁çen	-13421
▁İYİ	-13422
▁yürüdü	-13423
▁Blog	-13424
▁ertel	-13425
▁bölgelerinde	-13426
ingir	-13427
▁okudu	-13428
▁Sorun	-13429
▁Planı	-13430
▁askerler	-13431
▁tabanlı	-13432
▁yapamaz	-13433
▁müşterilerimize	-13434
beral	-13435
▁makale	-13436
▁izleyic	-13437
açlı	-13438
ızın	-13439
▁Doğr	-13440
▁paranın	-13441
ual	-13442
▁milleti	-13443
▁Mesut	-13444
▁SEO	-13445
▁cik	-13446
▁görüşleri	-13447
▁Sonrasında	-13448
▁durup	-13449
▁kimdir	-13450
mamızı	-13451
▁Erken	-13452
▁duydum	-13453
▁romantik	-13454
▁fırtına	-13455
▁mektubu	-13456
▁durmadan	-13457
▁kirli	-13458
▁Kole	-13459
▁Yoğun	-13460
▁karışımı	-13461
▁Muhtar	-13462
ness	-13463
▁iştah	-13464
▁fos	-13465
▁Tama	-13466
▁otopark	-13467
▁partisi	-13468
ksür	-13469
▁Bilm	-13470
▁kurallar	-13471
▁göstermeye	-13472
düş	-13473
▁iseniz	-13474
▁gemisi	-13475
▁makina	-13476
▁Blu	-13477
▁taşımak	-13478
ristiyan	-13479
▁kredisi	-13480
ope	-13481
▁ölmüş	-13482
▁fotoğraflar	-13483
oksi	-13484
emedim	-13485
uzel	-13486
▁Arkadaşlar	-13487
▁konumunda	-13488
▁Tokat	-13489
▁taklit	-13490
▁ağırlığı	-13491
▁görmüyor	-13492
▁ambulans	-13493
▁bölgesindeki	-13494
ýný	-13495
▁konumu	-13496
▁düzenleyen	-13497
▁Yrd	-13498
▁anahtarı	-13499
▁Yor	-13500
▁Yöntem	-13501
ILI	-13502
ila	-13503
▁etap	-13504
▁CD	-13505
▁diyecek	-13506
▁yıldön	-13507
▁peşinden	-13508
▁gözlük	-13509
▁sonlandır	-13510
ırsa	-13511
▁Sub	-13512
▁Kimse	-13513
▁Toplu	-13514
▁sanatı	-13515
▁refah	-13516
▁Eskiden	-13517
▁Kürdistan	-13518
▁kurumların	-13519
▁istisna	-13520
▁vahşi	-13521
▁yaptırmak	-13522
eza	-13523
▁görüntüsü	-13524
▁yüzünde	-13525
▁şeylerden	-13526
▁sorusu	-13527
▁başarıya	-13528
▁Kastamonu	-13529
▁düşünmüyor	-13530
▁gününe	-13531
▁yiğit	-13532
abe	-13533
ftn	-13534
▁Belli	-13535
▁koruyan	-13536
Peki	-13537
▁nedenlerle	-13538
▁izler	-13539
▁dişi	-13540
▁Fr	-13541
▁programlar	-13542
mül	-13543
▁City	-13544
▁İhale	-13545
mektedirler	-13546
▁şüphel	-13547
▁nedenleri	-13548
▁mur	-13549
▁saatler	-13550
▁temelinde	-13551
İLER	-13552
ladığını	-13553
▁Nüf	-13554
▁cumhuriyet	-13555
lular	-13556
izz	-13557
▁Halı	-13558
▁şun	-13559
▁Bursaspor	-13560
54	-13561
▁Mühendislik	-13562
▁sevindir	-13563
▁ödev	-13564
▁dışından	-13565
ja	-13566
ebilme	-13567
▁katman	-13568
▁başlangı	-13569
▁dileriz	-13570
▁kurgu	-13571
▁mesai	-13572
▁dinlemek	-13573
▁Ölç	-13574
▁Başarı	-13575
▁katında	-13576
▁Çakır	-13577
lanmasını	-13578
aa	-13579
ıc	-13580
▁kapının	-13581
▁arındır	-13582
▁kullanıyorum	-13583
▁yorumu	-13584
▁standar	-13585
ettür	-13586
▁kare	-13587
Es	-13588
BB	-13589
▁7/24	-13590
ırız	-13591
ledikten	-13592
▁Değerli	-13593
▁diyebilirim	-13594
▁taşıdığı	-13595
▁belirlem	-13596
vil	-13597
▁öle	-13598
▁Atak	-13599
amızdan	-13600
ain	-13601
▁muciz	-13602
▁sokakta	-13603
edirgin	-13604
▁ayrılma	-13605
▁Coş	-13606
▁lehine	-13607
▁ileriye	-13608
▁ihtiyacımız	-13609
▁Rumeli	-13610
▁Ton	-13611
latan	-13612
aşehir	-13613
cileri	-13614
▁almaz	-13615
▁sahneye	-13616
mt	-13617
▁göstermiş	-13618
▁Bugüne	-13619
▁Ekrem	-13620
▁gerektiğinde	-13621
▁miting	-13622
▁detaylar	-13623
unuzda	-13624
▁Lin	-13625
lanmıştı	-13626
lenebilir	-13627
▁seans	-13628
off	-13629
▁Yağmur	-13630
▁yetkin	-13631
▁Usul	-13632
▁Sevgi	-13633
▁türkü	-13634
▁özgürlüğü	-13635
!»	-13636
ny	-13637
▁Nar	-13638
▁böylesine	-13639
malarına	-13640
▁Ris	-13641
▁tahliye	-13642
cili	-13643
▁fiziki	-13644
▁ag	-13645
amadım	-13646
▁yakalandı	-13647
▁Plat	-13648
bî	-13649
▁Zih	-13650
▁ısın	-13651
▁dedektif	-13652
▁hediyeler	-13653
imer	-13654
ee	-13655
tığına	-13656
dok	-13657
▁fiş	-13658
▁ezber	-13659
▁nevi	-13660
▁denge	-13661
▁kaldırıp	-13662
▁Devletin	-13663
▁şartlarda	-13664
▁göstermiştir	-13665
koz	-13666
▁kaldığını	-13667
72	-13668
▁tarifleri	-13669
▁Demirel	-13670
▁diyelim	-13671
▁askı	-13672
▁sarım	-13673
ektro	-13674
so	-13675
▁değerlendirmek	-13676
▁Vel	-13677
▁intikam	-13678
▁çalışıyordu	-13679
▁açıklanan	-13680
ındak	-13681
▁Etr	-13682
▁binası	-13683
▁Alb	-13684
▁Esnaf	-13685
▁Göğ	-13686
▁nitelikte	-13687
▁Wil	-13688
▁çıkabilir	-13689
▁soğu	-13690
İP	-13691
▁suçu	-13692
▁kemer	-13693
▁çiğn	-13694
▁tarzda	-13695
▁zihniyet	-13696
▁edilmişti	-13697
dut	-13698
▁yaşayacak	-13699
▁Sefer	-13700
▁Od	-13701
▁söylenebilir	-13702
şar	-13703
▁Ceh	-13704
▁Macaristan	-13705
▁lüt	-13706
▁saldırıya	-13707
▁yerlerinde	-13708
▁Yalnızca	-13709
▁Vic	-13710
▁ağzına	-13711
▁güb	-13712
▁yavaşça	-13713
▁yapanlar	-13714
ford	-13715
▁Ucuz	-13716
▁saltan	-13717
▁bebeğ	-13718
▁hükmü	-13719
KARA	-13720
apur	-13721
iliş	-13722
▁hizmetine	-13723
▁seyred	-13724
▁piyan	-13725
▁açmış	-13726
▁Oyuncu	-13727
ANI	-13728
▁iktidarı	-13729
pazarı	-13730
▁anlamsız	-13731
▁muhafaz	-13732
▁tamamlandı	-13733
ail	-13734
▁bulunmuştur	-13735
▁kızgın	-13736
▁Mi	-13737
63	-13738
▁tüccar	-13739
▁görüşmek	-13740
▁vezir	-13741
▁şehirler	-13742
amadığı	-13743
▁04	-13744
▁Gro	-13745
▁mutsuz	-13746
▁Ric	-13747
ozgat	-13748
,...	-13749
▁kontr	-13750
Cumhur	-13751
▁yönetiminin	-13752
▁geçtikçe	-13753
▁doğrultu	-13754
ember	-13755
▁nci	-13756
SL	-13757
▁Fransızca	-13758
▁hastalıklar	-13759
TP	-13760
▁Davutoğlu	-13761
▁başlaması	-13762
▁karşıtı	-13763
▁çevirdi	-13764
lamaktadır	-13765
fte	-13766
▁perakende	-13767
▁haksızlık	-13768
▁personelin	-13769
▁kaldık	-13770
▁Tatar	-13771
▁gerçeklik	-13772
▁açlık	-13773
▁adının	-13774
▁çalışmalarında	-13775
▁bakıyordu	-13776
▁Levent	-13777
▁ikincisi	-13778
73	-13779
▁Belâz	-13780
▁söylediler	-13781
▁düşkün	-13782
Çocuk	-13783
▁tercüme	-13784
▁bölümleri	-13785
▁talebinde	-13786
▁problemleri	-13787
ümün	-13788
İşte	-13789
7’	-13790
âtı	-13791
▁güncelleme	-13792
▁Bina	-13793
▁güzergah	-13794
▁yaşından	-13795
▁oğulları	-13796
▁Kenan	-13797
luktan	-13798
▁kararın	-13799
▁ayına	-13800
▁Yur	-13801
veç	-13802
▁alındığında	-13803
▁işleyen	-13804
▁Afganistan	-13805
▁belirtileri	-13806
▁vücudu	-13807
▁eğitimin	-13808
▁yıldızı	-13809
▁hizmetini	-13810
▁Sanay	-13811
▁branş	-13812
▁karı	-13813
▁gan	-13814
▁Stor	-13815
▁ortağı	-13816
▁seçilmiş	-13817
▁helal	-13818
▁sarhoş	-13819
▁uygulamak	-13820
▁açısı	-13821
▁sitesine	-13822
Bizim	-13823
▁farkındalık	-13824
▁katkısı	-13825
▁kutluyor	-13826
onomi	-13827
uer	-13828
▁köyünde	-13829
▁ilgil	-13830
51	-13831
▁Yemen	-13832
▁iştirak	-13833
▁kumanda	-13834
lamıştır	-13835
▁zavallı	-13836
▁kaptan	-13837
olas	-13838
ulduğu	-13839
gız	-13840
▁Dönemi	-13841
▁radikal	-13842
▁alerj	-13843
▁Hazar	-13844
.10.	-13845
RET	-13846
▁7,	-13847
▁kronik	-13848
odik	-13849
▁üş	-13850
▁aileler	-13851
▁harç	-13852
▁fiyatlarla	-13853
port	-13854
▁inandır	-13855
alayan	-13856
▁koymuş	-13857
▁ölçekli	-13858
▁amatör	-13859
uyan	-13860
81	-13861
▁salat	-13862
▁çevresindeki	-13863
▁kıvr	-13864
▁istihbarat	-13865
▁efsane	-13866
tüd	-13867
▁kurtarma	-13868
yordu	-13869
▁meslektaş	-13870
▁Bahis	-13871
iyorsun	-13872
▁karıştırın	-13873
▁edilip	-13874
▁bine	-13875
▁kutlama	-13876
▁desteğini	-13877
▁emeklilik	-13878
▁ağzından	-13879
▁güzelliği	-13880
▁Flor	-13881
▁Şark	-13882
▁bozukluğu	-13883
▁ustası	-13884
▁Kuru	-13885
▁verirler	-13886
▁kafasını	-13887
▁Arama	-13888
▁ahlaki	-13889
▁Kabul	-13890
▁yakınlarında	-13891
▁yedir	-13892
▁çalışmayı	-13893
▁komb	-13894
▁yazıları	-13895
▁Bektaş	-13896
▁oğlunun	-13897
▁Saygı	-13898
▁Isparta	-13899
▁kapısını	-13900
▁yapmıştı	-13901
▁ülkelere	-13902
▁şükür	-13903
▁günkü	-13904
▁islam	-13905
▁muhabir	-13906
▁Hatip	-13907
▁okumuş	-13908
▁konuşmasını	-13909
▁parlamen	-13910
▁bron	-13911
▁yükle	-13912
▁Satılık	-13913
▁edilmez	-13914
▁tıkla	-13915
▁internette	-13916
▁surat	-13917
▁Aşağıda	-13918
▁grev	-13919
sch	-13920
erkes	-13921
▁DA	-13922
odos	-13923
▁Teşkilatı	-13924
▁hastalar	-13925
▁Sâ	-13926
▁Bitcoin	-13927
▁Başlangıç	-13928
▁belirlenmiş	-13929
ılıyorum	-13930
▁birikim	-13931
▁Yazıcı	-13932
▁başlıkları	-13933
▁Burası	-13934
hael	-13935
▁Black	-13936
▁kendiniz	-13937
▁hi	-13938
▁Belâzurî	-13939
▁koalisyon	-13940
▁özelliklere	-13941
▁vermiyor	-13942
riz	-13943
▁kullanımına	-13944
▁çalışmaktadır	-13945
îd	-13946
▁hissetti	-13947
▁ressam	-13948
ediğim	-13949
▁sahiplerinin	-13950
▁kanama	-13951
lamayan	-13952
▁dönerek	-13953
▁feda	-13954
isten	-13955
▁kıyasla	-13956
▁civar	-13957
▁bulunmadığı	-13958
cımız	-13959
▁biriktir	-13960
İST	-13961
▁nihai	-13962
▁Buradaki	-13963
▁damg	-13964
ilerimiz	-13965
▁borsa	-13966
▁ekim	-13967
▁Öner	-13968
▁dayat	-13969
▁geçirildi	-13970
▁sıkıcı	-13971
▁yapmalı	-13972
▁lin	-13973
▁allah	-13974
▁istemeyen	-13975
MET	-13976
▁İc	-13977
▁Gençler	-13978
▁Kiralama	-13979
▁arayüz	-13980
▁Madrid	-13981
▁Las	-13982
▁Log	-13983
▁helikopter	-13984
▁olabildi	-13985
▁Marx	-13986
▁Sahip	-13987
89	-13988
kuş	-13989
▁savunan	-13990
▁Döv	-13991
▁olmalıydı	-13992
▁düzenlemeler	-13993
▁iOS	-13994
▁Düşün	-13995
▁Enver	-13996
▁fren	-13997
▁yüzme	-13998
▁mahrum	-13999
▁soruya	-14000
▁Alınan	-14001
▁minnet	-14002
▁3/2	-14003
laşmaya	-14004
İz	-14005
▁imal	-14006
▁ilgilendiren	-14007
▁tasarı	-14008
▁Festival	-14009
▁Kural	-14010
▁dolaylı	-14011
▁propaganda	-14012
▁Bosna	-14013
▁Gezi	-14014
▁İdari	-14015
▁Win	-14016
▁Karabük	-14017
âmet	-14018
▁sıralan	-14019
▁Felsef	-14020
CO	-14021
▁Vit	-14022
▁Konak	-14023
▁platformu	-14024
▁cel	-14025
▁ent	-14026
▁Demirtaş	-14027
▁tik	-14028
▁işsizlik	-14029
▁bulunmakta	-14030
bütün	-14031
▁hassasiyet	-14032
▁Sizler	-14033
lû	-14034
▁oluyoruz	-14035
▁öldürüldü	-14036
▁yazıcı	-14037
▁Yarın	-14038
In	-14039
▁seferinde	-14040
▁Hayvancılık	-14041
▁yemekleri	-14042
▁Zek	-14043
▁One	-14044
▁üzüntü	-14045
▁bakanlık	-14046
▁]	-14047
▁çerçevede	-14048
▁Amr	-14049
aların	-14050
▁edebilmek	-14051
▁aman	-14052
▁isteriz	-14053
▁com	-14054
▁delikanlı	-14055
▁beğendi	-14056
▁şefkat	-14057
▁rom	-14058
▁götürdü	-14059
odafone	-14060
ader	-14061
▁Veri	-14062
▁kolon	-14063
▁çeyre	-14064
▁çukur	-14065
▁Alanı	-14066
▁Haftası	-14067
▁teknikleri	-14068
▁Eli	-14069
ılmalı	-14070
ğından	-14071
▁İhsan	-14072
çekmece	-14073
edisi	-14074
▁yarısında	-14075
nî	-14076
▁Yabgu	-14077
▁aygı	-14078
lenmesine	-14079
▁durumdur	-14080
▁olana	-14081
ileceği	-14082
▁Hic	-14083
▁Viyana	-14084
▁yapmaz	-14085
eceğinden	-14086
▁karab	-14087
stein	-14088
▁Özbek	-14089
ahit	-14090
▁Kalesi	-14091
lamadan	-14092
▁almanız	-14093
▁yararlanmak	-14094
▁mevs	-14095
▁teorik	-14096
▁Raporu	-14097
▁aksiyon	-14098
▁Elif	-14099
▁minimum	-14100
▁evleri	-14101
▁TS	-14102
▁mübarek	-14103
▁Tedavi	-14104
▁bambaşka	-14105
▁seçimlerde	-14106
▁oluşturma	-14107
▁YIL	-14108
inizdeki	-14109
▁yetkisi	-14110
▁sıcaklığı	-14111
▁ülkemize	-14112
▁(0	-14113
maksızın	-14114
lass	-14115
▁bireyin	-14116
▁Güneydoğu	-14117
imdeki	-14118
▁Şehircilik	-14119
Bunu	-14120
▁talepleri	-14121
▁kre	-14122
▁cephe	-14123
wood	-14124
▁vatandaşı	-14125
▁edilmesine	-14126
▁aktaran	-14127
▁olacağına	-14128
▁ça	-14129
▁KPSS	-14130
▁yönetiminde	-14131
▁işlemlerinin	-14132
Kal	-14133
▁girmeye	-14134
▁tedirgin	-14135
▁şartıyla	-14136
▁Hit	-14137
▁akrab	-14138
▁bağımsızlık	-14139
▁ız	-14140
▁tehlikeye	-14141
▁Makine	-14142
▁malzemesi	-14143
▁72	-14144
▁pencere	-14145
▁geçmişi	-14146
▁eğitimini	-14147
▁uygulanacak	-14148
veti	-14149
▁sahasında	-14150
ûd	-14151
▁idrak	-14152
▁Oldukça	-14153
sor	-14154
▁molek	-14155
▁vereceği	-14156
▁kağıdı	-14157
▁Sos	-14158
▁Nihat	-14159
▁>>	-14160
▁Hayal	-14161
▁nazik	-14162
hir	-14163
▁üyeli	-14164
▁hükümlerine	-14165
way	-14166
▁kurumu	-14167
▁karşısındaki	-14168
▁bulunacak	-14169
▁Marmar	-14170
▁Özkan	-14171
king	-14172
▁erdem	-14173
▁yemekler	-14174
▁solunum	-14175
▁kaşık	-14176
▁operasyonu	-14177
79	-14178
▁Paket	-14179
oç	-14180
▁Kırık	-14181
▁atak	-14182
▁Hayreddîn	-14183
abileceğimiz	-14184
▁şarkıcı	-14185
▁kararının	-14186
▁ekleyip	-14187
▁İy	-14188
▁oturmuş	-14189
cm	-14190
▁hü	-14191
▁Şev	-14192
▁Şerif	-14193
▁Romalı	-14194
▁edilmek	-14195
▁rahatça	-14196
▁soruyor	-14197
▁Isı	-14198
▁Adım	-14199
▁Whats	-14200
▁sıralarında	-14201
▁ülkelerinde	-14202
esk	-14203
▁bık	-14204
▁hoşlan	-14205
▁telefonla	-14206
▁mırıldan	-14207
▁(201	-14208
Kend	-14209
▁mermer	-14210
▁püsk	-14211
▁işyeri	-14212
▁Ürünler	-14213
▁Dor	-14214
▁süreyle	-14215
İLİ	-14216
▁sezonunda	-14217
▁tutuklandı	-14218
▁Sir	-14219
▁alem	-14220
Bey	-14221
▁kolları	-14222
▁istiyorsunuz	-14223
▁akciğer	-14224
▁döneminin	-14225
▁sitesinin	-14226
ota	-14227
▁görüntüleri	-14228
▁boylu	-14229
▁tarama	-14230
▁KAY	-14231
▁teşhis	-14232
itli	-14233
▁hani	-14234
83	-14235
▁yetenekli	-14236
▁Abdülham	-14237
▁turları	-14238
▁Durumu	-14239
▁Demokrasi	-14240
▁gösterg	-14241
▁olamaya	-14242
▁Erkekler	-14243
▁Başta	-14244
▁Vir	-14245
▁Celal	-14246
▁Beb	-14247
▁sonbahar	-14248
▁adayların	-14249
74	-14250
▁gruba	-14251
▁kub	-14252
araya	-14253
ike	-14254
▁Tıpkı	-14255
▁istikamet	-14256
▁Yapım	-14257
▁engeller	-14258
▁taşımacılık	-14259
▁otorit	-14260
▁ilişkiye	-14261
▁davranışları	-14262
▁kullanılmış	-14263
▁karşınıza	-14264
▁Uzay	-14265
rov	-14266
▁Burs	-14267
▁gömlek	-14268
▁gezegen	-14269
▁coğrafya	-14270
▁Cap	-14271
▁yürüten	-14272
wn	-14273
âbe	-14274
ABD	-14275
▁Ces	-14276
▁ölümünden	-14277
▁asil	-14278
▁Beh	-14279
aspor	-14280
▁tekstil	-14281
▁ISO	-14282
▁teknolojileri	-14283
▁sub	-14284
500	-14285
▁Yönetmeliği	-14286
▁ılık	-14287
▁görevine	-14288
▁görmesi	-14289
SYM	-14290
▁kası	-14291
▁Boya	-14292
lamayacak	-14293
elenen	-14294
abiliyorsunuz	-14295
batı	-14296
casına	-14297
▁görüşlerini	-14298
▁düşüncelerini	-14299
▁oynuyor	-14300
▁istismar	-14301
▁oluşturmaktadır	-14302
▁Yukarıdaki	-14303
▁adayları	-14304
luklar	-14305
ibet	-14306
59	-14307
ciliği	-14308
▁senesinde	-14309
elerdir	-14310
▁üretmek	-14311
cını	-14312
▁Tör	-14313
▁bkz	-14314
▁oranının	-14315
lukta	-14316
▁vermekteyiz	-14317
▁metaf	-14318
▁tutulması	-14319
▁düzeyi	-14320
▁eklenmiş	-14321
▁biş	-14322
cinin	-14323
siyum	-14324
▁dr	-14325
cay	-14326
▁öğretmeni	-14327
ble	-14328
▁oturuyor	-14329
▁açılacak	-14330
▁gelirken	-14331
▁ekonomisi	-14332
▁aj	-14333
ılmamış	-14334
▁okurken	-14335
▁yapacağım	-14336
▁EĞ	-14337
▁çalışmalarda	-14338
▁orjinal	-14339
gara	-14340
▁ilde	-14341
Neden	-14342
ase	-14343
stır	-14344
▁müsabak	-14345
▁gelebilecek	-14346
▁macera	-14347
ıyorlardı	-14348
▁kaynaklar	-14349
▁taraflı	-14350
▁yazarak	-14351
▁aramak	-14352
▁görüntülen	-14353
▁Sendik	-14354
▁sürün	-14355
▁Valiliği	-14356
eybol	-14357
▁%50	-14358
eşim	-14359
▁duvara	-14360
▁alık	-14361
▁litre	-14362
YON	-14363
▁sosy	-14364
hret	-14365
▁kopyal	-14366
▁tekniği	-14367
▁ücretleri	-14368
]](	-14369
▁İdare	-14370
▁havası	-14371
larımdan	-14372
▁Özcan	-14373
▁Ren	-14374
▁füz	-14375
▁karaciğer	-14376
▁cahil	-14377
▁Kaliteli	-14378
gele	-14379
iyy	-14380
▁350	-14381
▁kına	-14382
▁Sert	-14383
▁korkusu	-14384
▁AA	-14385
▁vd	-14386
ılmasında	-14387
▁dengeli	-14388
▁dul	-14389
▁üt	-14390
▁müsaade	-14391
▁Mahmud	-14392
▁lav	-14393
▁Avrupalı	-14394
▁metrekar	-14395
▁iftir	-14396
▁olmamız	-14397
▁yapılma	-14398
▁sistemde	-14399
▁Polat	-14400
▁kesint	-14401
▁başlarına	-14402
taur	-14403
▁rep	-14404
▁duyuyor	-14405
▁birisidir	-14406
▁seçimlerinde	-14407
▁üncü	-14408
▁Portekiz	-14409
▁olunur	-14410
Par	-14411
▁Mür	-14412
▁SGK	-14413
▁Küresel	-14414
▁sabırsız	-14415
▁Melek	-14416
haf	-14417
sım	-14418
▁yaratık	-14419
▁kanalında	-14420
▁evler	-14421
▁getirmeye	-14422
osman	-14423
▁özdeş	-14424
▁verecektir	-14425
▁mezhep	-14426
▁Ford	-14427
bilim	-14428
▁olaya	-14429
▁Şampiyonlar	-14430
▁ikil	-14431
larımda	-14432
▁Babası	-14433
▁cihazları	-14434
▁millî	-14435
melere	-14436
ıncaya	-14437
ılabilmesi	-14438
▁eksiklik	-14439
▁63	-14440
ebildi	-14441
62	-14442
calı	-14443
▁oysa	-14444
▁sahiplerine	-14445
▁OK	-14446
ansa	-14447
▁Rob	-14448
▁davanın	-14449
▁kolaylık	-14450
ömert	-14451
▁Tekin	-14452
▁Geleneksel	-14453
▁elverişli	-14454
my	-14455
une	-14456
▁avantajlı	-14457
▁bulunarak	-14458
▁Vücut	-14459
▁operatör	-14460
pik	-14461
ederken	-14462
▁Süm	-14463
▁doğmuş	-14464
▁Kulüp	-14465
raniye	-14466
▁bunda	-14467
▁birileri	-14468
madılar	-14469
▁yeteneği	-14470
▁peki	-14471
üphane	-14472
ayolları	-14473
▁yakınında	-14474
▁Sinop	-14475
▁asfalt	-14476
melerinin	-14477
▁MS	-14478
▁çevresi	-14479
▁programa	-14480
▁Güçlü	-14481
▁Genelde	-14482
▁Oru	-14483
asp	-14484
69	-14485
▁hafıza	-14486
▁ölümsüz	-14487
▁Menderes	-14488
▁hesabından	-14489
▁teâlâ	-14490
edecek	-14491
▁Yalova	-14492
lıların	-14493
▁TAR	-14494
▁biyolojik	-14495
osuna	-14496
▁Kayn	-14497
▁Elem	-14498
▁sofra	-14499
▁put	-14500
▁yatay	-14501
▁Platformu	-14502
▁bağlayan	-14503
▁zeytinyağı	-14504
fice	-14505
▁dakikalık	-14506
▁kesme	-14507
▁listesinde	-14508
▁Göre	-14509
▁tarikat	-14510
▁geçirmiş	-14511
▁ellerine	-14512
▁öfke	-14513
▁hayali	-14514
▁Cemiyeti	-14515
▁ine	-14516
▁Siyasi	-14517
▁sikiş	-14518
▁verilerin	-14519
▁çalışmada	-14520
▁Cemil	-14521
ranç	-14522
▁ilkokul	-14523
▁James	-14524
▁dig	-14525
▁kaybetmiş	-14526
▁Anabilim	-14527
▁His	-14528
▁Yarışması	-14529
suru	-14530
▁görkem	-14531
▁Batılı	-14532
▁okulun	-14533
ýnda	-14534
▁programın	-14535
▁objektif	-14536
▁kavra	-14537
İlk	-14538
▁reaksiyon	-14539
▁Sayısı	-14540
▁Pınar	-14541
▁gösteri	-14542
▁yerlerini	-14543
rap	-14544
▁Politik	-14545
▁zararı	-14546
kinden	-14547
▁kis	-14548
▁kaydıyla	-14549
aklık	-14550
▁elleri	-14551
▁devamını	-14552
▁çözmek	-14553
ınç	-14554
▁Plus	-14555
gon	-14556
▁AM	-14557
▁Haş	-14558
▁öncül	-14559
▁Tarif	-14560
sah	-14561
▁Şif	-14562
▁önlemler	-14563
Öz	-14564
▁sül	-14565
▁Önder	-14566
▁ray	-14567
▁yapılar	-14568
▁düşünmeye	-14569
----	-14570
Kon	-14571
dığımda	-14572
▁yazdım	-14573
▁ücretli	-14574
)'	-14575
▁programda	-14576
▁Mezar	-14577
▁tanınmış	-14578
leştirilmiş	-14579
▁Akif	-14580
▁Rehber	-14581
▁sundu	-14582
kurt	-14583
yacağını	-14584
▁emzir	-14585
dr	-14586
▁burcu	-14587
▁ilki	-14588
▁çıkarır	-14589
▁Ulus	-14590
▁zorunludur	-14591
▁Kâmil	-14592
▁Diyet	-14593
ily	-14594
▁soğut	-14595
▁5/	-14596
▁incelemek	-14597
▁Baskı	-14598
▁Hatır	-14599
▁adımı	-14600
▁bulmaya	-14601
ook	-14602
index	-14603
▁veriyordu	-14604
▁İZ	-14605
▁ziyareti	-14606
▁sendik	-14607
▁ulu	-14608
eyecektir	-14609
▁birdenbire	-14610
çilere	-14611
▁kadrosu	-14612
▁telaş	-14613
anızda	-14614
▁belirleyen	-14615
▁birbiriyle	-14616
▁sunulmaktadır	-14617
▁Maz	-14618
▁akademisyen	-14619
Gen	-14620
sche	-14621
▁bağışıklık	-14622
▁dostum	-14623
▁belirtiyor	-14624
▁bölümünden	-14625
▁Yatak	-14626
▁gittiğini	-14627
▁çocuklarda	-14628
kut	-14629
ezya	-14630
▁eksen	-14631
▁anlamını	-14632
▁inanan	-14633
çay	-14634
▁ikisinin	-14635
▁aslan	-14636
talar	-14637
▁Nap	-14638
▁Çal	-14639
▁IM	-14640
▁BB	-14641
▁canı	-14642
▁yaya	-14643
opar	-14644
▁1920	-14645
▁Akademisi	-14646
▁başlangıcı	-14647
▁Teknolojileri	-14648
▁devletinin	-14649
▁mahkemeye	-14650
▁çalışmasını	-14651
▁Şimşek	-14652
▁CEO	-14653
▁metod	-14654
rojen	-14655
ds	-14656
▁bahsede	-14657
▁vermeyen	-14658
kab	-14659
▁görebil	-14660
▁kentsel	-14661
con	-14662
▁ölür	-14663
▁Kısacası	-14664
Ul	-14665
tiklerini	-14666
▁afet	-14667
▁hoşgör	-14668
▁yakışıklı	-14669
▁takvim	-14670
avir	-14671
▁Meydan	-14672
▁hesabına	-14673
▁Restor	-14674
▁Wal	-14675
▁gelmeden	-14676
fon	-14677
▁pirinç	-14678
▁Hek	-14679
siklop	-14680
▁heyecanla	-14681
alizasyon	-14682
▁Div	-14683
▁programını	-14684
▁oradaki	-14685
iliyordu	-14686
devlet	-14687
ELER	-14688
▁Lübnan	-14689
▁Lu	-14690
▁Kağıt	-14691
▁Kursu	-14692
▁çocuklarını	-14693
▁katma	-14694
▁ingilizce	-14695
▁sormak	-14696
▁ihsan	-14697
▁Jean	-14698
▁oyuncuları	-14699
PD	-14700
▁örtü	-14701
Ankara	-14702
▁ısır	-14703
▁istiyorlar	-14704
▁modül	-14705
▁faydaları	-14706
▁deplasmanda	-14707
▁izi	-14708
▁yapılırken	-14709
▁elit	-14710
tun	-14711
84	-14712
▁istemek	-14713
▁Açıklama	-14714
▁İK	-14715
▁önünü	-14716
▁sosyalist	-14717
▁bilgisay	-14718
▁benziyor	-14719
▁Yürüy	-14720
oluk	-14721
▁Birlikte	-14722
▁Demokrat	-14723
illiam	-14724
▁yayılan	-14725
jpg	-14726
▁Denet	-14727
▁kullanmayı	-14728
▁ayıp	-14729
▁biliniyor	-14730
▁kabin	-14731
▁muvaf	-14732
dıma	-14733
▁tanışma	-14734
▁5-	-14735
▁Turn	-14736
▁Namaz	-14737
ato	-14738
▁900	-14739
▁ödüllendir	-14740
▁kablosuz	-14741
▁konusuna	-14742
▁tâbi	-14743
▁####	-14744
▁açıklayan	-14745
▁Gider	-14746
▁olduğunuzu	-14747
▁yapmaktan	-14748
omer	-14749
▁azdır	-14750
lanmasına	-14751
▁prosed	-14752
▁desteğiyle	-14753
▁hatırlatan	-14754
ayip	-14755
▁burda	-14756
▁yaparlar	-14757
bistan	-14758
▁Boğaziçi	-14759
yonu	-14760
▁tutma	-14761
▁sürdüğü	-14762
RAM	-14763
▁gelirse	-14764
▁saatlerde	-14765
▁Sili	-14766
layalım	-14767
ics	-14768
▁dalı	-14769
▁tanıyan	-14770
▁toprakları	-14771
▁tehdi	-14772
▁çıktık	-14773
▁Dışarı	-14774
▁katled	-14775
▁konten	-14776
▁Jul	-14777
▁sesler	-14778
▁Zirv	-14779
▁gösterecek	-14780
▁Şirketi	-14781
▁armağan	-14782
▁direksiyon	-14783
▁devletler	-14784
▁Endek	-14785
▁dosyaları	-14786
▁irtibat	-14787
▁iktidara	-14788
▁İlköğretim	-14789
▁harik	-14790
▁benzin	-14791
▁mücadelede	-14792
▁1950	-14793
▁arke	-14794
▁yarattı	-14795
▁evinin	-14796
▁sayısında	-14797
▁ayni	-14798
▁birinden	-14799
▁kızları	-14800
▁öngörülen	-14801
▁sadakat	-14802
▁Sap	-14803
▁tutmaya	-14804
taraf	-14805
▁World	-14806
▁sürat	-14807
▁kabiliyet	-14808
lk	-14809
▁olunan	-14810
ınızdaki	-14811
amayacağı	-14812
▁doğanın	-14813
▁up	-14814
▁kalori	-14815
bn	-14816
DEN	-14817
▁coğrafi	-14818
▁tuşuna	-14819
anak	-14820
▁Lir	-14821
▁kazanıyor	-14822
▁olacağım	-14823
▁ph	-14824
▁UY	-14825
▁koç	-14826
▁jandarma	-14827
BİT	-14828
▁alıyorum	-14829
▁Kötü	-14830
şen	-14831
▁George	-14832
▁sunacak	-14833
▁Word	-14834
▁yazarın	-14835
abilecekleri	-14836
▁âşık	-14837
▁TEM	-14838
▁Değişiklik	-14839
▁oluşturulması	-14840
aboliz	-14841
▁hususta	-14842
▁idiler	-14843
▁sürülen	-14844
▁çalıştığını	-14845
leşmesi	-14846
▁Uşak	-14847
▁eğr	-14848
uver	-14849
▁Divan	-14850
▁çeviri	-14851
▁belirtiliyor	-14852
▁sürül	-14853
▁olabilmektedir	-14854
▁neyin	-14855
▁verdiğim	-14856
▁sıkıntısı	-14857
▁Bingöl	-14858
▁işlemlerin	-14859
▁gülümsem	-14860
▁atlat	-14861
▁olmamak	-14862
▁İma	-14863
▁medres	-14864
▁şube	-14865
▁teslimat	-14866
▁ihrac	-14867
▁bellek	-14868
▁çevreye	-14869
▁Operasyon	-14870
▁endüstriyel	-14871
▁hesaplama	-14872
▁aramaya	-14873
▁sessizce	-14874
▁Teklif	-14875
karahisar	-14876
▁olmayabilir	-14877
▁Şart	-14878
▁Suresi	-14879
▁sorunlara	-14880
terek	-14881
sion	-14882
▁dub	-14883
▁yerlerine	-14884
▁Açma	-14885
opol	-14886
▁özerk	-14887
▁düşünme	-14888
▁yanınızda	-14889
▁Avcı	-14890
▁alınıp	-14891
▁çeşidi	-14892
lüğünün	-14893
▁yelken	-14894
▁suçundan	-14895
ememiş	-14896
▁Altay	-14897
▁Başakşehir	-14898
▁kendimize	-14899
▁Düşman	-14900
▁dersiniz	-14901
▁Petrol	-14902
▁onayı	-14903
▁gündelik	-14904
▁maddesine	-14905
▁Akş	-14906
▁portföy	-14907
▁göstermesi	-14908
▁Sizlere	-14909
▁sop	-14910
▁hizmetlerin	-14911
ğindeki	-14912
▁programının	-14913
hendisi	-14914
▁Meksika	-14915
.12.	-14916
▁uğramış	-14917
▁Haydar	-14918
▁okullarda	-14919
▁duygular	-14920
▁yakalama	-14921
▁Türkleri	-14922
▁tahmini	-14923
▁kalmadan	-14924
ilebilecek	-14925
Geç	-14926
izam	-14927
▁Kutsal	-14928
6’	-14929
▁konulan	-14930
▁muhasebe	-14931
▁kapıya	-14932
▁ederdi	-14933
▁azar	-14934
ited	-14935
▁benzersiz	-14936
▁şaşırt	-14937
▁uzaklık	-14938
▁dayanışma	-14939
▁rul	-14940
kâ	-14941
▁Yıllık	-14942
▁ürettiği	-14943
▁düşünceleri	-14944
▁tesisi	-14945
▁ehliyet	-14946
▁istifade	-14947
ıyorsunuz	-14948
▁biliyorsunuz	-14949
▁oğlan	-14950
▁sıkıntılar	-14951
lığınca	-14952
EÇ	-14953
▁beşinci	-14954
▁Edinilen	-14955
▁Ulaştırma	-14956
▁madalya	-14957
▁saçları	-14958
▁Kapsam	-14959
▁çekmeye	-14960
▁tanımı	-14961
▁inancı	-14962
abilirsin	-14963
▁sonucuna	-14964
ward	-14965
▁kaynaş	-14966
▁zıt	-14967
▁oynar	-14968
▁ST	-14969
sınıf	-14970
▁etmekle	-14971
▁kurallarına	-14972
▁Sef	-14973
▁iğr	-14974
▁Hristiyan	-14975
▁bayr	-14976
oğulları	-14977
▁tersi	-14978
dırlar	-14979
▁Kos	-14980
▁Kızılay	-14981
▁pal	-14982
▁sahası	-14983
▁zat	-14984
▁Borsa	-14985
▁akışı	-14986
▁aramızda	-14987
▁Akar	-14988
▁olasılığı	-14989
▁güvenliğini	-14990
▁Yücel	-14991
▁haml	-14992
▁yapısına	-14993
▁cins	-14994
▁hastalarda	-14995
▁Beyoğlu	-14996
▁planları	-14997
üri	-14998
▁Kralı	-14999
▁boşanma	-15000
▁rahip	-15001
▁yenilg	-15002
▁imha	-15003
▁motif	-15004
▁nikah	-15005
uval	-15006
lenecek	-15007
▁seviye	-15008
▁mutluluğu	-15009
▁bankalar	-15010
▁kumandan	-15011
▁ellerinden	-15012
▁Mahalle	-15013
▁güreş	-15014
▁gelenler	-15015
▁takibi	-15016
beş	-15017
lım	-15018
▁katılarak	-15019
▁Patent	-15020
▁sürgün	-15021
▁başlattığı	-15022
▁Almanca	-15023
▁eğitmen	-15024
▁maddelerin	-15025
▁bilgisini	-15026
▁Kesinlikle	-15027
▁(10	-15028
▁bül	-15029
▁seh	-15030
▁yönündeki	-15031
▁müsait	-15032
▁çalın	-15033
▁olaylara	-15034
▁okyan	-15035
abildiği	-15036
▁ateşe	-15037
▁Maltepe	-15038
▁yatırımlar	-15039
gs	-15040
▁yoldaş	-15041
▁Maked	-15042
▁ilerleme	-15043
▁AŞ	-15044
▁kışkır	-15045
▁Merhabalar	-15046
▁değişiyor	-15047
▁takılan	-15048
▁duygularını	-15049
ınızla	-15050
▁yaratı	-15051
▁Bilindiği	-15052
▁Amatör	-15053
▁Hocam	-15054
ildikten	-15055
▁hoşnut	-15056
▁Ros	-15057
▁vek	-15058
▁59	-15059
▁Ağaç	-15060
▁Real	-15061
▁kasaba	-15062
▁sorularını	-15063
▁Ag	-15064
▁bunlarla	-15065
▁kendilerinden	-15066
▁1998	-15067
-14	-15068
▁güçler	-15069
▁şimdiki	-15070
ew	-15071
▁dönemlerinde	-15072
apı	-15073
▁kullanıcılara	-15074
▁tümü	-15075
▁yılını	-15076
▁tutulan	-15077
▁aradığınız	-15078
dirme	-15079
▁termin	-15080
▁yapıda	-15081
▁Tunus	-15082
▁Şak	-15083
▁Taksim	-15084
osunun	-15085
▁Çankaya	-15086
izin	-15087
▁elimizden	-15088
▁Yanlış	-15089
▁Zer	-15090
▁YGS	-15091
▁geçit	-15092
▁adımlarla	-15093
▁fazladır	-15094
▁itfaiye	-15095
▁önemine	-15096
▁mesajları	-15097
▁ideolojik	-15098
▁başkanlığında	-15099
▁DEĞ	-15100
▁Hükümeti	-15101
▁bölümünün	-15102
mamı	-15103
▁aydınlık	-15104
sık	-15105
▁uğrayan	-15106
▁Jon	-15107
opi	-15108
▁Merk	-15109
▁turistik	-15110
▁Sertif	-15111
hel	-15112
jder	-15113
emeyeceği	-15114
▁nisp	-15115
▁topluluğ	-15116
▁Meryem	-15117
tüdyo	-15118
▁santim	-15119
▁Andre	-15120
▁Çocukların	-15121
▁Hakkari	-15122
▁112	-15123
▁tesir	-15124
lemesine	-15125
▁yaşantı	-15126
▁bütünüyle	-15127
▁kaymak	-15128
-9	-15129
▁liralık	-15130
▁Hen	-15131
▁MER	-15132
▁Ensâb	-15133
▁Önümüzdeki	-15134
âli	-15135
▁ödemek	-15136
▁bakımlı	-15137
▁enj	-15138
▁malum	-15139
2015	-15140
▁ulaşmış	-15141
00’	-15142
▁Fars	-15143
▁Hamil	-15144
▁hareketler	-15145
▁Anna	-15146
İMİ	-15147
▁Rahat	-15148
▁bağlantısından	-15149
▁sağlayabilir	-15150
▁badem	-15151
onim	-15152
▁temp	-15153
▁mg	-15154
▁yayınladı	-15155
▁sınıflandır	-15156
ott	-15157
▁yaşaya	-15158
▁Modelleri	-15159
duğundan	-15160
▁etmişlerdir	-15161
▁yöne	-15162
▁rüş	-15163
feder	-15164
▁seçimler	-15165
üşü	-15166
şer	-15167
▁sans	-15168
▁Tec	-15169
▁okş	-15170
▁görevlileri	-15171
olat	-15172
▁yaklaşımı	-15173
▁taktir	-15174
▁Anahtar	-15175
▁Mevlana	-15176
LAH	-15177
▁kemi	-15178
▁öksür	-15179
▁salg	-15180
▁yapılmasına	-15181
▁Yi	-15182
amıyordu	-15183
▁canını	-15184
▁elimden	-15185
▁kalça	-15186
▁görülmüştür	-15187
▁hatası	-15188
▁buluştu	-15189
▁trib	-15190
▁Keç	-15191
▁tuttur	-15192
▁cisim	-15193
elenmiş	-15194
▁62	-15195
▁Başbakanlık	-15196
erkan	-15197
[...]
