<unk>	0
<s>	0
</s>	0
ar	-0
er	-1
an	-2
in	-3
▁b	-4
en	-5
ın	-6
ir	-7
▁k	-8
▁d	-9
il	-10
▁s	-11
lar	-12
▁y	-13
ma	-14
▁g	-15
▁o	-16
el	-17
ek	-18
al	-19
ak	-20
▁v	-21
et	-22
la	-23
un	-24
▁i	-25
▁t	-26
da	-27
de	-28
ler	-29
▁h	-30
or	-31
▁bir	-32
▁ve	-33
es	-34
iy	-35
ay	-36
im	-37
ır	-38
at	-39
em	-40
▁B	-41
iz	-42
ur	-43
ik	-44
ed	-45
on	-46
ün	-47
as	-48
▁ol	-49
lı	-50
▁ç	-51
ey	-52
▁A	-53
aş	-54
▁m	-55
ul	-56
dı	-57
ür	-58
is	-59
▁a	-60
iş	-61
le	-62
am	-63
ış	-64
▁de	-65
ap	-66
▁K	-67
▁ö	-68
▁S	-69
ah	-70
ıl	-71
ların	-72
dan	-73
du	-74
it	-75
▁T	-76
az	-77
di	-78
ab	-79
▁M	-80
ız	-81
▁gö	-82
▁il	-83
ları	-84
ık	-85
um	-86
li	-87
▁p	-88
ya	-89
▁iç	-90
▁ş	-91
ini	-92
st	-93
ağ	-94
ım	-95
üz	-96
ine	-97
ok	-98
▁n	-99
▁H	-100
ce	-101
den	-102
▁f	-103
▁İ	-104
▁bu	-105
▁al	-106
ad	-107
▁D	-108
ol	-109
inde	-110
ında	-111
ev	-112
lan	-113
yor	-114
▁ar	-115
mak	-116
▁da	-117
▁E	-118
ük	-119
ti	-120
▁yap	-121
▁1	-122
uz	-123
mas	-124
tı	-125
iler	-126
▁Y	-127
▁z	-128
üm	-129
iyor	-130
▁için	-131
▁G	-132
esi	-133
leri	-134
eler	-135
ını	-136
uş	-137
▁gör	-138
▁baş	-139
▁et	-140
▁an	-141
af	-142
ül	-143
üş	-144
▁2	-145
inin	-146
▁r	-147
uy	-148
ut	-149
cak	-150
ği	-151
oğ	-152
ına	-153
▁kar	-154
▁O	-155
▁ed	-156
▁P	-157
▁gel	-158
dir	-159
us	-160
▁son	-161
ec	-162
dır	-163
ta	-164
▁“	-165
mış	-166
ıs	-167
iye	-168
▁bil	-169
uk	-170
lik	-171
▁ile	-172
te	-173
▁ver	-174
eç	-175
▁oldu	-176
av	-177
tir	-178
ib	-179
mek	-180
▁ger	-181
ğı	-182
▁in	-183
ön	-184
ra	-185
▁ön	-186
ez	-187
lık	-188
▁(	-189
eş	-190
..	-191
larak	-192
eb	-193
miş	-194
▁ay	-195
edi	-196
tır	-197
ilir	-198
▁değ	-199
unu	-200
ip	-201
▁Bu	-202
▁on	-203
öy	-204
len	-205
tan	-206
man	-207
▁kon	-208
▁c	-209
▁olarak	-210
▁C	-211
cı	-212
▁tar	-213
▁F	-214
▁iş	-215
aha	-216
ından	-217
▁yer	-218
lay	-219
▁olan	-220
▁kal	-221
▁kad	-222
üy	-223
▁en	-224
iniz	-225
ması	-226
laş	-227
ki	-228
se	-229
ibi	-230
▁ken	-231
op	-232
anı	-233
▁çok	-234
▁var	-235
▁bul	-236
ca	-237
lem	-238
▁olduğ	-239
eni	-240
▁ist	-241
lu	-242
▁R	-243
▁Ç	-244
▁daha	-245
▁gibi	-246
▁N	-247
ası	-248
ro	-249
ih	-250
ürk	-251
▁her	-252
ka	-253
ının	-254
▁çık	-255
▁or	-256
▁ma	-257
san	-258
inden	-259
▁e	-260
ıyor	-261
▁aç	-262
ama	-263
aman	-264
aki	-265
imiz	-266
▁geç	-267
eye	-268
▁gün	-269
▁el	-270
▁kur	-271
ken	-272
eki	-273
me	-274
sa	-275
▁sür	-276
üt	-277
▁"	-278
...	-279
▁ko	-280
▁düş	-281
▁üz	-282
ör	-283
ecek	-284
isi	-285
lama	-286
▁kul	-287
▁V	-288
▁yar	-289
iç	-290
▁3	-291
eden	-292
▁kadar	-293
▁uy	-294
ru	-295
eh	-296
▁üzer	-297
ili	-298
▁yaş	-299
▁bel	-300
▁çal	-301
▁zaman	-302
▁yan	-303
▁Ö	-304
▁yıl	-305
▁Türk	-306
larını	-307
eri	-308
öz	-309
os	-310
aç	-311
lara	-312
▁Ş	-313
lü	-314
ilm	-315
lerin	-316
daki	-317
yla	-318
▁karş	-319
ci	-320
▁dur	-321
▁olma	-322
let	-323
▁sonra	-324
ğr	-325
▁kullan	-326
yon	-327
▁doğ	-328
unda	-329
aya	-330
▁An	-331
tur	-332
ilen	-333
▁gerek	-334
ılı	-335
id	-336
iyle	-337
▁çalış	-338
▁ne	-339
eli	-340
üç	-341
▁hal	-342
ece	-343
▁L	-344
▁kend	-345
om	-346
▁bulun	-347
▁şey	-348
iyet	-349
ist	-350
▁u	-351
▁öz	-352
ep	-353
▁dev	-354
▁20	-355
ark	-356
leş	-357
▁ben	-358
▁top	-359
▁ama	-360
dığ	-361
üyük	-362
▁sor	-363
unun	-364
ten	-365
met	-366
▁Al	-367
ers	-368
▁tek	-369
▁ola	-370
▁dön	-371
ade	-372
▁Bir	-373
dım	-374
asında	-375
▁ak	-376
ıp	-377
arak	-378
ılan	-379
ğini	-380
erek	-381
▁yaz	-382
dığı	-383
▁say	-384
▁değil	-385
gi	-386
▁sağ	-387
▁at	-388
▁kap	-389
▁kay	-390
▁par	-391
üc	-392
▁taraf	-393
ac	-394
sel	-395
öl	-396
maya	-397
lerini	-398
▁yön	-399
if	-400
▁bak	-401
yi	-402
men	-403
nin	-404
arı	-405
deki	-406
▁hay	-407
▁ki	-408
▁bo	-409
muş	-410
▁söy	-411
▁insan	-412
ağı	-413
▁4	-414
alı	-415
▁yüz	-416
una	-417
ğer	-418
dü	-419
ınız	-420
▁ek	-421
ef	-422
▁U	-423
ada	-424
edir	-425
▁yak	-426
üs	-427
▁uz	-428
ot	-429
imi	-430
▁karşı	-431
larda	-432
ede	-433
ran	-434
▁ev	-435
çek	-436
erk	-437
yan	-438
oc	-439
▁anla	-440
▁şek	-441
▁kat	-442
▁sah	-443
bir	-444
▁yol	-445
▁büyük	-446
▁es	-447
▁hak	-448
ic	-449
▁ise	-450
yı	-451
dür	-452
uh	-453
tu	-454
ana	-455
uyor	-456
▁oy	-457
▁yok	-458
rı	-459
larının	-460
ley	-461
▁as	-462
enin	-463
▁gir	-464
▁Baş	-465
▁ad	-466
ter	-467
▁Ü	-468
▁bağ	-469
▁yeni	-470
▁düşün	-471
▁sev	-472
ğu	-473
▁Ar	-474
▁göz	-475
eleri	-476
▁den	-477
▁gen	-478
▁har	-479
ısı	-480
kin	-481
larına	-482
tr	-483
▁kiş	-484
00	-485
▁uyg	-486
▁biz	-487
sun	-488
ster	-489
▁5	-490
tık	-491
▁diye	-492
▁hem	-493
nın	-494
▁pro	-495
▁-	-496
▁belir	-497
▁siz	-498
▁l	-499
ildi	-500
ımız	-501
▁ya	-502
öyle	-503
lere	-504
▁ür	-505
▁der	-506
nı	-507
▁hiç	-508
▁olduğu	-509
▁gerçek	-510
elik	-511
▁do	-512
▁öğr	-513
sız	-514
▁19	-515
ne	-516
ara	-517
▁öl	-518
adır	-519
lah	-520
esinde	-521
der	-522
▁ort	-523
▁söz	-524
makt	-525
▁veya	-526
dık	-527
eyi	-528
▁tak	-529
abilir	-530
▁özel	-531
▁dedi	-532
▁ilk	-533
▁Z	-534
▁iyi	-535
art	-536
▁düz	-537
▁göre	-538
etir	-539
▁göster	-540
▁ok	-541
▁açık	-542
▁önem	-543
▁ilg	-544
▁durum	-545
iv	-546
▁sır	-547
▁I	-548
dur	-549
lığ	-550
▁iki	-551
lığı	-552
ütün	-553
acak	-554
tedir	-555
▁çek	-556
▁tut	-557
▁böl	-558
tik	-559
▁duy	-560
üst	-561
larında	-562
▁yük	-563
▁alt	-564
kan	-565
▁getir	-566
sı	-567
▁olduğunu	-568
▁fark	-569
▁tarafından	-570
up	-571
lardan	-572
▁yet	-573
emek	-574
siniz	-575
cu	-576
▁alan	-577
▁ada	-578
▁şekil	-579
▁içinde	-580
▁201	-581
si	-582
mız	-583
▁kor	-584
ret	-585
ye	-586
▁Türkiye	-587
▁başla	-588
ram	-589
▁etti	-590
maktadır	-591
re	-592
ünü	-593
▁aş	-594
ça	-595
.”	-596
bilir	-597
atı	-598
▁iz	-599
mesi	-600
aret	-601
▁tarih	-602
▁san	-603
aber	-604
est	-605
▁tem	-606
iyordu	-607
esine	-608
▁değiş	-609
▁az	-610
abil	-611
ileri	-612
▁İn	-613
siz	-614
▁dün	-615
▁oluş	-616
tür	-617
▁ser	-618
tü	-619
▁Ay	-620
▁ih	-621
▁ağ	-622
esini	-623
avaş	-624
meye	-625
▁ce	-626
mektedir	-627
azı	-628
ans	-629
daş	-630
▁su	-631
▁olur	-632
usu	-633
▁şekilde	-634
izmet	-635
ayı	-636
ebilir	-637
kü	-638
iğer	-639
lerine	-640
etim	-641
üzel	-642
▁önce	-643
aat	-644
uv	-645
maz	-646
liği	-647
ğit	-648
▁tan	-649
üv	-650
▁doğru	-651
▁çoc	-652
na	-653
bil	-654
tar	-655
iyorum	-656
▁zor	-657
▁kim	-658
▁neden	-659
lerinin	-660
▁kö	-661
alık	-662
lam	-663
ünde	-664
▁is	-665
▁kendi	-666
▁kıs	-667
larla	-668
ayan	-669
▁İs	-670
▁ede	-671
▁seç	-672
çe	-673
▁6	-674
▁arasında	-675
han	-676
▁haz	-677
▁tüm	-678
▁birlik	-679
ındaki	-680
▁taş	-681
diği	-682
▁Er	-683
lerde	-684
▁mil	-685
dik	-686
üyor	-687
▁bur	-688
▁öğren	-689
▁has	-690
▁çıkar	-691
ıla	-692
▁bin	-693
▁kab	-694
▁faz	-695
ülk	-696
▁kaz	-697
ilmiş	-698
raf	-699
ğin	-700
asıl	-701
▁dış	-702
▁kes	-703
▁bilg	-704
olo	-705
nun	-706
▁Kur	-707
ri	-708
▁hat	-709
üne	-710
kı	-711
▁git	-712
ulu	-713
eti	-714
▁konuş	-715
▁İst	-716
▁bun	-717
▁bütün	-718
▁başka	-719
▁sahip	-720
▁gelen	-721
iyat	-722
▁devam	-723
anb	-724
leştir	-725
ılmış	-726
asyon	-727
▁hizmet	-728
▁aynı	-729
▁önemli	-730
▁değer	-731
▁geliş	-732
▁ter	-733
ledi	-734
▁fazla	-735
ımı	-736
▁bas	-737
alan	-738
▁üst	-739
▁ilgili	-740
ilik	-741
▁İl	-742
▁bek	-743
üp	-744
tığı	-745
▁güzel	-746
dar	-747
▁bile	-748
▁sonu	-749
ika	-750
adece	-751
▁yay	-752
eyen	-753
▁boy	-754
likle	-755
ırak	-756
▁diğer	-757
▁İb	-758
lendir	-759
istem	-760
eket	-761
▁sal	-762
▁birlikte	-763
▁7	-764
od	-765
sek	-766
▁Bel	-767
luk	-768
aba	-769
▁alın	-770
üven	-771
▁ülk	-772
▁dik	-773
erkez	-774
▁hazır	-775
larından	-776
▁onun	-777
▁ör	-778
ber	-779
oz	-780
▁sen	-781
anbul	-782
ide	-783
▁düzen	-784
rak	-785
▁hayat	-786
anın	-787
▁mü	-788
oloj	-789
▁em	-790
▁im	-791
gu	-792
▁kız	-793
▁olmak	-794
▁J	-795
vet	-796
▁Son	-797
tığ	-798
▁bırak	-799
dığını	-800
ünkü	-801
ğitim	-802
ilerin	-803
▁etk	-804
▁dil	-805
akat	-806
▁tes	-807
▁çocuk	-808
mı	-809
kanı	-810
▁görün	-811
▁gön	-812
▁En	-813
ıldı	-814
end	-815
▁Ben	-816
ehir	-817
▁İş	-818
mıştı	-819
ğim	-820
▁eden	-821
rup	-822
olu	-823
▁tür	-824
▁sık	-825
emiz	-826
▁nasıl	-827
bet	-828
oy	-829
cağ	-830
▁Öz	-831
▁eş	-832
▁içer	-833
lerinde	-834
ıcı	-835
masını	-836
▁mes	-837
▁konu	-838
yal	-839
▁Kar	-840
▁kan	-841
▁dönem	-842
▁eder	-843
▁hakk	-844
▁Gen	-845
▁güç	-846
▁çalışma	-847
lak	-848
▁sat	-849
ğimiz	-850
▁Ama	-851
▁üzerine	-852
▁Ak	-853
▁iliş	-854
▁yat	-855
▁kit	-856
20	-857
▁olacak	-858
ğiniz	-859
▁er	-860
▁8	-861
▁onu	-862
▁gid	-863
▁mi	-864
▁if	-865
▁İstanbul	-866
▁ik	-867
▁etm	-868
▁kaç	-869
▁arka	-870
▁‘	-871
▁sadece	-872
ğü	-873
▁farklı	-874
▁#	-875
lerden	-876
▁ulaş	-877
▁saat	-878
ılır	-879
mi	-880
▁10	-881
▁çev	-882
mıştır	-883
eniz	-884
▁din	-885
."	-886
▁sı	-887
sin	-888
ilmesi	-889
▁sistem	-890
▁böyle	-891
eme	-892
emiş	-893
gün	-894
kat	-895
▁yür	-896
▁W	-897
▁karar	-898
▁biri	-899
▁kazan	-900
duğu	-901
ig	-902
▁Or	-903
masına	-904
por	-905
▁ot	-906
ulan	-907
cel	-908
▁tab	-909
▁İbn	-910
▁görev	-911
▁Av	-912
▁hareket	-913
sal	-914
larımız	-915
▁tama	-916
ge	-917
esinin	-918
▁önc	-919
▁kadın	-920
ub	-921
ahat	-922
▁üç	-923
müş	-924
▁yardım	-925
▁Allah	-926
▁mut	-927
▁kendis	-928
lerinden	-929
▁adam	-930
lum	-931
edik	-932
▁savaş	-933
▁bit	-934
▁Her	-935
malı	-936
▁kav	-937
indeki	-938
▁tel	-939
layan	-940
▁Bak	-941
lâ	-942
▁ses	-943
üçük	-944
▁kr	-945
▁güven	-946
lat	-947
▁haf	-948
rar	-949
▁bulunan	-950
eg	-951
van	-952
▁olduk	-953
lardı	-954
uma	-955
▁geçir	-956
▁hav	-957
gil	-958
mez	-959
▁yapılan	-960
▁üzerinde	-961
elim	-962
lerle	-963
gı	-964
▁geldi	-965
▁oyun	-966
lük	-967
▁Kon	-968
tiy	-969
▁devlet	-970
tım	-971
gram	-972
ebil	-973
▁hep	-974
mal	-975
ekt	-976
▁hiçbir	-977
imdi	-978
liğ	-979
▁kabul	-980
▁bah	-981
▁benim	-982
▁uzun	-983
▁9	-984
▁koy	-985
▁ara	-986
▁Bil	-987
▁bazı	-988
▁belirt	-989
oş	-990
▁üzere	-991
▁uygu	-992
iyas	-993
▁olması	-994
▁dav	-995
ov	-996
âr	-997
▁can	-998
▁kı	-999
▁sit	-1000
fa	-1001
undan	-1002
eğ	-1003
iyon	-1004
ılması	-1005
dim	-1006
tal	-1007
▁muh	-1008
acağ	-1009
▁gönder	-1010
ladı	-1011
▁mak	-1012
▁görüş	-1013
▁mı	-1014
çi	-1015
hal	-1016
asına	-1017
hur	-1018
▁ürün	-1019
▁Bey	-1020
▁tah	-1021
▁te	-1022
▁sun	-1023
og	-1024
▁etmek	-1025
suz	-1026
▁tam	-1027
ren	-1028
▁Es	-1029
▁On	-1030
▁bölg	-1031
▁ortaya	-1032
ân	-1033
iyoruz	-1034
▁Mü	-1035
gel	-1036
▁'	-1037
bar	-1038
▁Bur	-1039
ıyordu	-1040
▁şu	-1041
▁bey	-1042
▁arkadaş	-1043
▁yüksek	-1044
mayı	-1045
▁dikkat	-1046
▁ona	-1047
ker	-1048
usunda	-1049
elerin	-1050
▁işlem	-1051
med	-1052
sman	-1053
▁tas	-1054
cek	-1055
net	-1056
▁kayn	-1057
manın	-1058
min	-1059
▁olmuş	-1060
isinde	-1061
▁edil	-1062
▁mad	-1063
▁Hal	-1064
yle	-1065
▁kır	-1066
▁olay	-1067
ivers	-1068
▁Biz	-1069
mer	-1070
▁uygun	-1071
▁As	-1072
▁15	-1073
çı	-1074
▁hakkında	-1075
ing	-1076
▁kam	-1077
▁Dev	-1078
▁oluştur	-1079
▁hız	-1080
ök	-1081
iversit	-1082
▁Pro	-1083
miştir	-1084
▁hük	-1085
▁,	-1086
ni	-1087
▁un	-1088
unuz	-1089
enk	-1090
duğ	-1091
▁sar	-1092
mişti	-1093
▁genel	-1094
▁kurul	-1095
gin	-1096
▁ayr	-1097
ket	-1098
ver	-1099
▁mal	-1100
▁ancak	-1101
▁vardı	-1102
ince	-1103
▁seb	-1104
▁*	-1105
▁Gün	-1106
madan	-1107
▁hemen	-1108
ob	-1109
),	-1110
çok	-1111
▁met	-1112
▁his	-1113
aşa	-1114
▁bana	-1115
▁vardır	-1116
ud	-1117
sik	-1118
▁anlam	-1119
▁ihtiy	-1120
işim	-1121
▁yakın	-1122
▁ayrı	-1123
▁200	-1124
▁otur	-1125
gan	-1126
▁kom	-1127
he	-1128
det	-1129
▁yerine	-1130
▁küçük	-1131
nız	-1132
ER	-1133
lanan	-1134
▁bunu	-1135
osyal	-1136
▁pek	-1137
▁man	-1138
ümüz	-1139
▁dok	-1140
▁–	-1141
▁Ancak	-1142
▁haber	-1143
▁nok	-1144
estek	-1145
yacak	-1146
▁El	-1147
lantı	-1148
▁Mil	-1149
▁teş	-1150
/1	-1151
▁inan	-1152
lıyor	-1153
▁han	-1154
▁yal	-1155
▁bilin	-1156
▁kork	-1157
▁ifade	-1158
▁artık	-1159
abilirsiniz	-1160
istan	-1161
▁kolay	-1162
umhur	-1163
▁yaklaş	-1164
sın	-1165
▁Başkanı	-1166
▁Osman	-1167
AR	-1168
eyh	-1169
tim	-1170
AN	-1171
▁Ne	-1172
ıt	-1173
▁mer	-1174
bu	-1175
oğu	-1176
▁yine	-1177
▁yas	-1178
sam	-1179
▁12	-1180
▁çöz	-1181
baş	-1182
▁kişi	-1183
tırma	-1184
asını	-1185
azar	-1186
▁tekn	-1187
▁dünya	-1188
▁eğitim	-1189
▁benz	-1190
ınır	-1191
-1	-1192
▁geri	-1193
▁istedi	-1194
unca	-1195
▁Tar	-1196
▁rahat	-1197
▁:	-1198
ele	-1199
meler	-1200
umuz	-1201
▁bölüm	-1202
▁art	-1203
ırım	-1204
?”	-1205
amaz	-1206
▁res	-1207
▁Çin	-1208
▁mev	-1209
▁mey	-1210
▁At	-1211
ydı	-1212
ünün	-1213
).	-1214
lamak	-1215
▁[	-1216
▁başar	-1217
ışma	-1218
▁merkez	-1219
ışı	-1220
▁18	-1221
▁ün	-1222
ici	-1223
▁pay	-1224
eşit	-1225
leme	-1226
▁vur	-1227
▁destek	-1228
▁Genel	-1229
▁oğ	-1230
▁olabilir	-1231
▁birbir	-1232
▁dolay	-1233
orum	-1234
▁verdi	-1235
lenen	-1236
▁pol	-1237
▁gelir	-1238
▁kol	-1239
tem	-1240
tif	-1241
▁mu	-1242
▁yarat	-1243
▁tanı	-1244
▁anlat	-1245
▁Ah	-1246
ort	-1247
ültür	-1248
onom	-1249
▁toplum	-1250
▁sorun	-1251
larıyla	-1252
ayet	-1253
▁uzak	-1254
▁yılında	-1255
oğlu	-1256
▁eski	-1257
▁fa	-1258
▁üy	-1259
lerimiz	-1260
▁taşı	-1261
▁Beled	-1262
gam	-1263
lemek	-1264
din	-1265
▁kez	-1266
▁görül	-1267
▁gerçekleştir	-1268
▁Ab	-1269
dum	-1270
▁Ün	-1271
▁Ve	-1272
lim	-1273
▁altında	-1274
▁dem	-1275
▁anlaş	-1276
▁Hay	-1277
uluk	-1278
▁ber	-1279
▁biraz	-1280
aj	-1281
deş	-1282
par	-1283
▁olsun	-1284
▁ediyor	-1285
tin	-1286
may	-1287
▁San	-1288
▁Tek	-1289
kın	-1290
ektör	-1291
▁bilgi	-1292
▁mem	-1293
▁program	-1294
▁Bunun	-1295
.1	-1296
▁cev	-1297
▁Ek	-1298
bol	-1299
▁biç	-1300
uyu	-1301
ünden	-1302
▁diy	-1303
dın	-1304
▁oda	-1305
uru	-1306
▁fir	-1307
▁0	-1308
iydi	-1309
res	-1310
▁tal	-1311
▁bar	-1312
tiği	-1313
leyen	-1314
▁yönet	-1315
▁başladı	-1316
▁yanı	-1317
▁hüküm	-1318
▁erk	-1319
▁Dün	-1320
▁la	-1321
sil	-1322
▁mek	-1323
urt	-1324
edim	-1325
▁birçok	-1326
medi	-1327
▁fır	-1328
▁11	-1329
▁proj	-1330
be	-1331
▁sonr	-1332
▁yaşam	-1333
▁bunun	-1334
▁ziy	-1335
▁büy	-1336
▁koş	-1337
▁üret	-1338
ust	-1339
kinci	-1340
▁tav	-1341
▁bağlı	-1342
▁Kan	-1343
▁Par	-1344
▁olup	-1345
▁Cumhur	-1346
▁sak	-1347
kün	-1348
▁genç	-1349
mir	-1350
▁sab	-1351
▁plan	-1352
efon	-1353
eygam	-1354
ıntı	-1355
ast	-1356
âm	-1357
ultan	-1358
dından	-1359
▁sil	-1360
ğinde	-1361
üf	-1362
▁mas	-1363
▁çeşit	-1364
za	-1365
anlar	-1366
▁Avrup	-1367
ekk	-1368
ilere	-1369
kes	-1370
uyla	-1371
iyi	-1372
▁çağ	-1373
▁ail	-1374
asının	-1375
▁yani	-1376
eygamber	-1377
▁yen	-1378
▁yağ	-1379
▁tekrar	-1380
▁süre	-1381
▁hâ	-1382
ğa	-1383
▁kaldır	-1384
▁13	-1385
▁id	-1386
▁edilen	-1387
▁beni	-1388
▁sonuç	-1389
▁Ev	-1390
per	-1391
ola	-1392
nek	-1393
ınıf	-1394
▁çar	-1395
▁ağır	-1396
▁boş	-1397
larınız	-1398
▁mod	-1399
atan	-1400
umu	-1401
eceği	-1402
siyon	-1403
▁uç	-1404
▁söyledi	-1405
elen	-1406
ekli	-1407
arım	-1408
▁tamam	-1409
▁hes	-1410
!”	-1411
▁konusunda	-1412
▁para	-1413
duk	-1414
inizi	-1415
▁müm	-1416
orm	-1417
▁sıra	-1418
ent	-1419
▁değildir	-1420
▁Büyük	-1421
abı	-1422
▁kısa	-1423
▁Top	-1424
ize	-1425
kara	-1426
▁mah	-1427
cü	-1428
▁ner	-1429
▁sınır	-1430
sunuz	-1431
of	-1432
isini	-1433
ılacak	-1434
aban	-1435
▁AB	-1436
ch	-1437
▁yalnız	-1438
▁Han	-1439
▁hiss	-1440
....	-1441
ıyorum	-1442
düğ	-1443
lüm	-1444
edef	-1445
trol	-1446
▁diz	-1447
▁ilişk	-1448
▁iti	-1449
▁Çünkü	-1450
imde	-1451
▁Müdür	-1452
kaç	-1453
▁tat	-1454
▁Ön	-1455
lo	-1456
oğraf	-1457
▁film	-1458
ime	-1459
▁Mar	-1460
irket	-1461
▁fiyat	-1462
gın	-1463
▁mo	-1464
▁14	-1465
▁öldür	-1466
▁şeh	-1467
akk	-1468
▁geçen	-1469
▁dol	-1470
▁zamanda	-1471
▁Paşa	-1472
lardır	-1473
▁kitap	-1474
▁Mah	-1475
meden	-1476
▁öğrenc	-1477
mel	-1478
▁Avrupa	-1479
▁bizim	-1480
▁isim	-1481
▁Tan	-1482
oğun	-1483
▁gaz	-1484
▁boz	-1485
▁terc	-1486
▁yaşa	-1487
▁dönüş	-1488
▁eğ	-1489
▁asker	-1490
âh	-1491
ıda	-1492
▁16	-1493
ınca	-1494
▁Fakat	-1495
sanız	-1496
ört	-1497
ala	-1498
leriyle	-1499
▁Muh	-1500
▁dir	-1501
▁Yar	-1502
ğine	-1503
▁orta	-1504
▁ait	-1505
bi	-1506
▁adı	-1507
▁burada	-1508
▁Kal	-1509
▁mümkün	-1510
nde	-1511
▁müş	-1512
landır	-1513
▁yayın	-1514
▁zar	-1515
▁hast	-1516
ılma	-1517
▁yaptığı	-1518
▁%	-1519
▁yeniden	-1520
▁oluyor	-1521
oh	-1522
▁Devlet	-1523
▁öyle	-1524
▁kil	-1525
▁Daha	-1526
ğe	-1527
ost	-1528
▁herkes	-1529
▁Osmanlı	-1530
▁istem	-1531
▁araş	-1532
▁kaynak	-1533
su	-1534
sınız	-1535
▁Başkan	-1536
endi	-1537
▁paylaş	-1538
▁dah	-1539
ant	-1540
▁telefon	-1541
▁bildir	-1542
▁indir	-1543
▁uygulama	-1544
▁oyn	-1545
▁değerlendir	-1546
▁Yap	-1547
▁size	-1548
▁İngil	-1549
▁günü	-1550
▁aras	-1551
▁ardından	-1552
ısında	-1553
▁incel	-1554
ha	-1555
▁Bun	-1556
▁davran	-1557
▁Har	-1558
▁aşağı	-1559
▁olsa	-1560
▁şöyle	-1561
▁temel	-1562
▁Üniversit	-1563
afa	-1564
esinden	-1565
ba	-1566
▁_	-1567
▁çevr	-1568
laştır	-1569
▁beraber	-1570
▁|	-1571
▁İç	-1572
ali	-1573
dem	-1574
isinin	-1575
▁kesin	-1576
dav	-1577
ilerini	-1578
▁olmayan	-1579
▁halk	-1580
▁(1	-1581
ışık	-1582
▁yapan	-1583
manız	-1584
▁Hun	-1585
▁geniş	-1586
▁Yan	-1587
rat	-1588
dana	-1589
▁17	-1590
▁düny	-1591
▁siyas	-1592
▁Yön	-1593
erli	-1594
▁Fran	-1595
▁araç	-1596
201	-1597
▁sav	-1598
▁Haz	-1599
▁sok	-1600
ücad	-1601
▁erkek	-1602
▁hedef	-1603
▁Der	-1604
▁Merkez	-1605
▁değiştir	-1606
▁ora	-1607
▁Yeni	-1608
rıca	-1609
▁içerisinde	-1610
▁yapmak	-1611
▁kardeş	-1612
▁sey	-1613
▁ölüm	-1614
ayın	-1615
üsü	-1616
▁Ser	-1617
▁sağlık	-1618
izm	-1619
alt	-1620
▁w	-1621
▁sosyal	-1622
iyeti	-1623
▁â	-1624
ator	-1625
lında	-1626
▁kah	-1627
/2	-1628
▁gül	-1629
eği	-1630
▁ziyaret	-1631
hangi	-1632
▁kut	-1633
▁milyon	-1634
▁Rus	-1635
ht	-1636
▁renk	-1637
Bu	-1638
elerini	-1639
▁şimdi	-1640
▁gereken	-1641
▁kontrol	-1642
▁Sultan	-1643
üb	-1644
▁Ankara	-1645
▁Peygamber	-1646
aten	-1647
▁Özel	-1648
meyi	-1649
▁li	-1650
erj	-1651
eyin	-1652
50	-1653
▁/	-1654
ilerine	-1655
▁kuş	-1656
arası	-1657
▁İz	-1658
▁yüzde	-1659
▁saldır	-1660
▁rağ	-1661
▁ey	-1662
▁konusu	-1663
▁teh	-1664
cağı	-1665
▁oldukça	-1666
▁kir	-1667
▁yanında	-1668
▁değişik	-1669
▁Has	-1670
ve	-1671
▁dayan	-1672
▁Ayrıca	-1673
▁gerekir	-1674
elere	-1675
▁geliştir	-1676
▁bab	-1677
▁dal	-1678
efer	-1679
tor	-1680
dıkları	-1681
unuyor	-1682
âz	-1683
eyim	-1684
yanın	-1685
▁çünkü	-1686
▁uğr	-1687
,”	-1688
▁Meh	-1689
▁tercih	-1690
▁Kay	-1691
▁av	-1692
oğan	-1693
alım	-1694
▁dak	-1695
▁per	-1696
▁30	-1697
▁Gaz	-1698
▁Ali	-1699
▁Müs	-1700
▁saç	-1701
▁ruh	-1702
lış	-1703
▁demek	-1704
▁Dr	-1705
▁üc	-1706
diler	-1707
alar	-1708
ecektir	-1709
pan	-1710
▁ders	-1711
ari	-1712
▁Eğer	-1713
▁açıklama	-1714
ılıyor	-1715
▁müz	-1716
▁yüksel	-1717
▁ul	-1718
rim	-1719
uvar	-1720
▁elde	-1721
▁suç	-1722
masının	-1723
▁kendini	-1724
▁ekonom	-1725
▁hatır	-1726
aliyet	-1727
nda	-1728
▁özellikle	-1729
▁ister	-1730
▁veren	-1731
inci	-1732
▁itibar	-1733
isine	-1734
▁gez	-1735
▁temiz	-1736
▁rağmen	-1737
▁güc	-1738
?"	-1739
▁engel	-1740
▁tur	-1741
▁ücret	-1742
▁Kad	-1743
▁tep	-1744
acı	-1745
yet	-1746
▁Oy	-1747
inc	-1748
makta	-1749
▁kurum	-1750
▁birkaç	-1751
anıyor	-1752
parator	-1753
▁İm	-1754
30	-1755
▁düşünc	-1756
▁Bay	-1757
▁hey	-1758
ıştır	-1759
eyhis	-1760
▁ölç	-1761
▁aldı	-1762
eceğini	-1763
maları	-1764
▁başv	-1765
▁vak	-1766
emi	-1767
lek	-1768
com	-1769
▁öğret	-1770
şam	-1771
▁Tem	-1772
▁yaşan	-1773
uğ	-1774
▁Böl	-1775
▁yapıl	-1776
▁soru	-1777
▁dair	-1778
▁cin	-1779
şı	-1780
▁iler	-1781
eyhissel	-1782
▁unut	-1783
dak	-1784
▁bize	-1785
▁köy	-1786
alet	-1787
tiğini	-1788
▁Böyle	-1789
▁ayak	-1790
▁ac	-1791
▁Ey	-1792
fer	-1793
2,	-1794
▁Yıl	-1795
▁hafta	-1796
▁gider	-1797
▁Eğitim	-1798
▁mücad	-1799
▁1.	-1800
fes	-1801
▁gece	-1802
landı	-1803
▁derece	-1804
▁kapsam	-1805
▁sınıf	-1806
▁kalit	-1807
▁ikinci	-1808
▁Sonra	-1809
▁edildi	-1810
kil	-1811
▁İnsan	-1812
▁anda	-1813
▁beş	-1814
▁Gör	-1815
▁ilet	-1816
▁çıkan	-1817
▁ABD	-1818
▁«	-1819
▁kültür	-1820
▁ah	-1821
▁çiz	-1822
oma	-1823
umlu	-1824
▁şirket	-1825
▁dışında	-1826
muz	-1827
▁giz	-1828
▁gi	-1829
otoğraf	-1830
▁yere	-1831
▁fik	-1832
▁yorum	-1833
▁İlk	-1834
▁tük	-1835
▁giy	-1836
ternet	-1837
▁mik	-1838
▁millet	-1839
▁herhangi	-1840
▁Ok	-1841
▁Aleyhissel	-1842
tiler	-1843
000	-1844
pr	-1845
ga	-1846
▁Bakan	-1847
▁gec	-1848
▁iy	-1849
uvvet	-1850
▁bay	-1851
▁adet	-1852
▁kalk	-1853
mesini	-1854
ullah	-1855
▁sanat	-1856
▁şekl	-1857
lis	-1858
▁Uy	-1859
gun	-1860
▁cevap	-1861
▁yerde	-1862
isyon	-1863
▁sek	-1864
ilmiştir	-1865
▁hoş	-1866
meyen	-1867
▁ordu	-1868
lüğü	-1869
▁yık	-1870
ula	-1871
▁halde	-1872
▁boyunca	-1873
▁model	-1874
▁zorunda	-1875
▁yarar	-1876
ale	-1877
▁şehir	-1878
ere	-1879
▁özellik	-1880
elerde	-1881
enc	-1882
▁fay	-1883
▁Uz	-1884
▁adım	-1885
esiyle	-1886
▁okul	-1887
▁giriş	-1888
▁Kom	-1889
▁karşılaş	-1890
oloji	-1891
ektr	-1892
▁yapı	-1893
▁Hat	-1894
▁Sa	-1895
▁ban	-1896
▁fakat	-1897
▁üzerinden	-1898
▁Mes	-1899
luğ	-1900
alama	-1901
▁yöntem	-1902
dam	-1903
▁sağla	-1904
▁dolayı	-1905
▁kötü	-1906
▁doğr	-1907
▁bugün	-1908
▁götür	-1909
1,	-1910
ısından	-1911
▁yemek	-1912
sat	-1913
▁##	-1914
▁—	-1915
▁söylem	-1916
emez	-1917
iyesi	-1918
▁Tur	-1919
▁takip	-1920
▁türlü	-1921
▁almak	-1922
ift	-1923
▁24	-1924
▁özg	-1925
▁Mal	-1926
▁öde	-1927
ülü	-1928
▁sizin	-1929
ılım	-1930
uslar	-1931
5,	-1932
▁sebep	-1933
ET	-1934
▁dost	-1935
▁idi	-1936
▁durumda	-1937
▁bakım	-1938
▁kendisine	-1939
3,	-1940
luluk	-1941
izi	-1942
▁bilim	-1943
esin	-1944
▁ark	-1945
cağını	-1946
1.	-1947
▁ıs	-1948
▁kims	-1949
▁çalışan	-1950
8,	-1951
▁ettiği	-1952
▁şeyi	-1953
▁vatan	-1954
ete	-1955
▁Ger	-1956
iri	-1957
▁bor	-1958
▁dört	-1959
▁belli	-1960
▁mar	-1961
▁ele	-1962
▁alış	-1963
düğü	-1964
lanmış	-1965
emin	-1966
▁Alman	-1967
▁Kas	-1968
▁faaliyet	-1969
▁yapar	-1970
EN	-1971
uştur	-1972
▁oran	-1973
rik	-1974
▁ederek	-1975
▁çözüm	-1976
▁örg	-1977
](	-1978
▁kas	-1979
▁madde	-1980
yo	-1981
eci	-1982
▁Dünya	-1983
▁grup	-1984
ii	-1985
bak	-1986
▁kapı	-1987
▁çıktı	-1988
▁Amer	-1989
▁Kr	-1990
▁onları	-1991
▁takım	-1992
luğu	-1993
▁düşman	-1994
▁dağ	-1995
rin	-1996
▁sektör	-1997
7,	-1998
▁Kap	-1999
ıyoruz	-2000
mey	-2001
for	-2002
anlı	-2003
imizin	-2004
▁onların	-2005
9,	-2006
▁insanlar	-2007
▁Sen	-2008
lerdi	-2009
▁gerekli	-2010
▁seçim	-2011
kır	-2012
abancı	-2013
▁etkin	-2014
ğın	-2015
▁dar	-2016
ebilirsiniz	-2017
rah	-2018
▁sürdür	-2019
las	-2020
dî	-2021
▁Tarih	-2022
▁des	-2023
ırken	-2024
▁kaf	-2025
AL	-2026
▁Tab	-2027
ukarı	-2028
▁Çok	-2029
ag	-2030
ukuk	-2031
▁.	-2032
▁Üniversitesi	-2033
▁Kend	-2034
ısıyla	-2035
▁Gel	-2036
▁2.	-2037
▁çeşitli	-2038
▁>	-2039
2.	-2040
▁Öğr	-2041
▁iddi	-2042
▁men	-2043
▁ateş	-2044
▁yetiş	-2045
6,	-2046
▁yüzden	-2047
İN	-2048
mem	-2049
4,	-2050
▁şart	-2051
dük	-2052
,"	-2053
▁ihtiyaç	-2054
larım	-2055
menin	-2056
▁sonunda	-2057
▁TL	-2058
▁toprak	-2059
▁öner	-2060
cut	-2061
▁ana	-2062
ekkür	-2063
dığımız	-2064
▁amacı	-2065
dığım	-2066
yıl	-2067
ke	-2068
▁ortak	-2069
▁**	-2070
sak	-2071
ira	-2072
ağa	-2073
lerdir	-2074
▁mez	-2075
enek	-2076
▁nokta	-2077
▁mis	-2078
▁edecek	-2079
▁2018	-2080
ile	-2081
▁um	-2082
▁yum	-2083
adolu	-2084
▁vaz	-2085
▁Müslüm	-2086
▁amaç	-2087
uç	-2088
▁başına	-2089
fet	-2090
▁yazı	-2091
lıkla	-2092
▁sahibi	-2093
▁Mer	-2094
▁tedav	-2095
▁istiyor	-2096
▁oku	-2097
▁parç	-2098
▁yönetim	-2099
▁25	-2100
▁sol	-2101
▁ileri	-2102
▁pat	-2103
▁ann	-2104
▁\	-2105
▁Ch	-2106
▁Ko	-2107
▁med	-2108
eder	-2109
▁Res	-2110
ia	-2111
▁Doğ	-2112
▁maç	-2113
▁yoktur	-2114
olojik	-2115
uyordu	-2116
▁kalan	-2117
▁rek	-2118
lığını	-2119
mesine	-2120
▁anlay	-2121
▁nit	-2122
▁İşte	-2123
elerinin	-2124
▁gerçekleş	-2125
▁kelim	-2126
▁Hak	-2127
▁etmiş	-2128
▁arasındaki	-2129
lin	-2130
▁nedeniyle	-2131
▁kurt	-2132
▁acı	-2133
▁halinde	-2134
irler	-2135
▁eser	-2136
▁buy	-2137
▁işaret	-2138
▁firma	-2139
▁şeyler	-2140
ina	-2141
▁ef	-2142
▁edilm	-2143
teki	-2144
ocuk	-2145
madı	-2146
▁edin	-2147
ilerinin	-2148
▁yönelik	-2149
tiv	-2150
▁hava	-2151
▁diyor	-2152
▁ilç	-2153
fi	-2154
▁ilişkin	-2155
▁don	-2156
usal	-2157
▁Ör	-2158
mam	-2159
▁buna	-2160
▁polit	-2161
▁sürekli	-2162
▁it	-2163
unan	-2164
▁sin	-2165
▁hesap	-2166
▁199	-2167
▁hızlı	-2168
▁tart	-2169
ku	-2170
▁Em	-2171
▁içine	-2172
▁yaptı	-2173
mayan	-2174
amı	-2175
mekte	-2176
lendi	-2177
lül	-2178
ülen	-2179
▁zarar	-2180
▁serv	-2181
üncü	-2182
▁olmaz	-2183
sen	-2184
▁Kul	-2185
▁akıl	-2186
▁fotoğraf	-2187
▁...	-2188
▁geçmiş	-2189
▁senin	-2190
meli	-2191
▁Anadolu	-2192
lüğ	-2193
▁meydana	-2194
▁şaş	-2195
**	-2196
▁onlar	-2197
▁şah	-2198
imize	-2199
masında	-2200
▁gelecek	-2201
▁ip	-2202
doğan	-2203
▁isteyen	-2204
emen	-2205
icaret	-2206
▁Must	-2207
▁Ef	-2208
▁\-	-2209
▁hatta	-2210
▁örnek	-2211
▁Ad	-2212
▁inş	-2213
▁deniz	-2214
ho	-2215
taj	-2216
▁silah	-2217
▁organ	-2218
▁Ot	-2219
▁doğal	-2220
▁güçlü	-2221
▁of	-2222
▁fel	-2223
dığında	-2224
memiş	-2225
üler	-2226
▁orada	-2227
▁Kor	-2228
▁sıcak	-2229
ült	-2230
▁belki	-2231
▁yoğun	-2232
▁Man	-2233
▁sur	-2234
▁İngiliz	-2235
▁yardımcı	-2236
▁olmalı	-2237
anlık	-2238
▁Sağ	-2239
ıldığı	-2240
lamaya	-2241
▁Şimdi	-2242
üle	-2243
lığın	-2244
▁toplantı	-2245
▁bulunduğu	-2246
▁vüc	-2247
▁le	-2248
10	-2249
ınav	-2250
▁çarp	-2251
▁cid	-2252
eştir	-2253
3.	-2254
▁temsil	-2255
▁verilen	-2256
layarak	-2257
▁enerj	-2258
▁yanlış	-2259
▁sayesinde	-2260
▁kuvvet	-2261
-2	-2262
üyle	-2263
▁Siz	-2264
▁hale	-2265
arlar	-2266
▁mevcut	-2267
▁Mustafa	-2268
inize	-2269
miyor	-2270
▁sırasında	-2271
▁insanların	-2272
uslararası	-2273
▁soy	-2274
EL	-2275
▁II	-2276
ate	-2277
▁geliyor	-2278
▁tanım	-2279
▁pazar	-2280
laması	-2281
▁Sel	-2282
▁üretim	-2283
ısını	-2284
▁verir	-2285
▁num	-2286
işi	-2287
amp	-2288
▁Dem	-2289
▁hayvan	-2290
▁parça	-2291
imizi	-2292
▁gerçekten	-2293
tığını	-2294
▁Do	-2295
amız	-2296
apor	-2297
▁derin	-2298
fak	-2299
▁sırada	-2300
▁uygulan	-2301
▁düşünüyor	-2302
▁cih	-2303
lilik	-2304
▁kıy	-2305
ise	-2306
▁Sur	-2307
aydı	-2308
malıdır	-2309
▁çevir	-2310
▁canlı	-2311
imin	-2312
uan	-2313
▁adına	-2314
etin	-2315
engin	-2316
elerine	-2317
cısı	-2318
ıb	-2319
▁X	-2320
▁Abd	-2321
▁konuda	-2322
▁izin	-2323
▁araştırma	-2324
▁AK	-2325
▁nokt	-2326
▁hik	-2327
▁geçti	-2328
lığa	-2329
ğinden	-2330
mat	-2331
.)	-2332
adiş	-2333
▁Hav	-2334
▁olabil	-2335
ene	-2336
▁vatandaş	-2337
iliği	-2338
▁hangi	-2339
▁başarı	-2340
ulmuş	-2341
▁baz	-2342
▁vermek	-2343
ite	-2344
▁yavaş	-2345
▁arada	-2346
▁İmparator	-2347
ümü	-2348
▁Belediye	-2349
▁Ter	-2350
▁ta	-2351
▁Aleyhisselâm	-2352
▁onlara	-2353
▁sefer	-2354
▁Peygamberimiz	-2355
▁satış	-2356
▁tamamen	-2357
isk	-2358
▁spor	-2359
▁sana	-2360
inç	-2361
▁gar	-2362
▁Bar	-2363
ind	-2364
▁Söz	-2365
▁ka	-2366
▁önünde	-2367
AT	-2368
ısına	-2369
▁tasar	-2370
▁dakika	-2371
AK	-2372
Ben	-2373
▁nerede	-2374
▁tarihi	-2375
▁du	-2376
▁verdiği	-2377
▁arz	-2378
HP	-2379
ediler	-2380
▁olacaktır	-2381
rek	-2382
▁kayıt	-2383
▁söyley	-2384
ES	-2385
ex	-2386
isay	-2387
ser	-2388
evi	-2389
▁Mehmet	-2390
lerce	-2391
onu	-2392
IN	-2393
▁açısından	-2394
uzey	-2395
ılmıştır	-2396
▁beri	-2397
asından	-2398
▁mağ	-2399
▁det	-2400
▁dö	-2401
pit	-2402
▁Hz	-2403
hak	-2404
can	-2405
▁etkil	-2406
▁Kit	-2407
▁Tr	-2408
▁kişinin	-2409
▁haline	-2410
▁kok	-2411
▁Ol	-2412
ebek	-2413
ank	-2414
▁yatırım	-2415
▁am	-2416
liyor	-2417
▁Ul	-2418
urdu	-2419
liğini	-2420
meleri	-2421
düm	-2422
abilecek	-2423
ılmaz	-2424
▁şeklinde	-2425
eng	-2426
▁çat	-2427
▁cam	-2428
air	-2429
▁kaybet	-2430
▁değildi	-2431
▁tık	-2432
▁Aç	-2433
lamaz	-2434
kem	-2435
▁nedenle	-2436
▁kendisini	-2437
▁Sev	-2438
▁defa	-2439
▁sez	-2440
▁rak	-2441
ğiz	-2442
▁yana	-2443
dıktan	-2444
imleri	-2445
▁kuruluş	-2446
dığınız	-2447
tın	-2448
▁Aynı	-2449
▁belg	-2450
▁bes	-2451
emal	-2452
▁teşekkür	-2453
htm	-2454
▁teslim	-2455
▁zaten	-2456
5.	-2457
adan	-2458
lulu	-2459
▁kimse	-2460
▁yaptık	-2461
îr	-2462
▁Kız	-2463
▁ir	-2464
yar	-2465
▁Erdoğan	-2466
▁Kara	-2467
▁internet	-2468
▁ortam	-2469
uzur	-2470
ati	-2471
ilerek	-2472
▁Şub	-2473
▁j	-2474
▁Geç	-2475
▁tehlik	-2476
▁adlı	-2477
▁tarihinde	-2478
mızı	-2479
▁sonucu	-2480
ildiği	-2481
enüz	-2482
▁ayır	-2483
▁uzman	-2484
talya	-2485
\.	-2486
rens	-2487
7.	-2488
▁Su	-2489
lanması	-2490
tep	-2491
”,	-2492
6.	-2493
▁gitti	-2494
▁Yük	-2495
▁Çocuk	-2496
▁insanın	-2497
▁kendine	-2498
iran	-2499
adişah	-2500
▁aslında	-2501
▁yabancı	-2502
▁hisset	-2503
▁akşam	-2504
▁yoktu	-2505
eyle	-2506
▁Merkezi	-2507
erson	-2508
▁kapat	-2509
▁Mec	-2510
▁İslam	-2511
▁Deniz	-2512
▁karşılık	-2513
▁Onun	-2514
▁21	-2515
▁gazet	-2516
ormal	-2517
▁benzer	-2518
▁kendisi	-2519
▁Müslüman	-2520
▁altına	-2521
lanır	-2522
taki	-2523
▁teknik	-2524
▁beklen	-2525
▁sordu	-2526
▁elektr	-2527
▁28	-2528
lif	-2529
9.	-2530
▁dolu	-2531
▁malz	-2532
ucu	-2533
▁oğlu	-2534
▁bağım	-2535
neğin	-2536
lüyor	-2537
▁idar	-2538
aları	-2539
▁ettik	-2540
▁Bütün	-2541
▁Sal	-2542
▁bizi	-2543
▁sebeb	-2544
▁yürüt	-2545
▁talep	-2546
▁yandan	-2547
▁net	-2548
▁veril	-2549
▁aday	-2550
iir	-2551
▁nes	-2552
▁gem	-2553
taş	-2554
▁açı	-2555
▁Yaş	-2556
red	-2557
ünüz	-2558
▁örgüt	-2559
▁Sar	-2560
▁bunlar	-2561
cılık	-2562
▁yaklaşık	-2563
ton	-2564
▁Tanrı	-2565
esel	-2566
▁re	-2567
▁bundan	-2568
▁sabah	-2569
▁yurt	-2570
▁yukarı	-2571
▁vide	-2572
▁toplam	-2573
▁olmas	-2574
lanma	-2575
▁olun	-2576
▁karşısında	-2577
▁dahil	-2578
▁alır	-2579
acağı	-2580
elerinde	-2581
▁ekip	-2582
4.	-2583
▁fil	-2584
▁yapılacak	-2585
▁bahs	-2586
▁başında	-2587
nu	-2588
▁mutlak	-2589
gen	-2590
▁Can	-2591
▁aldığı	-2592
▁100	-2593
isan	-2594
▁çift	-2595
gar	-2596
▁özgür	-2597
izik	-2598
▁ham	-2599
▁merak	-2600
▁Savaş	-2601
iddet	-2602
▁olmadığını	-2603
imler	-2604
▁Kadın	-2605
üğ	-2606
mıyor	-2607
▁işi	-2608
▁zengin	-2609
ledik	-2610
▁durumu	-2611
İL	-2612
▁Aş	-2613
eşil	-2614
▁Kat	-2615
▁içeri	-2616
▁nak	-2617
▁Say	-2618
adde	-2619
▁bulunuyor	-2620
▁yüzyıl	-2621
▁dünyanın	-2622
bur	-2623
▁biçimde	-2624
İR	-2625
arkı	-2626
▁Ver	-2627
▁22	-2628
▁karak	-2629
▁Az	-2630
▁2/	-2631
▁sizi	-2632
▁bilgiler	-2633
▁Yani	-2634
▁Tüm	-2635
isel	-2636
▁ib	-2637
▁yolu	-2638
▁May	-2639
AS	-2640
▁işlet	-2641
▁sap	-2642
▁Mart	-2643
dılar	-2644
iyan	-2645
utan	-2646
▁50	-2647
▁meş	-2648
▁yapma	-2649
enler	-2650
▁koşul	-2651
▁başarılı	-2652
elikle	-2653
ıyla	-2654
şehir	-2655
▁Tekn	-2656
ital	-2657
vek	-2658
▁Kasım	-2659
▁rol	-2660
lâm	-2661
▁iletişim	-2662
.,	-2663
usun	-2664
▁tespit	-2665
yum	-2666
../	-2667
ımda	-2668
▁işte	-2669
▁st	-2670
▁kop	-2671
▁varsa	-2672
▁huzur	-2673
osu	-2674
geç	-2675
](../	-2676
eyece	-2677
▁kapsamında	-2678
utbol	-2679
40	-2680
▁bat	-2681
▁eğer	-2682
▁hukuk	-2683
▁hasta	-2684
teri	-2685
▁ab	-2686
▁Kurulu	-2687
60	-2688
▁tarz	-2689
duğunu	-2690
▁Kim	-2691
▁duygu	-2692
ıma	-2693
altı	-2694
▁Kö	-2695
▁edilir	-2696
maktan	-2697
▁Af	-2698
isayar	-2699
▁beyaz	-2700
▁yalnızca	-2701
▁kullanıcı	-2702
▁Val	-2703
▁hayal	-2704
▁mesaj	-2705
▁3.	-2706
▁kişiler	-2707
▁savun	-2708
uc	-2709
▁key	-2710
▁40	-2711
▁Cumhurbaş	-2712
vi	-2713
▁Halk	-2714
▁dışarı	-2715
▁Bul	-2716
▁kurtar	-2717
har	-2718
▁itibaren	-2719
▁konuştu	-2720
▁ic	-2721
siy	-2722
▁yaptır	-2723
▁ayrıca	-2724
ow	-2725
▁öğ	-2726
▁davranış	-2727
AM	-2728
▁alma	-2729
▁tip	-2730
▁İzmir	-2731
▁mec	-2732
yız	-2733
lenmiş	-2734
▁aracı	-2735
▁detay	-2736
▁Burada	-2737
▁27	-2738
▁bula	-2739
▁bi	-2740
▁Bunu	-2741
▁müşter	-2742
ras	-2743
gisi	-2744
ısır	-2745
amet	-2746
▁hastalık	-2747
tör	-2748
Bir	-2749
▁soğ	-2750
ücü	-2751
▁olursa	-2752
▁Yak	-2753
▁bağlantı	-2754
▁Genç	-2755
▁2017	-2756
▁23	-2757
▁beden	-2758
esiz	-2759
▁başkan	-2760
▁gru	-2761
▁gay	-2762
oman	-2763
blem	-2764
ârî	-2765
atif	-2766
▁yaşayan	-2767
▁aktar	-2768
lit	-2769
▁Mo	-2770
sta	-2771
▁Ara	-2772
dikleri	-2773
bah	-2774
▁istiyorum	-2775
▁Temmuz	-2776
▁Millet	-2777
▁hafif	-2778
▁oluşan	-2779
▁cez	-2780
▁tec	-2781
▁alıp	-2782
▁güneş	-2783
8.	-2784
▁olmadığı	-2785
▁zih	-2786
yse	-2787
▁yazar	-2788
▁kısm	-2789
▁kayb	-2790
uman	-2791
asyonu	-2792
elerden	-2793
▁artır	-2794
anış	-2795
▁ciddi	-2796
▁Eylül	-2797
▁olmuştur	-2798
▁ez	-2799
otor	-2800
▁görüyor	-2801
eceğiniz	-2802
▁Çal	-2803
▁dek	-2804
▁satın	-2805
liler	-2806
▁sig	-2807
▁gerekiyor	-2808
▁sel	-2809
▁kullanılan	-2810
ammed	-2811
imli	-2812
ediye	-2813
sızlık	-2814
ırı	-2815
▁emek	-2816
▁seni	-2817
ohbet	-2818
tıyor	-2819
▁sistemi	-2820
▁kamu	-2821
▁yanına	-2822
▁Belediyesi	-2823
ersiz	-2824
▁Bah	-2825
mayacak	-2826
▁karış	-2827
▁rapor	-2828
▁miktar	-2829
adaki	-2830
bay	-2831
▁şüp	-2832
▁üniversit	-2833
▁ces	-2834
▁gide	-2835
ınızı	-2836
yüz	-2837
eydi	-2838
▁29	-2839
▁konuşma	-2840
▁ışık	-2841
▁di	-2842
▁ekonomik	-2843
▁henüz	-2844
sem	-2845
bo	-2846
▁düzey	-2847
▁uc	-2848
▁Böylece	-2849
▁Göz	-2850
▁dos	-2851
▁Ebu	-2852
izyon	-2853
▁Ahmet	-2854
EM	-2855
▁26	-2856
▁zev	-2857
üme	-2858
▁Gök	-2859
▁mektu	-2860
▁memnun	-2861
uldu	-2862
tığımız	-2863
▁Haber	-2864
ürt	-2865
▁kavram	-2866
▁birden	-2867
▁###	-2868
▁önceki	-2869
▁bunların	-2870
EK	-2871
▁mutlu	-2872
▁etraf	-2873
▁sayf	-2874
80	-2875
▁mesel	-2876
dası	-2877
▁str	-2878
âb	-2879
ladığı	-2880
▁duvar	-2881
▁Diğer	-2882
çak	-2883
▁edilmiş	-2884
▁Et	-2885
▁Bas	-2886
sef	-2887
dern	-2888
▁doldur	-2889
all	-2890
Türk	-2891
▁Parti	-2892
▁esas	-2893
▁nef	-2894
▁yerleş	-2895
tak	-2896
▁bakış	-2897
AD	-2898
lığına	-2899
▁eksik	-2900
▁Milli	-2901
▁aydın	-2902
▁başlan	-2903
ons	-2904
amaya	-2905
▁araya	-2906
▁yıllık	-2907
eth	-2908
▁Mak	-2909
▁Ma	-2910
▁dök	-2911
▁duyg	-2912
▁uyan	-2913
liğin	-2914
ılabilir	-2915
ayi	-2916
▁sınav	-2917
▁isten	-2918
▁dedim	-2919
yım	-2920
▁gerektiğini	-2921
▁Batı	-2922
▁altın	-2923
▁ha	-2924
▁Buna	-2925
▁kent	-2926
▁devr	-2927
dül	-2928
▁önüne	-2929
▁başvur	-2930
ova	-2931
asıyla	-2932
▁söylen	-2933
ebe	-2934
▁sıkıntı	-2935
AY	-2936
▁girdi	-2937
ğinin	-2938
▁Pol	-2939
▁Sam	-2940
▁sorum	-2941
▁süreç	-2942
▁dağı	-2943
▁list	-2944
▁Tak	-2945
emizde	-2946
▁ilan	-2947
çev	-2948
▁In	-2949
layıp	-2950
▁hüc	-2951
aket	-2952
▁işe	-2953
▁edebilir	-2954
▁koru	-2955
▁yansı	-2956
▁tasarım	-2957
hat	-2958
▁İki	-2959
▁yapıyor	-2960
▁doktor	-2961
▁yeri	-2962
▁gelmiş	-2963
ûl	-2964
.2	-2965
▁Yüz	-2966
▁terör	-2967
pek	-2968
▁boyut	-2969
muştur	-2970
▁amacıyla	-2971
içek	-2972
▁görmek	-2973
▁Kır	-2974
ayıf	-2975
ımıza	-2976
▁eylem	-2977
▁Rusya	-2978
▁öğretmen	-2979
▁part	-2980
▁dep	-2981
▁yor	-2982
go	-2983
▁keş	-2984
▁Am	-2985
line	-2986
▁dolaş	-2987
▁çab	-2988
one	-2989
▁Kemal	-2990
▁Yer	-2991
▁dönemde	-2992
▁Hiç	-2993
▁sonuc	-2994
atürk	-2995
▁Per	-2996
▁şiddet	-2997
dal	-2998
ener	-2999
▁Bazı	-3000
▁bağır	-3001
▁mük	-3002
▁emin	-3003
▁uyar	-3004
keri	-3005
▁hastan	-3006
▁fak	-3007
▁problem	-3008
▁ettir	-3009
▁dam	-3010
ayla	-3011
▁De	-3012
▁sayılı	-3013
lisi	-3014
▁uğ	-3015
▁Yaz	-3016
ebilecek	-3017
▁yola	-3018
▁edip	-3019
yas	-3020
▁Ağ	-3021
sp	-3022
▁bal	-3023
▁beğ	-3024
▁Mur	-3025
deniz	-3026
▁lis	-3027
İK	-3028
▁yeterli	-3029
edeni	-3030
omo	-3031
▁mücadel	-3032
▁Yine	-3033
▁fırsat	-3034
▁hayır	-3035
▁yoksa	-3036
ısının	-3037
/3	-3038
son	-3039
▁altı	-3040
▁bayan	-3041
arken	-3042
▁oper	-3043
▁tüket	-3044
▁Mayıs	-3045
▁etmeye	-3046
▁dile	-3047
şem	-3048
▁kullanım	-3049
▁Muhammed	-3050
▁Ekim	-3051
tılar	-3052
▁söylüyor	-3053
eyn	-3054
sini	-3055
lenmesi	-3056
ratik	-3057
▁bitir	-3058
▁Haziran	-3059
▁polis	-3060
▁del	-3061
▁öy	-3062
▁çer	-3063
▁piyas	-3064
▁Cumhuriyet	-3065
▁bulunmaktadır	-3066
▁Doğu	-3067
▁cihaz	-3068
çiler	-3069
▁davet	-3070
ima	-3071
▁üstün	-3072
▁Tel	-3073
▁günde	-3074
▁Arap	-3075
mür	-3076
▁Sah	-3077
ph	-3078
▁oyuncu	-3079
▁Benim	-3080
▁varlık	-3081
▁Orta	-3082
▁sanki	-3083
kim	-3084
▁durumunda	-3085
▁Gö	-3086
▁Gerçek	-3087
▁heyec	-3088
öyl	-3089
▁min	-3090
▁birey	-3091
asa	-3092
ığ	-3093
urum	-3094
matik	-3095
tuk	-3096
neği	-3097
dız	-3098
▁kurtul	-3099
veriş	-3100
allah	-3101
▁almış	-3102
▁Yardım	-3103
▁Ber	-3104
ayım	-3105
etler	-3106
▁kural	-3107
▁sayısı	-3108
▁yılı	-3109
iyim	-3110
Al	-3111
kar	-3112
▁sem	-3113
▁Bağ	-3114
▁günlük	-3115
▁ikti	-3116
▁eğlen	-3117
▁makin	-3118
▁başlayan	-3119
▁katkı	-3120
▁Ahmed	-3121
masından	-3122
▁Kaz	-3123
her	-3124
▁Meg	-3125
kân	-3126
▁öt	-3127
▁Sor	-3128
▁asla	-3129
▁ülke	-3130
▁sert	-3131
▁Kam	-3132
ınıza	-3133
▁laz	-3134
▁demiş	-3135
▁çoğu	-3136
▁sayı	-3137
▁nüf	-3138
▁kaldı	-3139
▁alınan	-3140
larca	-3141
▁Yal	-3142
âl	-3143
▁bunları	-3144
▁Spor	-3145
▁otel	-3146
▁güvenlik	-3147
gör	-3148
âzî	-3149
▁•	-3150
▁Sosyal	-3151
▁eg	-3152
elidir	-3153
liğe	-3154
sizlik	-3155
rum	-3156
inal	-3157
mur	-3158
▁ediyorum	-3159
▁fikir	-3160
best	-3161
▁servis	-3162
▁Bakanlığı	-3163
ediy	-3164
▁ilaç	-3165
lamış	-3166
ire	-3167
▁vazgeç	-3168
ây	-3169
▁İran	-3170
▁Özellikle	-3171
lediği	-3172
▁bulundu	-3173
▁sene	-3174
▁tarif	-3175
rafik	-3176
cil	-3177
▁Gir	-3178
▁cil	-3179
iyah	-3180
▁seviy	-3181
muştu	-3182
laşma	-3183
70	-3184
▁şiir	-3185
cılar	-3186
iyorlar	-3187
▁çocuğ	-3188
▁düzenlenen	-3189
▁day	-3190
▁buluş	-3191
▁mekan	-3192
▁Yönet	-3193
▁boğ	-3194
ılıç	-3195
▁Atatürk	-3196
elerle	-3197
▁İslâm	-3198
▁malzem	-3199
▁Yah	-3200
▁bilir	-3201
rol	-3202
erken	-3203
▁etkili	-3204
▁Yüksek	-3205
▁olduğuna	-3206
▁Bugün	-3207
▁yapmış	-3208
ediği	-3209
ilecek	-3210
▁tör	-3211
▁sürec	-3212
▁Gal	-3213
gesi	-3214
iyordum	-3215
▁Sab	-3216
şık	-3217
▁müzik	-3218
▁Ül	-3219
▁uğraş	-3220
sine	-3221
▁ondan	-3222
UR	-3223
tere	-3224
▁ekran	-3225
▁31	-3226
egor	-3227
▁biçim	-3228
▁edece	-3229
▁değişiklik	-3230
▁deneyim	-3231
▁yerleştir	-3232
▁Re	-3233
ban	-3234
▁kâ	-3235
▁öne	-3236
anan	-3237
▁şar	-3238
▁aşk	-3239
▁alacak	-3240
▁Üst	-3241
leşme	-3242
▁Nisan	-3243
uklu	-3244
▁Yunan	-3245
▁giden	-3246
ON	-3247
▁köş	-3248
▁person	-3249
▁rast	-3250
▁Eski	-3251
▁Amerika	-3252
▁gelip	-3253
elt	-3254
▁gizli	-3255
▁ünlü	-3256
dat	-3257
onik	-3258
▁alıyor	-3259
▁diş	-3260
▁’	-3261
▁kalma	-3262
▁diyerek	-3263
LAR	-3264
▁kıl	-3265
ata	-3266
▁yapacak	-3267
▁ilgilen	-3268
▁gal	-3269
▁tabi	-3270
▁ide	-3271
▁Şu	-3272
▁Beş	-3273
▁zayıf	-3274
bette	-3275
▁Müdürlüğü	-3276
▁esn	-3277
▁kanı	-3278
▁Bal	-3279
dek	-3280
▁tanrı	-3281
▁Sey	-3282
▁normal	-3283
▁alarak	-3284
rans	-3285
▁Vâ	-3286
▁Mev	-3287
▁ağz	-3288
niyet	-3289
!"	-3290
edeki	-3291
▁St	-3292
▁basit	-3293
▁hap	-3294
▁neler	-3295
▁2016	-3296
▁ederim	-3297
ekim	-3298
▁Güven	-3299
▁ceza	-3300
▁takdir	-3301
aliz	-3302
İM	-3303
▁saldırı	-3304
▁Gül	-3305
▁sevg	-3306
▁peş	-3307
▁çerçev	-3308
▁form	-3309
▁şer	-3310
lenme	-3311
▁mutlaka	-3312
▁ölçü	-3313
istik	-3314
▁yerinde	-3315
▁Kültür	-3316
▁mücadele	-3317
▁demok	-3318
▁Prof	-3319
▁sohbet	-3320
ult	-3321
▁olmaya	-3322
▁iddia	-3323
▁video	-3324
▁Hem	-3325
▁Ocak	-3326
▁edilmesi	-3327
▁basın	-3328
▁Fak	-3329
▁Sür	-3330
▁eleştir	-3331
▁bol	-3332
siye	-3333
▁karakter	-3334
etik	-3335
nak	-3336
encer	-3337
panya	-3338
mayın	-3339
▁ted	-3340
▁yazılı	-3341
▁nedir	-3342
▁Üç	-3343
▁piş	-3344
ât	-3345
12	-3346
▁sonraki	-3347
html	-3348
▁def	-3349
oca	-3350
▁namaz	-3351
▁düşük	-3352
▁bilm	-3353
rahim	-3354
▁ters	-3355
seniz	-3356
▁sayıda	-3357
iliyor	-3358
▁düşür	-3359
resi	-3360
▁Fransız	-3361
▁azal	-3362
▁kendilerine	-3363
ğust	-3364
üley	-3365
▁us	-3366
▁kullanıl	-3367
▁Megâzî	-3368
larınızı	-3369
rıs	-3370
▁psik	-3371
▁sonrası	-3372
▁yanıt	-3373
▁tartış	-3374
▁for	-3375
▁imz	-3376
gal	-3377
dip	-3378
no	-3379
İT	-3380
ger	-3381
▁gösteren	-3382
usunu	-3383
▁web	-3384
▁olduğundan	-3385
▁Li	-3386
▁hâlâ	-3387
▁Dav	-3388
ros	-3389
iştir	-3390
yen	-3391
▁dolar	-3392
▁sezon	-3393
▁Başbak	-3394
▁not	-3395
urken	-3396
▁başlat	-3397
▁198	-3398
abilmek	-3399
▁süt	-3400
acağını	-3401
▁Sağlık	-3402
▁dokun	-3403
süz	-3404
ulması	-3405
▁kitab	-3406
▁hus	-3407
elerinden	-3408
▁teklif	-3409
▁Ka	-3410
inizin	-3411
umsuz	-3412
larındaki	-3413
eksiyon	-3414
19	-3415
ğustos	-3416
▁araştır	-3417
▁rah	-3418
▁ticaret	-3419
acağız	-3420
▁siyasi	-3421
▁Tarihi	-3422
fen	-3423
▁Dış	-3424
▁Te	-3425
▁had	-3426
▁değerli	-3427
imizde	-3428
▁oyna	-3429
▁kem	-3430
▁kral	-3431
▁fayd	-3432
alığı	-3433
▁Bunlar	-3434
▁merkezi	-3435
ümüzde	-3436
unları	-3437
▁Yönetim	-3438
ırlar	-3439
raman	-3440
▁resmi	-3441
uar	-3442
▁Düş	-3443
▁Vâkı	-3444
lenir	-3445
▁bilgisayar	-3446
▁bazen	-3447
▁müh	-3448
▁politik	-3449
▁Almanya	-3450
▁akl	-3451
▁İk	-3452
▁kararı	-3453
▁mahal	-3454
▁şüph	-3455
▁Mısır	-3456
▁hepsi	-3457
ımızı	-3458
▁yıldız	-3459
▁CHP	-3460
▁(2	-3461
▁yiy	-3462
▁stan	-3463
▁başlar	-3464
to	-3465
ğan	-3466
▁etme	-3467
▁Artık	-3468
▁Med	-3469
▁birisi	-3470
▁ap	-3471
▁yetk	-3472
▁Dön	-3473
ext	-3474
▁şaşır	-3475
▁sağlamak	-3476
▁poz	-3477
▁yürüy	-3478
▁ortadan	-3479
▁dünyada	-3480
▁gören	-3481
▁baktı	-3482
▁Vâkıdî	-3483
▁başvuru	-3484
▁deste	-3485
muyor	-3486
▁çağır	-3487
▁zam	-3488
▁Â	-3489
lıklar	-3490
▁asıl	-3491
▁yaşında	-3492
▁saf	-3493
▁marka	-3494
▁güncel	-3495
▁Ür	-3496
........	-3497
▁fon	-3498
▁zevk	-3499
▁oldukları	-3500
▁dey	-3501
dikten	-3502
abet	-3503
▁futbol	-3504
▁Hizmet	-3505
lerim	-3506
▁teknoloj	-3507
▁Demir	-3508
▁kaş	-3509
▁adını	-3510
ham	-3511
▁şeyin	-3512
ron	-3513
▁tit	-3514
lıkları	-3515
▁göç	-3516
ane	-3517
iyatı	-3518
▁sokak	-3519
▁Eb	-3520
zer	-3521
forman	-3522
▁konum	-3523
▁girişim	-3524
▁ilgi	-3525
▁Suriye	-3526
dıklarını	-3527
▁gök	-3528
▁ağaç	-3529
An	-3530
▁olmuştu	-3531
▁sağlar	-3532
▁kış	-3533
▁vermiş	-3534
rem	-3535
▁Bakanı	-3536
▁müda	-3537
▁saygı	-3538
laya	-3539
azi	-3540
rac	-3541
sim	-3542
▁hizmeti	-3543
▁Fa	-3544
▁Ham	-3545
▁Hep	-3546
▁gördüğ	-3547
▁lider	-3548
▁soğuk	-3549
▁Fat	-3550
▁eğit	-3551
▁yeter	-3552
▁dahi	-3553
▁Şeh	-3554
-3	-3555
day	-3556
▁İyi	-3557
▁banka	-3558
▁kısmı	-3559
▁tesis	-3560
ılıp	-3561
fat	-3562
gıç	-3563
ard	-3564
▁kesinlikle	-3565
ımın	-3566
▁Proj	-3567
▁yolc	-3568
cort	-3569
log	-3570
▁Türkçe	-3571
üstü	-3572
15	-3573
uf	-3574
üce	-3575
eyecek	-3576
▁cinsel	-3577
lacak	-3578
▁kür	-3579
Text	-3580
▁pan	-3581
▁yapılması	-3582
▁Diy	-3583
▁Ya	-3584
▁felsef	-3585
▁izle	-3586
▁aile	-3587
▁Cam	-3588
▁yarış	-3589
ikat	-3590
kenin	-3591
müştü	-3592
▁Ap	-3593
▁Sadece	-3594
▁fizik	-3595
▁zorun	-3596
va	-3597
▁birer	-3598
▁motor	-3599
▁reklam	-3600
▁yapılır	-3601
▁yüzünden	-3602
vekili	-3603
tay	-3604
▁eşya	-3605
erler	-3606
▁Cumhurbaşkanı	-3607
meniz	-3608
manı	-3609
▁Yol	-3610
90	-3611
diğini	-3612
ündeki	-3613
▁lazım	-3614
▁Şah	-3615
▁döndü	-3616
▁mark	-3617
▁Kıs	-3618
sinin	-3619
▁tahmin	-3620
tern	-3621
hi	-3622
▁biliyor	-3623
tis	-3624
▁etkinlik	-3625
▁gülüm	-3626
larımızın	-3627
rail	-3628
ünüyor	-3629
▁prens	-3630
▁üstüne	-3631
▁red	-3632
▁kart	-3633
▁yaşlı	-3634
▁uzat	-3635
▁askeri	-3636
▁anlamına	-3637
ımızın	-3638
ze	-3639
▁Taş	-3640
aka	-3641
▁Var	-3642
larımızı	-3643
▁vakit	-3644
rika	-3645
and	-3646
▁onay	-3647
aza	-3648
▁cen	-3649
▁4.	-3650
▁enerji	-3651
makla	-3652
▁barış	-3653
▁göl	-3654
▁sayfa	-3655
OR	-3656
▁müt	-3657
▁Aydın	-3658
▁olmasına	-3659
liğine	-3660
say	-3661
▁adres	-3662
▁terk	-3663
25	-3664
▁ins	-3665
▁arab	-3666
▁arama	-3667
▁and	-3668
LER	-3669
▁yaparak	-3670
▁tedavi	-3671
▁Ro	-3672
eter	-3673
dit	-3674
▁tatlı	-3675
diş	-3676
İS	-3677
mut	-3678
▁yönetic	-3679
▁Tay	-3680
▁Amerik	-3681
▁ince	-3682
meni	-3683
emmel	-3684
▁Hüs	-3685
▁Aralık	-3686
▁İbrahim	-3687
▁sizlere	-3688
▁başını	-3689
▁eşit	-3690
ağın	-3691
ümüş	-3692
illa	-3693
liğinde	-3694
▁sağlıklı	-3695
▁tr	-3696
▁edebil	-3697
▁şim	-3698
AŞ	-3699
▁yapılmış	-3700
▁borç	-3701
▁şik	-3702
raz	-3703
▁medya	-3704
ıza	-3705
▁gönül	-3706
▁Ağustos	-3707
▁baskı	-3708
▁Müdürü	-3709
evizyon	-3710
▁döneminde	-3711
▁neredeyse	-3712
▁tez	-3713
başı	-3714
unç	-3715
▁alanında	-3716
▁sa	-3717
▁Örneğin	-3718
▁ağr	-3719
layın	-3720
ısız	-3721
atör	-3722
▁fer	-3723
▁Küçük	-3724
malar	-3725
▁baba	-3726
▁uluslararası	-3727
▁dışı	-3728
▁düğ	-3729
ampiyon	-3730
▁Kah	-3731
▁ayında	-3732
▁Roma	-3733
▁Açık	-3734
▁doğrudan	-3735
▁Hük	-3736
▁şarkı	-3737
▁birinin	-3738
zi	-3739
▁puan	-3740
▁Süley	-3741
▁Evet	-3742
▁düştü	-3743
ond	-3744
acaktır	-3745
▁başta	-3746
▁nedeni	-3747
▁kaliteli	-3748
▁Hakk	-3749
▁birinci	-3750
▁test	-3751
▁tır	-3752
▁ayar	-3753
▁kabil	-3754
▁Br	-3755
45	-3756
▁Tes	-3757
▁yeme	-3758
▁köt	-3759
▁Rab	-3760
▁toplumsal	-3761
yonel	-3762
▁bahis	-3763
▁kara	-3764
▁serbest	-3765
adem	-3766
▁tecr	-3767
▁elinde	-3768
▁ışı	-3769
▁eve	-3770
▁böylece	-3771
lev	-3772
mamış	-3773
▁Fransa	-3774
afer	-3775
▁İngiltere	-3776
nam	-3777
▁bö	-3778
▁kendilerini	-3779
▁gerektir	-3780
▁veriyor	-3781
▁anlamı	-3782
▁profes	-3783
▁korun	-3784
▁Müz	-3785
▁ül	-3786
cisi	-3787
cık	-3788
▁Güney	-3789
ang	-3790
▁içi	-3791
▁Bor	-3792
yası	-3793
▁Part	-3794
▁verildi	-3795
▁Mu	-3796
▁başk	-3797
▁taz	-3798
▁sona	-3799
▁anlayış	-3800
atej	-3801
▁aray	-3802
▁teşkil	-3803
int	-3804
▁seçenek	-3805
amış	-3806
ij	-3807
endis	-3808
▁edeb	-3809
▁öğrenciler	-3810
ıbrıs	-3811
▁içindeki	-3812
▁araba	-3813
▁anlamda	-3814
▁çoğ	-3815
ulur	-3816
▁Çev	-3817
▁hır	-3818
aray	-3819
▁görür	-3820
▁madd	-3821
▁genellikle	-3822
Hay	-3823
▁yıldır	-3824
▁sip	-3825
▁modern	-3826
esindeki	-3827
Ne	-3828
▁po	-3829
▁siv	-3830
▁be	-3831
▁lim	-3832
sına	-3833
▁ihtiyac	-3834
ıyorlar	-3835
dun	-3836
▁yararlan	-3837
▁Uzun	-3838
ork	-3839
▁yalan	-3840
▁yayım	-3841
▁2015	-3842
LI	-3843
are	-3844
▁sağlayan	-3845
ınızda	-3846
▁gücü	-3847
tarı	-3848
▁bebek	-3849
▁Program	-3850
▁sonrasında	-3851
▁üzerindeki	-3852
▁etmektedir	-3853
▁Lis	-3854
▁Birliği	-3855
▁dolayısıyla	-3856
▁arası	-3857
▁görünt	-3858
enn	-3859
▁And	-3860
▁iyice	-3861
▁okuy	-3862
▁görüntü	-3863
▁Eş	-3864
ded	-3865
▁yapmaya	-3866
▁:)	-3867
▁olumsuz	-3868
▁ku	-3869
ılış	-3870
artesi	-3871
▁alanı	-3872
▁pas	-3873
▁milyar	-3874
ndan	-3875
cağız	-3876
▁197	-3877
▁verilm	-3878
▁üçüncü	-3879
▁bec	-3880
▁Bundan	-3881
▁gib	-3882
sur	-3883
lıklı	-3884
▁döv	-3885
qu	-3886
▁çiçek	-3887
işleri	-3888
▁Mus	-3889
▁birini	-3890
ılabil	-3891
▁bağımsız	-3892
▁Yayın	-3893
omet	-3894
▁tane	-3895
▁kişilik	-3896
imar	-3897
▁)	-3898
▁alanda	-3899
sını	-3900
.3	-3901
▁Süleyman	-3902
eral	-3903
acağım	-3904
mekten	-3905
23	-3906
▁Kol	-3907
▁yetiştir	-3908
▁hükümet	-3909
▁The	-3910
▁salon	-3911
iyer	-3912
▁istek	-3913
▁çıkış	-3914
etici	-3915
▁hakkı	-3916
▁cüm	-3917
▁Adam	-3918
▁hazırlan	-3919
ai	-3920
▁taşın	-3921
ğimi	-3922
▁teb	-3923
▁yedi	-3924
▁sağlan	-3925
...”	-3926
▁Sistem	-3927
▁Le	-3928
▁performan	-3929
▁Tam	-3930
▁Şubat	-3931
les	-3932
▁Belki	-3933
▁kırmızı	-3934
▁hızla	-3935
AP	-3936
ED	-3937
▁anlama	-3938
▁kilo	-3939
▁yaptığ	-3940
lemeye	-3941
▁Mut	-3942
▁ton	-3943
▁buraya	-3944
▁yerini	-3945
▁Hır	-3946
▁kaçır	-3947
▁Hasan	-3948
▁elektrik	-3949
ütfen	-3950
▁bahç	-3951
▁Fil	-3952
▁anne	-3953
▁Fir	-3954
17	-3955
▁Nur	-3956
▁şiş	-3957
itesi	-3958
dart	-3959
lığının	-3960
▁kanal	-3961
▁erken	-3962
▁itir	-3963
▁kadının	-3964
▁Büyükşehir	-3965
▁vurgu	-3966
▁Önc	-3967
düz	-3968
ilerden	-3969
▁kredi	-3970
▁aklı	-3971
▁Bab	-3972
▁ücretsiz	-3973
▁gelenek	-3974
lığıyla	-3975
▁bug	-3976
▁kere	-3977
▁35	-3978
dukları	-3979
▁Kıbrıs	-3980
sas	-3981
▁gür	-3982
▁Ömer	-3983
vel	-3984
▁Sır	-3985
▁İkinci	-3986
▁Onlar	-3987
uyorum	-3988
▁tuz	-3989
▁yaşanan	-3990
▁kızı	-3991
▁Dur	-3992
▁bilinen	-3993
▁nitelik	-3994
▁derec	-3995
▁görünüyor	-3996
split	-3997
▁yaygın	-3998
ydi	-3999
var	-4000
▁siyah	-4001
▁tutar	-4002
▁yasak	-4003
işam	-4004
▁ır	-4005
▁beğen	-4006
▁yıllarda	-4007
▁karıştır	-4008
▁the	-4009
▁ödül	-4010
18	-4011
▁personel	-4012
tuğ	-4013
▁olanlar	-4014
▁mektup	-4015
▁kullanarak	-4016
▁Dok	-4017
▁aşırı	-4018
▁Cen	-4019
ğında	-4020
bey	-4021
▁çalışmaları	-4022
▁Araş	-4023
▁Bizim	-4024
iki	-4025
▁göm	-4026
üyordu	-4027
▁af	-4028
▁çap	-4029
zet	-4030
imden	-4031
▁İshak	-4032
▁operasyon	-4033
▁Hatta	-4034
▁üstünde	-4035
▁birleş	-4036
▁katılım	-4037
▁Yok	-4038
▁60	-4039
▁öf	-4040
▁ism	-4041
▁tavsiye	-4042
▁elb	-4043
▁yarı	-4044
▁inşa	-4045
▁iken	-4046
▁Kuzey	-4047
form	-4048
▁yada	-4049
▁imkan	-4050
▁yeşil	-4051
▁Cev	-4052
▁bilgileri	-4053
aca	-4054
▁arttır	-4055
▁suret	-4056
▁belirli	-4057
▁kategor	-4058
▁oyunu	-4059
▁doğum	-4060
▁Değ	-4061
▁hala	-4062
▁Kes	-4063
elek	-4064
▁artış	-4065
▁hayata	-4066
▁tıp	-4067
▁demektir	-4068
▁Oğ	-4069
haba	-4070
▁gerekmektedir	-4071
▁Bursa	-4072
▁rahatsız	-4073
▁Go	-4074
mail	-4075
▁ifad	-4076
ry	-4077
▁Antalya	-4078
mar	-4079
ko	-4080
dığına	-4081
▁şans	-4082
▁demir	-4083
▁Bek	-4084
▁çay	-4085
eğin	-4086
▁Film	-4087
▁risk	-4088
▁sessiz	-4089
kel	-4090
▁kazandır	-4091
▁sahn	-4092
▁Fakült	-4093
▁olmadan	-4094
onya	-4095
▁mobil	-4096
▁gidip	-4097
▁ayrıntı	-4098
▁Kürt	-4099
▁yumuş	-4100
▁kişisel	-4101
▁yatak	-4102
ess	-4103
▁Vak	-4104
ou	-4105
▁hissed	-4106
▁bed	-4107
▁resim	-4108
▁Düz	-4109
ebi	-4110
▁uçak	-4111
▁bekl	-4112
▁Rum	-4113
▁Del	-4114
▁giderek	-4115
▁müdahal	-4116
▁karşılı	-4117
▁izley	-4118
▁kök	-4119
▁öldürül	-4120
▁kalmış	-4121
ansı	-4122
▁2014	-4123
▁ge	-4124
▁New	-4125
▁balık	-4126
▁koc	-4127
▁bulunma	-4128
omobil	-4129
uğu	-4130
▁kalp	-4131
▁Hastan	-4132
▁imkân	-4133
▁́	-4134
99	-4135
ılarak	-4136
▁onunla	-4137
Evet	-4138
▁numar	-4139
▁getirdi	-4140
▁sonucunda	-4141
▁Aslında	-4142
▁Kullan	-4143
▁Haf	-4144
▁sakin	-4145
▁Bilg	-4146
div	-4147
adet	-4148
▁mükemmel	-4149
▁roman	-4150
▁trans	-4151
▁yaşama	-4152
▁Bat	-4153
▁gur	-4154
▁heyecan	-4155
▁korku	-4156
AB	-4157
▁Fer	-4158
▁Kurul	-4159
▁Tah	-4160
▁aylık	-4161
iya	-4162
sey	-4163
▁kaybol	-4164
▁iktidar	-4165
▁etmesi	-4166
▁Efendi	-4167
inans	-4168
sında	-4169
uydu	-4170
▁eriş	-4171
▁sahiptir	-4172
▁istediğiniz	-4173
▁Tho	-4174
▁Sanat	-4175
▁hikay	-4176
leriniz	-4177
▁=	-4178
▁rad	-4179
▁Oysa	-4180
eyiz	-4181
İY	-4182
▁öden	-4183
era	-4184
▁hayatını	-4185
▁belirten	-4186
▁Alan	-4187
üper	-4188
anacak	-4189
▁birbirine	-4190
▁bilinç	-4191
▁niyet	-4192
udi	-4193
▁karanlık	-4194
▁nefes	-4195
▁insanları	-4196
ani	-4197
▁isimli	-4198
▁müdür	-4199
▁günlerde	-4200
▁padişah	-4201
zu	-4202
tp	-4203
edek	-4204
▁kulak	-4205
▁müs	-4206
▁belirtti	-4207
▁politika	-4208
müştür	-4209
▁kapalı	-4210
üya	-4211
▁ettim	-4212
▁keyif	-4213
UL	-4214
lıdır	-4215
48	-4216
▁Seç	-4217
▁getiren	-4218
▁Cez	-4219
isinden	-4220
▁Gazi	-4221
adi	-4222
▁Güzel	-4223
▁fi	-4224
▁gördü	-4225
▁vb	-4226
lardaki	-4227
▁Cem	-4228
▁Tat	-4229
▁Sin	-4230
ersin	-4231
▁Sat	-4232
▁Târî	-4233
liye	-4234
cilik	-4235
cağım	-4236
▁evde	-4237
eceğim	-4238
irken	-4239
▁ayn	-4240
▁çoğun	-4241
▁birik	-4242
mediği	-4243
▁herkesin	-4244
▁gol	-4245
şey	-4246
▁Köy	-4247
▁Thomas	-4248
▁adamın	-4249
str	-4250
▁diren	-4251
13	-4252
▁Peki	-4253
▁çocuklar	-4254
▁göğ	-4255
▁geçerli	-4256
memek	-4257
▁!	-4258
▁ettiler	-4259
▁?	-4260
▁kenar	-4261
▁civ	-4262
▁Dair	-4263
▁işç	-4264
▁yapıldı	-4265
ciler	-4266
▁gelince	-4267
▁ediyordu	-4268
II	-4269
▁Onu	-4270
▁devrim	-4271
▁Mas	-4272
▁söyler	-4273
ımızda	-4274
▁işin	-4275
▁olmasını	-4276
▁olanak	-4277
▁bür	-4278
▁Meclis	-4279
▁kavuş	-4280
▁bakımından	-4281
isiyle	-4282
ura	-4283
ilebilir	-4284
▁taşıyan	-4285
▁sim	-4286
16	-4287
layıcı	-4288
▁kalab	-4289
yer	-4290
▁fayda	-4291
diye	-4292
lerinizi	-4293
irmi	-4294
kâr	-4295
▁etkisi	-4296
▁ker	-4297
masıyla	-4298
▁Herk	-4299
▁32	-4300
▁odak	-4301
amam	-4302
irk	-4303
▁yav	-4304
▁Başka	-4305
usuz	-4306
▁Sak	-4307
atıcı	-4308
erseniz	-4309
▁becer	-4310
ord	-4311
▁dünyaya	-4312
▁Din	-4313
▁işbir	-4314
▁öğrenci	-4315
▁Zaman	-4316
oyu	-4317
edikleri	-4318
eceğiz	-4319
▁alışveriş	-4320
▁istediği	-4321
▁kus	-4322
▁Bin	-4323
▁lez	-4324
▁katıl	-4325
▁nin	-4326
▁Nasıl	-4327
▁türk	-4328
▁sağlam	-4329
▁giren	-4330
▁mesaf	-4331
gulama	-4332
▁amel	-4333
ese	-4334
▁Târîh	-4335
▁deney	-4336
lemiş	-4337
ner	-4338
DE	-4339
bek	-4340
▁çekti	-4341
co	-4342
▁mahk	-4343
▁düşünce	-4344
abz	-4345
▁Mac	-4346
▁önceden	-4347
▁mus	-4348
ilendir	-4349
ğını	-4350
▁Hişam	-4351
▁Kendi	-4352
▁Hol	-4353
ilim	-4354
▁ilişki	-4355
▁geldiği	-4356
▁parçası	-4357
43	-4358
▁Ban	-4359
book	-4360
layacak	-4361
▁sitesi	-4362
▁gerçe	-4363
▁toplu	-4364
▁ürünleri	-4365
▁söyl	-4366
▁devletin	-4367
▁Çar	-4368
▁Yat	-4369
▁No	-4370
nden	-4371
ilip	-4372
▁danış	-4373
▁Pazar	-4374
▁proje	-4375
usuna	-4376
▁kanun	-4377
İn	-4378
▁ölçüde	-4379
▁Bana	-4380
bin	-4381
▁süs	-4382
▁olduğumuz	-4383
▁kahv	-4384
Ar	-4385
▁tay	-4386
▁yem	-4387
▁esir	-4388
▁ediyoruz	-4389
hane	-4390
▁Tas	-4391
▁ihti	-4392
yu	-4393
▁sinir	-4394
▁kişilerin	-4395
diğim	-4396
▁olumlu	-4397
▁babası	-4398
▁kalır	-4399
abiliyor	-4400
ly	-4401
▁çaba	-4402
ela	-4403
▁kuru	-4404
ındır	-4405
gul	-4406
▁suy	-4407
▁haft	-4408
▁verecek	-4409
▁memur	-4410
▁ı	-4411
▁Başbakan	-4412
car	-4413
▁Kral	-4414
▁gelin	-4415
Sen	-4416
▁akıllı	-4417
▁İh	-4418
▁Samsun	-4419
▁Arka	-4420
adı	-4421
▁özelliği	-4422
▁1,	-4423
alim	-4424
ıf	-4425
▁kanıt	-4426
▁inanç	-4427
sul	-4428
▁sorunu	-4429
▁mün	-4430
▁efend	-4431
▁se	-4432
▁ısı	-4433
▁donan	-4434
sızın	-4435
▁Mek	-4436
▁kalın	-4437
▁Güneş	-4438
▁33	-4439
▁adamı	-4440
46	-4441
isin	-4442
meyecek	-4443
lili	-4444
amın	-4445
▁tören	-4446
dev	-4447
▁tap	-4448
▁geçer	-4449
▁Hayat	-4450
tıkları	-4451
▁Oyun	-4452
▁Abdullah	-4453
▁VE	-4454
▁saray	-4455
▁ülkenin	-4456
▁Mahall	-4457
tıcı	-4458
.[	-4459
iğ	-4460
likleri	-4461
▁zamanlarda	-4462
▁Un	-4463
▁elini	-4464
▁oğul	-4465
▁hayatı	-4466
▁profesyonel	-4467
▁ba	-4468
engi	-4469
▁sad	-4470
▁durdur	-4471
latform	-4472
▁görünce	-4473
▁tabii	-4474
▁elem	-4475
▁bulunur	-4476
▁sürede	-4477
liyet	-4478
kiler	-4479
42	-4480
IR	-4481
▁İsrail	-4482
53	-4483
luluğ	-4484
uşu	-4485
istiyan	-4486
▁tatil	-4487
▁sp	-4488
itir	-4489
iği	-4490
lığında	-4491
▁suyu	-4492
yap	-4493
▁almaya	-4494
▁Uluslararası	-4495
▁dakik	-4496
▁sıkı	-4497
▁söylemek	-4498
▁5.	-4499
▁Derneği	-4500
▁Araştırma	-4501
tepe	-4502
▁Ana	-4503
▁ima	-4504
▁Asya	-4505
▁tor	-4506
lerimizi	-4507
47	-4508
▁kaçın	-4509
▁36	-4510
ekil	-4511
▁şif	-4512
▁ettiğini	-4513
▁Ticaret	-4514
▁Dolay	-4515
▁Hüküm	-4516
▁taşıma	-4517
▁toplan	-4518
▁yılda	-4519
//	-4520
▁Dil	-4521
dığından	-4522
▁Bölüm	-4523
▁Ker	-4524
▁organiz	-4525
▁endiş	-4526
▁olacağını	-4527
▁başlıyor	-4528
leket	-4529
▁sevin	-4530
▁süren	-4531
▁imza	-4532
▁Fakültesi	-4533
▁cep	-4534
▁parti	-4535
omatik	-4536
▁stratej	-4537
ogle	-4538
▁Sayın	-4539
▁temin	-4540
▁Irak	-4541
gr	-4542
▁pop	-4543
üny	-4544
▁sırt	-4545
mamız	-4546
cının	-4547
▁zamanlar	-4548
▁mon	-4549
▁Hüseyin	-4550
▁duyar	-4551
▁paket	-4552
▁Gür	-4553
▁yerden	-4554
▁Kab	-4555
ice	-4556
▁196	-4557
▁şeye	-4558
▁lira	-4559
▁Kir	-4560
▁Ürün	-4561
▁ilişkiler	-4562
▁Hunlar	-4563
OS	-4564
▁Murat	-4565
▁üye	-4566
▁grub	-4567
▁uğra	-4568
▁aşağıdaki	-4569
▁+	-4570
▁önemlidir	-4571
▁yenil	-4572
▁2/1	-4573
ılmıştı	-4574
▁2013	-4575
▁insanı	-4576
lî	-4577
▁yönel	-4578
▁kimi	-4579
▁çö	-4580
▁sunuyor	-4581
mesinin	-4582
▁gösterir	-4583
▁gözlem	-4584
nik	-4585
▁Kanun	-4586
▁müşteri	-4587
ore	-4588
kek	-4589
▁katıldı	-4590
▁standart	-4591
▁sözleş	-4592
iyatro	-4593
spor	-4594
▁çalışmalar	-4595
▁küt	-4596
▁kadınlar	-4597
eceğimiz	-4598
▁sesi	-4599
▁siyaset	-4600
▁Yalnız	-4601
lasik	-4602
▁programı	-4603
uzu	-4604
▁Kitap	-4605
▁üm	-4606
öğr	-4607
▁Devleti	-4608
▁buz	-4609
ksiyon	-4610
▁ufak	-4611
▁çıkmış	-4612
▁halkın	-4613
▁ödeme	-4614
▁hab	-4615
▁Den	-4616
▁Kut	-4617
▁Ülk	-4618
▁ihtiyacı	-4619
▁Teknik	-4620
▁Pat	-4621
▁meydan	-4622
tesi	-4623
Biz	-4624
▁tanın	-4625
ülük	-4626
▁Bank	-4627
▁yerel	-4628
diğimiz	-4629
▁işler	-4630
▁kadro	-4631
▁etmiştir	-4632
▁ört	-4633
▁Padişah	-4634
▁bahset	-4635
dağ	-4636
itik	-4637
▁hac	-4638
▁unsur	-4639
fı	-4640
2018	-4641
▁rüz	-4642
▁dosya	-4643
ung	-4644
▁çeken	-4645
▁avan	-4646
▁teor	-4647
▁buyur	-4648
▁ref	-4649
://	-4650
▁hesab	-4651
luluğu	-4652
▁umut	-4653
▁istih	-4654
iyiz	-4655
▁detaylı	-4656
afir	-4657
▁çıkıyor	-4658
ağını	-4659
▁Ada	-4660
▁binlerce	-4661
▁Siv	-4662
▁İlçe	-4663
▁Ort	-4664
▁3/	-4665
obüs	-4666
▁şehit	-4667
emizin	-4668
▁Sek	-4669
▁parmak	-4670
▁gittik	-4671
▁kıv	-4672
▁Tal	-4673
▁vücut	-4674
▁Çağ	-4675
▁gitmek	-4676
yalı	-4677
▁halkı	-4678
undaki	-4679
▁Mark	-4680
▁Sil	-4681
▁zek	-4682
▁sorumlu	-4683
ink	-4684
stik	-4685
▁Ordu	-4686
▁&	-4687
eliği	-4688
49	-4689
▁yoluyla	-4690
.000	-4691
▁kuzey	-4692
tion	-4693
kal	-4694
ariş	-4695
eytin	-4696
kur	-4697
▁arac	-4698
düğünü	-4699
ÜR	-4700
▁nesn	-4701
▁reh	-4702
Ey	-4703
-0	-4704
▁harika	-4705
âlâ	-4706
ray	-4707
üdü	-4708
emesi	-4709
▁bozuk	-4710
▁Lig	-4711
▁sonsuz	-4712
▁içerik	-4713
▁Sav	-4714
osta	-4715
▁1/	-4716
▁pencer	-4717
▁Öğret	-4718
etleri	-4719
▁çıkart	-4720
▁yakalan	-4721
ihayet	-4722
▁istik	-4723
▁tehdit	-4724
ena	-4725
▁olduklarını	-4726
▁Altın	-4727
▁tartışma	-4728
ıldız	-4729
▁Th	-4730
▁Çan	-4731
▁vah	-4732
▁zamanı	-4733
▁okuma	-4734
▁ayrıl	-4735
▁şef	-4736
▁topr	-4737
▁doğrult	-4738
▁3/1	-4739
▁Diyar	-4740
estiv	-4741
bal	-4742
▁usul	-4743
▁Hava	-4744
▁cesaret	-4745
IM	-4746
leyin	-4747
ilmez	-4748
▁kitabı	-4749
▁ilginç	-4750
▁meslek	-4751
▁kalb	-4752
mada	-4753
zat	-4754
▁kahraman	-4755
▁gördük	-4756
liğinin	-4757
▁sağlayacak	-4758
âye	-4759
▁sonuna	-4760
▁Sp	-4761
▁ederken	-4762
şu	-4763
▁Ac	-4764
▁iyil	-4765
▁Kı	-4766
UN	-4767
ie	-4768
▁dönüştür	-4769
▁harek	-4770
▁mens	-4771
▁Ona	-4772
▁tecrüb	-4773
▁çalışıyor	-4774
▁escort	-4775
iber	-4776
leyerek	-4777
▁2012	-4778
▁efsan	-4779
nün	-4780
▁ten	-4781
emli	-4782
▁olamaz	-4783
ation	-4784
▁park	-4785
▁ölü	-4786
gaz	-4787
▁öncesi	-4788
▁vergi	-4789
▁Okul	-4790
▁makam	-4791
mos	-4792
▁45	-4793
fe	-4794
ilmektedir	-4795
▁tedbir	-4796
▁kısım	-4797
▁İngilizce	-4798
ırıl	-4799
▁pr	-4800
▁Fatih	-4801
▁Bizans	-4802
▁toz	-4803
▁Yardımcısı	-4804
▁dağıt	-4805
▁eb	-4806
▁böyl	-4807
▁sebebi	-4808
98	-4809
vik	-4810
22	-4811
▁fiyatları	-4812
▁metre	-4813
▁Pr	-4814
▁yaşındaki	-4815
▁Sok	-4816
11	-4817
▁Zaten	-4818
▁Teş	-4819
▁başlamış	-4820
▁uygula	-4821
▁edilmiştir	-4822
▁atan	-4823
▁isyan	-4824
▁Bayram	-4825
▁oğl	-4826
▁avantaj	-4827
▁düşünüyorum	-4828
4)	-4829
ann	-4830
▁Ann	-4831
▁söyleyen	-4832
bilirsiniz	-4833
larımıza	-4834
udak	-4835
▁elbette	-4836
duğum	-4837
▁kimsenin	-4838
▁80	-4839
aberî	-4840
▁bilimsel	-4841
tum	-4842
iden	-4843
anız	-4844
▁kendisinin	-4845
▁oranı	-4846
▁Sh	-4847
▁bakan	-4848
ebilmek	-4849
gili	-4850
...]	-4851
iktaş	-4852
▁Öyle	-4853
▁bı	-4854
▁sivil	-4855
▁içinden	-4856
▁dua	-4857
▁Mem	-4858
lasyon	-4859
▁tutuk	-4860
▁muhaf	-4861
▁Yet	-4862
▁tarihli	-4863
▁geçiş	-4864
▁televizyon	-4865
▁düzenlen	-4866
insel	-4867
▁duruma	-4868
▁bom	-4869
usunun	-4870
▁komut	-4871
▁emir	-4872
KK	-4873
▁kurulu	-4874
▁Men	-4875
▁ortalama	-4876
▁düzenli	-4877
▁harca	-4878
▁koruma	-4879
▁ucuz	-4880
▁görülen	-4881
▁Dolayısıyla	-4882
rada	-4883
▁açıklamada	-4884
▁yasa	-4885
▁kaydet	-4886
▁sö	-4887
▁sahib	-4888
▁yağmur	-4889
▁kaynağı	-4890
duğumuz	-4891
▁korkunç	-4892
▁hâkim	-4893
▁çeki	-4894
▁Met	-4895
dular	-4896
▁ismi	-4897
▁70	-4898
▁sözü	-4899
▁kör	-4900
▁Şehir	-4901
iklet	-4902
▁insanlara	-4903
▁otomobil	-4904
▁Ed	-4905
Allah	-4906
ilmişti	-4907
▁açıdan	-4908
bul	-4909
▁başı	-4910
▁gözlerini	-4911
ges	-4912
▁500	-4913
▁sam	-4914
▁azından	-4915
asındaki	-4916
anet	-4917
▁Mon	-4918
ebî	-4919
▁özellikleri	-4920
▁aralarında	-4921
▁birleştir	-4922
▁uyku	-4923
abileceği	-4924
▁yaralan	-4925
▁mür	-4926
▁Bit	-4927
▁eline	-4928
▁çök	-4929
▁köpek	-4930
▁Serv	-4931
▁süresi	-4932
▁milli	-4933
mu	-4934
▁geldiğini	-4935
▁gördüm	-4936
▁AKP	-4937
▁takdirde	-4938
▁bölümü	-4939
▁dini	-4940
icari	-4941
▁Mey	-4942
▁Selç	-4943
orta	-4944
▁fab	-4945
kırı	-4946
ınacak	-4947
▁civar	-4948
▁güvenli	-4949
şi	-4950
▁1/1	-4951
til	-4952
oya	-4953
▁Car	-4954
teşem	-4955
▁vermeye	-4956
▁komp	-4957
▁özen	-4958
▁yapım	-4959
yip	-4960
anbel	-4961
▁Başkanlığı	-4962
▁gıda	-4963
▁Gazet	-4964
bahçe	-4965
▁yıllar	-4966
▁bez	-4967
▁konut	-4968
▁yönlendir	-4969
▁olmalıdır	-4970
▁Fener	-4971
27	-4972
▁Sonuç	-4973
▁Müş	-4974
▁Çalışma	-4975
▁imparator	-4976
▁Kurum	-4977
▁Oda	-4978
illi	-4979
iter	-4980
▁işçi	-4981
racat	-4982
▁bayram	-4983
sü	-4984
▁Paris	-4985
tanın	-4986
▁kurulan	-4987
ST	-4988
İZ	-4989
▁Alt	-4990
▁değeri	-4991
▁rez	-4992
▁yatır	-4993
ris	-4994
▁yaparken	-4995
rü	-4996
▁sine	-4997
anları	-4998
▁Neden	-4999
▁hata	-5000
▁uyum	-5001
▁Arab	-5002
bat	-5003
▁tanış	-5004
inizde	-5005
▁Boz	-5006
▁şeyleri	-5007
▁Bunların	-5008
alandır	-5009
ayacak	-5010
.»	-5011
dırım	-5012
▁attı	-5013
▁söylemiş	-5014
▁belirtilen	-5015
▁anah	-5016
ýn	-5017
▁Kılıç	-5018
▁bulama	-5019
▁orman	-5020
▁eşi	-5021
▁yaşadığı	-5022
unuzu	-5023
▁kans	-5024
oto	-5025
▁ye	-5026
bür	-5027
▁Erz	-5028
ınar	-5029
abiliriz	-5030
▁bulundur	-5031
▁Bayan	-5032
elli	-5033
masın	-5034
▁oraya	-5035
fik	-5036
▁belirterek	-5037
▁fonksiyon	-5038
▁Boğ	-5039
▁içeren	-5040
▁gösterdi	-5041
▁seyahat	-5042
▁olası	-5043
▁görmüş	-5044
▁Taberî	-5045
▁37	-5046
▁bağış	-5047
▁buyurdu	-5048
AH	-5049
▁Madde	-5050
▁aşama	-5051
rag	-5052
▁çıkıp	-5053
▁sarı	-5054
▁çocukların	-5055
▁km	-5056
▁inc	-5057
▁gidiyor	-5058
▁kullanılır	-5059
▁2,	-5060
▁okun	-5061
▁neş	-5062
▁yolda	-5063
▁deng	-5064
▁açtı	-5065
▁vit	-5066
▁derecede	-5067
▁açıkla	-5068
▁yolunda	-5069
▁Karşı	-5070
▁kapas	-5071
▁Kil	-5072
▁Hind	-5073
▁Ku	-5074
maye	-5075
▁por	-5076
26	-5077
▁yaptıkları	-5078
tiğimiz	-5079
▁öğretim	-5080
çesi	-5081
▁haklı	-5082
leyici	-5083
▁kendimi	-5084
▁zamanında	-5085
▁zorunlu	-5086
▁soruştur	-5087
▁renkli	-5088
▁yirmi	-5089
▁düşen	-5090
dün	-5091
▁üyesi	-5092
ilmesini	-5093
▁kum	-5094
▁diyen	-5095
▁Üy	-5096
▁dis	-5097
pt	-5098
▁alg	-5099
lerindeki	-5100
▁Hanbel	-5101
▁Trabz	-5102
▁harekete	-5103
▁Savaşı	-5104
▁parlak	-5105
▁şeker	-5106
AZ	-5107
▁Bununla	-5108
▁Mehmed	-5109
▁açıkladı	-5110
ülebilir	-5111
▁bende	-5112
▁dikkate	-5113
ys	-5114
▁işit	-5115
▁yönetimi	-5116
▁Fır	-5117
▁”	-5118
▁hizmetleri	-5119
lıktan	-5120
▁kıya	-5121
▁gözleri	-5122
ılmasına	-5123
▁inanıyor	-5124
lanıyor	-5125
▁kağı	-5126
▁yargı	-5127
▁yiyecek	-5128
▁Hemen	-5129
▁cilt	-5130
▁hediye	-5131
▁etkilen	-5132
▁duyur	-5133
onun	-5134
alay	-5135
mit	-5136
lanmıştır	-5137
▁sekiz	-5138
▁eh	-5139
olog	-5140
▁uzaklaş	-5141
▁Amerikan	-5142
▁val	-5143
emedi	-5144
▁gelişim	-5145
▁tad	-5146
ell	-5147
▁muhal	-5148
▁ülkede	-5149
OL	-5150
ternatif	-5151
▁[...]	-5152
atas	-5153
▁Dir	-5154
▁kod	-5155
▁mahkem	-5156
▁hakim	-5157
▁Mahallesi	-5158
▁yitir	-5159
▁Ta	-5160
maktır	-5161
▁mantık	-5162
▁sözleri	-5163
▁Yılmaz	-5164
▁öngör	-5165
▁büt	-5166
▁bilen	-5167
▁bazıları	-5168
▁günah	-5169
urlar	-5170
▁işgal	-5171
▁doğrultusunda	-5172
▁aktif	-5173
ürken	-5174
▁birbirinden	-5175
▁boya	-5176
▁sevgi	-5177
▁yarım	-5178
▁analiz	-5179
müyor	-5180
▁olağan	-5181
▁faiz	-5182
kol	-5183
▁benzeri	-5184
▁ep	-5185
▁kana	-5186
▁ürünü	-5187
madığı	-5188
):	-5189
▁bekliyor	-5190
▁Rece	-5191
▁Se	-5192
▁düşünül	-5193
ft	-5194
▁diler	-5195
lılar	-5196
cebook	-5197
▁vücud	-5198
▁kişiye	-5199
giler	-5200
usuf	-5201
▁düzenlem	-5202
ûlullah	-5203
▁kardeşi	-5204
imet	-5205
▁Ner	-5206
▁Beşiktaş	-5207
▁harit	-5208
▁evlen	-5209
▁önlem	-5210
▁arasına	-5211
▁tanıt	-5212
▁itibariyle	-5213
cük	-5214
▁bulan	-5215
ruk	-5216
jen	-5217
▁yetkil	-5218
▁Beni	-5219
▁büny	-5220
▁görevi	-5221
▁demokras	-5222
itap	-5223
▁dip	-5224
",	-5225
▁işlemi	-5226
▁bon	-5227
▁küç	-5228
▁hücr	-5229
sev	-5230
▁dediler	-5231
▁Q	-5232
kir	-5233
pa	-5234
▁lisans	-5235
▁memleket	-5236
pat	-5237
▁ayı	-5238
akkabı	-5239
▁etik	-5240
▁elinden	-5241
▁Yas	-5242
▁etmişti	-5243
▁şehr	-5244
▁alabilirsiniz	-5245
▁38	-5246
▁selam	-5247
estor	-5248
▁katılan	-5249
EV	-5250
çisi	-5251
liy	-5252
▁delik	-5253
▁Far	-5254
▁eğlenc	-5255
▁kullanımı	-5256
led	-5257
▁çocuğun	-5258
nan	-5259
ich	-5260
▁Erkek	-5261
▁sesle	-5262
▁yerlerde	-5263
fil	-5264
▁seks	-5265
▁bölge	-5266
▁bölgede	-5267
▁prot	-5268
▁güney	-5269
▁bina	-5270
▁olurdu	-5271
tez	-5272
sk	-5273
▁buradan	-5274
28	-5275
▁Kiş	-5276
ünce	-5277
▁sevgil	-5278
lerken	-5279
▁2/2	-5280
yol	-5281
ife	-5282
▁yılın	-5283
▁Güvenlik	-5284
▁yah	-5285
▁aldım	-5286
▁tahta	-5287
--	-5288
âyet	-5289
▁pozisyon	-5290
uyucu	-5291
▁tavır	-5292
▁enf	-5293
▁egemen	-5294
▁TV	-5295
.0	-5296
▁başlı	-5297
▁ikisi	-5298
▁Yıldırım	-5299
▁gerektiği	-5300
▁ust	-5301
▁adlandır	-5302
lal	-5303
-5	-5304
lor	-5305
▁sorumluluk	-5306
▁Sınıf	-5307
▁sabit	-5308
▁Kaf	-5309
▁tutan	-5310
▁yazılım	-5311
▁noktada	-5312
41	-5313
▁kov	-5314
▁Google	-5315
▁süreci	-5316
▁yaşay	-5317
çu	-5318
▁Milletvekili	-5319
amazan	-5320
otel	-5321
ışın	-5322
▁pla	-5323
tuğu	-5324
▁farkında	-5325
halde	-5326
▁Müh	-5327
▁başlangıç	-5328
ysa	-5329
▁değişim	-5330
▁Cumhuriyeti	-5331
ılmasını	-5332
▁kapan	-5333
emize	-5334
▁Saat	-5335
▁gayret	-5336
th	-5337
▁etki	-5338
▁adalet	-5339
▁ürünler	-5340
▁güvenilir	-5341
imizden	-5342
▁hassas	-5343
▁belirlen	-5344
▁Hayır	-5345
öğretim	-5346
▁tepki	-5347
▁Tayyip	-5348
▁Jap	-5349
eyerek	-5350
▁nefret	-5351
▁öfk	-5352
ğına	-5353
▁Po	-5354
arya	-5355
▁kayıp	-5356
▁günün	-5357
fo	-5358
eyse	-5359
▁Türkler	-5360
▁Don	-5361
▁benden	-5362
▁Konya	-5363
▁Tıp	-5364
üye	-5365
▁90	-5366
▁almaktadır	-5367
▁kuma	-5368
▁1/2	-5369
rî	-5370
▁bulmak	-5371
▁arasından	-5372
ack	-5373
liyat	-5374
''	-5375
leyip	-5376
▁işleri	-5377
ilerinden	-5378
▁sik	-5379
manızı	-5380
▁Recep	-5381
▁Mahkem	-5382
▁oradan	-5383
▁kuman	-5384
mekle	-5385
Hayır	-5386
.5	-5387
▁»	-5388
▁çerçevesinde	-5389
▁teknoloji	-5390
larımı	-5391
tek	-5392
95	-5393
▁birim	-5394
▁gr	-5395
▁adeta	-5396
▁İnş	-5397
yid	-5398
▁lütfen	-5399
▁Hey	-5400
için	-5401
▁ideal	-5402
▁kadınların	-5403
▁bölgesinde	-5404
▁birine	-5405
mesiyle	-5406
▁pil	-5407
ağına	-5408
▁taraftan	-5409
▁ilav	-5410
97	-5411
▁ordus	-5412
▁Değer	-5413
▁Elektr	-5414
▁Sem	-5415
▁maddi	-5416
▁Gar	-5417
▁Önce	-5418
▁sığın	-5419
▁yüzü	-5420
mede	-5421
▁olmayacak	-5422
▁eğitimi	-5423
▁III	-5424
▁kesim	-5425
▁Sit	-5426
▁Rabb	-5427
lerimi	-5428
▁duran	-5429
▁misafir	-5430
tacak	-5431
▁kolayca	-5432
ebiliriz	-5433
-6	-5434
uluğ	-5435
pe	-5436
▁ilçesinde	-5437
âde	-5438
▁manz	-5439
▁Is	-5440
▁yaklaşım	-5441
▁Min	-5442
▁sıv	-5443
ug	-5444
▁zafer	-5445
35	-5446
▁gereği	-5447
diniz	-5448
▁emr	-5449
▁taleb	-5450
ses	-5451
mü	-5452
▁düzelt	-5453
▁Gerçekten	-5454
ladım	-5455
▁aleyh	-5456
diven	-5457
atasaray	-5458
▁platform	-5459
İş	-5460
▁garip	-5461
▁ht	-5462
▁incelem	-5463
▁olmadı	-5464
▁maliyet	-5465
land	-5466
▁arzu	-5467
▁evren	-5468
▁omuz	-5469
▁verilir	-5470
▁istif	-5471
▁izlen	-5472
▁öncelikle	-5473
anların	-5474
üldü	-5475
▁sürü	-5476
▁Eur	-5477
▁elbis	-5478
bas	-5479
▁denetim	-5480
▁dizi	-5481
urta	-5482
▁2011	-5483
▁hadis	-5484
ck	-5485
▁akr	-5486
▁açılan	-5487
▁uzan	-5488
▁durumlarda	-5489
▁Yapılan	-5490
İŞ	-5491
▁öp	-5492
▁Cuma	-5493
âk	-5494
▁rakam	-5495
▁Üzer	-5496
▁düşündü	-5497
isiniz	-5498
▁Avust	-5499
ıldığında	-5500
ukat	-5501
.’	-5502
sinde	-5503
▁alındı	-5504
âil	-5505
▁otomatik	-5506
▁nas	-5507
▁azalt	-5508
▁başlamıştı	-5509
▁alınması	-5510
ildiğini	-5511
▁Adana	-5512
▁kitl	-5513
▁boyu	-5514
▁karma	-5515
▁olmaktan	-5516
▁İliş	-5517
▁Yen	-5518
▁vererek	-5519
▁Ders	-5520
▁kilomet	-5521
▁dönüp	-5522
▁Sanayi	-5523
▁ulusal	-5524
▁veri	-5525
▁vası	-5526
▁şub	-5527
▁dönemi	-5528
▁şık	-5529
ılmaktadır	-5530
ÜN	-5531
▁vs	-5532
kiş	-5533
▁yerli	-5534
▁kılı	-5535
gâh	-5536
kent	-5537
▁Şirket	-5538
▁hazırlık	-5539
▁Yusuf	-5540
▁hoc	-5541
siyet	-5542
ica	-5543
▁mülk	-5544
▁	-5545
▁fık	-5546
▁tev	-5547
▁hâl	-5548
yken	-5549
21	-5550
▁yumuşak	-5551
▁mezar	-5552
▁olmay	-5553
lukla	-5554
▁Ras	-5555
diklerini	-5556
▁Koca	-5557
▁sunu	-5558
itler	-5559
▁Bilim	-5560
ümüzdeki	-5561
▁Öl	-5562
▁gerekti	-5563
▁bastır	-5564
36	-5565
▁İsmail	-5566
anıp	-5567
▁olmaktadır	-5568
▁online	-5569
stit	-5570
▁Öğretmen	-5571
▁açıkça	-5572
▁kriz	-5573
▁Partisi	-5574
likte	-5575
▁ilah	-5576
▁gösteriyor	-5577
▁dük	-5578
▁şikayet	-5579
▁karşıya	-5580
okul	-5581
gaç	-5582
kon	-5583
meyece	-5584
Ama	-5585
▁bahsed	-5586
abileceğiniz	-5587
▁olunca	-5588
aşı	-5589
▁aj	-5590
▁Nit	-5591
▁yasal	-5592
his	-5593
▁sız	-5594
medik	-5595
▁toplumun	-5596
▁gelmişti	-5597
▁Ekonom	-5598
▁mutluluk	-5599
▁hayran	-5600
▁teşvik	-5601
▁saha	-5602
▁Şeyh	-5603
▁Dik	-5604
▁Mekk	-5605
esef	-5606
En	-5607
▁muk	-5608
▁Sarı	-5609
saydı	-5610
adir	-5611
▁yüzey	-5612
▁hazırlanan	-5613
▁acaba	-5614
▁batı	-5615
▁sanatçı	-5616
▁Ven	-5617
▁Mat	-5618
▁olduğum	-5619
▁''	-5620
▁Arkadaş	-5621
kz	-5622
▁Tim	-5623
▁Sig	-5624
gü	-5625
▁düşünür	-5626
▁tarım	-5627
lerimizin	-5628
▁Prens	-5629
▁cm	-5630
▁lezzet	-5631
96	-5632
3)	-5633
do	-5634
▁Mad	-5635
uyoruz	-5636
▁Çalış	-5637
▁eklen	-5638
asız	-5639
uhaf	-5640
▁vez	-5641
▁taban	-5642
▁La	-5643
▁Yıldız	-5644
ilerle	-5645
▁Str	-5646
▁İtalya	-5647
▁kutsal	-5648
▁sipariş	-5649
ebiliyor	-5650
cağına	-5651
denin	-5652
ordin	-5653
melerini	-5654
▁dudak	-5655
istin	-5656
türk	-5657
▁köpr	-5658
lıkta	-5659
▁kalabalık	-5660
▁mor	-5661
▁AL	-5662
danı	-5663
▁öv	-5664
▁yapabilir	-5665
▁alb	-5666
▁finans	-5667
teş	-5668
▁pişir	-5669
▁karşılan	-5670
köy	-5671
▁hali	-5672
▁Dar	-5673
▁alım	-5674
▁mezun	-5675
▁şeyden	-5676
▁inşaat	-5677
38	-5678
▁etmez	-5679
mamak	-5680
emizi	-5681
▁çalıştır	-5682
maktaydı	-5683
IL	-5684
▁peygamber	-5685
imle	-5686
▁mensup	-5687
▁muhteşem	-5688
▁gözden	-5689
▁getirmek	-5690
▁çabuk	-5691
▁Tabii	-5692
ıklı	-5693
▁hanım	-5694
▁alternatif	-5695
▁geriye	-5696
▁faydalan	-5697
▁Hiçbir	-5698
lon	-5699
▁yarın	-5700
▁yakından	-5701
emeyen	-5702
likler	-5703
▁katı	-5704
▁belediye	-5705
▁harf	-5706
sit	-5707
▁Ağa	-5708
▁sultan	-5709
ınızın	-5710
▁far	-5711
▁âlem	-5712
▁hükümdar	-5713
has	-5714
▁coğraf	-5715
▁gibiydi	-5716
ağan	-5717
▁ağrı	-5718
▁muhtem	-5719
▁beklem	-5720
▁titr	-5721
▁görsel	-5722
liliği	-5723
ral	-5724
▁taht	-5725
▁ahlak	-5726
▁ediliyor	-5727
▁denilen	-5728
▁transfer	-5729
▁6.	-5730
allı	-5731
▁dava	-5732
▁HD	-5733
▁Van	-5734
▁değin	-5735
▁biridir	-5736
isiz	-5737
▁Çık	-5738
▁çocuğu	-5739
▁kullanmak	-5740
Türkiye	-5741
▁x	-5742
▁sıf	-5743
▁yürüyüş	-5744
▁performans	-5745
acık	-5746
▁galib	-5747
▁Emniyet	-5748
▁halka	-5749
{{	-5750
▁gördüğü	-5751
▁Zira	-5752
▁çağr	-5753
▁dür	-5754
▁İdar	-5755
▁gülüms	-5756
bon	-5757
▁Baz	-5758
▁başkanı	-5759
iyen	-5760
▁kafa	-5761
▁Pet	-5762
melidir	-5763
▁Fenerbahçe	-5764
▁çalışması	-5765
:00	-5766
gre	-5767
abilen	-5768
tansiy	-5769
our	-5770
▁Hindistan	-5771
▁fat	-5772
▁falan	-5773
mesinde	-5774
▁Gerek	-5775
ESİ	-5776
tığında	-5777
▁sürük	-5778
▁yel	-5779
▁görünüm	-5780
▁büyü	-5781
▁kamp	-5782
▁gene	-5783
▁çocukları	-5784
emeyece	-5785
▁Etik	-5786
▁varol	-5787
▁kültürel	-5788
▁filmi	-5789
▁uyandır	-5790
ori	-5791
▁Aleyhisselâmın	-5792
▁Hukuk	-5793
maat	-5794
▁bizzat	-5795
▁darb	-5796
▁edebiyat	-5797
ple	-5798
andar	-5799
▁iman	-5800
▁ticari	-5801
ino	-5802
▁Ha	-5803
lari	-5804
Her	-5805
!’	-5806
▁sever	-5807
▁Balık	-5808
▁ekib	-5809
{{{	-5810
▁hastalı	-5811
▁olmayı	-5812
▁2010	-5813
landığı	-5814
▁yapısı	-5815
▁aykırı	-5816
ows	-5817
▁http	-5818
▁konak	-5819
▁Merhaba	-5820
▁kıyafet	-5821
Ima	-5822
ümr	-5823
▁netic	-5824
▁aracılığıyla	-5825
▁esk	-5826
▁edilecek	-5827
tıktan	-5828
▁biliyorum	-5829
▁tayin	-5830
slan	-5831
▁Toplum	-5832
▁arkasında	-5833
▁Di	-5834
▁irade	-5835
▁kapital	-5836
▁sergil	-5837
elle	-5838
▁sevk	-5839
▁yuvar	-5840
deb	-5841
”.	-5842
▁doğur	-5843
▁sorunun	-5844
üyü	-5845
▁İçin	-5846
seri	-5847
▁fazlası	-5848
larken	-5849
şet	-5850
▁Efend	-5851
▁gurur	-5852
▁Web	-5853
▁Otel	-5854
▁karşın	-5855
▁İd	-5856
▁İsv	-5857
▁gayet	-5858
▁Kav	-5859
amik	-5860
▁Plan	-5861
ulma	-5862
▁müşteriler	-5863
yasal	-5864
▁iptal	-5865
▁İnternet	-5866
▁rej	-5867
▁oldum	-5868
abilm	-5869
▁işlev	-5870
▁kelime	-5871
▁anı	-5872
▁çevre	-5873
▁sonuçları	-5874
kâ	-5875
▁olama	-5876
▁Şim	-5877
mekt	-5878
14	-5879
▁Birleş	-5880
▁Kurt	-5881
▁Galatasaray	-5882
▁yolunu	-5883
▁değilim	-5884
▁Pek	-5885
▁bence	-5886
▁yaşat	-5887
▁yolcu	-5888
▁sağlıyor	-5889
▁kumaş	-5890
▁Doktor	-5891
▁kusur	-5892
▁Ses	-5893
▁dedik	-5894
erv	-5895
tikten	-5896
UM	-5897
▁Buh	-5898
ende	-5899
▁çel	-5900
▁fiyatı	-5901
▁kıymet	-5902
▁Of	-5903
▁AN	-5904
▁hapis	-5905
▁PKK	-5906
▁çor	-5907
▁modelleri	-5908
▁maden	-5909
▁çıkardı	-5910
▁faktör	-5911
▁hikây	-5912
▁çıkacak	-5913
▁duruyor	-5914
acağınız	-5915
▁sığ	-5916
▁evet	-5917
▁mavi	-5918
▁edebilirsiniz	-5919
▁olacağı	-5920
▁fiziksel	-5921
eddin	-5922
▁Kanunu	-5923
LÜ	-5924
▁aşa	-5925
bel	-5926
irli	-5927
▁gecik	-5928
▁kaps	-5929
ock	-5930
▁Kuş	-5931
▁onlardan	-5932
leyecek	-5933
isa	-5934
dıkça	-5935
▁zinc	-5936
ûm	-5937
▁herkese	-5938
▁darbe	-5939
cusu	-5940
anda	-5941
▁site	-5942
▁yürür	-5943
▁suretiyle	-5944
▁olayı	-5945
▁pet	-5946
▁şark	-5947
▁gönderdi	-5948
▁Komisyon	-5949
▁konuk	-5950
▁![	-5951
▁işlemleri	-5952
▁kıyı	-5953
ümüze	-5954
24	-5955
▁Bankası	-5956
▁sabır	-5957
▁Kaymak	-5958
▁Be	-5959
▁İt	-5960
▁itiraz	-5961
uva	-5962
▁Yunanistan	-5963
dınız	-5964
eya	-5965
▁şampiyon	-5966
▁(1)	-5967
işan	-5968
▁edildiği	-5969
tifak	-5970
▁boyun	-5971
▁alışkan	-5972
▁metin	-5973
▁buldu	-5974
▁üyeleri	-5975
▁bulut	-5976
danın	-5977
37	-5978
▁Biraz	-5979
▁kayded	-5980
osk	-5981
▁edilebilir	-5982
elerek	-5983
▁vad	-5984
▁hediy	-5985
▁yör	-5986
▁aşağıda	-5987
▁ihtimal	-5988
mesinden	-5989
▁şunu	-5990
rom	-5991
▁yorgun	-5992
▁48	-5993
wit	-5994
▁hür	-5995
▁Anay	-5996
▁tok	-5997
▁geçici	-5998
▁Uygulama	-5999
▁Nak	-6000
▁esnasında	-6001
▁Aşağı	-6002
▁ağız	-6003
▁yetenek	-6004
▁Boy	-6005
▁tıpkı	-6006
▁daima	-6007
EY	-6008
▁temsilc	-6009
▁Selim	-6010
▁cok	-6011
▁güçlendir	-6012
▁numara	-6013
▁Hız	-6014
▁trafik	-6015
luğun	-6016
▁Olay	-6017
eleriyle	-6018
▁otobüs	-6019
▁pratik	-6020
▁sürece	-6021
ette	-6022
▁va	-6023
ıldığını	-6024
▁mir	-6025
▁kullandı	-6026
CI	-6027
▁bölün	-6028
▁faydalı	-6029
▁anlatıyor	-6030
kun	-6031
▁Gön	-6032
SK	-6033
▁tef	-6034
▁ısrar	-6035
takım	-6036
▁bacak	-6037
▁çak	-6038
▁desteği	-6039
▁bakalım	-6040
MM	-6041
▁Karadeniz	-6042
▁tehlikeli	-6043
▁Con	-6044
▁şö	-6045
▁Tür	-6046
▁Hazır	-6047
▁sözler	-6048
▁popüler	-6049
▁sön	-6050
gur	-6051
rama	-6052
▁pah	-6053
▁Doğru	-6054
liydi	-6055
▁potansiy	-6056
▁denir	-6057
▁geldiğinde	-6058
▁kurban	-6059
▁öldü	-6060
▁bl	-6061
yim	-6062
▁aktiv	-6063
▁Odası	-6064
akkale	-6065
▁Eğit	-6066
▁Lond	-6067
▁Akdeniz	-6068
▁klasik	-6069
▁kâğı	-6070
57	-6071
▁sağlay	-6072
▁aralık	-6073
rın	-6074
lüğe	-6075
▁iade	-6076
▁Ph	-6077
bakır	-6078
▁300	-6079
▁adıyla	-6080
▁ettikleri	-6081
▁Yukarı	-6082
▁tablo	-6083
▁çatışma	-6084
▁insana	-6085
irketi	-6086
uluyor	-6087
▁üniversite	-6088
▁Sad	-6089
▁verici	-6090
▁Gru	-6091
▁verdim	-6092
▁34	-6093
tip	-6094
39	-6095
atın	-6096
▁akadem	-6097
amıyor	-6098
▁sos	-6099
▁haberi	-6100
▁ibaret	-6101
▁So	-6102
▁Hu	-6103
ırdı	-6104
▁söyledik	-6105
▁evine	-6106
▁evr	-6107
manlık	-6108
▁cer	-6109
lilerin	-6110
▁Ramazan	-6111
▁beyin	-6112
eğe	-6113
▁mümkündür	-6114
▁Bölg	-6115
/0	-6116
enci	-6117
▁utan	-6118
▁Hıristiyan	-6119
▁çığ	-6120
!..	-6121
▁yarg	-6122
▁tamamı	-6123
▁Hik	-6124
▁grubu	-6125
▁hayatta	-6126
▁gözük	-6127
▁Yeşil	-6128
▁yeten	-6129
▁sanırım	-6130
▁olaylar	-6131
▁sebebiyle	-6132
▁Birçok	-6133
▁rakip	-6134
▁ilave	-6135
ülmesi	-6136
los	-6137
▁evvel	-6138
▁mahall	-6139
lav	-6140
▁Öte	-6141
▁Art	-6142
▁Adı	-6143
▁organizasyon	-6144
▁Sı	-6145
▁olmasa	-6146
▁geliyordu	-6147
▁yazık	-6148
deri	-6149
▁uyarı	-6150
▁şeref	-6151
ben	-6152
▁Beyaz	-6153
gür	-6154
mes	-6155
▁Fark	-6156
▁sözcük	-6157
lanarak	-6158
ity	-6159
suzluk	-6160
▁husus	-6161
▁olmakla	-6162
▁çekil	-6163
▁özgürlük	-6164
▁Tun	-6165
▁uygulaması	-6166
▁kursu	-6167
▁şaşkın	-6168
▁olduğunuz	-6169
▁Kesîr	-6170
▁Üstelik	-6171
▁yolculuk	-6172
▁önde	-6173
laşık	-6174
▁zir	-6175
▁üretic	-6176
ona	-6177
▁gemi	-6178
umartesi	-6179
tih	-6180
▁mac	-6181
medim	-6182
▁yaprak	-6183
▁ayağa	-6184
altına	-6185
indows	-6186
▁Ho	-6187
anti	-6188
▁Mekke	-6189
▁Yür	-6190
▁Ebû	-6191
▁kuy	-6192
▁naz	-6193
▁göze	-6194
▁günden	-6195
▁nö	-6196
▁anlattı	-6197
eceksiniz	-6198
-4	-6199
▁ihracat	-6200
▁bunlara	-6201
▁takv	-6202
▁yükselt	-6203
▁ayakkabı	-6204
kusuz	-6205
▁amac	-6206
ilmesine	-6207
▁doğu	-6208
ediğini	-6209
atya	-6210
▁Saf	-6211
▁İmparatorluğu	-6212
▁rahmet	-6213
▁Kısa	-6214
▁şük	-6215
▁genelde	-6216
ıyordum	-6217
▁Mor	-6218
▁yapıp	-6219
▁noktası	-6220
▁hatırlat	-6221
sün	-6222
▁üs	-6223
▁ayakta	-6224
▁to	-6225
▁çalıştı	-6226
▁geril	-6227
▁getirdiği	-6228
esidir	-6229
▁alay	-6230
tığım	-6231
ılımı	-6232
▁yaşamak	-6233
▁anlatan	-6234
▁tutum	-6235
▁Sabah	-6236
▁Kaç	-6237
▁kullanma	-6238
▁temas	-6239
ida	-6240
▁yerler	-6241
▁lan	-6242
işik	-6243
▁gelişmeler	-6244
▁yenilik	-6245
.00	-6246
▁büyüm	-6247
▁yapımı	-6248
▁kula	-6249
ığı	-6250
▁budur	-6251
▁dikkatli	-6252
▁mecbur	-6253
caya	-6254
▁Feder	-6255
▁dalga	-6256
▁nam	-6257
▁Seyyid	-6258
roid	-6259
▁Ken	-6260
▁miktarda	-6261
▁sanayi	-6262
▁denet	-6263
▁Cih	-6264
▁Üret	-6265
▁lok	-6266
▁bugüne	-6267
▁Ge	-6268
DA	-6269
▁dans	-6270
▁açılış	-6271
▁olmaları	-6272
ym	-6273
▁lir	-6274
▁ederler	-6275
okulu	-6276
diğiniz	-6277
▁konuşan	-6278
tematik	-6279
▁vermektedir	-6280
gah	-6281
▁biy	-6282
amak	-6283
iyetini	-6284
▁Afrika	-6285
âs	-6286
▁Mahmut	-6287
eceğine	-6288
ibe	-6289
▁istiyordu	-6290
lıyorum	-6291
hu	-6292
tes	-6293
▁istiyoruz	-6294
▁ekmek	-6295
▁hayli	-6296
▁riv	-6297
▁şunları	-6298
lığından	-6299
▁bilgilendir	-6300
▁Hac	-6301
ruf	-6302
▁ordusu	-6303
▁bilmiyorum	-6304
▁güne	-6305
▁39	-6306
▁dili	-6307
▁pazarlama	-6308
▁yaptım	-6309
▁sus	-6310
cıların	-6311
▁kalem	-6312
▁ulaşabilirsiniz	-6313
▁İmam	-6314
▁gerekse	-6315
▁hisse	-6316
▁Karar	-6317
▁;	-6318
▁duruş	-6319
▁günler	-6320
▁cumhur	-6321
▁Kür	-6322
▁elektronik	-6323
▁başlay	-6324
▁anlaşma	-6325
▁Bilgi	-6326
▁bitk	-6327
▁anahtar	-6328
▁ikin	-6329
▁dekor	-6330
▁sınırlı	-6331
ülmüş	-6332
▁Herkes	-6333
▁dalg	-6334
▁bask	-6335
▁Konuş	-6336
▁karışık	-6337
▁İşlet	-6338
şe	-6339
lus	-6340
▁Nitekim	-6341
▁geleneksel	-6342
▁Sınav	-6343
▁Demok	-6344
▁Orada	-6345
▁Birinci	-6346
▁görülür	-6347
▁taraftar	-6348
▁kampanya	-6349
▁Yağ	-6350
▁kılıç	-6351
▁Kuvvet	-6352
▁benimle	-6353
▁Nec	-6354
ûn	-6355
▁olduğunda	-6356
▁tanık	-6357
▁ob	-6358
▁bedel	-6359
▁ceph	-6360
▁sistemleri	-6361
0,	-6362
▁yenilen	-6363
▁musun	-6364
2)	-6365
29	-6366
▁civarında	-6367
AV	-6368
▁yönünde	-6369
örü	-6370
ünc	-6371
▁sizler	-6372
▁Fu	-6373
................	-6374
bert	-6375
▁kilit	-6376
ozof	-6377
▁Toplantı	-6378
▁vücu	-6379
▁bilgiye	-6380
▁Öğrenc	-6381
▁çekin	-6382
▁Resûlullah	-6383
amadı	-6384
▁bıraktı	-6385
▁devir	-6386
▁Senin	-6387
▁beyan	-6388
lıyordu	-6389
▁Port	-6390
▁Sonunda	-6391
▁bireysel	-6392
▁Çek	-6393
oda	-6394
▁baştan	-6395
▁Rah	-6396
▁Mez	-6397
▁2008	-6398
▁kendileri	-6399
▁rengi	-6400
▁gitmiş	-6401
▁müdahale	-6402
▁gidecek	-6403
].	-6404
56	-6405
▁besin	-6406
..."	-6407
▁tuhaf	-6408
▁özgü	-6409
▁nüfus	-6410
▁gelmesi	-6411
cılığı	-6412
▁Yav	-6413
▁yapabilirsiniz	-6414
.'	-6415
duktan	-6416
▁Duy	-6417
▁Yahud	-6418
rip	-6419
▁kül	-6420
▁işbirliği	-6421
▁ortasında	-6422
âzım	-6423
unlar	-6424
▁evlilik	-6425
▁koltuk	-6426
▁verilmesi	-6427
▁ortamda	-6428
▁birtakım	-6429
emişti	-6430
▁istediğini	-6431
▁arkadaşlar	-6432
▁oluşturan	-6433
▁seyir	-6434
▁feth	-6435
▁cüml	-6436
▁istiyorsanız	-6437
▁doğrusu	-6438
▁bakın	-6439
ick	-6440
▁anlatır	-6441
çer	-6442
▁Bahç	-6443
▁görünen	-6444
amin	-6445
▁isterseniz	-6446
▁Kamu	-6447
kesi	-6448
▁Delâil	-6449
▁yürüm	-6450
▁başlayacak	-6451
▁sembol	-6452
▁Tarım	-6453
▁göstermek	-6454
▁47	-6455
▁koca	-6456
▁Belediy	-6457
▁getirir	-6458
▁hel	-6459
iyye	-6460
▁ithal	-6461
▁çalışır	-6462
▁denk	-6463
val	-6464
ohn	-6465
ahh	-6466
▁şair	-6467
elendir	-6468
▁İsa	-6469
▁topluluk	-6470
nü	-6471
▁no	-6472
▁kararlı	-6473
lup	-6474
▁istedik	-6475
▁öm	-6476
İs	-6477
▁Süper	-6478
▁Grup	-6479
▁hayatın	-6480
▁zul	-6481
▁yumurta	-6482
▁mutfak	-6483
▁savunma	-6484
▁uçuş	-6485
▁tarihleri	-6486
▁çan	-6487
▁zehir	-6488
▁gündem	-6489
▁önemi	-6490
lemesi	-6491
örd	-6492
▁kanat	-6493
▁nez	-6494
▁bunlardan	-6495
▁Bid	-6496
▁yeryüz	-6497
Siz	-6498
▁Sez	-6499
▁Onların	-6500
▁Bulgar	-6501
▁dayalı	-6502
▁Mühendis	-6503
▁Reis	-6504
▁Hastanesi	-6505
ment	-6506
▁bağımlı	-6507
ağının	-6508
▁düzeyde	-6509
▁komşu	-6510
▁şehrin	-6511
▁mıs	-6512
▁öbür	-6513
ograf	-6514
▁kuşat	-6515
33	-6516
▁kemik	-6517
otik	-6518
ulacak	-6519
▁birbirlerine	-6520
▁imkanı	-6521
▁kimlik	-6522
▁edilmektedir	-6523
▁ulaştır	-6524
alesef	-6525
▁ameliyat	-6526
▁kullanan	-6527
mıştım	-6528
▁korumak	-6529
▁incelen	-6530
▁türü	-6531
▁dan	-6532
EB	-6533
▁şehri	-6534
îm	-6535
Images	-6536
▁7.	-6537
▁idare	-6538
▁sigara	-6539
▁rüzg	-6540
▁yukarıda	-6541
Bur	-6542
▁Atilla	-6543
sının	-6544
▁evin	-6545
▁edici	-6546
ıyorlardı	-6547
▁doğa	-6548
aklı	-6549
▁Günü	-6550
▁Sün	-6551
▁Görün	-6552
▁bulunması	-6553
▁Tro	-6554
lendirme	-6555
▁olab	-6556
▁yüzüne	-6557
▁gelmiştir	-6558
▁devleti	-6559
▁konularda	-6560
▁konuyu	-6561
▁yazdığı	-6562
içi	-6563
▁siyasal	-6564
▁Ceza	-6565
▁mevcuttur	-6566
OK	-6567
▁öğrencilerin	-6568
abilirler	-6569
ovyet	-6570
▁doy	-6571
lanacak	-6572
▁verme	-6573
▁barındır	-6574
▁deh	-6575
▁plak	-6576
▁Güç	-6577
1)	-6578
▁Hunların	-6579
mediğini	-6580
▁yakala	-6581
▁kısmını	-6582
avuş	-6583
▁algı	-6584
IK	-6585
▁som	-6586
▁rüya	-6587
kişehir	-6588
▁yetersiz	-6589
▁hepsini	-6590
▁gev	-6591
▁saniye	-6592
biy	-6593
▁girer	-6594
▁Tok	-6595
▁biliyordu	-6596
▁oyunları	-6597
▁konser	-6598
dil	-6599
îh	-6600
▁sof	-6601
▁yüzünü	-6602
▁Medine	-6603
▁Yazı	-6604
▁çekici	-6605
uncu	-6606
▁sayede	-6607
▁kolaylaştır	-6608
▁kullandığı	-6609
ülür	-6610
44	-6611
▁MHP	-6612
▁köp	-6613
darı	-6614
amaş	-6615
▁varmış	-6616
▁çıl	-6617
▁Dağ	-6618
▁sorunları	-6619
▁Cel	-6620
laşması	-6621
▁Yoksa	-6622
demir	-6623
▁bölümünde	-6624
▁razı	-6625
▁alak	-6626
▁dü	-6627
▁arkadaşı	-6628
▁teker	-6629
izmin	-6630
yak	-6631
duğunuz	-6632
riyet	-6633
▁modeli	-6634
ETÖ	-6635
diy	-6636
▁maaş	-6637
▁cinayet	-6638
▁maruz	-6639
vekil	-6640
landa	-6641
▁sonradan	-6642
▁depo	-6643
çilik	-6644
▁gelişmiş	-6645
5)	-6646
▁Pan	-6647
▁Diyarbakır	-6648
▁Me	-6649
note	-6650
satı	-6651
▁hoca	-6652
melik	-6653
▁Naz	-6654
▁onlarla	-6655
▁onur	-6656
▁kızın	-6657
tic	-6658
▁Mod	-6659
▁karşılaştır	-6660
▁Kart	-6661
▁Feth	-6662
▁metal	-6663
ağında	-6664
ami	-6665
doğ	-6666
▁kalacak	-6667
âf	-6668
▁Ze	-6669
▁başlama	-6670
▁ilçe	-6671
▁Tabgaç	-6672
▁bulur	-6673
tel	-6674
amayan	-6675
▁gücünü	-6676
▁gerekç	-6677
▁deli	-6678
▁süz	-6679
▁Yun	-6680
jp	-6681
▁yapıldığı	-6682
▁iP	-6683
▁dilek	-6684
▁sebeple	-6685
andarma	-6686
▁anında	-6687
▁ziyade	-6688
▁Jo	-6689
în	-6690
▁evinde	-6691
ardı	-6692
▁yöntemi	-6693
▁restor	-6694
▁coş	-6695
▁tarafı	-6696
tikleri	-6697
▁anal	-6698
▁Des	-6699
üh	-6700
▁bulunduğunu	-6701
▁tepk	-6702
▁sün	-6703
▁hayırlı	-6704
lerimize	-6705
▁köylü	-6706
ımdan	-6707
▁birinde	-6708
enç	-6709
▁Lev	-6710
▁blog	-6711
▁Ens	-6712
▁cas	-6713
ılacağı	-6714
▁yılından	-6715
▁karşılıklı	-6716
▁Bo	-6717
▁annesi	-6718
▁duygusal	-6719
istler	-6720
fed	-6721
▁kırık	-6722
gat	-6723
▁şahıs	-6724
masyon	-6725
▁Sol	-6726
▁ırk	-6727
azartesi	-6728
yaj	-6729
memesi	-6730
▁diyorum	-6731
▁Yurt	-6732
▁etmeyi	-6733
irim	-6734
▁Sch	-6735
ıplak	-6736
des	-6737
▁seyret	-6738
▁Facebook	-6739
▁Cumhurbaşkan	-6740
▁Erzurum	-6741
▁Saray	-6742
ğinizi	-6743
▁Sivas	-6744
▁görüşmeler	-6745
▁İlet	-6746
▁hatırla	-6747
eyş	-6748
luğa	-6749
▁beklent	-6750
▁anti	-6751
▁çevresinde	-6752
▁olsaydı	-6753
uki	-6754
▁projesi	-6755
▁Birkaç	-6756
▁Saç	-6757
▁kazanç	-6758
şek	-6759
▁maddesi	-6760
▁girmiş	-6761
▁günümüzde	-6762
▁disip	-6763
▁oluyordu	-6764
▁kup	-6765
luyor	-6766
▁makal	-6767
▁bileş	-6768
erji	-6769
▁açıldı	-6770
iller	-6771
▁mevzu	-6772
▁fen	-6773
▁Eğitimi	-6774
▁amaçlı	-6775
▁yaptığımız	-6776
▁Ruh	-6777
▁Geçen	-6778
Dev	-6779
▁stat	-6780
▁sermaye	-6781
şap	-6782
▁Hanım	-6783
▁Telefon	-6784
razam	-6785
▁sonuçlar	-6786
▁bilinc	-6787
aseb	-6788
▁birliği	-6789
▁Kanunun	-6790
▁kuvvetli	-6791
▁Baba	-6792
iti	-6793
US	-6794
meyin	-6795
▁meyv	-6796
▁oranında	-6797
irin	-6798
▁Edir	-6799
İst	-6800
▁adr	-6801
▁sandal	-6802
▁bildirdi	-6803
paşa	-6804
ısıt	-6805
ânî	-6806
lima	-6807
▁Yayınları	-6808
▁Şampiyon	-6809
ulmaz	-6810
ılıyordu	-6811
MA	-6812
▁Hast	-6813
▁mimar	-6814
▁sanıyor	-6815
peryal	-6816
TL	-6817
türü	-6818
▁Mic	-6819
▁derken	-6820
▁Vol	-6821
▁Siyas	-6822
ınan	-6823
▁artan	-6824
▁gelerek	-6825
▁gümüş	-6826
ayız	-6827
▁meclis	-6828
▁anım	-6829
▁ard	-6830
▁tarafında	-6831
▁canlandır	-6832
▁sevgili	-6833
▁temizlik	-6834
ferans	-6835
▁Pas	-6836
▁mühendis	-6837
▁yahut	-6838
▁Bidâye	-6839
▁Ardından	-6840
▁Aka	-6841
▁çıktığı	-6842
▁Kaynak	-6843
▁Abdül	-6844
▁sermay	-6845
▁hakkındaki	-6846
▁etrafında	-6847
hone	-6848
▁geldik	-6849
▁yangın	-6850
yeni	-6851
▁na	-6852
▁karşısına	-6853
▁yüküm	-6854
büs	-6855
isiklet	-6856
▁babasının	-6857
▁refer	-6858
▁olmaması	-6859
▁herhalde	-6860
▁Çanakkale	-6861
opa	-6862
▁gibidir	-6863
▁tiyatro	-6864
▁yaptığını	-6865
▁usta	-6866
tük	-6867
▁gündeme	-6868
▁Trabzon	-6869
▁kurs	-6870
▁Hayvan	-6871
▁yetkili	-6872
▁Ulusal	-6873
▁ortada	-6874
iyel	-6875
58	-6876
▁Esîr	-6877
▁Hakan	-6878
▁zemin	-6879
▁hakları	-6880
▁altındaki	-6881
▁zorluk	-6882
▁hatt	-6883
▁uzay	-6884
mıyorum	-6885
▁savaşı	-6886
▁acil	-6887
▁kaza	-6888
▁Park	-6889
malarını	-6890
▁AR	-6891
▁Fiyat	-6892
orat	-6893
▁öteki	-6894
▁sorgu	-6895
▁Eskişehir	-6896
bahar	-6897
▁araz	-6898
PS	-6899
isyen	-6900
EC	-6901
emiştir	-6902
ille	-6903
-201	-6904
madım	-6905
▁yapın	-6906
▁koku	-6907
luğunu	-6908
▁başladılar	-6909
ılmak	-6910
▁Ege	-6911
▁ülkeler	-6912
▁aydınlat	-6913
emektedir	-6914
▁alması	-6915
▁evden	-6916
▁Soru	-6917
▁olanı	-6918
▁Dışişleri	-6919
▁hareketi	-6920
▁tarafa	-6921
▁üstü	-6922
▁göstermektedir	-6923
sol	-6924
▁yayınlanan	-6925
▁geçtiğimiz	-6926
übü	-6927
▁zamana	-6928
▁sayılır	-6929
▁alınarak	-6930
âv	-6931
ebileceği	-6932
▁depr	-6933
OB	-6934
aze	-6935
▁kadını	-6936
▁kurumsal	-6937
▁Bazen	-6938
▁üretimi	-6939
▁dünyayı	-6940
▁hazırla	-6941
▁York	-6942
▁TB	-6943
▁vir	-6944
ress	-6945
▁dokuz	-6946
▁bağlan	-6947
▁Kork	-6948
▁göğüs	-6949
▁zihn	-6950
▁kanser	-6951
▁Küt	-6952
▁olmanın	-6953
▁seviş	-6954
▁masa	-6955
şiv	-6956
▁1/3	-6957
ebilen	-6958
idi	-6959
▁geçiyor	-6960
▁Beyhak	-6961
▁Ba	-6962
▁yapılma	-6963
▁uydur	-6964
talyan	-6965
▁durdu	-6966
▁Sovyet	-6967
ng	-6968
▁kalıcı	-6969
işle	-6970
▁istis	-6971
▁gündüz	-6972
▁anlamak	-6973
▁yılları	-6974
▁Enstit	-6975
▁kişiyi	-6976
melerin	-6977
▁takımı	-6978
▁gösterdiği	-6979
▁öte	-6980
tren	-6981
▁servisi	-6982
laz	-6983
ill	-6984
mışlar	-6985
▁başarısız	-6986
yiz	-6987
İl	-6988
ceği	-6989
:)	-6990
▁diyebilir	-6991
▁Beyhakî	-6992
▁geçirdi	-6993
oğol	-6994
▁paylaşım	-6995
enizi	-6996
▁Düzen	-6997
▁yi	-6998
cret	-6999
▁Tor	-7000
Ay	-7001
▁Mel	-7002
▁alınacak	-7003
▁kalıp	-7004
hiş	-7005
▁Pa	-7006
▁2000	-7007
▁Gençlik	-7008
▁Tut	-7009
ilerde	-7010
▁Dünyanın	-7011
▁zeytin	-7012
▁dönüşüm	-7013
▁öğrenmek	-7014
▁misin	-7015
▁yoksul	-7016
▁43	-7017
sis	-7018
▁anlar	-7019
▁vefat	-7020
▁nereye	-7021
▁bilgisi	-7022
▁yeterince	-7023
▁sıradan	-7024
▁kartı	-7025
▁Turizm	-7026
▁tren	-7027
iret	-7028
▁Çelik	-7029
▁John	-7030
ümrük	-7031
▁olgun	-7032
▁kendisinden	-7033
amızda	-7034
ûr	-7035
▁göv	-7036
▁özet	-7037
▁başladım	-7038
▁duyduğu	-7039
▁okur	-7040
ste	-7041
▁Rad	-7042
▁Meclisi	-7043
▁8.	-7044
witter	-7045
▁alınır	-7046
antep	-7047
▁futbolcu	-7048
YA	-7049
▁Silah	-7050
▁kampan	-7051
▁Edeb	-7052
imini	-7053
▁güzellik	-7054
not	-7055
▁yemin	-7056
▁Kapı	-7057
▁sunan	-7058
▁yönde	-7059
▁Tanr	-7060
eyip	-7061
▁turizm	-7062
avv	-7063
▁cemaat	-7064
▁komutan	-7065
▁46	-7066
_0	-7067
▁me	-7068
unma	-7069
▁Londra	-7070
▁yapması	-7071
▁bekleyen	-7072
▁est	-7073
âd	-7074
sından	-7075
ğeri	-7076
larınızın	-7077
▁kimyasal	-7078
ji	-7079
masız	-7080
leyse	-7081
▁rekabet	-7082
▁İspanya	-7083
Baş	-7084
amayacak	-7085
ılmaya	-7086
ğimizi	-7087
dışı	-7088
akal	-7089
▁boğaz	-7090
ektörü	-7091
ilenin	-7092
ördüncü	-7093
▁farkı	-7094
▁ec	-7095
▁arkasından	-7096
▁ww	-7097
▁filozof	-7098
▁kamer	-7099
▁deri	-7100
▁Yemek	-7101
?»	-7102
▁Mobil	-7103
dîn	-7104
▁yerleri	-7105
▁gelmez	-7106
▁seven	-7107
▁Bunlardan	-7108
▁hastalığı	-7109
▁Zeh	-7110
▁bakar	-7111
▁so	-7112
▁girip	-7113
▁Çift	-7114
▁doğan	-7115
▁dediği	-7116
▁yı	-7117
▁0,	-7118
▁öyl	-7119
▁egz	-7120
55	-7121
▁Cadde	-7122
memişti	-7123
▁www	-7124
dış	-7125
▁kapasit	-7126
tüm	-7127
labilir	-7128
▁kaydetti	-7129
▁bırakıp	-7130
▁Tabi	-7131
düstr	-7132
çileri	-7133
▁Hakkında	-7134
▁Teb	-7135
umun	-7136
-7	-7137
ırda	-7138
edeniyet	-7139
Tar	-7140
▁Co	-7141
▁küf	-7142
▁otuz	-7143
org	-7144
▁pis	-7145
duğunda	-7146
enkul	-7147
zam	-7148
▁150	-7149
▁Edirne	-7150
▁·	-7151
▁yoluna	-7152
▁gözaltına	-7153
▁geride	-7154
▁Aj	-7155
▁sahil	-7156
zan	-7157
▁tutul	-7158
▁Etiketler	-7159
▁kısıt	-7160
▁şekli	-7161
lerdeki	-7162
▁anlayışı	-7163
▁yerlere	-7164
▁Buhârî	-7165
▁yedek	-7166
▁Nev	-7167
▁44	-7168
▁Sizin	-7169
▁sıvı	-7170
▁durumun	-7171
▁güz	-7172
âmil	-7173
▁Ölüm	-7174
▁diplo	-7175
▁Malatya	-7176
▁vesil	-7177
▁TR	-7178
▁yur	-7179
âbe	-7180
▁uyumlu	-7181
▁psikolojik	-7182
▁kaldığı	-7183
▁muhab	-7184
iciler	-7185
▁Selçuklu	-7186
emiyor	-7187
▁şeri	-7188
▁rehber	-7189
▁gelmektedir	-7190
▁musunuz	-7191
menizi	-7192
EF	-7193
ansiyon	-7194
▁niteli	-7195
tılı	-7196
ukur	-7197
▁sömür	-7198
▁tanesi	-7199
▁ötürü	-7200
İD	-7201
mis	-7202
▁kağıt	-7203
▁fikr	-7204
▁gölg	-7205
▁op	-7206
leki	-7207
▁mit	-7208
▁alev	-7209
▁süreli	-7210
aklar	-7211
▁genişlet	-7212
▁aksine	-7213
▁Windows	-7214
akları	-7215
ülecek	-7216
yaş	-7217
▁2009	-7218
▁kalmıştı	-7219
▁verimli	-7220
▁3,	-7221
▁hil	-7222
taat	-7223
▁Asker	-7224
▁indirim	-7225
▁bünyesinde	-7226
memiz	-7227
ww	-7228
▁Um	-7229
▁anlamında	-7230
▁süredir	-7231
▁müst	-7232
▁Türklerin	-7233
▁kurmak	-7234
▁işini	-7235
▁rivayet	-7236
lamayı	-7237
▁Hazret	-7238
▁geçip	-7239
▁misiniz	-7240
usundaki	-7241
▁Gez	-7242
▁müd	-7243
▁tasarruf	-7244
▁kahvaltı	-7245
▁kahve	-7246
▁çalışmak	-7247
ong	-7248
▁Vali	-7249
▁kader	-7250
ektif	-7251
▁Kızıl	-7252
▁genelinde	-7253
▁eseri	-7254
▁defter	-7255
▁ikna	-7256
▁Görev	-7257
engiz	-7258
▁toh	-7259
▁silin	-7260
▁ilişkileri	-7261
▁Tav	-7262
▁kade	-7263
maması	-7264
▁ederiz	-7265
▁masraf	-7266
▁olağanüstü	-7267
▁demokratik	-7268
▁nihayet	-7269
▁ulaşmak	-7270
▁sözünü	-7271
▁Dan	-7272
▁Yüce	-7273
ılığı	-7274
▁çadır	-7275
▁hakkını	-7276
▁kıyas	-7277
▁komisyon	-7278
▁lek	-7279
▁başlıklı	-7280
▁keyifli	-7281
şembe	-7282
▁İnsanlar	-7283
▁ekipleri	-7284
yat	-7285
gulan	-7286
▁cami	-7287
otnote	-7288
▁Gece	-7289
ledim	-7290
▁Organ	-7291
üman	-7292
▁malzeme	-7293
▁evi	-7294
▁yüzlerce	-7295
▁hariç	-7296
▁ittifak	-7297
▁koruy	-7298
▁kendime	-7299
▁damar	-7300
▁Mesela	-7301
▁ofis	-7302
▁varlığı	-7303
▁Kent	-7304
▁cezalandır	-7305
▁ülkemizde	-7306
▁seyr	-7307
ılda	-7308
ısındaki	-7309
desi	-7310
▁bahar	-7311
▁altyap	-7312
▁Kurumu	-7313
▁Doğan	-7314
▁Şube	-7315
▁cezası	-7316
SO	-7317
▁reng	-7318
▁almıştır	-7319
▁Vakfı	-7320
▁seçen	-7321
likten	-7322
▁42	-7323
jital	-7324
▁dert	-7325
▁Da	-7326
▁merdiven	-7327
▁denize	-7328
▁çır	-7329
▁kalmak	-7330
▁birşey	-7331
şamba	-7332
▁bakarak	-7333
ks	-7334
▁Oğuz	-7335
larıdır	-7336
▁öncesinde	-7337
▁yoğ	-7338
▁koydu	-7339
▁Zor	-7340
▁döner	-7341
▁Moğol	-7342
▁yansıt	-7343
iyo	-7344
▁gelece	-7345
▁görevlendir	-7346
▁Ex	-7347
▁siteleri	-7348
▁ömür	-7349
kas	-7350
▁cevabı	-7351
▁halı	-7352
buki	-7353
▁koyu	-7354
▁gereksin	-7355
▁dışına	-7356
▁bununla	-7357
ider	-7358
eşme	-7359
%20	-7360
▁yaşıyor	-7361
▁çelik	-7362
▁sakın	-7363
OM	-7364
▁sef	-7365
ümde	-7366
On	-7367
▁devamlı	-7368
▁uyu	-7369
mini	-7370
▁açan	-7371
kor	-7372
▁bebe	-7373
▁çağrı	-7374
▁gerçeği	-7375
▁altını	-7376
www	-7377
ektaş	-7378
▁istedim	-7379
▁kullanılması	-7380
▁küresel	-7381
/201	-7382
del	-7383
▁ibadet	-7384
▁gözet	-7385
atistik	-7386
ecekti	-7387
▁acel	-7388
▁Polis	-7389
arik	-7390
soy	-7391
▁mini	-7392
▁kimseye	-7393
inda	-7394
▁190	-7395
▁Lo	-7396
▁Demek	-7397
▁bulabilirsiniz	-7398
eğine	-7399
▁telefonu	-7400
▁keyf	-7401
▁edilerek	-7402
miz	-7403
▁esnaf	-7404
▁ata	-7405
tre	-7406
barı	-7407
▁gelişme	-7408
larınıza	-7409
▁yara	-7410
çilerin	-7411
200	-7412
▁gözler	-7413
▁dib	-7414
▁isterim	-7415
▁Bölümü	-7416
▁şiddetli	-7417
▁icra	-7418
▁mesle	-7419
abilmesi	-7420
▁merh	-7421
▁emniyet	-7422
şa	-7423
▁Hacı	-7424
▁kırk	-7425
eğini	-7426
▁vic	-7427
▁za	-7428
TC	-7429
▁meşgul	-7430
▁Öncelikle	-7431
▁meyve	-7432
-8	-7433
▁Bekir	-7434
▁Hür	-7435
▁belirlenen	-7436
▁istemez	-7437
▁odası	-7438
▁gezeg	-7439
▁Danış	-7440
eciler	-7441
▁fe	-7442
▁laf	-7443
▁güv	-7444
▁Festiv	-7445
▁ant	-7446
▁yapmayı	-7447
▁55	-7448
▁ris	-7449
▁Karab	-7450
▁kopar	-7451
▁görüyoruz	-7452
zade	-7453
▁avukat	-7454
▁çarpış	-7455
▁boyn	-7456
ısal	-7457
▁tanıtım	-7458
ğının	-7459
▁Aile	-7460
emeyecek	-7461
▁çam	-7462
▁Kup	-7463
▁dijital	-7464
vin	-7465
▁Boğaz	-7466
▁Temel	-7467
▁Avustur	-7468
▁İtalyan	-7469
▁Futbol	-7470
▁sevinç	-7471
obot	-7472
▁Mahkemesi	-7473
▁görünür	-7474
▁moda	-7475
▁suyun	-7476
▁anay	-7477
▁Aşk	-7478
lüğüne	-7479
▁Size	-7480
▁Mersin	-7481
▁piyasa	-7482
▁etken	-7483
▁Ermeni	-7484
▁eliyle	-7485
lüğünü	-7486
▁geçerek	-7487
▁âyet	-7488
urk	-7489
nel	-7490
▁Şahin	-7491
uyum	-7492
rit	-7493
▁meşhur	-7494
beri	-7495
ınıyor	-7496
▁adamları	-7497
footnote	-7498
▁Not	-7499
▁Hoca	-7500
▁Lisesi	-7501
▁belediy	-7502
▁Grubu	-7503
mışlardı	-7504
▁nesil	-7505
▁olabilecek	-7506
▁düğün	-7507
▁Doç	-7508
▁Hâ	-7509
▁Zir	-7510
▁zik	-7511
▁sunulan	-7512
okol	-7513
ull	-7514
▁yüzyılda	-7515
vanı	-7516
-10	-7517
abileceğini	-7518
▁Faz	-7519
▁erkekler	-7520
▁oluşur	-7521
▁aldır	-7522
▁zamanla	-7523
ump	-7524
ülerek	-7525
▁Filistin	-7526
▁çizg	-7527
▁Emir	-7528
▁olmazsa	-7529
üks	-7530
miyordu	-7531
32	-7532
▁sürdü	-7533
▁Karak	-7534
▁işken	-7535
▁başladığı	-7536
▁serg	-7537
▁bilet	-7538
laştırma	-7539
▁kazanan	-7540
▁bağırdı	-7541
▁Mir	-7542
▁Yahudi	-7543
▁öncelik	-7544
evî	-7545
▁muay	-7546
▁görünüş	-7547
Kar	-7548
▁iyilik	-7549
omp	-7550
▁kamera	-7551
ach	-7552
▁Koç	-7553
▁sorunlar	-7554
▁belirgin	-7555
▁İşleri	-7556
6)	-7557
▁Reh	-7558
▁kapıyı	-7559
alel	-7560
asi	-7561
▁hitap	-7562
▁Temiz	-7563
png	-7564
▁yüzyılın	-7565
▁Dig	-7566
▁tuş	-7567
▁olacaktı	-7568
▁aşkın	-7569
▁başa	-7570
cın	-7571
▁oturan	-7572
78	-7573
▁Gelen	-7574
▁yoldan	-7575
▁cennet	-7576
▁halen	-7577
▁dakikada	-7578
.10	-7579
▁Cumartesi	-7580
75	-7581
▁çalışmaya	-7582
▁kaydı	-7583
▁İletişim	-7584
▁kib	-7585
▁yerinden	-7586
▁akış	-7587
avallı	-7588
▁tipi	-7589
▁giderken	-7590
▁Öy	-7591
]](../	-7592
▁rica	-7593
▁Orhan	-7594
▁yaratıcı	-7595
▁nem	-7596
▁otor	-7597
▁çekiyor	-7598
▁alanları	-7599
▁keşfet	-7600
▁Sonr	-7601
▁başından	-7602
Er	-7603
▁port	-7604
▁köken	-7605
▁fet	-7606
▁alçak	-7607
▁yarışma	-7608
mıyordu	-7609
▁dönemin	-7610
▁alıcı	-7611
▁kalite	-7612
▁gerçekleşen	-7613
▁FETÖ	-7614
▁bakımdan	-7615
▁4/	-7616
▁Vatan	-7617
cıları	-7618
▁tabak	-7619
tıp	-7620
▁Cer	-7621
Ah	-7622
▁bekledi	-7623
▁zah	-7624
▁kutu	-7625
ecik	-7626
LE	-7627
larsa	-7628
▁tarzı	-7629
▁Apple	-7630
und	-7631
▁karmaşık	-7632
idor	-7633
üphan	-7634
▁cevab	-7635
▁sınırları	-7636
▁savaşa	-7637
▁41	-7638
▁niçin	-7639
▁haş	-7640
▁pap	-7641
isindeki	-7642
veya	-7643
▁maçı	-7644
▁Rek	-7645
oft	-7646
▁olduğunun	-7647
▁Roman	-7648
utma	-7649
▁fırsatı	-7650
▁400	-7651
liğiyle	-7652
▁Orman	-7653
▁çevres	-7654
▁kendinizi	-7655
▁ekibi	-7656
▁Konu	-7657
▁mekaniz	-7658
31	-7659
▁birinc	-7660
▁İr	-7661
▁eğlenceli	-7662
▁Bölge	-7663
▁Çinli	-7664
▁Ligi	-7665
üsünü	-7666
▁bet	-7667
▁vel	-7668
▁IV	-7669
▁ödem	-7670
▁söylediği	-7671
▁heykel	-7672
▁Seb	-7673
▁kötülük	-7674
ılabilecek	-7675
burg	-7676
▁gözü	-7677
ates	-7678
▁denen	-7679
▁çıkma	-7680
▁saçma	-7681
graf	-7682
▁kel	-7683
▁çıkması	-7684
ean	-7685
▁muhalef	-7686
▁dürüst	-7687
▁Ale	-7688
▁duruyordu	-7689
▁garant	-7690
▁nereden	-7691
▁cis	-7692
▁tedavisi	-7693
kender	-7694
▁büyüy	-7695
dağı	-7696
▁çalışmalarını	-7697
▁Psik	-7698
▁açığa	-7699
▁kilis	-7700
▁örneğin	-7701
▁Sayfa	-7702
▁geçirmek	-7703
maktayız	-7704
cağınız	-7705
işe	-7706
▁oldular	-7707
▁matematik	-7708
▁Turk	-7709
▁dola	-7710
▁örneği	-7711
▁çekir	-7712
▁müsa	-7713
yın	-7714
kap	-7715
▁değilse	-7716
güt	-7717
ref	-7718
▁Pap	-7719
culuk	-7720
tein	-7721
▁havuz	-7722
▁çıkarak	-7723
▁sektöründe	-7724
▁itaat	-7725
▁Araç	-7726
▁yılının	-7727
mus	-7728
uvalet	-7729
▁tüy	-7730
▁Ücret	-7731
▁bilem	-7732
▁anlaya	-7733
liğinden	-7734
▁adayı	-7735
▁çeliş	-7736
gut	-7737
▁sıfır	-7738
araj	-7739
▁yüce	-7740
▁diyet	-7741
ilt	-7742
ükle	-7743
▁düzgün	-7744
▁ulaşım	-7745
▁yürek	-7746
▁akla	-7747
we	-7748
dığın	-7749
▁uzanan	-7750
▁olayları	-7751
▁seviye	-7752
oks	-7753
▁bağlam	-7754
▁Komutan	-7755
▁intik	-7756
▁sinema	-7757
▁sanay	-7758
▁tüketim	-7759
umuş	-7760
▁çey	-7761
▁kurtu	-7762
▁yoksun	-7763
OĞ	-7764
▁denem	-7765
▁Gaziantep	-7766
▁kilometre	-7767
▁hasar	-7768
çuk	-7769
▁iyileştir	-7770
▁kazandı	-7771
▁oyunun	-7772
▁satı	-7773
eyici	-7774
▁Çevre	-7775
▁karşımıza	-7776
▁epey	-7777
▁TBMM	-7778
iyorsunuz	-7779
▁varlığını	-7780
abgu	-7781
▁albüm	-7782
▁bizden	-7783
ladılar	-7784
▁Ermen	-7785
▁Ala	-7786
34	-7787
▁sendik	-7788
▁ölen	-7789
udret	-7790
▁tarihsel	-7791
br	-7792
mî	-7793
▁fıs	-7794
çılar	-7795
▁diğeri	-7796
▁özür	-7797
▁uzaklaştır	-7798
▁tamamlan	-7799
▁Dep	-7800
▁numaralı	-7801
▁üzün	-7802
otos	-7803
▁döndür	-7804
cev	-7805
▁oluşum	-7806
▁Şen	-7807
▁eli	-7808
▁reddet	-7809
▁Bod	-7810
ASI	-7811
iliğinden	-7812
El	-7813
▁diyordu	-7814
▁Tev	-7815
▁sıç	-7816
ımlı	-7817
68	-7818
▁bütç	-7819
▁şirketi	-7820
▁yapış	-7821
▁..	-7822
▁Yazar	-7823
LERİ	-7824
▁Destek	-7825
▁Tep	-7826
▁Nik	-7827
▁Def	-7828
▁alınmış	-7829
▁Köpr	-7830
Çok	-7831
▁sigorta	-7832
▁sisteminin	-7833
▁petrol	-7834
▁verilmiştir	-7835
▁Halil	-7836
▁şartı	-7837
▁boşal	-7838
oper	-7839
▁uygar	-7840
▁yıllardır	-7841
cik	-7842
▁bulunuyordu	-7843
▁yardımıyla	-7844
▁arkadaşları	-7845
▁senar	-7846
▁ani	-7847
▁potansiyel	-7848
▁halkının	-7849
OT	-7850
▁olgu	-7851
▁rezerv	-7852
▁Hizmetleri	-7853
▁düşünceler	-7854
▁tuttu	-7855
▁verim	-7856
▁gü	-7857
ciğer	-7858
andır	-7859
▁Elektrik	-7860
biye	-7861
▁Fen	-7862
▁emret	-7863
▁uf	-7864
▁ikram	-7865
▁karşılığında	-7866
▁çekim	-7867
▁istihdam	-7868
▁Yabancı	-7869
▁Haberleri	-7870
▁tasarımı	-7871
enlerin	-7872
LARI	-7873
▁karan	-7874
▁sorular	-7875
▁Çel	-7876
▁Satış	-7877
▁tâ	-7878
don	-7879
▁Müslim	-7880
▁eğil	-7881
▁Kayseri	-7882
▁mide	-7883
▁yakal	-7884
▁Kureyş	-7885
set	-7886
▁verip	-7887
▁Sahîh	-7888
ndeki	-7889
adın	-7890
Lİ	-7891
▁tırman	-7892
▁Böyl	-7893
▁ayrım	-7894
III	-7895
▁yararlı	-7896
▁rahatlıkla	-7897
▁arayan	-7898
▁kurulmuş	-7899
▁Fik	-7900
teryal	-7901
ğimde	-7902
▁keskin	-7903
maktadırlar	-7904
▁Banka	-7905
▁günleri	-7906
▁Sana	-7907
▁Programı	-7908
▁ürünün	-7909
▁Android	-7910
abildi	-7911
▁şi	-7912
kaya	-7913
▁kaçınılmaz	-7914
▁Musa	-7915
ersiniz	-7916
▁Akşam	-7917
yr	-7918
▁alanlar	-7919
▁koyun	-7920
▁örgütü	-7921
oter	-7922
uğla	-7923
▁Öğretim	-7924
alog	-7925
izli	-7926
yayı	-7927
▁Günümüzde	-7928
▁maz	-7929
▁çizgi	-7930
▁kred	-7931
sav	-7932
yaya	-7933
▁yarattığı	-7934
▁subay	-7935
sever	-7936
▁kavga	-7937
▁post	-7938
amuk	-7939
▁Fotoğraf	-7940
▁lam	-7941
▁ayrıntılı	-7942
▁Çay	-7943
▁zorla	-7944
▁9.	-7945
avi	-7946
▁Hes	-7947
▁kaçak	-7948
lendiği	-7949
▁hekim	-7950
Eğer	-7951
▁Mete	-7952
▁anlamlı	-7953
9)	-7954
▁Murad	-7955
Bil	-7956
▁uğur	-7957
▁Venedik	-7958
▁Lim	-7959
ivan	-7960
▁bitki	-7961
▁Ziy	-7962
▁soruşturma	-7963
UK	-7964
yaz	-7965
▁uygulanan	-7966
ulmuştur	-7967
▁Çinliler	-7968
▁Müzik	-7969
▁Kağan	-7970
▁içten	-7971
▁büyüt	-7972
lanabilir	-7973
▁pahalı	-7974
uşturucu	-7975
▁Kardeş	-7976
▁Sun	-7977
rop	-7978
▁firması	-7979
▁manevi	-7980
▁çoktan	-7981
▁sizden	-7982
▁görevini	-7983
▁Barış	-7984
▁bugünkü	-7985
▁Sanki	-7986
▁Komut	-7987
ırt	-7988
▁planı	-7989
Son	-7990
▁final	-7991
▁ran	-7992
▁çıkmak	-7993
▁Hayred	-7994
▁süper	-7995
7)	-7996
ğiyle	-7997
IZ	-7998
▁sesini	-7999
▁ceb	-8000
▁oranda	-8001
▁müddet	-8002
▁önümüzdeki	-8003
▁almıştı	-8004
▁Kaya	-8005
▁verg	-8006
▁delil	-8007
▁iğ	-8008
▁topar	-8009
▁salladı	-8010
leniyor	-8011
EO	-8012
▁ilim	-8013
yn	-8014
▁gökyüz	-8015
▁belirsiz	-8016
▁Mağ	-8017
▁köl	-8018
▁haykır	-8019
unuza	-8020
ski	-8021
▁altından	-8022
▁kiralama	-8023
▁bulunmak	-8024
▁Anne	-8025
▁Işık	-8026
▁Söy	-8027
▁Soy	-8028
▁aran	-8029
stan	-8030
65	-8031
▁imzalan	-8032
▁materyal	-8033
akkak	-8034
po	-8035
▁konfor	-8036
▁güvenliği	-8037
▁4/1	-8038
AF	-8039
▁Dal	-8040
IS	-8041
▁sağlığı	-8042
priz	-8043
▁Aziz	-8044
▁demişti	-8045
▁dışındaki	-8046
▁kimin	-8047
▁boşluk	-8048
▁bilmiyor	-8049
▁ayda	-8050
▁banyo	-8051
▁soluk	-8052
▁düşüş	-8053
▁sayg	-8054
▁efendim	-8055
▁bitti	-8056
▁Meslek	-8057
▁çekip	-8058
▁Yapı	-8059
▁miktarı	-8060
▁şarap	-8061
▁biliyoruz	-8062
▁hip	-8063
▁çıkarmak	-8064
▁Bilgisayar	-8065
▁emekli	-8066
▁görülmektedir	-8067
▁Üçüncü	-8068
▁süv	-8069
▁bıçak	-8070
▁Bet	-8071
▁mevki	-8072
▁Sistemi	-8073
▁zamanın	-8074
ilmelidir	-8075
▁Yaşam	-8076
▁10.	-8077
ıklar	-8078
▁yardımı	-8079
▁bilmek	-8080
▁düşündüğ	-8081
dülü	-8082
▁Ulu	-8083
▁ro	-8084
▁mali	-8085
▁müthiş	-8086
▁kıp	-8087
▁sözleşme	-8088
▁AT	-8089
lamaları	-8090
iliğin	-8091
▁kayde	-8092
▁sertif	-8093
ester	-8094
▁Dost	-8095
▁diledi	-8096
▁Doğal	-8097
ceğim	-8098
▁MAD	-8099
▁olmasın	-8100
▁alanlarda	-8101
▁gerekiyordu	-8102
▁Elbette	-8103
▁tazmin	-8104
laşmış	-8105
▁süreçte	-8106
old	-8107
▁duyarlı	-8108
▁ışığı	-8109
▁melek	-8110
▁Şey	-8111
irkin	-8112
▁Rapor	-8113
▁müşrik	-8114
▁denli	-8115
▁miydi	-8116
ecekler	-8117
▁Göl	-8118
▁zem	-8119
şir	-8120
▁görevli	-8121
▁ailesi	-8122
100	-8123
▁ellerini	-8124
▁eşlik	-8125
▁Pazartesi	-8126
Or	-8127
▁Na	-8128
▁Dol	-8129
▁olmuyor	-8130
Tab	-8131
▁düşer	-8132
▁bizimle	-8133
▁belirtildi	-8134
▁Ağır	-8135
▁Eser	-8136
▁elli	-8137
▁yapılıyor	-8138
▁tatmin	-8139
▁kulüp	-8140
▁gergin	-8141
▁çür	-8142
▁Ur	-8143
io	-8144
▁Adalet	-8145
▁canım	-8146
▁verilmiş	-8147
abilmektedir	-8148
▁3/2	-8149
▁tutmak	-8150
▁bölgeye	-8151
▁hazin	-8152
▁vas	-8153
▁Macar	-8154
▁durak	-8155
▁beklenen	-8156
▁Üs	-8157
▁muc	-8158
▁derhal	-8159
iyetle	-8160
▁hakikat	-8161
▁sürecinde	-8162
▁Gec	-8163
hay	-8164
▁alet	-8165
manıza	-8166
▁Sekret	-8167
şun	-8168
▁Ez	-8169
▁Farklı	-8170
▁mevsim	-8171
ülüyor	-8172
▁milliyet	-8173
▁fabrika	-8174
▁rüzgâr	-8175
ebilmesi	-8176
▁izlemek	-8177
ont	-8178
▁kalktı	-8179
▁zararlı	-8180
sus	-8181
▁düşmüş	-8182
▁Projesi	-8183
tıklarını	-8184
▁şeytan	-8185
▁ifadelerini	-8186
▁alana	-8187
▁sizleri	-8188
▁Pay	-8189
▁Çak	-8190
▁vermişti	-8191
▁zirv	-8192
▁Bilge	-8193
▁Toplam	-8194
▁Mosk	-8195
tihar	-8196
▁nöbet	-8197
▁büyüme	-8198
▁verilecek	-8199
ılab	-8200
▁Başv	-8201
seyi	-8202
kınma	-8203
▁olduğumu	-8204
▁pen	-8205
▁gerekirse	-8206
▁mikro	-8207
▁karşılığı	-8208
▁gittim	-8209
giliz	-8210
çın	-8211
▁ümit	-8212
▁farklılık	-8213
▁Ra	-8214
incan	-8215
▁Arslan	-8216
▁kaybetti	-8217
▁Bol	-8218
▁olanların	-8219
▁saati	-8220
__	-8221
mesin	-8222
mali	-8223
▁Bül	-8224
▁2007	-8225
▁edenler	-8226
▁Zeus	-8227
▁120	-8228
stagram	-8229
▁taze	-8230
▁geb	-8231
tiş	-8232
▁Mis	-8233
▁Kör	-8234
▁mm	-8235
uyorlar	-8236
▁oğlum	-8237
▁merkezinde	-8238
▁tapın	-8239
▁XV	-8240
▁açar	-8241
▁satır	-8242
▁tersine	-8243
▁Emek	-8244
▁sürüyor	-8245
▁Resmi	-8246
▁sözcü	-8247
▁1-	-8248
▁sigort	-8249
▁mağdur	-8250
olojisi	-8251
ılırken	-8252
▁kaya	-8253
▁kralı	-8254
▁Tanı	-8255
▁kadına	-8256
▁aptal	-8257
▁Çarşamba	-8258
▁Maç	-8259
▁firmamız	-8260
umuzun	-8261
▁seviyorum	-8262
▁Hangi	-8263
umuzu	-8264
▁Mün	-8265
▁radyo	-8266
▁Yönetimi	-8267
▁havada	-8268
dava	-8269
▁Stan	-8270
iyorlardı	-8271
ebilirim	-8272
▁önemlisi	-8273
leyece	-8274
▁çiğ	-8275
▁vermesi	-8276
▁sahne	-8277
▁Anayasa	-8278
▁zincir	-8279
▁Özgür	-8280
▁kullanılabilir	-8281
▁Duru	-8282
▁akım	-8283
dığımı	-8284
▁He	-8285
▁ocak	-8286
▁Engel	-8287
▁Toprak	-8288
▁ilgilendir	-8289
▁çekmek	-8290
çılık	-8291
alılar	-8292
▁çırp	-8293
▁link	-8294
inip	-8295
▁İnan	-8296
ayıp	-8297
▁adresi	-8298
▁Nas	-8299
cunun	-8300
▁Hareket	-8301
▁hissetti	-8302
▁leh	-8303
▁sis	-8304
cin	-8305
▁itiraf	-8306
▁kullanı	-8307
▁somut	-8308
rut	-8309
▁caz	-8310
▁karn	-8311
▁niye	-8312
▁haberleri	-8313
masıdır	-8314
▁lig	-8315
▁konuya	-8316
▁For	-8317
▁şahit	-8318
▁belgesi	-8319
sh	-8320
wn	-8321
▁değerlendirme	-8322
▁Devam	-8323
dunuz	-8324
ÜRK	-8325
▁Cevap	-8326
▁disiplin	-8327
▁odasına	-8328
▁lideri	-8329
ezz	-8330
▁Soğ	-8331
dilik	-8332
▁yaşamış	-8333
▁nakliyat	-8334
▁İskender	-8335
mo	-8336
▁olabilirsiniz	-8337
▁yapılmıştır	-8338
itt	-8339
dedi	-8340
âhil	-8341
ülüğ	-8342
▁Kazan	-8343
67	-8344
▁ölümü	-8345
▁ceh	-8346
▁muhafaza	-8347
▁suya	-8348
lanmaktadır	-8349
▁yakış	-8350
▁Mik	-8351
▁iPhone	-8352
ith	-8353
itif	-8354
▁Ail	-8355
▁bizlere	-8356
▁Uzman	-8357
zı	-8358
▁Perşembe	-8359
▁şartları	-8360
▁görünüyordu	-8361
▁Emin	-8362
▁lay	-8363
▁ürünlerin	-8364
▁pu	-8365
▁geçmek	-8366
▁alkol	-8367
▁girmek	-8368
edd	-8369
▁açma	-8370
▁rö	-8371
▁Geri	-8372
LAN	-8373
▁Birleşik	-8374
▁ekledi	-8375
▁Enerji	-8376
mad	-8377
▁fikri	-8378
edin	-8379
▁Pen	-8380
▁değişen	-8381
▁rahatsızlık	-8382
▁tamir	-8383
▁TÜ	-8384
lileri	-8385
▁kalkış	-8386
▁Lat	-8387
▁Balkan	-8388
bire	-8389
▁Avusturya	-8390
▁Boş	-8391
▁Diz	-8392
lâh	-8393
▁işyer	-8394
LÜM	-8395
AĞ	-8396
▁Gıda	-8397
▁ninni	-8398
▁zamandır	-8399
asın	-8400
▁güçlük	-8401
düler	-8402
▁hayatına	-8403
▁metrek	-8404
arş	-8405
IŞ	-8406
balaj	-8407
▁ettiğimiz	-8408
▁beslenme	-8409
eker	-8410
▁çıplak	-8411
▁<	-8412
lası	-8413
▁Euro	-8414
urî	-8415
▁tutun	-8416
▁DE	-8417
▁olmasından	-8418
▁yıllarında	-8419
▁Zehebî	-8420
▁biçimi	-8421
ava	-8422
▁olayın	-8423
▁belge	-8424
▁uygulamaları	-8425
▁katkıda	-8426
▁yolları	-8427
unuzun	-8428
▁yarısı	-8429
itasyon	-8430
▁yemeği	-8431
▁Vüc	-8432
▁Fel	-8433
melerine	-8434
▁Yavuz	-8435
▁kulüb	-8436
sinden	-8437
▁vasıt	-8438
▁Üm	-8439
▁ispat	-8440
▁kalmadı	-8441
▁milletvekili	-8442
▁Oku	-8443
▁aldık	-8444
▁örgütün	-8445
▁kalıyor	-8446
▁Mücad	-8447
lenerek	-8448
malıyız	-8449
▁açıp	-8450
▁BÖ	-8451
oli	-8452
▁yürüdü	-8453
▁üretilen	-8454
ersen	-8455
▁Escort	-8456
AC	-8457
Benim	-8458
İH	-8459
▁perde	-8460
▁yanından	-8461
değer	-8462
▁tarafta	-8463
▁mağaz	-8464
▁istediğim	-8465
▁kısaca	-8466
▁bölümde	-8467
▁Seni	-8468
▁şeylerin	-8469
fez	-8470
▁Proje	-8471
▁şap	-8472
paz	-8473
▁emperyal	-8474
▁duv	-8475
▁Üyesi	-8476
▁alırken	-8477
TÜ	-8478
▁önder	-8479
▁kendinden	-8480
▁tey	-8481
▁medeniyet	-8482
▁inanılmaz	-8483
▁derg	-8484
▁erişim	-8485
▁dayanıklı	-8486
▁başlamıştır	-8487
▁maalesef	-8488
Öz	-8489
▁öylesine	-8490
▁şifr	-8491
88	-8492
▁Kendisi	-8493
▁olayların	-8494
lamıştı	-8495
▁dernek	-8496
▁Taraf	-8497
▁kocaman	-8498
▁müte	-8499
▁öğrencileri	-8500
▁Kocaeli	-8501
▁Valisi	-8502
▁versiyon	-8503
teyiz	-8504
▁yut	-8505
ılırsa	-8506
▁hakaret	-8507
▁kamyon	-8508
▁edeceğiz	-8509
▁Git	-8510
▁Azer	-8511
▁gelişen	-8512
▁Tasarım	-8513
▁Müslümanlar	-8514
▁saatlerinde	-8515
▁Kulübü	-8516
▁kast	-8517
▁bozul	-8518
▁izledi	-8519
▁pir	-8520
taç	-8521
▁makyaj	-8522
zem	-8523
▁fan	-8524
▁saatte	-8525
▁Temsil	-8526
▁konular	-8527
#_	-8528
üzün	-8529
▁silahlı	-8530
▁İnşaat	-8531
▁ahşap	-8532
▁hur	-8533
▁alanına	-8534
▁payı	-8535
▁eğilim	-8536
ılav	-8537
▁verdiler	-8538
▁Benî	-8539
▁getirildi	-8540
imizle	-8541
▁Gülen	-8542
▁Para	-8543
▁yavru	-8544
▁durumuna	-8545
▁noktaya	-8546
59	-8547
▁istey	-8548
▁Dönem	-8549
ahil	-8550
▁numarası	-8551
▁sürücü	-8552
▁horm	-8553
▁gönderilen	-8554
mışlardır	-8555
▁stres	-8556
▁yanıl	-8557
mec	-8558
▁Görüş	-8559
▁Koc	-8560
▁inceleme	-8561
onlar	-8562
▁Kadınlar	-8563
ehr	-8564
▁ücreti	-8565
▁Türkmen	-8566
▁vade	-8567
lülük	-8568
olar	-8569
▁burj	-8570
▁idam	-8571
▁sunduğu	-8572
▁şikâyet	-8573
▁yazılmış	-8574
▁kazanmak	-8575
▁heyet	-8576
▁Etkin	-8577
▁mezh	-8578
elif	-8579
malısınız	-8580
▁milletin	-8581
mara	-8582
▁başlıca	-8583
▁çalıştığı	-8584
▁Yatırım	-8585
▁daire	-8586
dükten	-8587
▁Cep	-8588
▁Akıl	-8589
▁etmeden	-8590
sy	-8591
▁ötesinde	-8592
das	-8593
steri	-8594
▁müslüm	-8595
▁parma	-8596
▁isteği	-8597
▁nis	-8598
liyordu	-8599
elin	-8600
▁Abdur	-8601
▁söyledim	-8602
▁benims	-8603
▁koz	-8604
gresi	-8605
▁etmekte	-8606
düs	-8607
▁kâr	-8608
ilmeye	-8609
▁Yakın	-8610
▁kâğıt	-8611
▁İlç	-8612
▁gittikçe	-8613
▁tarihinden	-8614
▁çeş	-8615
Bak	-8616
▁âdet	-8617
▁olmasının	-8618
▁müzak	-8619
▁Dört	-8620
larımın	-8621
▁Yay	-8622
ızı	-8623
fir	-8624
▁250	-8625
▁istenen	-8626
▁ikiye	-8627
▁çil	-8628
amıyorum	-8629
SB	-8630
▁Sık	-8631
▁kanaat	-8632
▁bulma	-8633
▁sıfat	-8634
▁çağdaş	-8635
▁kimseler	-8636
▁samimi	-8637
kış	-8638
sir	-8639
▁mim	-8640
ftn	-8641
▁tali	-8642
▁arkasına	-8643
▁yerin	-8644
▁aklına	-8645
pi	-8646
▁şimdiden	-8647
▁deprem	-8648
▁plana	-8649
▁yolun	-8650
▁olabileceğini	-8651
▁paralel	-8652
▁tüc	-8653
▁Kaymakam	-8654
rist	-8655
▁eskiden	-8656
▁Col	-8657
▁MADDE	-8658
düğünde	-8659
▁gidiş	-8660
▁Şam	-8661
▁katıldığı	-8662
▁adama	-8663
ruz	-8664
▁kısmında	-8665
▁Dağı	-8666
▁ismini	-8667
hem	-8668
▁Şer	-8669
▁şimdiye	-8670
▁Kahraman	-8671
▁görmez	-8672
▁izleyen	-8673
▁ilişkisi	-8674
▁yazıyor	-8675
2’	-8676
▁Hab	-8677
▁ağac	-8678
▁si	-8679
▁mel	-8680
▁dönemlerde	-8681
ebileceğini	-8682
▁Tef	-8683
▁yapılmaktadır	-8684
▁araçları	-8685
▁tac	-8686
▁savaşın	-8687
enleri	-8688
tiz	-8689
▁Çiçek	-8690
Kur	-8691
▁amaçla	-8692
▁kaba	-8693
hoş	-8694
ube	-8695
▁Bebek	-8696
▁Had	-8697
lân	-8698
▁alabilir	-8699
LU	-8700
▁kitabın	-8701
▁Digit	-8702
▁Salı	-8703
▁kamuoy	-8704
tah	-8705
top	-8706
▁ihmal	-8707
▁Teknoloji	-8708
ts	-8709
▁kuram	-8710
▁fabrik	-8711
artman	-8712
▁mırıl	-8713
▁yükselen	-8714
ehri	-8715
▁kariyer	-8716
▁gazetec	-8717
▁muam	-8718
▁itibarı	-8719
çeri	-8720
▁).	-8721
▁yağı	-8722
doğu	-8723
▁kolaylıkla	-8724
isar	-8725
▁yazdı	-8726
▁bisiklet	-8727
üydü	-8728
▁Bölgesi	-8729
▁Net	-8730
ýr	-8731
▁ifadesi	-8732
▁kavg	-8733
▁sistemin	-8734
▁bilgilere	-8735
▁dönen	-8736
ien	-8737
▁oturdu	-8738
▁Esas	-8739
▁köprü	-8740
▁çik	-8741
▁dikkatle	-8742
▁herkesi	-8743
▁garanti	-8744
▁Uğ	-8745
▁olmasıdır	-8746
▁istasyon	-8747
▁midir	-8748
▁seçenekleri	-8749
ılışı	-8750
▁bayrak	-8751
▁festiv	-8752
▁sporcu	-8753
amay	-8754
▁vicdan	-8755
▁istanbul	-8756
▁irti	-8757
▁Moskova	-8758
▁fakir	-8759
▁Char	-8760
▁peyn	-8761
lamalar	-8762
▁Hotel	-8763
▁Servisi	-8764
▁ağırlık	-8765
▁aldıkları	-8766
▁Qu	-8767
ğince	-8768
ERİ	-8769
▁Trump	-8770
▁anlatı	-8771
▁işten	-8772
▁kaldırdı	-8773
5’	-8774
▁ayet	-8775
▁Sim	-8776
▁giys	-8777
▁İşlem	-8778
çü	-8779
▁sesleri	-8780
uğa	-8781
▁Ortak	-8782
iyetin	-8783
▁Sinan	-8784
idir	-8785
ux	-8786
▁Caddesi	-8787
▁görme	-8788
▁tüf	-8789
uluğu	-8790
▁hayatında	-8791
▁milletvekil	-8792
ash	-8793
▁Bodrum	-8794
▁Enstitüsü	-8795
▁aylarında	-8796
▁Komisyonu	-8797
OP	-8798
▁haksız	-8799
▁kişilere	-8800
▁Bize	-8801
adam	-8802
▁makinesi	-8803
▁Sakarya	-8804
▁Belâz	-8805
▁muhtemelen	-8806
▁yönetmen	-8807
niz	-8808
▁anlamıyla	-8809
▁kek	-8810
▁Kredi	-8811
▁ediyorlar	-8812
alimanı	-8813
▁düzeni	-8814
▁tüketic	-8815
▁düzel	-8816
▁Cengiz	-8817
lil	-8818
adoğu	-8819
▁noktasında	-8820
▁log	-8821
▁Örgüt	-8822
tığınız	-8823
▁etsin	-8824
▁gönüllü	-8825
▁nazar	-8826
▁bomb	-8827
kenti	-8828
▁ödey	-8829
▁Hor	-8830
▁tebrik	-8831
▁katılma	-8832
▁beslen	-8833
ketbol	-8834
▁To	-8835
name	-8836
▁edecektir	-8837
▁panel	-8838
ıbbi	-8839
raç	-8840
▁fuar	-8841
▁--	-8842
▁etmedi	-8843
öv	-8844
▁Geçmiş	-8845
baycan	-8846
▁yapıyoruz	-8847
▁hücum	-8848
esto	-8849
▁buğ	-8850
by	-8851
▁vazif	-8852
▁Nef	-8853
lidir	-8854
▁rız	-8855
leştirme	-8856
▁İsviç	-8857
▁hev	-8858
antol	-8859
▁olanları	-8860
▁farkına	-8861
▁çöp	-8862
▁demokrasi	-8863
aracak	-8864
▁sürpriz	-8865
bit	-8866
çası	-8867
▁deyişle	-8868
▁sayılan	-8869
▁sunul	-8870
▁sordum	-8871
▁bağlıdır	-8872
▁bardak	-8873
▁kuz	-8874
▁cehenn	-8875
▁çocuklara	-8876
▁mekân	-8877
!»	-8878
▁bulabil	-8879
▁bulacak	-8880
bı	-8881
tına	-8882
▁öykü	-8883
mik	-8884
▁doku	-8885
▁tekli	-8886
iver	-8887
▁Op	-8888
▁Timur	-8889
▁Kontrol	-8890
▁dinlen	-8891
▁akın	-8892
▁Belâzurî	-8893
▁Profes	-8894
ürler	-8895
panyol	-8896
bank	-8897
▁eşliğinde	-8898
unacak	-8899
▁verdik	-8900
onsor	-8901
▁çalışırken	-8902
che	-8903
▁değerleri	-8904
▁vakt	-8905
yada	-8906
▁seçimi	-8907
▁ilgisi	-8908
▁geldim	-8909
▁değişikliği	-8910
inizden	-8911
▁arkadaşım	-8912
▁teşekkürler	-8913
▁Akadem	-8914
Bel	-8915
▁geleceği	-8916
▁insanlık	-8917
▁ülkelerde	-8918
▁Bes	-8919
66	-8920
istlerin	-8921
▁zihin	-8922
▁Çöz	-8923
▁Bos	-8924
Ak	-8925
▁sahipleri	-8926
içe	-8927
▁burun	-8928
▁yaralı	-8929
▁tavsiy	-8930
▁düşündüm	-8931
▁zorundadır	-8932
▁Giriş	-8933
▁Uk	-8934
yordu	-8935
▁Person	-8936
▁tarihte	-8937
▁mahkeme	-8938
ceğini	-8939
▁Vez	-8940
▁2-	-8941
▁karısı	-8942
sizin	-8943
▁lüks	-8944
▁gönl	-8945
▁konusundaki	-8946
ûmet	-8947
▁Geliş	-8948
▁parayı	-8949
▁kargo	-8950
▁icin	-8951
▁bölgesi	-8952
▁oluşturduğu	-8953
▁devreye	-8954
▁Bunları	-8955
▁Kem	-8956
▁sözlerini	-8957
▁AD	-8958
▁çirkin	-8959
▁Keş	-8960
mazlar	-8961
▁sizinle	-8962
▁sunum	-8963
▁verin	-8964
göz	-8965
▁koridor	-8966
▁58	-8967
▁aktivit	-8968
lıkların	-8969
▁babam	-8970
▁görmeye	-8971
ıh	-8972
▁antren	-8973
cuk	-8974
hid	-8975
tral	-8976
▁Yabgu	-8977
omuz	-8978
▁Kaş	-8979
itan	-8980
▁bildiği	-8981
▁iklim	-8982
▁Teşkil	-8983
▁menf	-8984
▁açıklaması	-8985
▁gününde	-8986
▁ülkelerin	-8987
dön	-8988
ülasyon	-8989
▁sars	-8990
▁şüphesiz	-8991
▁kalkıp	-8992
▁ihtiyar	-8993
▁elbise	-8994
▁getirmiş	-8995
isti	-8996
▁ekonomi	-8997
▁sayısının	-8998
▁BM	-8999
▁faaliyetleri	-9000
▁sizlerle	-9001
As	-9002
▁düzenleme	-9003
▁anılan	-9004
▁Hayreddîn	-9005
▁ÖZ	-9006
▁dinin	-9007
mm	-9008
▁etkileri	-9009
▁yıla	-9010
▁Şeri	-9011
▁Birbir	-9012
▁yazma	-9013
▁Hepsi	-9014
▁gram	-9015
▁isteyenler	-9016
▁atmos	-9017
▁talimat	-9018
▁tohum	-9019
ayıt	-9020
▁ertesi	-9021
▁Şehit	-9022
▁öyk	-9023
▁Us	-9024
▁düzenlediği	-9025
ümüzün	-9026
▁anlatım	-9027
dırma	-9028
dunun	-9029
▁peşinde	-9030
eğinin	-9031
dığının	-9032
▁çılgın	-9033
▁veriler	-9034
-19	-9035
▁surat	-9036
▁Abbas	-9037
ilmek	-9038
▁dondur	-9039
▁haftada	-9040
ezid	-9041
▁Bayramı	-9042
▁kucak	-9043
rağı	-9044
dy	-9045
▁zira	-9046
▁Ateş	-9047
ive	-9048
▁yılına	-9049
▁arşiv	-9050
▁zamanki	-9051
▁kazı	-9052
kurmay	-9053
▁kaleme	-9054
▁eklem	-9055
öly	-9056
▁yapılabilir	-9057
▁tarafına	-9058
▁geçtiği	-9059
▁aldılar	-9060
ikal	-9061
▁çoğunlukla	-9062
oo	-9063
▁oturup	-9064
larımızda	-9065
lub	-9066
▁görem	-9067
▁şirketin	-9068
▁eşsiz	-9069
sî	-9070
▁satışa	-9071
▁kaplı	-9072
▁yüc	-9073
▁etkileş	-9074
▁tehlike	-9075
▁Jandarma	-9076
▁kontrolü	-9077
▁traf	-9078
▁uzaktan	-9079
▁düşmanı	-9080
▁robot	-9081
dis	-9082
▁bakmak	-9083
▁lev	-9084
▁yapmanız	-9085
▁Sk	-9086
▁Diş	-9087
▁direk	-9088
cal	-9089
▁Tesis	-9090
İstanbul	-9091
▁KAR	-9092
▁geldiler	-9093
▁Uç	-9094
▁bölgenin	-9095
use	-9096
Dün	-9097
▁antik	-9098
▁slog	-9099
▁aldığını	-9100
▁Camii	-9101
▁Turgut	-9102
▁ış	-9103
▁saatleri	-9104
▁getiriyor	-9105
▁iktis	-9106
▁Tük	-9107
tma	-9108
▁tahsil	-9109
▁hü	-9110
▁şok	-9111
ERS	-9112
▁Karaman	-9113
api	-9114
▁beklemek	-9115
▁Komutanı	-9116
laç	-9117
lamanın	-9118
▁konuları	-9119
▁Metin	-9120
▁kapısı	-9121
▁11.	-9122
▁Birden	-9123
▁zekâ	-9124
▁kapsamlı	-9125
ああ	-9126
▁imam	-9127
▁işletme	-9128
ood	-9129
▁Ref	-9130
▁edemez	-9131
▁kıskan	-9132
▁makine	-9133
▁Lisans	-9134
▁vakti	-9135
▁Özal	-9136
{{{1	-9137
▁Yönetmeli	-9138
▁parçalan	-9139
▁medyum	-9140
▁kaybı	-9141
▁sök	-9142
▁ilanı	-9143
▁dayanan	-9144
urun	-9145
dukça	-9146
▁kızar	-9147
▁Japonya	-9148
ilirken	-9149
▁Por	-9150
▁Manisa	-9151
▁katli	-9152
▁bük	-9153
▁dostluk	-9154
▁ihal	-9155
]](	-9156
▁Örnek	-9157
▁sunmaktadır	-9158
1’	-9159
▁(2)	-9160
▁Vide	-9161
▁hesabı	-9162
▁BİR	-9163
▁seri	-9164
ME	-9165
ukar	-9166
▁Yaklaşık	-9167
oth	-9168
▁Servis	-9169
▁Ark	-9170
▁eğlence	-9171
çısı	-9172
▁eyalet	-9173
▁kudret	-9174
▁aşağıya	-9175
▁Onları	-9176
▁Renk	-9177
▁içe	-9178
resyon	-9179
▁gönderildi	-9180
▁Nihayet	-9181
posta	-9182
▁Kitab	-9183
▁kaynakları	-9184
zaman	-9185
▁vermeden	-9186
▁bakıyor	-9187
▁uygulamaya	-9188
▁taşır	-9189
diğinde	-9190
▁şüphe	-9191
4’	-9192
▁istemiş	-9193
▁görüp	-9194
▁askerî	-9195
▁koleksiyon	-9196
▁gerçekleşti	-9197
ita	-9198
▁felsefe	-9199
▁münaseb	-9200
▁Gazete	-9201
▁kiralık	-9202
ion	-9203
▁çıkarıp	-9204
▁tuvalet	-9205
laşan	-9206
▁mühim	-9207
▁bulmuş	-9208
▁Pla	-9209
▁iri	-9210
▁ulus	-9211
?’	-9212
imlerin	-9213
▁kurdu	-9214
▁liste	-9215
larımızla	-9216
▁prim	-9217
▁hayret	-9218
▁kaşığı	-9219
▁Çelebi	-9220
▁senden	-9221
▁sahte	-9222
esince	-9223
lım	-9224
▁mobilya	-9225
▁almayı	-9226
▁(19	-9227
▁projeler	-9228
▁bizler	-9229
▁Salih	-9230
▁gazete	-9231
▁Ortadoğu	-9232
▁mül	-9233
76	-9234
▁etmem	-9235
▁Vel	-9236
▁derler	-9237
▁We	-9238
▁obj	-9239
▁bakıyordu	-9240
tüğü	-9241
);	-9242
▁Dikkat	-9243
mekteydi	-9244
rimenkul	-9245
▁solu	-9246
▁liman	-9247
▁Takım	-9248
▁bozukluk	-9249
▁oyunlar	-9250
▁bileti	-9251
olik	-9252
ebilm	-9253
lerinize	-9254
▁önlemek	-9255
▁sıkış	-9256
▁ayrıldı	-9257
ğım	-9258
▁teşkilat	-9259
lob	-9260
▁yazan	-9261
▁getirilen	-9262
▁kesi	-9263
▁beklet	-9264
▁tıkan	-9265
▁bonus	-9266
▁Sitesi	-9267
irt	-9268
▁idari	-9269
tüel	-9270
▁yaşar	-9271
▁bulup	-9272
▁çıkmıştı	-9273
tikçe	-9274
▁Göster	-9275
▁sağlanması	-9276
▁konferans	-9277
▁Kerim	-9278
▁durumunu	-9279
ebilmektedir	-9280
▁4,	-9281
▁mahkûm	-9282
ndaki	-9283
▁yaban	-9284
anıyordu	-9285
▁sıralarda	-9286
irdi	-9287
amaşır	-9288
▁Eg	-9289
▁geçmeden	-9290
▁zır	-9291
dıran	-9292
▁Kore	-9293
▁muhakkak	-9294
▁döviz	-9295
▁etiket	-9296
▁sinyal	-9297
...)	-9298
▁karbon	-9299
vat	-9300
▁yönelt	-9301
▁yıldan	-9302
▁fı	-9303
ence	-9304
out	-9305
▁Ünlü	-9306
ilya	-9307
▁Tiyatro	-9308
▁yazarı	-9309
▁Daire	-9310
▁isimler	-9311
inler	-9312
▁kurduğu	-9313
▁Uğur	-9314
mt	-9315
▁cerrah	-9316
▁göğs	-9317
larımızdan	-9318
indan	-9319
▁sürer	-9320
▁Mâ	-9321
▁vermez	-9322
acası	-9323
ceğiz	-9324
▁blok	-9325
▁Nes	-9326
gari	-9327
▁kaygı	-9328
▁Kilis	-9329
▁Çoc	-9330
▁Kel	-9331
▁lab	-9332
▁uyarınca	-9333
▁yetin	-9334
asılı	-9335
▁katılımı	-9336
▁tablet	-9337
▁Piyas	-9338
berg	-9339
▁ettiğiniz	-9340
lanmaya	-9341
oğul	-9342
▁vermiştir	-9343
▁estetik	-9344
dinde	-9345
▁yapacağı	-9346
▁layık	-9347
▁mahalle	-9348
▁Emre	-9349
▁ülkeye	-9350
▁kısmen	-9351
▁enfeksiyon	-9352
▁anlatmak	-9353
▁duygusu	-9354
▁aynen	-9355
▁49	-9356
▁Com	-9357
▁Geçtiğimiz	-9358
▁çatı	-9359
▁görüşme	-9360
lıyoruz	-9361
▁Hil	-9362
▁öğüt	-9363
abey	-9364
▁lak	-9365
ınd	-9366
tefik	-9367
▁Modern	-9368
▁endüstr	-9369
▁Kırım	-9370
luğunda	-9371
ükleer	-9372
mektir	-9373
lanıp	-9374
▁elden	-9375
▁işine	-9376
▁miras	-9377
▁vezir	-9378
iyete	-9379
▁hükümeti	-9380
▁türden	-9381
▁dünyasında	-9382
▁deyip	-9383
▁yaptığım	-9384
▁egzersiz	-9385
▁ulaştı	-9386
eten	-9387
▁####	-9388
▁firmalar	-9389
▁Günlük	-9390
▁kalmaz	-9391
emem	-9392
gor	-9393
▁meşru	-9394
izmi	-9395
sed	-9396
▁istemiyorum	-9397
▁masal	-9398
tıkça	-9399
▁düşünen	-9400
▁akraba	-9401
▁muv	-9402
daroğlu	-9403
Cİ	-9404
▁dinlem	-9405
▁konuşmaya	-9406
▁oluşturur	-9407
▁bilmez	-9408
▁akademik	-9409
▁dâhil	-9410
▁Twitter	-9411
▁etkiler	-9412
▁kitapları	-9413
▁kendiliğinden	-9414
▁Tez	-9415
UT	-9416
▁teşeb	-9417
▁raf	-9418
▁Bilin	-9419
▁Evren	-9420
dandı	-9421
▁Azerbaycan	-9422
▁iletişime	-9423
▁Terör	-9424
▁imkânsız	-9425
▁yeğ	-9426
77	-9427
▁çapında	-9428
▁çalışmalarına	-9429
▁Sokak	-9430
kiralama	-9431
▁Kuvvetleri	-9432
▁Federasyonu	-9433
ahattin	-9434
▁hayatının	-9435
▁orij	-9436
ps	-9437
▁Bağdat	-9438
▁Alış	-9439
▁Nih	-9440
▁soruları	-9441
▁Aslan	-9442
ucusu	-9443
▁karın	-9444
liyoruz	-9445
▁kuşku	-9446
ağından	-9447
▁izlem	-9448
▁kıt	-9449
▁danışman	-9450
iet	-9451
▁suçlu	-9452
▁Okulu	-9453
▁damla	-9454
▁Bug	-9455
▁hafifçe	-9456
▁Eh	-9457
dig	-9458
▁uğrat	-9459
▁Ziyaret	-9460
ÖN	-9461
ure	-9462
▁Arapça	-9463
▁atış	-9464
ÖR	-9465
▁kaybeden	-9466
▁aracın	-9467
▁General	-9468
▁Uygur	-9469
▁BÖLÜM	-9470
atçı	-9471
▁değişken	-9472
▁şansı	-9473
▁sevdiği	-9474
▁kayıtlı	-9475
▁2006	-9476
▁gösterilen	-9477
▁mutf	-9478
▁üyelik	-9479
GS	-9480
▁eleman	-9481
▁düşünerek	-9482
!)	-9483
▁İndir	-9484
▁Ondan	-9485
▁mıdır	-9486
▁kitaplar	-9487
▁müzi	-9488
▁Mimar	-9489
▁uyuşturucu	-9490
▁ürk	-9491
▁Kâmil	-9492
edan	-9493
▁masaj	-9494
▁içerir	-9495
mil	-9496
52	-9497
▁protokol	-9498
▁nice	-9499
▁Oper	-9500
▁tutk	-9501
▁beyn	-9502
übe	-9503
▁adında	-9504
▁tarihine	-9505
▁Çavuş	-9506
gül	-9507
▁yetişkin	-9508
▁ihtil	-9509
▁taşıyor	-9510
▁çoğal	-9511
ültü	-9512
▁koordin	-9513
▁âlim	-9514
▁sistemini	-9515
▁topu	-9516
▁gereksiz	-9517
üph	-9518
Bana	-9519
▁hazırlanmış	-9520
▁değişiklikler	-9521
▁yaşamını	-9522
▁korkut	-9523
▁kenara	-9524
usuyla	-9525
esir	-9526
▁topla	-9527
▁tüken	-9528
İnsan	-9529
▁maçında	-9530
▁Gu	-9531
▁Önemli	-9532
▁işver	-9533
▁girdiği	-9534
▁buldum	-9535
▁Doğum	-9536
▁mesela	-9537
tün	-9538
▁Alp	-9539
▁kale	-9540
▁Od	-9541
acağımız	-9542
▁Motor	-9543
▁evrensel	-9544
▁Konseyi	-9545
lâk	-9546
etice	-9547
▁may	-9548
▁sürüc	-9549
▁Hükümet	-9550
▁cem	-9551
ÜL	-9552
▁Onlara	-9553
▁etek	-9554
▁harc	-9555
Tarih	-9556
▁Alek	-9557
lahi	-9558
▁dünyadaki	-9559
ington	-9560
▁fit	-9561
▁Dairesi	-9562
▁yaşamın	-9563
▁parçaları	-9564
▁koruyucu	-9565
▁oynay	-9566
ekili	-9567
odu	-9568
▁kasab	-9569
▁istedikleri	-9570
▁Albay	-9571
▁yağma	-9572
▁ömr	-9573
▁Hint	-9574
▁hele	-9575
▁öğle	-9576
▁bakıldığında	-9577
▁İlgili	-9578
▁çatış	-9579
kânı	-9580
▁İŞ	-9581
Tan	-9582
çağ	-9583
ereket	-9584
▁yapabil	-9585
▁plastik	-9586
▁yanındaki	-9587
▁ölçek	-9588
▁Genelkurmay	-9589
ayol	-9590
▁ettiğim	-9591
82	-9592
▁kokusu	-9593
▁set	-9594
▁sakat	-9595
▁tarifi	-9596
Peki	-9597
▁lâzım	-9598
▁Sâ	-9599
tığımızda	-9600
▁Uzak	-9601
▁elindeki	-9602
▁kurma	-9603
▁hang	-9604
▁boru	-9605
rım	-9606
▁müj	-9607
▁uyuş	-9608
lana	-9609
▁Pak	-9610
▁Sorum	-9611
▁atık	-9612
▁ilahi	-9613
linik	-9614
▁nik	-9615
leşmiş	-9616
▁haberdar	-9617
▁toplanan	-9618
▁isimleri	-9619
▁yayımlanan	-9620
▁yaratan	-9621
▁Durum	-9622
▁öğrencilere	-9623
▁neticesinde	-9624
▁üzeri	-9625
▁adamlar	-9626
▁Ceb	-9627
adüf	-9628
leden	-9629
▁arma	-9630
▁çeker	-9631
▁Fi	-9632
▁gürült	-9633
▁rolü	-9634
dıköy	-9635
▁yığın	-9636
önü	-9637
▁ente	-9638
▁Nerede	-9639
▁Amr	-9640
▁olurlar	-9641
▁kaynaklanan	-9642
▁Bro	-9643
▁ER	-9644
▁kodu	-9645
▁organize	-9646
▁uygul	-9647
sar	-9648
▁Tom	-9649
▁şan	-9650
▁4/2	-9651
▁şeyh	-9652
)’	-9653
TA	-9654
▁açtığı	-9655
▁çant	-9656
▁mağaza	-9657
ole	-9658
▁atom	-9659
▁birbirini	-9660
Ve	-9661
▁Ec	-9662
▁malzemeleri	-9663
kili	-9664
▁Dek	-9665
▁sınıfı	-9666
▁Pal	-9667
▁bekleniyor	-9668
▁İçer	-9669
▁İspanyol	-9670
ersek	-9671
▁Kupası	-9672
dini	-9673
▁dördüncü	-9674
▁söyleyerek	-9675
abilirdi	-9676
▁burası	-9677
İB	-9678
▁İnce	-9679
▁Üzerine	-9680
▁kavuştur	-9681
▁kaybed	-9682
▁vizyon	-9683
▁işlemler	-9684
▁tutup	-9685
madığını	-9686
▁kullanılarak	-9687
▁çı	-9688
▁Köyü	-9689
ildiğinde	-9690
▁bilinçli	-9691
unt	-9692
naz	-9693
▁2019	-9694
lov	-9695
amda	-9696
lop	-9697
âne	-9698
▁Ensâb	-9699
umuza	-9700
▁sust	-9701
▁tl	-9702
▁yürürlüğe	-9703
▁olas	-9704
▁cümle	-9705
▁edilemez	-9706
▁başlık	-9707
▁tedarik	-9708
▁açmak	-9709
▁ikili	-9710
▁özgün	-9711
iyeli	-9712
▁Gerçi	-9713
rib	-9714
▁Model	-9715
▁boşalt	-9716
mişler	-9717
▁devrimci	-9718
▁hizmetler	-9719
▁mağlup	-9720
▁yaratı	-9721
▁Kitabı	-9722
▁ayrılan	-9723
▁gereklidir	-9724
memiştir	-9725
▁gönderdiği	-9726
▁Hollanda	-9727
▁Başar	-9728
embe	-9729
▁rüzgar	-9730
▁yaşamı	-9731
▁istatistik	-9732
ücük	-9733
▁okula	-9734
▁kestir	-9735
▁bilmeyen	-9736
şah	-9737
tısı	-9738
jinal	-9739
▁Berlin	-9740
TR	-9741
▁Marmara	-9742
▁iştir	-9743
▁havaya	-9744
▁Peter	-9745
▁Amerikalı	-9746
▁ailenin	-9747
▁Du	-9748
▁çalışıyordu	-9749
▁Şanlı	-9750
lamen	-9751
▁Bon	-9752
▁okumak	-9753
duklarını	-9754
▁kendisiyle	-9755
▁göstererek	-9756
▁Yarış	-9757
nav	-9758
ğimizde	-9759
▁Beden	-9760
▁hükm	-9761
bî	-9762
▁randev	-9763
▁Ata	-9764
▁yargılan	-9765
▁sanal	-9766
▁oyuncak	-9767
▁HDP	-9768
▁oluşturmak	-9769
▁emri	-9770
miyorum	-9771
▁teklifi	-9772
▁sistemine	-9773
▁odaya	-9774
▁istikrar	-9775
▁mesele	-9776
▁yığ	-9777
▁metr	-9778
54	-9779
▁şehirde	-9780
yalım	-9781
lusu	-9782
ril	-9783
▁İsviçre	-9784
▁grafik	-9785
çık	-9786
▁dostu	-9787
▁dizisi	-9788
▁doğdu	-9789
▁giyim	-9790
▁sitesinde	-9791
▁merkezine	-9792
▁montaj	-9793
▁Öğrenci	-9794
▁tekni	-9795
▁maddeler	-9796
▁şartlar	-9797
▁om	-9798
▁uydu	-9799
▁mat	-9800
▁aklıma	-9801
▁asit	-9802
▁başkenti	-9803
▁varsay	-9804
▁hızlandır	-9805
▁ilçesi	-9806
landığını	-9807
cını	-9808
▁verdikleri	-9809
▁evrak	-9810
lini	-9811
▁$	-9812
▁hareketle	-9813
▁düşünmek	-9814
▁Hasta	-9815
▁Müslümanların	-9816
▁İnsanların	-9817
▁Mit	-9818
▁duyulan	-9819
▁benzeyen	-9820
ileriyle	-9821
▁Çeşit	-9822
▁vazgeçilmez	-9823
ışlı	-9824
▁izni	-9825
▁özellikler	-9826
mayıp	-9827
▁Kesin	-9828
▁hissede	-9829
▁şak	-9830
▁verdiğini	-9831
▁Siyen	-9832
▁Yaşlı	-9833
▁doktora	-9834
▁beyler	-9835
▁yalvar	-9836
8)	-9837
ier	-9838
fmt	-9839
encere	-9840
▁savaşta	-9841
▁içini	-9842
▁Gümüş	-9843
▁ov	-9844
▁merhaba	-9845
▁alama	-9846
51	-9847
Ya	-9848
▁Hele	-9849
▁kullanmaya	-9850
▁neyse	-9851
▁sıcaklık	-9852
.(	-9853
▁Finans	-9854
diki	-9855
▁katk	-9856
poz	-9857
izz	-9858
87	-9859
▁atılan	-9860
▁pantol	-9861
inceye	-9862
▁Bahçeli	-9863
▁kullanır	-9864
▁görüyorum	-9865
▁reform	-9866
▁geçerken	-9867
ebilirler	-9868
▁aniden	-9869
▁dinamik	-9870
▁kadarıyla	-9871
▁dönük	-9872
lasman	-9873
▁ilerleyen	-9874
▁tarihinin	-9875
▁arıyor	-9876
▁artar	-9877
▁kalitesi	-9878
▁Kış	-9879
▁bomba	-9880
astır	-9881
▁Kullanıcı	-9882
▁rüy	-9883
▁fazlasıyla	-9884
ıy	-9885
▁Gazetesi	-9886
▁annem	-9887
▁sağlaya	-9888
▁İle	-9889
▁Zey	-9890
ano	-9891
▁Bülent	-9892
▁mıydı	-9893
▁geçirdiği	-9894
nut	-9895
▁konuşmak	-9896
asal	-9897
▁olabilirdi	-9898
▁Kudüs	-9899
▁Ant	-9900
▁giyin	-9901
▁kurşun	-9902
▁laborat	-9903
▁sağlama	-9904
▁titiz	-9905
▁enflasyon	-9906
▁yazılan	-9907
▁çaresiz	-9908
leşmesi	-9909
TK	-9910
▁alakalı	-9911
jpg	-9912
lý	-9913
işli	-9914
ilecektir	-9915
▁yapay	-9916
irse	-9917
▁gelmek	-9918
▁vuruş	-9919
▁19.	-9920
▁gecesi	-9921
▁olmalıydı	-9922
▁Arabistan	-9923
▁Festivali	-9924
San	-9925
▁kaptan	-9926
ikler	-9927
▁ileride	-9928
▁kendimizi	-9929
▁destan	-9930
▁istifa	-9931
▁yolculuğ	-9932
▁sunar	-9933
▁aldat	-9934
alığın	-9935
ish	-9936
çinin	-9937
▁raporu	-9938
▁İstik	-9939
yolu	-9940
▁yerleşim	-9941
▁zann	-9942
▁Savunma	-9943
▁menfaat	-9944
▁amir	-9945
▁ardı	-9946
Ğİ	-9947
▁Cin	-9948
▁Det	-9949
idin	-9950
▁sünnet	-9951
▁protein	-9952
▁pozitif	-9953
▁inşallah	-9954
▁hareketleri	-9955
▁Frank	-9956
▁biriydi	-9957
alarda	-9958
▁koşulları	-9959
miştim	-9960
ımızdan	-9961
▁milyonlarca	-9962
▁geleni	-9963
▁Selçuk	-9964
barat	-9965
tihat	-9966
▁Bud	-9967
▁hususunda	-9968
▁resmen	-9969
▁bilgilerin	-9970
▁5/	-9971
vir	-9972
▁Seçim	-9973
▁firmaları	-9974
▁Japon	-9975
▁görebil	-9976
▁İsmet	-9977
▁hepimiz	-9978
▁Denizli	-9979
▁varoluş	-9980
▁sitemiz	-9981
▁yanaş	-9982
▁oynayan	-9983
▁kurb	-9984
▁Ertesi	-9985
ilerinde	-9986
▁yakında	-9987
▁işlerini	-9988
▁katil	-9989
▁yöntemleri	-9990
hassa	-9991
urfa	-9992
▁Amaç	-9993
▁sec	-9994
▁çekerek	-9995
▁yaşamaya	-9996
▁etmesini	-9997
▁Kayıt	-9998
▁Aleyhisselâ	-9999
▁haberler	-10000
▁fes	-10001
▁duyul	-10002
▁kavramı	-10003
86	-10004
▁Siyah	-10005
▁komün	-10006
▁başlayarak	-10007
▁Ob	-10008
▁yürü	-10009
▁1000	-10010
▁söylenen	-10011
▁mân	-10012
avar	-10013
▁Las	-10014
▁görülüyor	-10015
üldüğü	-10016
▁zan	-10017
▁hu	-10018
▁boşan	-10019
▁aldığım	-10020
▁vadeli	-10021
▁baskın	-10022
pınar	-10023
▁çıkmıştır	-10024
▁Yorum	-10025
maların	-10026
▁gösteri	-10027
▁yakalay	-10028
▁işletim	-10029
atta	-10030
▁yiğit	-10031
opagan	-10032
▁sağlamaktadır	-10033
▁anlatmaya	-10034
▁Arist	-10035
▁baktım	-10036
jan	-10037
yaspor	-10038
-20	-10039
rosoft	-10040
▁geliştirme	-10041
▁ilerlem	-10042
▁bölümünü	-10043
ding	-10044
▁beraberinde	-10045
▁kedi	-10046
▁uygulamalar	-10047
▁akses	-10048
▁semt	-10049
▁vatandaşlar	-10050
▁bizde	-10051
▁teknolojik	-10052
▁Kendisine	-10053
▁ayrıc	-10054
▁zavallı	-10055
▁Hastalık	-10056
▁kurtuluş	-10057
▁buçuk	-10058
▁sade	-10059
▁taahh	-10060
mamıştı	-10061
▁atarak	-10062
▁savaşçı	-10063
▁Star	-10064
▁önündeki	-10065
▁arayış	-10066
espor	-10067
enni	-10068
atlar	-10069
▁Değişik	-10070
▁attığı	-10071
Hiç	-10072
▁kullanıcılar	-10073
▁Başvuru	-10074
▁oğulları	-10075
▁İL	-10076
▁Kaptan	-10077
▁döş	-10078
▁ked	-10079
▁bulunmuş	-10080
89	-10081
▁Tekrar	-10082
▁bırakın	-10083
▁dönüyor	-10084
▁çıkmaz	-10085
▁erkeğin	-10086
▁toplantısı	-10087
▁Liu	-10088
▁üstelik	-10089
luğunun	-10090
▁Yü	-10091
▁geçiren	-10092
▁yükseldi	-10093
▁piyasaya	-10094
▁sektörü	-10095
ebir	-10096
▁Dergisi	-10097
ümüzü	-10098
▁şe	-10099
▁OL	-10100
▁intihar	-10101
▁dilim	-10102
edektif	-10103
igür	-10104
Yeni	-10105
▁Basın	-10106
▁Tir	-10107
▁orijinal	-10108
▁serin	-10109
▁geçin	-10110
obi	-10111
▁12.	-10112
3’	-10113
▁içeriği	-10114
▁tasavv	-10115
uluş	-10116
▁programları	-10117
▁verilmektedir	-10118
▁Türkç	-10119
▁Biri	-10120
▁inci	-10121
▁şen	-10122
▁car	-10123
▁Lab	-10124
._	-10125
Kim	-10126
▁muhalefet	-10127
▁insanlarla	-10128
▁hedefi	-10129
yeri	-10130
_00	-10131
▁yürütülen	-10132
▁kadınları	-10133
▁kullanıyor	-10134
▁Kılıçdaroğlu	-10135
▁Canlı	-10136
▁uyk	-10137
▁Öğ	-10138
Şimdi	-10139
teb	-10140
▁zihinsel	-10141
yurt	-10142
▁karşıt	-10143
▁AY	-10144
▁yazın	-10145
▁kanlı	-10146
79	-10147
▁birdenbire	-10148
▁Normal	-10149
▁önemini	-10150
85	-10151
▁dikkatini	-10152
▁redded	-10153
▁söyle	-10154
▁sindir	-10155
▁merhamet	-10156
▁bildirildi	-10157
▁takdim	-10158
oban	-10159
usundan	-10160
▁ın	-10161
oj	-10162
▁Cor	-10163
▁kurtulmak	-10164
▁başlığı	-10165
mosyon	-10166
▁toplantısında	-10167
▁hor	-10168
▁oto	-10169
SY	-10170
▁esnek	-10171
▁maçta	-10172
▁gittiği	-10173
▁meselesi	-10174
▁engelli	-10175
fan	-10176
▁ortamı	-10177
▁Muhar	-10178
▁vol	-10179
▁benzet	-10180
▁tadını	-10181
layınız	-10182
▁göreve	-10183
ld	-10184
beyaz	-10185
▁Halebî	-10186
▁İhtiy	-10187
ılmalıdır	-10188
▁korunması	-10189
▁edelim	-10190
▁kavray	-10191
▁hukuki	-10192
▁yurtdış	-10193
abi	-10194
▁durumlar	-10195
▁Şem	-10196
▁tarihe	-10197
acağına	-10198
▁birlikt	-10199
▁dehşet	-10200
laki	-10201
▁Rüya	-10202
iliğe	-10203
Gün	-10204
gn	-10205
âli	-10206
layabilirsiniz	-10207
▁çıkarı	-10208
▁felaket	-10209
▁mail	-10210
▁kapının	-10211
▁görüşü	-10212
▁vd	-10213
▁açıklan	-10214
▁etmel	-10215
şk	-10216
▁İçinde	-10217
!!	-10218
▁75	-10219
▁toprağa	-10220
▁çıkmaya	-10221
▁600	-10222
▁ruhu	-10223
▁husu	-10224
▁gelebilir	-10225
▁ilham	-10226
▁tahsis	-10227
▁yuvarlak	-10228
ysse	-10229
▁bulunmayan	-10230
▁sözlerine	-10231
rey	-10232
▁satışı	-10233
iyorsun	-10234
▁güçleri	-10235
▁aşamasında	-10236
▁cadde	-10237
▁gerçekte	-10238
▁bırakarak	-10239
▁Ki	-10240
▁vermedi	-10241
ılacaktır	-10242
ındık	-10243
▁Konut	-10244
mece	-10245
▁Suç	-10246
▁idiler	-10247
▁inanıyorum	-10248
▁Eve	-10249
▁sırf	-10250
▁nüfuz	-10251
▁yaptılar	-10252
.4	-10253
▁kalması	-10254
▁Müzesi	-10255
▁2004	-10256
▁yolla	-10257
▁öğrenme	-10258
▁kardeşim	-10259
▁finansal	-10260
aların	-10261
lenin	-10262
▁Çocuklar	-10263
▁inkâr	-10264
▁TC	-10265
▁rit	-10266
▁kültürü	-10267
▁bırakmak	-10268
tüğ	-10269
▁yu	-10270
▁imar	-10271
▁aittir	-10272
▁donat	-10273
iner	-10274
▁bedeli	-10275
▁olurken	-10276
▁Zeytin	-10277
enize	-10278
stra	-10279
▁sınırsız	-10280
▁Nat	-10281
▁gan	-10282
▁diğerleri	-10283
izasyon	-10284
▁deyince	-10285
▁sarf	-10286
▁tescil	-10287
aladı	-10288
▁burn	-10289
▁evlat	-10290
▁Hedef	-10291
▁Online	-10292
▁özlem	-10293
▁Veli	-10294
▁minik	-10295
▁zorlu	-10296
▁organik	-10297
▁Çoğu	-10298
oni	-10299
▁kaldırıp	-10300
layabilir	-10301
▁sayısız	-10302
umda	-10303
▁Terc	-10304
▁atar	-10305
▁olabileceği	-10306
▁sandaly	-10307
▁Harek	-10308
▁ruhsal	-10309
cilerin	-10310
uzun	-10311
▁Mahm	-10312
▁Valide	-10313
▁tarihten	-10314
▁dikkati	-10315
▁bilinmeyen	-10316
▁başlarında	-10317
▁aldığımız	-10318
▁hissettir	-10319
61	-10320
▁Bi	-10321
lunun	-10322
MS	-10323
▁br	-10324
dere	-10325
▁Vah	-10326
edak	-10327
▁sark	-10328
şer	-10329
▁Çat	-10330
îd	-10331
▁ihlal	-10332
▁Ga	-10333
oza	-10334
ect	-10335
▁temsilcisi	-10336
▁avuç	-10337
▁geçecek	-10338
▁filmin	-10339
lamada	-10340
▁başkent	-10341
▁Mücadele	-10342
layı	-10343
tas	-10344
▁köle	-10345
▁kimseyi	-10346
▁oynanan	-10347
oför	-10348
▁nih	-10349
asan	-10350
▁hakik	-10351
İST	-10352
lıklarını	-10353
▁Trak	-10354
▁olursak	-10355
lenmiştir	-10356
▁küp	-10357
avüz	-10358
▁görüldü	-10359
▁yuv	-10360
▁atmosfer	-10361
▁yönetici	-10362
▁Gay	-10363
raj	-10364
▁işle	-10365
▁içerisine	-10366
▁Dis	-10367
▁tir	-10368
▁AV	-10369
▁üzül	-10370
▁bilgiyi	-10371
brek	-10372
▁Ca	-10373
▁yavaşça	-10374
▁kahk	-10375
▁Samsung	-10376
▁Üniversite	-10377
▁pilot	-10378
▁durur	-10379
▁Digiturk	-10380
▁Kendini	-10381
▁halini	-10382
tuğunu	-10383
Doğ	-10384
▁seksi	-10385
▁kabar	-10386
▁180	-10387
▁Fet	-10388
amıyordu	-10389
▁buluştur	-10390
▁odada	-10391
IT	-10392
▁başkalarının	-10393
▁çıkardığı	-10394
▁Makin	-10395
▁Karş	-10396
▁stratejik	-10397
▁hic	-10398
▁çalışarak	-10399
▁masum	-10400
▁servet	-10401
▁🙂	-10402
▁unutmayın	-10403
EZ	-10404
mişlerdi	-10405
▁hoşlan	-10406
▁direkt	-10407
▁Müst	-10408
▁2005	-10409
▁sağladığı	-10410
▁hizmete	-10411
ğrul	-10412
▁kategorisinde	-10413
▁Müdürlüğ	-10414
▁planda	-10415
▁zırh	-10416
▁konuyla	-10417
▁Sınır	-10418
ames	-10419
▁seninle	-10420
▁dünyası	-10421
▁hek	-10422
dola	-10423
▁kusursuz	-10424
▁turn	-10425
▁seviyede	-10426
▁erkeklerin	-10427
▁olursunuz	-10428
azzam	-10429
▁1980	-10430
▁saltan	-10431
ever	-10432
▁hikmet	-10433
▁fıkr	-10434
▁pak	-10435
▁Üskü	-10436
▁alanlarında	-10437
▁oğlan	-10438
▁ordusunun	-10439
▁edildiğini	-10440
▁rekor	-10441
▁sıkıştır	-10442
▁onda	-10443
▁oturma	-10444
▁keç	-10445
cası	-10446
eyt	-10447
▁geçmesi	-10448
▁yazısı	-10449
▁seçilen	-10450
delik	-10451
▁biçiminde	-10452
▁yakıt	-10453
▁etkisiyle	-10454
▁ekipman	-10455
sîr	-10456
▁verebilir	-10457
▁etkisini	-10458
▁ayırt	-10459
ame	-10460
▁krem	-10461
▁zer	-10462
▁çalışıyoruz	-10463
▁festival	-10464
ifor	-10465
nâ	-10466
siyle	-10467
▁Herhangi	-10468
▁etmeleri	-10469
▁küm	-10470
▁hid	-10471
▁ihtiyaçlarını	-10472
▁atmak	-10473
▁odasında	-10474
▁tanıyor	-10475
▁Halbuki	-10476
bakan	-10477
usa	-10478
▁Gem	-10479
labil	-10480
▁kumandan	-10481
▁Rumeli	-10482
▁PR	-10483
▁tavuk	-10484
▁deyim	-10485
▁Ce	-10486
▁gözle	-10487
▁imalat	-10488
▁@	-10489
▁bulundukları	-10490
ğinizde	-10491
▁Sayf	-10492
▁düzenlendi	-10493
eddüt	-10494
▁Hazar	-10495
▁Marx	-10496
▁dışarıda	-10497
▁vil	-10498
▁Kimi	-10499
▁Meydanı	-10500
▁ışın	-10501
▁Romalı	-10502
ımlar	-10503
▁kandır	-10504
▁üyeler	-10505
▁bizleri	-10506
▁kurtarmak	-10507
▁gelsin	-10508
kul	-10509
▁tümüyle	-10510
stil	-10511
rasi	-10512
lû	-10513
▁Yargı	-10514
▁he	-10515
▁Bür	-10516
▁Zeyn	-10517
dirler	-10518
▁haftalık	-10519
▁yıkama	-10520
▁Odysse	-10521
ert	-10522
▁böcek	-10523
▁Fin	-10524
▁oynadığı	-10525
▁muhtemel	-10526
▁Hoc	-10527
▁durup	-10528
▁Sc	-10529
▁müc	-10530
▁özelliklerini	-10531
▁başladık	-10532
▁fena	-10533
▁dünyasının	-10534
so	-10535
▁yönden	-10536
EP	-10537
▁konuşuyor	-10538
ymış	-10539
▁çare	-10540
▁bürün	-10541
▁Kırmızı	-10542
▁koyup	-10543
▁Tedav	-10544
▁cüz	-10545
▁metaf	-10546
▁şur	-10547
▁Mate	-10548
▁Mektu	-10549
hab	-10550
▁ihale	-10551
▁çekildi	-10552
▁okuyan	-10553
▁etmekten	-10554
▁iyisi	-10555
osunu	-10556
▁acele	-10557
Muh	-10558
▁mesajı	-10559
▁BİL	-10560
▁düşüncesi	-10561
▁sürüm	-10562
▁porno	-10563
▁nadir	-10564
iyanet	-10565
▁kg	-10566
▁Cemal	-10567
▁bekliyoruz	-10568
Ger	-10569
▁yapıt	-10570
▁muz	-10571
▁yapmıştır	-10572
▁biber	-10573
▁lise	-10574
▁çözümü	-10575
zir	-10576
▁ölmüş	-10577
69	-10578
▁kriter	-10579
▁65	-10580
▁dönmüş	-10581
▁yönünden	-10582
▁tetik	-10583
▁yüklü	-10584
ifi	-10585
▁20.	-10586
▁kayg	-10587
▁maddesinin	-10588
▁ü	-10589
rov	-10590
▁bü	-10591
▁dilerim	-10592
xy	-10593
▁geliştirmek	-10594
▁artıyor	-10595
▁Cas	-10596
▁maddenin	-10597
amanın	-10598
▁öğrenildi	-10599
çin	-10600
▁talebi	-10601
▁beb	-10602
üğün	-10603
▁yapıştır	-10604
▁kuşkusuz	-10605
▁inceley	-10606
▁durmadan	-10607
tiğim	-10608
▁iyileş	-10609
▁ısın	-10610
▁hattı	-10611
▁dağıtım	-10612
▁Rasûl	-10613
▁unutma	-10614
zen	-10615
▁Duvar	-10616
odos	-10617
▁değerini	-10618
şak	-10619
▁anlata	-10620
▁itibarıyla	-10621
▁Tör	-10622
▁şeydir	-10623
▁terörist	-10624
▁gençler	-10625
mişlerdir	-10626
▁seçeneği	-10627
bütün	-10628
▁Edebiyat	-10629
’’	-10630
▁kurmuş	-10631
▁hain	-10632
▁derdi	-10633
▁kişiden	-10634
▁yalı	-10635
▁girecek	-10636
▁kapitalist	-10637
ecilik	-10638
▁Zar	-10639
iyy	-10640
▁askerleri	-10641
▁rejim	-10642
▁ulaşan	-10643
▁Fab	-10644
▁günümüze	-10645
▁yollar	-10646
▁3-	-10647
▁pırıl	-10648
▁tesadüf	-10649
▁Sarayı	-10650
▁Berk	-10651
▁unvan	-10652
▁değişimi	-10653
▁paylaşmak	-10654
▁araştırmalar	-10655
▁içindir	-10656
luğuna	-10657
Ön	-10658
▁Air	-10659
',	-10660
▁galiba	-10661
▁cel	-10662
baba	-10663
▁sayısını	-10664
▁Genellikle	-10665
EŞ	-10666
tınız	-10667
▁lik	-10668
▁bürok	-10669
▁cesur	-10670
▁yetki	-10671
âlet	-10672
▁gülümsedi	-10673
▁geleceğini	-10674
portaj	-10675
▁Sn	-10676
▁Üz	-10677
▁bakıp	-10678
▁Ukray	-10679
▁propagan	-10680
▁Kongresi	-10681
▁bkz	-10682
▁Süt	-10683
▁Olan	-10684
▁miyim	-10685
▁Büyükel	-10686
▁talih	-10687
▁vekil	-10688
▁Ayak	-10689
▁delikanlı	-10690
▁Şar	-10691
▁mum	-10692
▁Şekil	-10693
simum	-10694
ırsa	-10695
▁Devrim	-10696
▁Yüzyıl	-10697
▁semin	-10698
▁Hafta	-10699
▁ölçüm	-10700
▁Kafkas	-10701
▁çevirdi	-10702
▁vurdu	-10703
▁sep	-10704
▁kuruş	-10705
▁açıl	-10706
▁Meş	-10707
▁profil	-10708
▁Kâ	-10709
▁etmeniz	-10710
ınıp	-10711
▁vasıtasıyla	-10712
MAN	-10713
▁sarhoş	-10714
▁tarla	-10715
▁dekorasyon	-10716
ald	-10717
▁uğruna	-10718
▁sağladı	-10719
▁Balıkesir	-10720
▁yıp	-10721
▁filan	-10722
▁tanıma	-10723
▁dayanarak	-10724
▁kafasını	-10725
atlı	-10726
▁çif	-10727
▁girerek	-10728
▁nişan	-10729
▁Başk	-10730
▁müraca	-10731
▁misyon	-10732
viş	-10733
▁yıkan	-10734
▁hepsinin	-10735
▁İnsanın	-10736
▁söylemişti	-10737
sadı	-10738
▁lezzetli	-10739
▁Mc	-10740
▁başarıyla	-10741
▁yazmak	-10742
erin	-10743
itab	-10744
inizle	-10745
▁yaşadıkları	-10746
▁140	-10747
dığınızda	-10748
▁Nor	-10749
▁fazlasını	-10750
langıç	-10751
▁kelimesi	-10752
▁Sıcak	-10753
▁Şöyle	-10754
açık	-10755
▁haric	-10756
▁kritik	-10757
▁tün	-10758
▁sir	-10759
▁Geliştir	-10760
▁elçi	-10761
▁istemiyor	-10762
oyun	-10763
▁kızlar	-10764
▁Suudi	-10765
▁ça	-10766
üsünde	-10767
▁yama	-10768
▁devamı	-10769
▁emanet	-10770
▁tavan	-10771
cüsü	-10772
▁başardı	-10773
▁5,	-10774
▁forma	-10775
??	-10776
▁Koş	-10777
▁yüzünde	-10778
leşen	-10779
Daha	-10780
Şu	-10781
emde	-10782
▁sadık	-10783
,»	-10784
[[	-10785
lerse	-10786
▁başarılar	-10787
▁şarj	-10788
▁Yukarıda	-10789
▁diliyorum	-10790
leyic	-10791
▁Tol	-10792
▁reç	-10793
▁buton	-10794
▁getirerek	-10795
▁Geb	-10796
▁ülkemiz	-10797
▁yatan	-10798
lının	-10799
Bunu	-10800
▁kaldım	-10801
▁zamandan	-10802
ius	-10803
üd	-10804
▁kazanmış	-10805
▁dediğimiz	-10806
▁istenilen	-10807
▁dersi	-10808
▁Kızı	-10809
▁Sine	-10810
▁Diyarbek	-10811
▁soyut	-10812
yük	-10813
gazi	-10814
▁gövde	-10815
▁Reklam	-10816
lobal	-10817
▁Akın	-10818
▁padişahın	-10819
iyse	-10820
▁kıymetli	-10821
▁Kuran	-10822
afet	-10823
▁Nok	-10824
▁herşey	-10825
▁Aday	-10826
▁katılımcı	-10827
▁Sof	-10828
emeye	-10829
▁Arda	-10830
▁doğrul	-10831
NA	-10832
ılacağını	-10833
ümin	-10834
▁indi	-10835
▁Neyse	-10836
▁3/3	-10837
▁sponsor	-10838
izme	-10839
que	-10840
▁bedava	-10841
▁eminim	-10842
▁Os	-10843
▁Geor	-10844
▁masaya	-10845
▁tabir	-10846
▁kuralları	-10847
▁yapmaktadır	-10848
utin	-10849
▁dağın	-10850
▁ihraç	-10851
▁yüklen	-10852
▁olacağız	-10853
▁Ir	-10854
baz	-10855
▁tanr	-10856
▁bakımı	-10857
Av	-10858
▁atıldı	-10859
▁ihtiyaçları	-10860
▁odaklı	-10861
▁ambalaj	-10862
▁Bizi	-10863
lısı	-10864
lilere	-10865
▁Sus	-10866
▁saptan	-10867
▁Sip	-10868
▁fiil	-10869
▁kızıl	-10870
▁öğrencisi	-10871
▁kapak	-10872
▁Maliye	-10873
▁Kişisel	-10874
▁dökül	-10875
▁yazmış	-10876
▁Büy	-10877
▁hayvanlar	-10878
▁imkânı	-10879
mine	-10880
▁Eli	-10881
OD	-10882
▁konaklama	-10883
acaktı	-10884
▁Tip	-10885
▁tutuklu	-10886
▁gerektiren	-10887
▁ajans	-10888
▁yaptıklarını	-10889
▁ikamet	-10890
▁yaralandı	-10891
▁gülümsem	-10892
▁tüccar	-10893
64	-10894
}](../	-10895
▁yapıldığını	-10896
tası	-10897
▁düzenlenecek	-10898
▁diyorlar	-10899
▁dönerek	-10900
▁ülkeleri	-10901
cesi	-10902
▁rezervasyon	-10903
▁Sayı	-10904
▁Amas	-10905
▁Bence	-10906
▁gürültü	-10907
edip	-10908
▁sisteme	-10909
▁okş	-10910
▁ülkemizin	-10911
▁lastik	-10912
▁fatur	-10913
yani	-10914
▁ihanet	-10915
▁bank	-10916
▁herş	-10917
▁kavim	-10918
▁vakıf	-10919
ayn	-10920
▁eti	-10921
âmet	-10922
▁ettiklerini	-10923
▁sesli	-10924
ladık	-10925
▁bam	-10926
▁Sadrazam	-10927
▁İST	-10928
▁Plat	-10929
Neden	-10930
▁ihtimali	-10931
▁tutarak	-10932
ersem	-10933
cam	-10934
▁söndür	-10935
▁Havalimanı	-10936
ûd	-10937
tiniz	-10938
▁zaf	-10939
ularak	-10940
▁Kadıköy	-10941
▁mektubu	-10942
▁Ağr	-10943
▁Güncel	-10944
eysel	-10945
▁ipek	-10946
▁oturmuş	-10947
▁çim	-10948
▁sessizce	-10949
▁basamak	-10950
▁kin	-10951
▁şehre	-10952
▁temsilcileri	-10953
2017	-10954
▁protesto	-10955
▁sizlerin	-10956
▁Sup	-10957
▁aşık	-10958
ledikleri	-10959
▁kılav	-10960
cid	-10961
▁gözyaş	-10962
how	-10963
alik	-10964
▁Fre	-10965
▁isabet	-10966
▁Lütfen	-10967
▁Eğ	-10968
▁araçlar	-10969
▁lit	-10970
▁İsveç	-10971
▁ch	-10972
ınızdan	-10973
▁Rıza	-10974
".	-10975
▁koymak	-10976
▁elveriş	-10977
▁rüt	-10978
▁yapılarak	-10979
▁hızı	-10980
▁üste	-10981
▁bilinmektedir	-10982
▁alkış	-10983
▁sih	-10984
▁gelecekte	-10985
▁haliyle	-10986
▁çıkarma	-10987
▁kendinize	-10988
▁kurucusu	-10989
▁okuyucu	-10990
▁değiştirmek	-10991
▁dosy	-10992
▁etkileyen	-10993
▁alımı	-10994
▁Aksi	-10995
üsünün	-10996
▁kurulması	-10997
işimi	-10998
lanmıştı	-10999
▁gördüğüm	-11000
▁İkin	-11001
▁yılların	-11002
▁gerekçesiyle	-11003
▁işçiler	-11004
▁taksit	-11005
▁buğday	-11006
ary	-11007
onspor	-11008
sama	-11009
▁dışarıdan	-11010
gini	-11011
▁Nedir	-11012
IV	-11013
▁kuv	-11014
▁oksi	-11015
▁çıkarken	-11016
eveyn	-11017
▁EL	-11018
▁bölgelerde	-11019
▁tamamladı	-11020
▁nimet	-11021
başka	-11022
sör	-11023
▁Gre	-11024
▁veriyordu	-11025
cular	-11026
▁Bolu	-11027
▁zap	-11028
▁2003	-11029
▁ayrılmış	-11030
▁sergilen	-11031
▁şudur	-11032
masa	-11033
gelen	-11034
▁yapacağız	-11035
ney	-11036
aport	-11037
gilizce	-11038
▁`	-11039
▁tâbi	-11040
▁arı	-11041
▁grubun	-11042
▁umur	-11043
▁Kazak	-11044
▁ailesinin	-11045
iyetine	-11046
İV	-11047
▁Pir	-11048
▁manzara	-11049
İyi	-11050
▁Ste	-11051
mayacaktır	-11052
ibet	-11053
▁ağzından	-11054
▁izah	-11055
üsk	-11056
▁riski	-11057
▁endek	-11058
▁Diyanet	-11059
▁listesi	-11060
’,	-11061
▁örne	-11062
▁vitamin	-11063
▁vitam	-11064
▁duyan	-11065
▁Yaşar	-11066
▁referans	-11067
▁verileri	-11068
▁arttı	-11069
▁idrar	-11070
▁artı	-11071
ürüz	-11072
▁çözül	-11073
▁çen	-11074
iliğini	-11075
▁karg	-11076
▁Turan	-11077
üsüne	-11078
▁kurucu	-11079
▁kapıya	-11080
▁Dayan	-11081
▁Rak	-11082
▁gelişimi	-11083
▁basıl	-11084
eceksin	-11085
▁cevabını	-11086
94	-11087
▁düşünüyordu	-11088
▁Selam	-11089
▁Şanlıurfa	-11090
▁Bulgaristan	-11091
▁giydir	-11092
geler	-11093
yağı	-11094
▁üyelerinin	-11095
▁kılan	-11096
▁öle	-11097
▁stok	-11098
▁kalmıştır	-11099
-15	-11100
92	-11101
▁Yüksel	-11102
▁hormon	-11103
▁kütüphan	-11104
▁işkence	-11105
▁tereddüt	-11106
▁Form	-11107
▁Unut	-11108
iriz	-11109
▁1990	-11110
▁TÜRK	-11111
▁çöl	-11112
▁âşık	-11113
▁namazı	-11114
▁içki	-11115
▁sıklıkla	-11116
nen	-11117
▁erdem	-11118
▁13.	-11119
▁deneyimi	-11120
▁asır	-11121
Ev	-11122
▁sorumluluğ	-11123
▁çub	-11124
▁toplumu	-11125
▁boylu	-11126
▁çıkaran	-11127
▁rahip	-11128
▁mesleki	-11129
▁Süf	-11130
▁Dönüş	-11131
▁askerler	-11132
ayolu	-11133
▁huy	-11134
▁serp	-11135
▁53	-11136
▁gezin	-11137
▁kuran	-11138
▁olmaksızın	-11139
▁hüzün	-11140
▁İN	-11141
▁kararını	-11142
▁görüldüğü	-11143
▁kef	-11144
▁Ceh	-11145
▁teşebbüs	-11146
▁dolarlık	-11147
ÜK	-11148
▁dükkan	-11149
▁çanta	-11150
LIK	-11151
▁tarihin	-11152
▁Yılı	-11153
▁Tuz	-11154
▁bekliyorum	-11155
▁sola	-11156
▁süresince	-11157
▁Paul	-11158
îler	-11159
▁Pe	-11160
▁lüt	-11161
▁Hâr	-11162
▁görebilirsiniz	-11163
▁Acil	-11164
▁verdiğimiz	-11165
▁İçeri	-11166
▁lanet	-11167
rid	-11168
ulmuştu	-11169
larınızda	-11170
▁öncü	-11171
▁Öztürk	-11172
▁Gur	-11173
▁geçerlidir	-11174
ellef	-11175
▁bahçe	-11176
tezi	-11177
▁çekiş	-11178
▁başlandı	-11179
▁seçkin	-11180
▁Müt	-11181
▁durumdan	-11182
▁yağlı	-11183
▁Wu	-11184
▁toplantıda	-11185
▁Tuna	-11186
İşte	-11187
cağından	-11188
▁zeki	-11189
▁Günde	-11190
▁tanınan	-11191
ÜZ	-11192
▁ا	-11193
▁nın	-11194
▁Kök	-11195
▁Şeker	-11196
▁kullanılma	-11197
otosiklet	-11198
▁olmadığına	-11199
ölüm	-11200
ml	-11201
▁konulu	-11202
▁Fizik	-11203
memektedir	-11204
▁EN	-11205
masi	-11206
▁Ödül	-11207
71	-11208
▁müttefik	-11209
iliyordu	-11210
▁derinlik	-11211
▁Vad	-11212
▁kaplama	-11213
unup	-11214
▁Aks	-11215
▁Ekonomik	-11216
▁kalıntı	-11217
▁belirtmek	-11218
birliği	-11219
▁hükümetin	-11220
▁buradaki	-11221
ordu	-11222
▁Salonu	-11223
▁Play	-11224
▁forum	-11225
▁ortamında	-11226
▁muhtaç	-11227
ydım	-11228
▁hangisi	-11229
ünüzü	-11230
▁çeyrek	-11231
▁Sevgili	-11232
▁bekler	-11233
▁şirketleri	-11234
▁posta	-11235
▁muazzam	-11236
▁göçmen	-11237
▁Henüz	-11238
▁len	-11239
▁farkınd	-11240
▁rady	-11241
▁önünden	-11242
▁Düşman	-11243
▁Microsoft	-11244
▁koltuğ	-11245
▁2002	-11246
▁ülkeyi	-11247
▁hastanın	-11248
▁Tatar	-11249
▁Tamam	-11250
▁sunmak	-11251
▁onlarca	-11252
▁Millî	-11253
▁bardağı	-11254
▁vaziyet	-11255
olata	-11256
▁kızgın	-11257
kırım	-11258
▁yaşına	-11259
▁geçmişte	-11260
▁Muğla	-11261
▁Ekonomi	-11262
lip	-11263
▁dedektif	-11264
▁birbirleriyle	-11265
asıdır	-11266
▁isminin	-11267
▁skor	-11268
melisiniz	-11269
-30	-11270
▁Şüph	-11271
▁çektiği	-11272
▁gümrük	-11273
▁Çetin	-11274
▁acımasız	-11275
umuzda	-11276
tının	-11277
▁doğuş	-11278
ülüğü	-11279
▁yapıyorum	-11280
▁Kişi	-11281
▁örnekleri	-11282
▁kolu	-11283
▁verirken	-11284
▁komik	-11285
▁İlçesi	-11286
▁Kadir	-11287
Dr	-11288
▁hakem	-11289
ucak	-11290
▁Mali	-11291
▁anlaşılır	-11292
▁Bakım	-11293
▁şeklindeki	-11294
▁sevdiğim	-11295
▁götürdü	-11296
▁manzar	-11297
▁fatura	-11298
rand	-11299
▁dönüm	-11300
.[[	-11301
asebe	-11302
itör	-11303
▁Kahv	-11304
▁kişileri	-11305
▁değerler	-11306
▁edilmelidir	-11307
The	-11308
▁tecavüz	-11309
▁çoğunluğu	-11310
▁donanım	-11311
▁Öde	-11312
eğiyle	-11313
▁Otur	-11314
▁duman	-11315
ÖK	-11316
▁almadan	-11317
afak	-11318
navut	-11319
▁uzakta	-11320
▁dövüş	-11321
▁ayının	-11322
▁bilginin	-11323
▁vesile	-11324
▁ötek	-11325
▁Kartal	-11326
▁Cat	-11327
minin	-11328
mazdı	-11329
▁kararlar	-11330
▁çocuğa	-11331
63	-11332
▁Gelin	-11333
▁değiliz	-11334
▁52	-11335
▁hırsız	-11336
▁yönlü	-11337
▁gençlik	-11338
LİK	-11339
▁desen	-11340
luktan	-11341
▁Milletler	-11342
▁İçişleri	-11343
tun	-11344
▁açıklamaya	-11345
▁aşı	-11346
▁AS	-11347
▁problemi	-11348
▁Antik	-11349
▁çamaşır	-11350
▁bulduğu	-11351
▁sürdürdü	-11352
▁katılmak	-11353
▁nehir	-11354
▁dönemine	-11355
▁evrim	-11356
▁Sürekli	-11357
latı	-11358
▁Anna	-11359
▁ekme	-11360
alamak	-11361
▁Afyon	-11362
ulduğu	-11363
▁tırnak	-11364
▁anlatılan	-11365
▁resimleri	-11366
dükleri	-11367
▁toplama	-11368
âtı	-11369
▁toplumda	-11370
▁ederse	-11371
Tek	-11372
▁21.	-11373
▁hamur	-11374
▁okut	-11375
Gel	-11376
▁partiler	-11377
▁Mag	-11378
iyana	-11379
malarına	-11380
▁çıktığını	-11381
▁neye	-11382
ömer	-11383
▁nar	-11384
▁tazminat	-11385
▁ayrılma	-11386
HA	-11387
▁hissi	-11388
ünür	-11389
▁yaptığınız	-11390
▁ucu	-11391
▁Abdul	-11392
▁aksi	-11393
▁Mahmud	-11394
▁üreten	-11395
▁altyapı	-11396
andum	-11397
▁Forum	-11398
▁Tap	-11399
▁atama	-11400
▁sessizlik	-11401
▁Trans	-11402
ranı	-11403
▁Hel	-11404
▁limon	-11405
▁paz	-11406
▁akan	-11407
▁içecek	-11408
▁yaratık	-11409
▁ettikten	-11410
ilmesinin	-11411
73	-11412
▁Mars	-11413
▁cumhurbaş	-11414
▁Dünyada	-11415
bab	-11416
▁kararlaştır	-11417
▁kadınlara	-11418
▁versin	-11419
▁Ayşe	-11420
▁Troya	-11421
▁keşfed	-11422
▁fedak	-11423
▁harp	-11424
▁kurumlar	-11425
▁aziz	-11426
▁şeylere	-11427
rev	-11428
▁bereket	-11429
▁kömür	-11430
▁Nakliyat	-11431
▁bilmem	-11432
▁krizi	-11433
▁ulu	-11434
İYE	-11435
▁kelimeler	-11436
ıltı	-11437
▁sorar	-11438
tive	-11439
▁sorunsuz	-11440
▁katlı	-11441
▁projenin	-11442
▁cenaze	-11443
▁işareti	-11444
▁oluşturulan	-11445
▁başkası	-11446
▁Evde	-11447
▁adlandırılan	-11448
▁sevimli	-11449
▁sözde	-11450
▁Hürriyet	-11451
▁klima	-11452
sten	-11453
▁nerde	-11454
GB	-11455
▁macer	-11456
▁otop	-11457
▁‘’	-11458
▁Cilt	-11459
▁elç	-11460
▁oysa	-11461
▁Kalkınma	-11462
▁endişe	-11463
93	-11464
▁gezdir	-11465
▁vermeyi	-11466
▁Böylelikle	-11467
▁pişman	-11468
▁büyüsü	-11469
DV	-11470
▁kaynaklı	-11471
▁yang	-11472
▁hom	-11473
62	-11474
▁Mutfak	-11475
▁açılması	-11476
▁Ayr	-11477
stri	-11478
ATO	-11479
▁hesaba	-11480
unum	-11481
ümün	-11482
▁hareketli	-11483
yaman	-11484
PG	-11485
▁mesafe	-11486
▁İlaç	-11487
▁belgeler	-11488
▁mektub	-11489
SA	-11490
▁akar	-11491
▁tik	-11492
▁Si	-11493
▁Cennet	-11494
▁Yalnızca	-11495
uro	-11496
▁basınç	-11497
▁yaşta	-11498
çının	-11499
▁Şak	-11500
▁Kanal	-11501
▁işley	-11502
▁keşif	-11503
▁edilmişti	-11504
▁ilke	-11505
▁oynan	-11506
▁ağrısı	-11507
▁kısmının	-11508
▁muhalif	-11509
▁üretici	-11510
▁işg	-11511
▁mutluluğ	-11512
▁sürdürüyor	-11513
▁tecrübe	-11514
casına	-11515
▁eserleri	-11516
▁çet	-11517
▁tüp	-11518
▁oğlunun	-11519
▁fot	-11520
▁etmeyen	-11521
▁Dalı	-11522
▁yorumlar	-11523
▁vaat	-11524
▁ihsan	-11525
▁çalıştım	-11526
▁KK	-11527
▁oynat	-11528
▁hazırladığı	-11529
▁ağzına	-11530
operatif	-11531
deler	-11532
▁Hani	-11533
▁söylenebilir	-11534
▁sahipliği	-11535
▁kendilerinin	-11536
▁görüntül	-11537
hy	-11538
eğinde	-11539
anik	-11540
row	-11541
seler	-11542
▁Vatandaş	-11543
▁Sağlığı	-11544
▁Sektör	-11545
▁put	-11546
ayıcı	-11547
▁kadros	-11548
▁peşinden	-11549
▁taahhüt	-11550
lüğünde	-11551
▁Bed	-11552
▁süp	-11553
mıza	-11554
▁Arif	-11555
Gör	-11556
▁ederdi	-11557
▁zulüm	-11558
▁geçmişti	-11559
▁Mühendisliği	-11560
▁prensip	-11561
▁birbirlerini	-11562
▁Ep	-11563
▁teknolojisi	-11564
ned	-11565
▁randevu	-11566
▁çözümler	-11567
▁edeceğini	-11568
72	-11569
▁gündür	-11570
lamıştır	-11571
▁bırakır	-11572
▁inandır	-11573
:0	-11574
▁Tasar	-11575
▁etnik	-11576
▁Devletleri	-11577
▁Teâlâ	-11578
▁dönmek	-11579
▁hamil	-11580
▁Şef	-11581
▁Soğuk	-11582
▁güneşin	-11583
▁Öğren	-11584
insan	-11585
barek	-11586
▁Etr	-11587
cell	-11588
ülis	-11589
▁Hızlı	-11590
açlı	-11591
▁arazi	-11592
▁koyduğu	-11593
lendiğini	-11594
▁sorunların	-11595
▁Körfez	-11596
▁ölümünden	-11597
▁getirilmesi	-11598
elikop	-11599
▁Çor	-11600
83	-11601
epyeni	-11602
au	-11603
▁uzmanı	-11604
▁masanın	-11605
duğuna	-11606
▁Ziraat	-11607
▁ila	-11608
▁boşa	-11609
▁atıp	-11610
▁Çocuğ	-11611
▁haklarını	-11612
▁Bayrak	-11613
▁sözlü	-11614
▁böylesine	-11615
▁Jack	-11616
▁malı	-11617
▁işletmeler	-11618
▁niş	-11619
lediğini	-11620
▁iht	-11621
▁Mahk	-11622
▁şiirleri	-11623
omen	-11624
lemektedir	-11625
▁hastaneye	-11626
▁kombin	-11627
▁çekilen	-11628
▁Tanrının	-11629
▁kitle	-11630
▁müsab	-11631
▁sizde	-11632
amızı	-11633
▁Buradan	-11634
lükte	-11635
ech	-11636
▁oruç	-11637
▁tv	-11638
▁oturt	-11639
▁Medya	-11640
iyorsa	-11641
bası	-11642
▁aşamada	-11643
▁umu	-11644
▁Rasûlallah	-11645
▁iğr	-11646
▁deplasman	-11647
▁domat	-11648
▁açılmış	-11649
▁soylu	-11650
TM	-11651
eğince	-11652
▁Acı	-11653
▁gelmeye	-11654
▁Trabzonspor	-11655
▁vahşi	-11656
▁dahilinde	-11657
▁haram	-11658
▁oyuna	-11659
▁zarf	-11660
▁başlamak	-11661
▁ışığında	-11662
eza	-11663
biz	-11664
▁anket	-11665
ilde	-11666
▁Angel	-11667
▁kalkan	-11668
http	-11669
▁Ülkemizde	-11670
▁tarafın	-11671
▁olanlara	-11672
▁Dor	-11673
metik	-11674
▁projeleri	-11675
▁Doğr	-11676
▁görüle	-11677
avan	-11678
▁olduktan	-11679
▁devre	-11680
▁duydum	-11681
▁cenaz	-11682
▁sağa	-11683
▁kısmına	-11684
ebileceğiniz	-11685
▁defalarca	-11686
▁Şük	-11687
▁Num	-11688
▁dostum	-11689
▁medyada	-11690
ekom	-11691
▁yapmıştı	-11692
▁Hikmet	-11693
▁sorgulama	-11694
lüğün	-11695
ilemez	-11696
▁Nil	-11697
▁gereğince	-11698
▁şüpheli	-11699
▁yukarıdaki	-11700
linin	-11701
▁aklım	-11702
▁omz	-11703
▁alına	-11704
▁Gönül	-11705
▁noktasına	-11706
etle	-11707
kut	-11708
▁Asıl	-11709
ason	-11710
.1,	-11711
▁ellerinde	-11712
▁Askeri	-11713
▁soruyu	-11714
▁yardımcısı	-11715
▁Süfyan	-11716
söz	-11717
▁Kırk	-11718
ild	-11719
▁Adnan	-11720
▁Ukrayna	-11721
▁anlamaya	-11722
▁Hoş	-11723
▁buluyor	-11724
▁işleme	-11725
▁Personel	-11726
▁Yönetmelik	-11727
▁galip	-11728
▁koyan	-11729
▁Polit	-11730
▁hafız	-11731
81	-11732
▁kuruldu	-11733
cım	-11734
▁Sendik	-11735
latma	-11736
▁https	-11737
▁şiddetle	-11738
▁cezaev	-11739
.11.	-11740
▁yetmez	-11741
▁Gi	-11742
▁ağırlıklı	-11743
rahman	-11744
afe	-11745
▁kuşak	-11746
▁anlamsız	-11747
▁kenarında	-11748
ekler	-11749
▁Koz	-11750
▁karşılamak	-11751
nes	-11752
Beni	-11753
▁bilgilerini	-11754
▁gruplar	-11755
ARA	-11756
▁asans	-11757
▁mücadelesi	-11758
▁vatandaşların	-11759
▁zat	-11760
▁hastane	-11761
osun	-11762
▁zahmet	-11763
▁pantolon	-11764
ANB	-11765
▁zorlan	-11766
▁şaşırtıcı	-11767
▁Koruma	-11768
▁kitapta	-11769
▁nükleer	-11770
▁ex	-11771
landırma	-11772
▁cinsiyet	-11773
▁yiye	-11774
▁sonuca	-11775
▁TRT	-11776
▁fırtına	-11777
ady	-11778
▁oturuyor	-11779
▁duyurdu	-11780
amıza	-11781
▁vurgulayan	-11782
:30	-11783
▁Amir	-11784
▁erdi	-11785
▁asgari	-11786
laşım	-11787
▁duş	-11788
▁hayv	-11789
▁hoşnut	-11790
▁Çam	-11791
▁Mr	-11792
▁kalbi	-11793
▁açıklandı	-11794
▁aleyhine	-11795
▁elleri	-11796
yth	-11797
kö	-11798
dut	-11799
▁yapıyordu	-11800
ilme	-11801
▁firmaların	-11802
▁Nap	-11803
▁güler	-11804
▁gücünün	-11805
▁Haberler	-11806
▁topluma	-11807
▁Nin	-11808
▁taşıy	-11809
▁Sohbet	-11810
▁bütünüyle	-11811
salar	-11812
▁Yeniden	-11813
abilme	-11814
▁sandık	-11815
dara	-11816
alya	-11817
▁oynama	-11818
stır	-11819
▁kullanıldığı	-11820
▁Apol	-11821
▁Acaba	-11822
▁konunun	-11823
▁buhar	-11824
▁anladım	-11825
▁Malko	-11826
▁insanlardan	-11827
▁Kuruluş	-11828
▁alınmıştır	-11829
ûs	-11830
▁maddeleri	-11831
▁çiç	-11832
▁Kum	-11833
▁yaratmak	-11834
Senin	-11835
yah	-11836
▁Zafer	-11837
ladığını	-11838
▁çalışmaların	-11839
▁sektörünün	-11840
▁testi	-11841
▁Yunus	-11842
▁olg	-11843
hale	-11844
▁ayna	-11845
hisar	-11846
▁insani	-11847
▁Birlik	-11848
▁Birinc	-11849
▁Takımı	-11850
▁Zih	-11851
▁deneme	-11852
obb	-11853
▁gecenin	-11854
▁Fırat	-11855
▁imkansız	-11856
▁beton	-11857
▁olmanız	-11858
▁müzaker	-11859
Yâ	-11860
▁bağlamda	-11861
▁eksiksiz	-11862
▁Bırak	-11863
▁gazeteci	-11864
▁bölgedeki	-11865
GK	-11866
lanmak	-11867
▁açıklamalarda	-11868
▁mantıklı	-11869
▁zamanlı	-11870
▁Milliyet	-11871
▁sahibinin	-11872
▁nefis	-11873
▁yavrum	-11874
larıma	-11875
▁İÇ	-11876
▁sevilen	-11877
▁Sib	-11878
▁muvaf	-11879
▁Mardin	-11880
anızı	-11881
▁gelmedi	-11882
▁veriyoruz	-11883
▁daim	-11884
▁annesinin	-11885
ıklık	-11886
ily	-11887
▁tadı	-11888
▁konse	-11889
▁Bla	-11890
▁borc	-11891
▁yıllarca	-11892
▁Kast	-11893
▁Geniş	-11894
▁çalışıyorum	-11895
▁gördüğümüz	-11896
▁şimdilik	-11897
▁Gol	-11898
▁köşe	-11899
▁Göç	-11900
kam	-11901
sand	-11902
▁Dub	-11903
▁davası	-11904
▁Koordin	-11905
▁istemedi	-11906
▁EK	-11907
▁Dak	-11908
▁devlete	-11909
▁sadrazam	-11910
▁Araba	-11911
▁uygulanması	-11912
▁etmenin	-11913
▁okudum	-11914
▁yapabilecek	-11915
▁bıraktığı	-11916
▁>>	-11917
▁dışarıya	-11918
▁açıktır	-11919
▁politikası	-11920
tra	-11921
yem	-11922
▁Dah	-11923
▁yapılmasını	-11924
▁saatlik	-11925
▁bag	-11926
ruğ	-11927
▁Devr	-11928
▁hastalıkları	-11929
hos	-11930
▁kapısını	-11931
▁sayfada	-11932
▁Bakanlar	-11933
ellikle	-11934
▁duvara	-11935
uel	-11936
▁soya	-11937
LA	-11938
▁gerektirir	-11939
▁intikam	-11940
▁abon	-11941
ışıklık	-11942
▁Komutanlığı	-11943
omotiv	-11944
▁bulaş	-11945
▁müf	-11946
▁tıbbi	-11947
▁sanık	-11948
▁inf	-11949
▁plaj	-11950
lamıyor	-11951
▁Kars	-11952
düş	-11953
▁boyutu	-11954
▁mol	-11955
▁Win	-11956
▁Davut	-11957
▁Ola	-11958
Res	-11959
▁koyar	-11960
▁insanlığın	-11961
▁kavra	-11962
▁değişti	-11963
ındak	-11964
oid	-11965
lıca	-11966
ox	-11967
▁kime	-11968
▁aracılığı	-11969
▁tıklayın	-11970
91	-11971
▁bayanlar	-11972
▁fırın	-11973
▁firmanın	-11974
▁yaşandı	-11975
()	-11976
▁tesir	-11977
▁Siyenp	-11978
▁figür	-11979
▁gelişmeleri	-11980
▁dinle	-11981
▁Pop	-11982
▁akrab	-11983
▁Mol	-11984
▁nakliye	-11985
dia	-11986
OG	-11987
index	-11988
▁Şehzade	-11989
low	-11990
▁ayağı	-11991
▁Oru	-11992
endim	-11993
teydi	-11994
gıcı	-11995
▁merkezli	-11996
▁saygın	-11997
astik	-11998
▁ilişkili	-11999
etti	-12000
▁ordunun	-12001
EH	-12002
bih	-12003
▁veriyorum	-12004
▁yakışık	-12005
▁Müşteri	-12006
▁sebze	-12007
je	-12008
▁Flor	-12009
lazığ	-12010
omer	-12011
arın	-12012
▁görevleri	-12013
▁Bilimleri	-12014
▁soruyor	-12015
▁idrak	-12016
▁imaj	-12017
▁diyebiliriz	-12018
yl	-12019
▁15.	-12020
▁Matematik	-12021
▁Bilimler	-12022
▁Nu	-12023
abe	-12024
▁alık	-12025
▁ayrılır	-12026
▁ölümsüz	-12027
sede	-12028
▁IŞ	-12029
▁nur	-12030
▁muht	-12031
▁Otobüs	-12032
▁onarım	-12033
▁Üsküdar	-12034
▁belirtir	-12035
▁saldırgan	-12036
ule	-12037
sch	-12038
▁takımın	-12039
▁telaf	-12040
▁röportaj	-12041
▁fiyatlar	-12042
▁öfke	-12043
▁çıkarılan	-12044
▁fin	-12045
▁Viyana	-12046
▁ahlaki	-12047
▁çamur	-12048
stein	-12049
74	-12050
▁kurulum	-12051
▁best	-12052
▁Bilm	-12053
▁bilgisay	-12054
▁bulgu	-12055
ýþ	-12056
▁gidiyordu	-12057
▁Cal	-12058
▁trend	-12059
▁Üretim	-12060
▁aldıktan	-12061
▁coşk	-12062
▁yumurt	-12063
▁varken	-12064
▁kentin	-12065
▁kaydeden	-12066
▁Sigorta	-12067
▁yapalım	-12068
▁konusudur	-12069
▁David	-12070
▁imiş	-12071
▁yazdır	-12072
▁patron	-12073
▁sürdüren	-12074
amızın	-12075
▁hiz	-12076
▁Bkz	-12077
UZ	-12078
▁çıkmaktadır	-12079
▁bası	-12080
▁Anlaş	-12081
gide	-12082
▁onar	-12083
▁Gid	-12084
▁Örgütü	-12085
liliğini	-12086
▁Brez	-12087
▁akşamı	-12088
▁(...)	-12089
▁hazret	-12090
▁uygulanır	-12091
▁bölgeler	-12092
▁performansı	-12093
▁görülebilir	-12094
▁bilinir	-12095
▁edilmesini	-12096
▁sunucu	-12097
▁Buraya	-12098
▁alışkanlık	-12099
▁nitelendir	-12100
▁doz	-12101
▁duyguları	-12102
▁Kamp	-12103
▁alman	-12104
▁disk	-12105
▁aslan	-12106
ilet	-12107
▁Sizi	-12108
edirgin	-12109
TV	-12110
▁Bakanlık	-12111
beyi	-12112
▁moral	-12113
▁gri	-12114
▁Aleyhisselâma	-12115
lerimizden	-12116
SD	-12117
▁düşünün	-12118
ID	-12119
▁parası	-12120
▁yoldaş	-12121
▁keyfini	-12122
▁feda	-12123
▁Afgan	-12124
▁İşletme	-12125
▁konularında	-12126
▁öğrenim	-12127
▁yollarını	-12128
▁ıslak	-12129
▁Bl	-12130
▁hususta	-12131
ANBUL	-12132
▁şeylerden	-12133
▁sürecinin	-12134
▁ateşli	-12135
▁pasta	-12136
iğe	-12137
▁ceket	-12138
▁sunuyoruz	-12139
▁tutuyor	-12140
▁günümüz	-12141
hret	-12142
yetik	-12143
▁Hic	-12144
▁malzemeler	-12145
▁Biy	-12146
▁başlarına	-12147
▁kızım	-12148
▁Uygun	-12149
abilirim	-12150
▁saçları	-12151
▁Anal	-12152
▁taklit	-12153
▁Bö	-12154
▁Şubesi	-12155
akende	-12156
leridir	-12157
▁casino	-12158
▁arız	-12159
▁temeli	-12160
▁Trakya	-12161
▁örgü	-12162
▁atmış	-12163
ila	-12164
Hal	-12165
▁Video	-12166
meliyiz	-12167
▁şirketler	-12168
▁Hü	-12169
▁oranla	-12170
▁nazik	-12171
imizdeki	-12172
▁dişi	-12173
▁alındığı	-12174
▁Sanırım	-12175
▁İşin	-12176
▁başlayıp	-12177
▁atın	-12178
▁Adet	-12179
▁nasip	-12180
kinden	-12181
▁Pitt	-12182
▁seslen	-12183
over	-12184
▁Anlat	-12185
aydın	-12186
ömert	-12187
amadığı	-12188
▁Efendimiz	-12189
▁söylüyorum	-12190
▁düşüyor	-12191
feri	-12192
▁yurttaş	-12193
atik	-12194
▁BAŞ	-12195
▁Onur	-12196
▁evli	-12197
▁17.	-12198
▁niteliği	-12199
sağ	-12200
ristiyan	-12201
meme	-12202
izzt	-12203
▁gelmiyor	-12204
▁kaçan	-12205
▁hediyeler	-12206
lerimizde	-12207
işini	-12208
▁Marka	-12209
▁okudu	-12210
Büyük	-12211
▁yapacağını	-12212
▁Bec	-12213
▁ayın	-12214
▁heves	-12215
▁Key	-12216
▁gemisi	-12217
▁Gala	-12218
▁dinî	-12219
▁belgeleri	-12220
END	-12221
▁2001	-12222
▁getirip	-12223
▁promosyon	-12224
▁16.	-12225
▁Kralı	-12226
▁senaryo	-12227
▁Burak	-12228
▁göstergesi	-12229
▁samim	-12230
▁toplamda	-12231
▁günlerinde	-12232
▁atöly	-12233
▁azın	-12234
▁özdeş	-12235
▁gazetesi	-12236
siklop	-12237
▁Mavi	-12238
▁Oyunu	-12239
▁peynir	-12240
▁vize	-12241
▁duydu	-12242
▁SP	-12243
▁Hakları	-12244
▁Yerel	-12245
emediği	-12246
▁kılın	-12247
▁sıralan	-12248
▁Cinsel	-12249
▁paramet	-12250
▁Macaristan	-12251
▁esin	-12252
▁Hadi	-12253
▁giriyor	-12254
▁Lib	-12255
celi	-12256
▁müracaat	-12257
▁rev	-12258
▁muhat	-12259
kik	-12260
▁Önceki	-12261
?..	-12262
▁gelmesini	-12263
▁go	-12264
▁aşkı	-12265
▁parçalar	-12266
▁Resul	-12267
▁XX	-12268
beral	-12269
▁maksimum	-12270
▁balkon	-12271
izam	-12272
▁vitamini	-12273
ırız	-12274
▁yöneticileri	-12275
▁Ağrı	-12276
▁18.	-12277
▁Kurban	-12278
▁hi	-12279
▁öldürüldü	-12280
▁tamamını	-12281
▁üstlen	-12282
▁pren	-12283
▁Gelir	-12284
▁güldü	-12285
▁1970	-12286
▁kapıdan	-12287
▁Kimse	-12288
▁kurut	-12289
▁gitmişti	-12290
ıc	-12291
▁oluşmaktadır	-12292
▁miz	-12293
▁VI	-12294
▁Arnavut	-12295
▁Başsav	-12296
telek	-12297
bik	-12298
sika	-12299
▁askerlik	-12300
▁bütçe	-12301
uver	-12302
▁kışkır	-12303
▁toptan	-12304
▁ili	-12305
▁Detay	-12306
▁tavırla	-12307
▁artması	-12308
▁Vergi	-12309
▁Anti	-12310
▁konuştuk	-12311
▁edilecektir	-12312
kif	-12313
acılık	-12314
▁karı	-12315
mazlık	-12316
▁KUR	-12317
▁Bayezid	-12318
coin	-12319
▁130	-12320
▁Yarı	-12321
leks	-12322
▁oluşu	-12323
tığına	-12324
▁uğramış	-12325
▁ihtiyacınız	-12326
▁isterse	-12327
▁Barbar	-12328
▁telgraf	-12329
▁saldırıya	-12330
▁(%	-12331
LAM	-12332
▁huzuruna	-12333
▁Instagram	-12334
latan	-12335
load	-12336
▁yükleme	-12337
rupa	-12338
▁yönü	-12339
Pro	-12340
▁kapsamda	-12341
lir	-12342
▁ayrıcalık	-12343
▁algılan	-12344
ût	-12345
▁Amasya	-12346
madılar	-12347
gız	-12348
▁Mih	-12349
▁dolandır	-12350
▁zordur	-12351
▁Hakkı	-12352
ılmasının	-12353
▁getirecek	-12354
▁yapıya	-12355
tisiz	-12356
▁vaj	-12357
▁hayvanların	-12358
ational	-12359
▁İttihat	-12360
▁Il	-12361
âc	-12362
sık	-12363
▁sül	-12364
▁okumaya	-12365
▁mekanik	-12366
üşü	-12367
▁Enver	-12368
▁İster	-12369
larımla	-12370
▁dor	-12371
esun	-12372
verengi	-12373
▁fas	-12374
▁Alev	-12375
▁mur	-12376
▁Ücretsiz	-12377
▁köyü	-12378
▁temizliği	-12379
▁sayfasında	-12380
▁yüze	-12381
▁düştüğü	-12382
▁Müşter	-12383
Ek	-12384
▁doğruya	-12385
▁astr	-12386
dest	-12387
▁bağlantısından	-12388
epe	-12389
-18	-12390
▁kitabında	-12391
▁taşıdığı	-12392
lığımız	-12393
▁ürünlerini	-12394
▁gebelik	-12395
▁duyu	-12396
▁Hatay	-12397
▁yapmadan	-12398
▁uzattı	-12399
▁aman	-12400
▁gücüne	-12401
IF	-12402
▁mısınız	-12403
▁olmadığından	-12404
▁çeşitleri	-12405
▁düştüğ	-12406
alaş	-12407
DP	-12408
ayarak	-12409
▁kub	-12410
leyebilirsiniz	-12411
▁Başak	-12412
▁telaş	-12413
▁Teknoloj	-12414
▁güzer	-12415
ahya	-12416
arda	-12417
▁sıkça	-12418
▁otorit	-12419
▁salonu	-12420
▁Televizyon	-12421
▁Tablo	-12422
▁ağı	-12423
▁Fon	-12424
İC	-12425
▁tarihlerinde	-12426
▁noktaları	-12427
▁Dam	-12428
▁Vakıf	-12429
▁içerisindeki	-12430
▁eserler	-12431
▁edeceği	-12432
▁partinin	-12433
▁gerçeklik	-12434
arlı	-12435
▁Max	-12436
▁kâfir	-12437
▁Şiir	-12438
▁bekliyordu	-12439
▁Avustral	-12440
TT	-12441
▁oluşuyor	-12442
▁oranları	-12443
▁sınırı	-12444
▁personeli	-12445
▁heyecanlı	-12446
▁kapsayan	-12447
▁kablo	-12448
▁terim	-12449
▁Diyarbekrî	-12450
Yap	-12451
▁ümmet	-12452
▁değişir	-12453
▁karşısındaki	-12454
▁Teşekkür	-12455
sınlar	-12456
▁faydası	-12457
▁izleyic	-12458
▁gerçekleştirdi	-12459
▁edeceğim	-12460
izy	-12461
edia	-12462
kileri	-12463
dırlar	-12464
▁satan	-12465
▁lüz	-12466
eçh	-12467
▁açarak	-12468
▁doğmuş	-12469
▁büyüyen	-12470
▁aksesuar	-12471
▁Jean	-12472
▁Buz	-12473
▁bilmedi	-12474
▁Yık	-12475
▁Yunanlı	-12476
▁Evi	-12477
▁Uzmanı	-12478
▁kont	-12479
▁Felsef	-12480
▁odanın	-12481
▁tüketici	-12482
cesine	-12483
▁ilişkilerin	-12484
▁turist	-12485
▁sürecek	-12486
▁format	-12487
▁Sir	-12488
▁dolap	-12489
▁Bildir	-12490
▁Kategor	-12491
▁millî	-12492
▁bildiğimiz	-12493
▁List	-12494
▁sağlayacaktır	-12495
icil	-12496
▁vat	-12497
▁gittiler	-12498
▁Rektör	-12499
tular	-12500
ford	-12501
▁Malzem	-12502
▁seyred	-12503
▁Tatil	-12504
▁düşkün	-12505
▁Kül	-12506
HAL	-12507
▁Kurtuluş	-12508
▁açılır	-12509
▁direnç	-12510
▁54	-12511
▁ilanları	-12512
▁Ces	-12513
▁çektir	-12514
▁Lu	-12515
▁biten	-12516
rig	-12517
▁ÜN	-12518
▁neyi	-12519
▁51	-12520
şik	-12521
dalı	-12522
aym	-12523
▁Drizzt	-12524
▁müziği	-12525
▁09	-12526
▁Devletin	-12527
▁gülümsey	-12528
▁koymuş	-12529
ella	-12530
▁Mahal	-12531
amm	-12532
▁canı	-12533
▁yapılabil	-12534
▁uyuy	-12535
muyordu	-12536
▁depresyon	-12537
▁sertifik	-12538
▁gelişmesi	-12539
▁Teh	-12540
▁ikisinin	-12541
▁bırakma	-12542
▁sü	-12543
▁muhabbet	-12544
▁okulda	-12545
▁töreni	-12546
▁yepyeni	-12547
▁Burası	-12548
▁Parkı	-12549
▁02	-12550
▁Bulun	-12551
lattı	-12552
gir	-12553
▁hoşuna	-12554
▁Ric	-12555
ırtı	-12556
▁mükellef	-12557
],	-12558
▁iyidir	-12559
oviç	-12560
▁etkinliği	-12561
▁Babası	-12562
riz	-12563
▁komş	-12564
▁okulu	-12565
▁şefkat	-12566
▁56	-12567
▁açmış	-12568
▁dog	-12569
▁ilgisini	-12570
▁edebilecek	-12571
▁istediklerini	-12572
▁Osmanlılar	-12573
Sİ	-12574
▁bakır	-12575
▁kalkın	-12576
▁muciz	-12577
bilim	-12578
▁asansör	-12579
ayeti	-12580
menize	-12581
-11	-12582
▁pembe	-12583
▁hocam	-12584
▁deneyimli	-12585
▁artışı	-12586
▁110	-12587
▁Batılı	-12588
▁Sünen	-12589
▁hakkına	-12590
▁hemde	-12591
hen	-12592
▁barın	-12593
▁tarzda	-12594
▁Altı	-12595
Nasıl	-12596
▁Elektronik	-12597
▁iskel	-12598
▁tedirgin	-12599
▁seferinde	-12600
▁64	-12601
beti	-12602
▁kuruluşu	-12603
▁motoru	-12604
▁okumuş	-12605
▁4/3	-12606
▁harcama	-12607
▁Kıy	-12608
▁kendim	-12609
▁sektörde	-12610
▁kahkaha	-12611
▁gerilim	-12612
ARI	-12613
▁Fah	-12614
▁markası	-12615
zî	-12616
▁gözlerinin	-12617
ebilirdi	-12618
▁6,	-12619
▁Elazığ	-12620
{{{2	-12621
sür	-12622
▁dükkân	-12623
aleti	-12624
▁Fay	-12625
ikli	-12626
▁tarikat	-12627
ashington	-12628
▁erit	-12629
▁küçüm	-12630
▁depolama	-12631
▁Lüb	-12632
▁Çeşitli	-12633
▁düşünmeye	-12634
▁Bektaş	-12635
▁bağlantılı	-12636
▁sevdik	-12637
▁farz	-12638
▁kesti	-12639
▁kongr	-12640
▁Edin	-12641
▁halkına	-12642
▁söylüyordu	-12643
8’	-12644
ysanız	-12645
▁Bizler	-12646
ulup	-12647
▁Dede	-12648
▁koşullar	-12649
xhtml	-12650
▁küfür	-12651
▁1960	-12652
▁aradan	-12653
▁formu	-12654
gatif	-12655
▁Lak	-12656
▁Test	-12657
▁iste	-12658
press	-12659
ahan	-12660
▁etmiyor	-12661
▁huzurlu	-12662
▁Salon	-12663
▁virüs	-12664
ıncaya	-12665
▁hücre	-12666
▁programına	-12667
▁düşünceleri	-12668
▁Tu	-12669
▁sesler	-12670
▁Çevr	-12671
▁14.	-12672
ight	-12673
▁boyutlu	-12674
-16	-12675
▁yapılacaktır	-12676
lıların	-12677
▁Kadı	-12678
At	-12679
▁kuşk	-12680
▁İpek	-12681
ora	-12682
▁sonuçta	-12683
ğından	-12684
gon	-12685
▁gittiğini	-12686
▁Çiz	-12687
▁neşeli	-12688
▁emretti	-12689
▁takib	-12690
▁çalışacak	-12691
▁izn	-12692
▁kurulmuştur	-12693
▁Tıpkı	-12694
indek	-12695
▁Pil	-12696
▁mutsuz	-12697
▁nitelikli	-12698
▁müslüman	-12699
▁NATO	-12700
▁sokağa	-12701
omb	-12702
▁keşf	-12703
▁yapamaz	-12704
faf	-12705
ling	-12706
şan	-12707
Seni	-12708
iba	-12709
veti	-12710
▁stil	-12711
▁iftar	-12712
▁160	-12713
▁Suresi	-12714
▁öğrendim	-12715
▁Stratej	-12716
▁aldığınız	-12717
ladığımız	-12718
▁medres	-12719
▁çukur	-12720
jder	-12721
▁ağacı	-12722
▁geleceğe	-12723
parta	-12724
amadım	-12725
ıldım	-12726
▁vergisi	-12727
▁yakınında	-12728
▁Belç	-12729
▁veda	-12730
▁patates	-12731
azak	-12732
▁yenilg	-12733
▁Tunus	-12734
▁Aşağıdaki	-12735
İSİ	-12736
▁İlişkin	-12737
▁işlerin	-12738
▁olamaya	-12739
▁öğrencinin	-12740
▁YAP	-12741
SP	-12742
▁Sonuçta	-12743
atları	-12744
▁ısıt	-12745
▁arıza	-12746
▁Dündar	-12747
▁üzüntü	-12748
▁şirketlerin	-12749
▁İf	-12750
▁İlan	-12751
düstri	-12752
lediler	-12753
▁1999	-12754
▁Ast	-12755
▁kanalı	-12756
▁kullanıcıların	-12757
▁ster	-12758
iyetinde	-12759
▁ediyorlardı	-12760
▁İbnü	-12761
▁Hesap	-12762
▁yayınlandı	-12763
▁duyuyor	-12764
eller	-12765
▁Portek	-12766
▁kemer	-12767
▁Oto	-12768
▁nolu	-12769
▁ca	-12770
eliğin	-12771
▁çekilmiş	-12772
▁yüzlü	-12773
▁dersleri	-12774
▁kaldırılması	-12775
▁tebliğ	-12776
▁sancak	-12777
▁Çukur	-12778
▁co	-12779
▁işsiz	-12780
▁mısın	-12781
▁kalmaya	-12782
▁cihazı	-12783
edisi	-12784
▁tarihini	-12785
▁görüşleri	-12786
▁trav	-12787
▁yetkin	-12788
▁Vic	-12789
▁domates	-12790
▁Mahkeme	-12791
▁çocuklarının	-12792
▁asil	-12793
84	-12794
▁anladı	-12795
▁geliştirilen	-12796
daha	-12797
▁Mesut	-12798
adar	-12799
▁etmeyin	-12800
▁çığlık	-12801
▁mahkum	-12802
▁İncel	-12803
▁bunda	-12804
îf	-12805
-12	-12806
▁girişi	-12807
▁başlamadan	-12808
▁girmesi	-12809
▁gençlerin	-12810
▁kep	-12811
rd	-12812
mektedirler	-12813
▁Ten	-12814
▁Ris	-12815
▁bölgesel	-12816
▁grupları	-12817
▁market	-12818
ix	-12819
âret	-12820
▁Yeter	-12821
▁elverişli	-12822
▁Oruç	-12823
pir	-12824
▁Adem	-12825
▁patlama	-12826
▁elma	-12827
▁yaptıktan	-12828
▁devletler	-12829
▁sırasıyla	-12830
▁alıyordu	-12831
▁geceleri	-12832
▁uş	-12833
▁Sevgi	-12834
▁ateşe	-12835
▁İşçi	-12836
ıklığı	-12837
▁ilâh	-12838
ny	-12839
▁Holding	-12840
▁1920	-12841
▁oluruz	-12842
▁karara	-12843
▁ilaçlar	-12844
notes	-12845
▁Avrupalı	-12846
▁istediğimiz	-12847
▁Belli	-12848
▁sük	-12849
▁Odysseus	-12850
ony	-12851
▁geçtiğini	-12852
▁siyasî	-12853
▁vurguladı	-12854
▁olacaksınız	-12855
atıyla	-12856
▁Fransızca	-12857
▁Kutsal	-12858
▁Şarkı	-12859
▁bırakan	-12860
▁Ödülü	-12861
▁general	-12862
▁düşüncelerini	-12863
win	-12864
kale	-12865
ass	-12866
▁gitmeye	-12867
▁Hen	-12868
▁değiştirme	-12869
▁ekstra	-12870
▁gezi	-12871
▁Kalesi	-12872
▁Abdülham	-12873
▁Topa	-12874
▁kilometr	-12875
▁ülkesi	-12876
▁kökenli	-12877
enince	-12878
imdeki	-12879
▁iktidarı	-12880
▁Gökhan	-12881
▁arkadaşlık	-12882
▁mahrum	-12883
▁başladığını	-12884
▁Sayılı	-12885
▁bık	-12886
▁toprakları	-12887
▁programında	-12888
▁partner	-12889
▁Silahlı	-12890
dine	-12891
▁verildiği	-12892
hats	-12893
▁izliyor	-12894
▁ezber	-12895
▁Hy	-12896
▁vücudu	-12897
▁Harizm	-12898
▁seviyor	-12899
work	-12900
isy	-12901
▁sabırsız	-12902
▁Artvin	-12903
▁alacağı	-12904
▁gerektiğine	-12905
▁kendilerinden	-12906
▁fikirler	-12907
▁kazanır	-12908
▁artırmak	-12909
▁andan	-12910
▁olduğumuzu	-12911
▁izleme	-12912
▁haricinde	-12913
▁Özge	-12914
▁farklıdır	-12915
▁Cey	-12916
▁şun	-12917
Kend	-12918
itleri	-12919
▁öldürmek	-12920
▁Mesel	-12921
▁varan	-12922
▁2-3	-12923
▁aktör	-12924
▁izler	-12925
▁Adası	-12926
▁dolara	-12927
orld	-12928
IC	-12929
ebildi	-12930
▁[[	-12931
maksızın	-12932
▁karakteri	-12933
▁lehine	-12934
tab	-12935
dıma	-12936
▁tutuş	-12937
▁hizmetlerini	-12938
▁adının	-12939
▁muayene	-12940
▁Dos	-12941
▁prog	-12942
▁bulabilir	-12943
dını	-12944
▁etkileyici	-12945
▁zapt	-12946
▁Düşün	-12947
▁müsaade	-12948
▁sag	-12949
▁gezegen	-12950
▁Derin	-12951
▁Tık	-12952
▁danışmanlık	-12953
▁Est	-12954
▁yumruk	-12955
▁kullanılacak	-12956
▁muhtar	-12957
▁Öyleyse	-12958
▁yaşı	-12959
▁Ümit	-12960
▁Cerrah	-12961
▁01	-12962
▁yazıyı	-12963
▁birç	-12964
▁Dernek	-12965
▁sayın	-12966
lot	-12967
▁Eskiden	-12968
▁Apollon	-12969
lic	-12970
▁bilhassa	-12971
▁emeği	-12972
▁sıkıcı	-12973
▁Fethullah	-12974
▁ölür	-12975
▁Shih	-12976
elikopter	-12977
▁kuruluşları	-12978
▁yağış	-12979
▁bölgesine	-12980
▁anlık	-12981
olan	-12982
▁yelken	-12983
göl	-12984
▁sayıları	-12985
ocu	-12986
▁canını	-12987
utu	-12988
▁göstermeye	-12989
▁yazılar	-12990
ydılar	-12991
▁yoğunlaş	-12992
▁oyunda	-12993
▁özelliğini	-12994
apur	-12995
▁aramaya	-12996
▁Sefer	-12997
▁böbrek	-12998
▁restoran	-12999
▁Kalp	-13000
▁Cemiyeti	-13001
▁binanın	-13002
▁Yarın	-13003
sche	-13004
▁korkusu	-13005
▁otob	-13006
▁boyunda	-13007
▁adil	-13008
aktif	-13009
▁almaz	-13010
▁tencer	-13011
imine	-13012
rif	-13013
▁laik	-13014
▁gerçekleştirmek	-13015
▁AP	-13016
esih	-13017
▁çorba	-13018
▁çalışmalarının	-13019
▁frek	-13020
▁Vekili	-13021
laj	-13022
▁koyarak	-13023
▁ifadesini	-13024
▁Ajansı	-13025
▁söylediler	-13026
▁İp	-13027
▁yazmaya	-13028
▁elle	-13029
▁tespiti	-13030
▁***	-13031
▁atıyor	-13032
▁çıkışı	-13033
/10	-13034
sım	-13035
▁işçilerin	-13036
▁müdürü	-13037
▁düzeyinde	-13038
▁57	-13039
▁My	-13040
▁(3)	-13041
▁kullanılmıştır	-13042
ember	-13043
▁çarpıcı	-13044
▁belirlemek	-13045
▁hikaye	-13046
▁devletinin	-13047
▁hükümleri	-13048
▁heyeti	-13049
▁George	-13050
iyeler	-13051
▁şekillendir	-13052
▁ök	-13053
▁haksızlık	-13054
▁başlangı	-13055
▁yakınlarında	-13056
▁Eng	-13057
▁Post	-13058
▁dinlemek	-13059
▁eks	-13060
ettin	-13061
▁yaşadığımız	-13062
istal	-13063
ılınca	-13064
▁istemek	-13065
ksür	-13066
âsı	-13067
▁Muharrem	-13068
▁işleyen	-13069
▁Atina	-13070
▁yin	-13071
hard	-13072
idd	-13073
jpeg	-13074
▁yaşadı	-13075
▁pik	-13076
▁kaldırmak	-13077
▁Beh	-13078
▁ödün	-13079
▁Bakır	-13080
eyl	-13081
▁kazandığı	-13082
cim	-13083
▁kira	-13084
▁ded	-13085
BA	-13086
▁Hip	-13087
▁odaları	-13088
▁KKTC	-13089
▁seslendi	-13090
▁seviyesi	-13091
▁Başlangıç	-13092
▁Dışarı	-13093
▁zarif	-13094
▁halif	-13095
alisyon	-13096
▁negatif	-13097
▁sürecini	-13098
▁Nuri	-13099
▁gözünü	-13100
▁Fars	-13101
▁ebeveyn	-13102
▁Türkleri	-13103
▁katliam	-13104
▁con	-13105
▁Yemen	-13106
▁fısılda	-13107
▁(3	-13108
▁İlişkiler	-13109
üminyum	-13110
▁%100	-13111
▁bilerek	-13112
▁seviyesine	-13113
▁tüfek	-13114
▁Jul	-13115
eceğinden	-13116
▁Kahire	-13117
pos	-13118
▁Aleyhisselam	-13119
atörü	-13120
OC	-13121
▁Firma	-13122
▁Sevgil	-13123
general	-13124
▁kâh	-13125
▁konsol	-13126
▁Rize	-13127
mın	-13128
▁Galaxy	-13129
▁Kalite	-13130
akki	-13131
▁Cihaz	-13132
▁|--	-13133
▁Cami	-13134
▁işlen	-13135
▁katında	-13136
▁edince	-13137
▁Hur	-13138
▁Hatun	-13139
▁düzenledi	-13140
▁tecrübeli	-13141
Sev	-13142
▁sadakat	-13143
▁başkaları	-13144
▁propaganda	-13145
lukta	-13146
▁kullanın	-13147
▁Washington	-13148
▁Şev	-13149
▁800	-13150
▁adımlar	-13151
▁topluluğ	-13152
▁Gümrük	-13153
▁baktığımızda	-13154
▁ileriye	-13155
▁temelinde	-13156
▁sorusuna	-13157
▁kaldığını	-13158
▁durumları	-13159
▁Platform	-13160
▁Kolay	-13161
▁mült	-13162
bağ	-13163
▁haberine	-13164
▁oturduğu	-13165
▁şoför	-13166
kisi	-13167
▁şehrinde	-13168
▁bağlantısı	-13169
▁minnet	-13170
▁kırp	-13171
▁mevzuat	-13172
▁İleri	-13173
▁çarpışma	-13174
▁oğlunu	-13175
▁Yalçın	-13176
▁Sef	-13177
▁tamamıyla	-13178
imum	-13179
▁oynamak	-13180
▁MÜ	-13181
ilmi	-13182
▁ömrü	-13183
▁ahlâk	-13184
nat	-13185
▁Fuarı	-13186
▁ilaçlama	-13187
▁çıkarır	-13188
▁Yolu	-13189
Bugün	-13190
▁Beyler	-13191
ongul	-13192
▁ellerine	-13193
▁olanın	-13194
lerince	-13195
▁birimi	-13196
▁ikincisi	-13197
▁tehlikeye	-13198
▁Herkesin	-13199
▁mız	-13200
irdağ	-13201
▁Alex	-13202
ımsız	-13203
▁türb	-13204
▁taciz	-13205
▁göreceksiniz	-13206
▁Klasik	-13207
▁Yor	-13208
▁vars	-13209
▁konudaki	-13210
▁ediniz	-13211
▁yanda	-13212
▁kılavuz	-13213
Devlet	-13214
▁Gelecek	-13215
▁olanaksız	-13216
ladıktan	-13217
▁paranın	-13218
▁Rol	-13219
tuğrul	-13220
▁Bahar	-13221
▁mantar	-13222
▁göstermiş	-13223
▁tasarlanmış	-13224
ideki	-13225
▁Öğrenciler	-13226
Kon	-13227
tığın	-13228
GE	-13229
▁08	-13230
▁kıskanç	-13231
▁terap	-13232
▁sahada	-13233
▁sanı	-13234
▁şöhret	-13235
▁gördüğünüz	-13236
▁Yum	-13237
▁harcan	-13238
ÖZ	-13239
lanmaz	-13240
▁toprağı	-13241
yâ	-13242
▁bulmaya	-13243
▁Çözüm	-13244
ılmadan	-13245
▁Hatır	-13246
▁Ürünleri	-13247
şın	-13248
▁kaynaş	-13249
▁merakla	-13250
üşvet	-13251
▁kirli	-13252
▁verem	-13253
▁orgaz	-13254
ee	-13255
▁Faruk	-13256
▁Sub	-13257
lular	-13258
▁milleti	-13259
▁püsk	-13260
çal	-13261
▁neyin	-13262
▁sub	-13263
▁Kongre	-13264
onguldak	-13265
▁7,	-13266
HK	-13267
▁Radyo	-13268
▁azar	-13269
▁birbiriyle	-13270
▁adresine	-13271
▁yetkilileri	-13272
▁nelerdir	-13273
▁suyunu	-13274
▁faş	-13275
▁pul	-13276
▁veriliyor	-13277
lamayacak	-13278
▁4-	-13279
▁Yağmur	-13280
ars	-13281
500	-13282
▁davranışları	-13283
▁olana	-13284
▁gözünde	-13285
▁salt	-13286
▁Tatlı	-13287
▁Birleşmiş	-13288
▁inancı	-13289
▁gayrimenkul	-13290
inat	-13291
▁Erdem	-13292
▁yapıyorlar	-13293
▁çevresindeki	-13294
▁canavar	-13295
taları	-13296
▁İktis	-13297
▁bireylerin	-13298
▁İslami	-13299
▁kenti	-13300
▁gözlük	-13301
▁Türkistan	-13302
▁konuşmada	-13303
Bizim	-13304
▁anlamını	-13305
▁sonuçlarını	-13306
▁zıt	-13307
melerde	-13308
▁öncelikli	-13309
▁söyleyecek	-13310
▁suda	-13311
▁aygı	-13312
▁şeydi	-13313
▁formül	-13314
Onu	-13315
▁başlaya	-13316
bilecek	-13317
▁Mesaj	-13318
▁üş	-13319
▁Fuar	-13320
▁olanağı	-13321
▁soğan	-13322
▁entelek	-13323
▁oluşturuyor	-13324
▁Jan	-13325
▁diyoruz	-13326
▁faal	-13327
▁bulunmuştur	-13328
▁Maden	-13329
▁suçu	-13330
▁seçin	-13331
▁Jon	-13332
▁Hum	-13333
▁keyfi	-13334
▁mimari	-13335
aa	-13336
▁Lok	-13337
▁genetik	-13338
eld	-13339
▁maddesinde	-13340
▁korsan	-13341
▁oyuncusu	-13342
cili	-13343
seydi	-13344
▁görkem	-13345
▁elektrikli	-13346
▁apartman	-13347
▁köklü	-13348
▁sebz	-13349
▁görmüyor	-13350
▁Fazla	-13351
▁mask	-13352
▁Belgesi	-13353
▁Mevcut	-13354
▁çekme	-13355
▁duygular	-13356
30’	-13357
▁00	-13358
faiye	-13359
▁ateşi	-13360
▁diyalog	-13361
leyebilir	-13362
▁açıklamalar	-13363
▁İdaresi	-13364
▁ucunda	-13365
▁inceledi	-13366
▁Au	-13367
▁Ziya	-13368
▁Giz	-13369
▁adli	-13370
▁bunca	-13371
▁Div	-13372
▁nihai	-13373
▁gizlice	-13374
▁gor	-13375
▁doğanın	-13376
▁görevlisi	-13377
▁opsiyon	-13378
▁satıcı	-13379
▁başıma	-13380
fiye	-13381
▁koruyan	-13382
_**	-13383
ayip	-13384
▁Hristiyan	-13385
zim	-13386
▁nevi	-13387
▁destekleyen	-13388
▁üzgün	-13389
liyorum	-13390
▁silâh	-13391
▁ürper	-13392
1⁄	-13393
▁belirlenir	-13394
larý	-13395
▁sosy	-13396
Kal	-13397
▁yöne	-13398
▁fiziki	-13399
▁fotoğrafları	-13400
▁şimdiki	-13401
ekte	-13402
▁satılık	-13403
IA	-13404
▁İnşallah	-13405
▁açıklamak	-13406
amayacağı	-13407
▁Olarak	-13408
▁düşünme	-13409
▁etkisiz	-13410
▁çalışmalara	-13411
▁satılan	-13412
▁olabiliyor	-13413
▁diyelim	-13414
▁direniş	-13415
▁dünyasına	-13416
iyenin	-13417
▁tanrıça	-13418
▁çalışmanın	-13419
▁kolunu	-13420
▁hastalığın	-13421
losuz	-13422
▁Vallahi	-13423
▁ardında	-13424
▁Dedi	-13425
▁efsane	-13426
radan	-13427
▁Pazarlama	-13428
30,	-13429
▁özü	-13430
▁Gönder	-13431
▁özerk	-13432
▁geçirmiş	-13433
▁parsel	-13434
amonu	-13435
▁yerlerden	-13436
▁armağan	-13437
acaklar	-13438
▁bağırsak	-13439
mediler	-13440
▁hiçbiri	-13441
▁sürül	-13442
▁IŞİD	-13443
▁serisi	-13444
İLİ	-13445
▁Doğa	-13446
▁engellemek	-13447
▁Vas	-13448
▁etmekle	-13449
▁İnönü	-13450
▁anahtarı	-13451
fin	-13452
▁santral	-13453
▁santim	-13454
▁örnekler	-13455
▁senesinde	-13456
▁mermer	-13457
▁sürgün	-13458
▁Devamı	-13459
▁çalışanların	-13460
▁ağzı	-13461
▁istiyorsun	-13462
▁Evden	-13463
▁Wal	-13464
▁bran	-13465
▁üzüm	-13466
▁kolları	-13467
▁tutmuş	-13468
▁çekirdek	-13469
▁felse	-13470
ledikten	-13471
▁mav	-13472
▁sözcüğ	-13473
:**	-13474
▁ısır	-13475
demi	-13476
▁sorumluluğu	-13477
▁yapacağınız	-13478
esiydi	-13479
app	-13480
▁sürat	-13481
uku	-13482
▁konusunu	-13483
dumuz	-13484
▁döneme	-13485
▁sürdürülebilir	-13486
-200	-13487
▁eksikliği	-13488
▁yukar	-13489
lüt	-13490
▁aya	-13491
▁sevindir	-13492
▁belirlendi	-13493
▁olabildi	-13494
▁istiyorsunuz	-13495
▁enerjisi	-13496
▁Ekrem	-13497
▁aşan	-13498
lediğiniz	-13499
▁huzursuz	-13500
▁elçisi	-13501
▁Yaşa	-13502
▁rütb	-13503
▁hani	-13504
▁buydu	-13505
▁kurallar	-13506
▁bebeğin	-13507
▁mineral	-13508
▁radikal	-13509
tiğiniz	-13510
▁meraklı	-13511
▁vücudun	-13512
▁hastanede	-13513
zin	-13514
onomik	-13515
▁kabuk	-13516
▁ağırlığı	-13517
▁yazıp	-13518
▁Trafik	-13519
▁göstermiştir	-13520
▁hükmü	-13521
▁hâlde	-13522
ticaret	-13523
▁rakib	-13524
Öyle	-13525
▁faaliyetlerini	-13526
▁antrenman	-13527
▁teorik	-13528
Burada	-13529
▁istifade	-13530
7’	-13531
liğimiz	-13532
▁pamuk	-13533
▁miy	-13534
▁resimler	-13535
▁Hunlara	-13536
tığımda	-13537
▁olsay	-13538
▁özgürlüğü	-13539
▁asılı	-13540
luklar	-13541
opol	-13542
▁kasaba	-13543
▁başkanlık	-13544
▁ihtiyacını	-13545
▁tema	-13546
▁görüşmek	-13547
abilirsin	-13548
▁havası	-13549
▁münasebet	-13550
▁Oyunları	-13551
▁mırıldandı	-13552
▁diken	-13553
▁Katılım	-13554
▁bedeni	-13555
▁Polonya	-13556
▁1)	-13557
▁aramızda	-13558
▁hazırlamak	-13559
▁Sta	-13560
▁atma	-13561
verdi	-13562
▁okyan	-13563
20,	-13564
▁katılımıyla	-13565
▁görüşlerini	-13566
▁katılacak	-13567
Sana	-13568
▁Memur	-13569
▁Giresun	-13570
▁Divan	-13571
atay	-13572
▁anlaşılan	-13573
▁nüfusu	-13574
elerimiz	-13575
▁açlık	-13576
▁ölüme	-13577
föy	-13578
cinin	-13579
▁etmişlerdir	-13580
▁kızları	-13581
▁aralı	-13582
lemişti	-13583
▁piyan	-13584
▁nakit	-13585
▁görevl	-13586
oğulları	-13587
enizin	-13588
▁memnuniyet	-13589
temiz	-13590
▁1\.	-13591
▁Mutlu	-13592
▁güçsüz	-13593
▁evrenin	-13594
▁arasındadır	-13595
dok	-13596
▁ünvan	-13597
▁Bazıları	-13598
▁Mük	-13599
İLER	-13600
▁Hazine	-13601
▁sokakta	-13602
dey	-13603
emeyeceği	-13604
oteles	-13605
ubu	-13606
▁lif	-13607
▁Bart	-13608
▁aramak	-13609
▁Özbek	-13610
▁Şark	-13611
▁belirlenmesi	-13612
▁dereceye	-13613
▁gelecektir	-13614
▁denge	-13615
ower	-13616
alara	-13617
▁kesintisiz	-13618
▁staj	-13619
▁TEK	-13620
▁bakter	-13621
▁Sekreteri	-13622
lamadan	-13623
▁Rüz	-13624
▁savunan	-13625
▁Bosna	-13626
▁yapının	-13627
▁bireyin	-13628
▁yorumları	-13629
Mer	-13630
olsun	-13631
▁sürün	-13632
ostan	-13633
▁bağımsızlık	-13634
▁koşullarda	-13635
ektro	-13636
▁Resim	-13637
▁parlamen	-13638
▁ilkel	-13639
▁cumhuriyet	-13640
▁2\.	-13641
▁güzelliği	-13642
▁süvari	-13643
▁sınavı	-13644
▁entegre	-13645
▁özenle	-13646
▁yeniçer	-13647
▁oradaki	-13648
▁Kendisini	-13649
▁Ley	-13650
▁görüntüsü	-13651
▁ellerinden	-13652
ografi	-13653
▁cuma	-13654
nar	-13655
▁meme	-13656
▁Usta	-13657
▁şa	-13658
bn	-13659
ahisar	-13660
▁GB	-13661
▁günkü	-13662
cileri	-13663
luy	-13664
▁tercüme	-13665
▁kararları	-13666
▁Newt	-13667
▁Sistemleri	-13668
▁ibar	-13669
▁olmayacaktır	-13670
▁iv	-13671
▁oyuncular	-13672
▁söyleyebiliriz	-13673
vert	-13674
▁yayılan	-13675
▁refah	-13676
acaksınız	-13677
otlar	-13678
▁kırsal	-13679
▁başlayınca	-13680
ço	-13681
rap	-13682
▁Kırgız	-13683
▁sürecin	-13684
▁baraj	-13685
▁ruhsat	-13686
▁sex	-13687
▁kalitesini	-13688
▁yapacağım	-13689
duğundan	-13690
▁Bus	-13691
Bey	-13692
▁sektörün	-13693
▁adımlarla	-13694
▁iştah	-13695
▁karşıtı	-13696
▁niteliğinde	-13697
eron	-13698
▁kesildi	-13699
aklık	-13700
▁Şampiyonası	-13701
lamaktadır	-13702
▁oturum	-13703
▁nüs	-13704
cağımız	-13705
▁Erg	-13706
▁peki	-13707
▁kıza	-13708
-100	-13709
▁Herak	-13710
ınç	-13711
▁(200	-13712
▁Çer	-13713
▁Robert	-13714
▁Willi	-13715
ırnak	-13716
▁saklı	-13717
▁kimliği	-13718
▁girişimi	-13719
▁İmparatoru	-13720
▁açıyor	-13721
▁ilân	-13722
▁kaçtı	-13723
▁türkçe	-13724
▁motosiklet	-13725
▁hün	-13726
▁dolaylı	-13727
Ge	-13728
▁çıktık	-13729
▁çalışanları	-13730
▁konuşmasını	-13731
▁Sovyetler	-13732
▁sisteminde	-13733
▁700	-13734
▁büs	-13735
mon	-13736
▁casus	-13737
▁ressam	-13738
laşmaya	-13739
gâbe	-13740
▁türleri	-13741
▁maliyeti	-13742
▁ferah	-13743
▁herif	-13744
▁zalim	-13745
▁yazıda	-13746
ımla	-13747
▁Usdu	-13748
araya	-13749
▁frag	-13750
▁bulunmadığı	-13751
▁oksijen	-13752
▁edilip	-13753
▁yükümlülük	-13754
▁saçlı	-13755
▁Fas	-13756
tiklerini	-13757
▁yaklaştı	-13758
ijital	-13759
▁düşünmüş	-13760
▁gelirken	-13761
▁memuru	-13762
▁dünyadan	-13763
nî	-13764
▁Esen	-13765
▁Luk	-13766
asyonel	-13767
▁Şakir	-13768
▁metrekare	-13769
hir	-13770
▁tank	-13771
▁uygulanacak	-13772
sor	-13773
▁uygundur	-13774
▁Bing	-13775
▁Etraf	-13776
▁çikolata	-13777
YD	-13778
batı	-13779
▁kazanma	-13780
ankaya	-13781
▁yılan	-13782
eyecektir	-13783
▁başrol	-13784
çiliği	-13785
ılmamış	-13786
ýný	-13787
▁Avukat	-13788
larımdan	-13789
10,	-13790
▁hareketin	-13791
▁hoşgör	-13792
▁hırs	-13793
▁Kelim	-13794
▁KON	-13795
▁ekleyin	-13796
▁duygularını	-13797
▁ailesine	-13798
▁gerçekçi	-13799
▁yanımda	-13800
▁davr	-13801
▁bilmiyordu	-13802
▁Adıyaman	-13803
▁Karanlık	-13804
▁sosyalist	-13805
▁Chan	-13806
eleme	-13807
▁Şerif	-13808
▁hamile	-13809
▁şükür	-13810
emezdi	-13811
▁tabl	-13812
▁prenses	-13813
▁mezhep	-13814
▁gömlek	-13815
▁başarıya	-13816
▁Avustralya	-13817
affer	-13818
▁Wil	-13819
▁filtr	-13820
isten	-13821
▁66	-13822
örek	-13823
kanın	-13824
▁dindar	-13825
▁Yedi	-13826
luyum	-13827
▁karşılaşma	-13828
▁hepimizin	-13829
▁duymuş	-13830
▁birde	-13831
▁şanslı	-13832
ain	-13833
▁OR	-13834
▁gereksinim	-13835
▁81	-13836
▁aklın	-13837
▁yaramaz	-13838
▁biriktir	-13839
▁Politika	-13840
▁sahneye	-13841
▁Fatma	-13842
▁nedenleri	-13843
▁kaldırıldı	-13844
ederken	-13845
▁yerlerinde	-13846
▁soruya	-13847
off	-13848
▁laboratuvar	-13849
▁istediler	-13850
ope	-13851
▁saltanat	-13852
▁Muk	-13853
▁iltih	-13854
ail	-13855
▁Kurumsal	-13856
▁yeteneği	-13857
▁inanan	-13858
▁Süm	-13859
▁ağzını	-13860
▁kumanda	-13861
▁redde	-13862
Ner	-13863
▁Hâkim	-13864
▁Mür	-13865
allahi	-13866
▁Umut	-13867
▁ardına	-13868
▁Yüc	-13869
▁İstih	-13870
ekkül	-13871
▁hükûmet	-13872
▁detayları	-13873
▁çalışanlar	-13874
▁Ebi	-13875
▁Ram	-13876
▁olmamış	-13877
▁ayıp	-13878
▁Ele	-13879
▁süvar	-13880
::	-13881
▁Marks	-13882
eyeceğim	-13883
▁Leh	-13884
▁başlangıçta	-13885
▁kala	-13886
▁Aristoteles	-13887
▁Zeki	-13888
▁Buradaki	-13889
nci	-13890
▁döneminin	-13891
▁diyecek	-13892
▁Kıp	-13893
▁Tama	-13894
▁verirler	-13895
▁bambaşka	-13896
eyz	-13897
▁Müsteş	-13898
▁götürür	-13899
▁Ertuğrul	-13900
AA	-13901
Belki	-13902
▁TSK	-13903
▁kaldık	-13904
▁vurgulan	-13905
▁cömert	-13906
▁vermiyor	-13907
▁ülkesine	-13908
▁Kürd	-13909
ader	-13910
▁sırala	-13911
▁istisna	-13912
▁Yör	-13913
▁Tv	-13914
▁gelenler	-13915
▁hizmetine	-13916
▁mesafede	-13917
▁James	-13918
▁örtü	-13919
beş	-13920
▁çıkınca	-13921
▁etkinlikleri	-13922
▁hij	-13923
▁netice	-13924
▁Metal	-13925
▁Zer	-13926
ens	-13927
▁Babam	-13928
▁başlatılan	-13929
▁İlhan	-13930
▁tanınmış	-13931
▁geçirilen	-13932
▁sitede	-13933
zâde	-13934
▁gun	-13935
▁soykırım	-13936
▁Klima	-13937
kuş	-13938
▁Hacer	-13939
▁Göğ	-13940
▁rahatça	-13941
▁tutmaya	-13942
▁perişan	-13943
ANI	-13944
▁Buda	-13945
hael	-13946
▁çıkarmaya	-13947
▁Kötü	-13948
ilmeli	-13949
▁benziyor	-13950
▁Maz	-13951
▁başarısı	-13952
cül	-13953
▁2)	-13954
▁Kalit	-13955
lerinizin	-13956
▁yapmakta	-13957
▁Andre	-13958
-9	-13959
▁Mesleki	-13960
▁İstiklal	-13961
▁evinin	-13962
▁başlattı	-13963
▁yoğurt	-13964
▁eğr	-13965
▁Tao	-13966
▁ödev	-13967
▁gruba	-13968
▁Saldır	-13969
▁Kans	-13970
▁çağırdı	-13971
▁birinden	-13972
▁karışımı	-13973
▁Kanada	-13974
Tanrı	-13975
▁dayat	-13976
▁kaçış	-13977
▁çocuklarını	-13978
▁aydınlık	-13979
▁Manay	-13980
▁yapılacağı	-13981
eto	-13982
▁borcu	-13983
larm	-13984
▁böylesi	-13985
▁eğitime	-13986
▁bildirim	-13987
▁Telekom	-13988
ato	-13989
▁Meryem	-13990
dığımda	-13991
▁yapısını	-13992
▁İy	-13993
evler	-13994
arac	-13995
▁fotoğrafı	-13996
▁kurumları	-13997
ememiş	-13998
cımız	-13999
▁buzdola	-14000
▁olacağım	-14001
▁Platon	-14002
▁kuyu	-14003
▁üzünt	-14004
▁tasvir	-14005
feransı	-14006
omi	-14007
Bunun	-14008
▁kullanıma	-14009
▁nesne	-14010
edecek	-14011
▁hayati	-14012
▁edilmez	-14013
▁mezunu	-14014
abilim	-14015
▁bağlayan	-14016
▁aydır	-14017
irmen	-14018
▁pencere	-14019
▁işlemlerini	-14020
lerimizle	-14021
▁Hit	-14022
▁Hayatı	-14023
▁ayakları	-14024
▁ganimet	-14025
▁konuşur	-14026
ilmesinde	-14027
▁parf	-14028
▁derim	-14029
▁mısır	-14030
▁sürdüğü	-14031
▁Kaymakamı	-14032
Ap	-14033
alayan	-14034
▁başkalarına	-14035
▁seçilmiş	-14036
▁olunan	-14037
Top	-14038
▁gündelik	-14039
▁Bre	-14040
▁gelmeden	-14041
▁Melek	-14042
▁Direktörü	-14043
latır	-14044
cer	-14045
▁burjuv	-14046
▁makul	-14047
▁Hikay	-14048
▁yaşandığı	-14049
ELİ	-14050
▁öylece	-14051
meyeceğini	-14052
▁konumda	-14053
▁hı	-14054
▁seminer	-14055
▁bireyler	-14056
uer	-14057
▁renkleri	-14058
▁sonbahar	-14059
▁bakılırsa	-14060
alanan	-14061
lash	-14062
▁başlangıcı	-14063
▁heyecanla	-14064
▁biliyorsunuz	-14065
▁sürüp	-14066
▁Serdar	-14067
▁Toto	-14068
▁Şaş	-14069
my	-14070
▁referandum	-14071
lediklerini	-14072
▁yerlerini	-14073
▁filmleri	-14074
▁ihbar	-14075
▁yedir	-14076
▁Akıllı	-14077
▁Basketbol	-14078
▁yaya	-14079
larlar	-14080
alanı	-14081
▁damg	-14082
▁Emlak	-14083
▁by	-14084
cılara	-14085
▁elimden	-14086
▁tuttuğu	-14087
?'	-14088
▁yazdım	-14089
▁yakışıklı	-14090
▁bant	-14091
▁Özdemir	-14092
▁Eyüp	-14093
▁ideolojik	-14094
▁adresinden	-14095
eve	-14096
▁tet	-14097
▁kilise	-14098
▁reak	-14099
▁hatalı	-14100
▁gelirse	-14101
▁soğu	-14102
▁çevrim	-14103
▁içeriye	-14104
▁ortala	-14105
▁kasa	-14106
▁siteler	-14107
▁Ford	-14108
▁yerlerine	-14109
İP	-14110
▁Gelenek	-14111
▁Annem	-14112
▁domuz	-14113
▁söze	-14114
iha	-14115
▁seviyesinde	-14116
tığınızda	-14117
Kap	-14118
▁aln	-14119
▁Nüf	-14120
▁zihniyet	-14121
▁“...	-14122
mayınız	-14123
▁gerektiğinde	-14124
▁sanatı	-14125
▁doğrudur	-14126
▁Red	-14127
meyip	-14128
▁söyleş	-14129
▁sormak	-14130
fettiş	-14131
▁Düğün	-14132
▁Ruslar	-14133
▁cidd	-14134
▁İY	-14135
▁yöntemler	-14136
▁yaşayacak	-14137
▁arındır	-14138
▁ert	-14139
▁renkler	-14140
▁direktör	-14141
▁KDV	-14142
▁ayıran	-14143
▁PC	-14144
rını	-14145
▁iştirak	-14146
Gerçek	-14147
limi	-14148
▁Gölü	-14149
▁ilgilendiren	-14150
elenen	-14151
▁Cemil	-14152
▁tahrip	-14153
▁ülkeden	-14154
▁silk	-14155
▁İzmit	-14156
▁bölümüne	-14157
▁getirmeye	-14158
▁Akh	-14159
▁temizleme	-14160
▁Teşkilatı	-14161
▁umarım	-14162
▁araçların	-14163
mun	-14164
▁oz	-14165
▁GÜN	-14166
▁Ağaç	-14167
▁kaybetmiş	-14168
▁Wat	-14169
▁geçtikçe	-14170
▁Turkcell	-14171
eğinden	-14172
▁koya	-14173
▁toplantıya	-14174
ory	-14175
▁nedenlerle	-14176
▁Ros	-14177
▁ithalat	-14178
▁ankara	-14179
▁dersin	-14180
▁degil	-14181
▁liraya	-14182
▁atı	-14183
▁gücüyle	-14184
▁galibiyet	-14185
▁alanın	-14186
Yani	-14187
▁Milyon	-14188
arlık	-14189
▁büsbütün	-14190
▁belirlem	-14191
▁çalın	-14192
▁oyunc	-14193
SS	-14194
▁fav	-14195
▁ret	-14196
lektaş	-14197
▁sul	-14198
mezdi	-14199
▁teâlâ	-14200
imer	-14201
ayir	-14202
▁mevs	-14203
▁reis	-14204
ardan	-14205
▁1,5	-14206
▁sonsuza	-14207
▁sorusu	-14208
▁yarattı	-14209
▁güçler	-14210
maraş	-14211
abildiği	-14212
▁kullanılıyor	-14213
▁İde	-14214
▁fren	-14215
pro	-14216
▁desteğini	-14217
▁kazanacak	-14218
.19	-14219
▁oynar	-14220
▁Olağan	-14221
▁kütl	-14222
▁hareketler	-14223
▁sayılmaz	-14224
▁Taşıma	-14225
lanmasını	-14226
▁tehdi	-14227
▁İmar	-14228
▁cins	-14229
▁bırakmış	-14230
▁olmasaydı	-14231
▁bölgelerinde	-14232
▁konsan	-14233
▁girdiler	-14234
▁metro	-14235
▁coğrafya	-14236
▁istihbarat	-14237
▁cephe	-14238
▁sorunlarını	-14239
▁ifadeyle	-14240
ören	-14241
▁Faaliyet	-14242
▁Sekreter	-14243
▁çiğn	-14244
▁85	-14245
▁ine	-14246
▁yed	-14247
▁iktidara	-14248
ıdır	-14249
▁iğrenç	-14250
▁350	-14251
▁Harp	-14252
▁Aksaray	-14253
▁düşünmüyor	-14254
▁entelektüel	-14255
▁boşuna	-14256
▁Kütahya	-14257
lerinizde	-14258
▁Site	-14259
▁yır	-14260
▁Haş	-14261
▁işlerine	-14262
▁Ofis	-14263
lamayan	-14264
▁klas	-14265
▁cahil	-14266
▁olaya	-14267
Ad	-14268
▁adaylar	-14269
▁şekeri	-14270
▁tıklayarak	-14271
▁kanseri	-14272
▁zab	-14273
gele	-14274
▁cal	-14275
▁geçit	-14276
▁yanıtladı	-14277
▁yaşantı	-14278
▁böy	-14279
▁cerrahi	-14280
▁fakült	-14281
▁bakıma	-14282
▁tasdik	-14283
üyorum	-14284
iliş	-14285
eceğimi	-14286
▁pal	-14287
▁geçmişi	-14288
▁Lef	-14289
▁gücün	-14290
râ	-14291
▁gününe	-14292
▁konuşurken	-14293
▁taşımaktadır	-14294
▁Alanya	-14295
▁mahv	-14296
▁Helen	-14297
ruklu	-14298
▁IP	-14299
▁şahsiyet	-14300
▁Rüyada	-14301
▁evleri	-14302
▁yapılandır	-14303
▁Zek	-14304
▁Tuğ	-14305
▁mülkiyet	-14306
▁SS	-14307
▁yaparlar	-14308
▁doyur	-14309
▁olaylara	-14310
melerinin	-14311
▁katman	-14312
gim	-14313
▁Umarım	-14314
▁olacağına	-14315
tivasyon	-14316
mesidir	-14317
utb	-14318
ıldılar	-14319
▁sağlanır	-14320
▁harita	-14321
▁konumunda	-14322
▁tersi	-14323
▁yükseliş	-14324
▁Mi	-14325
Har	-14326
▁gerçekleşecek	-14327
▁oldug	-14328
▁deve	-14329
enizde	-14330
lenmektedir	-14331
▁Eşya	-14332
İMİ	-14333
▁bilgilendirme	-14334
▁bildi	-14335
▁edi	-14336
▁alıyoruz	-14337
▁şaşırt	-14338
▁bine	-14339
▁Abdurrahman	-14340
ğil	-14341
cevher	-14342
ým	-14343
▁dolan	-14344
▁Vezir	-14345
▁Belçika	-14346
▁kabullen	-14347
▁tezgah	-14348
ulus	-14349
▁Bulut	-14350
▁uğrayan	-14351
▁planlama	-14352
▁İhsan	-14353
▁Başbakanı	-14354
▁mübarek	-14355
▁ekrana	-14356
▁Full	-14357
▁istiyorlar	-14358
▁sütü	-14359
▁izmir	-14360
▁demiştir	-14361
▁varlığın	-14362
▁dersler	-14363
eceğimizi	-14364
▁kıyasla	-14365
▁kare	-14366
▁sürecine	-14367
▁suik	-14368
▁konumu	-14369
▁Portekiz	-14370
▁bakınca	-14371
leşti	-14372
▁yarısında	-14373
ûh	-14374
larımda	-14375
▁şartıyla	-14376
▁beşinci	-14377
▁belirleyen	-14378
▁erdir	-14379
▁ertel	-14380
▁olmayıp	-14381
▁bildiğim	-14382
▁yeterlidir	-14383
▁görecek	-14384
▁Firmamız	-14385
erkes	-14386
▁viz	-14387
▁Serbest	-14388
▁şebek	-14389
▁Afrin	-14390
usya	-14391
▁piyasada	-14392
▁Borç	-14393
ünüze	-14394
▁Bende	-14395
▁Sağlıklı	-14396
▁Sorun	-14397
▁ihtiyacımız	-14398
▁Durumu	-14399
▁burjuva	-14400
▁yöneticisi	-14401
▁22.	-14402
▁Lübnan	-14403
emm	-14404
ünç	-14405
▁Engin	-14406
▁merkezleri	-14407
▁Said	-14408
▁Komitesi	-14409
▁karışım	-14410
▁kampanyası	-14411
▁katled	-14412
lie	-14413
▁çocukluk	-14414
▁je	-14415
▁sahiplerinin	-14416
▁→	-14417
▁ödülü	-14418
▁dinsel	-14419
▁yapmalı	-14420
▁kım	-14421
▁saatler	-14422
▁yapmaz	-14423
▁Ky	-14424
▁Tekirdağ	-14425
▁Kapalı	-14426
▁tuttur	-14427
▁ılık	-14428
alığa	-14429
▁yardıma	-14430
▁hayali	-14431
▁biyolojik	-14432
run	-14433
▁istemeyen	-14434
▁feder	-14435
EFA	-14436
▁Kağı	-14437
Dünya	-14438
ath	-14439
▁hastaların	-14440
▁ilerleme	-14441
▁Zonguldak	-14442
▁sitemizde	-14443
▁deg	-14444
▁dul	-14445
▁analizi	-14446
▁Başkanımız	-14447
▁You	-14448
▁Demirel	-14449
▁yetenekli	-14450
TE	-14451
▁öğleden	-14452
âni	-14453
▁Dönemi	-14454
▁açısı	-14455
▁sonucuna	-14456
▁yazıları	-14457
▁verdiğim	-14458
bun	-14459
▁kahverengi	-14460
▁iftir	-14461
▁72	-14462
▁mutluluğu	-14463
▁Erzincan	-14464
▁Gro	-14465
emeyeceğini	-14466
çelik	-14467
▁tanıdık	-14468
▁olduğunuzu	-14469
▁sonraları	-14470
▁tütün	-14471
-17	-14472
▁molek	-14473
igin	-14474
▁alındığında	-14475
istiy	-14476
▁yanıma	-14477
▁arayıp	-14478
aht	-14479
terek	-14480
pet	-14481
suru	-14482
▁seviyeye	-14483
▁romantik	-14484
üğü	-14485
▁yeniçeri	-14486
anıyla	-14487
▁anlaşılıyor	-14488
▁Standart	-14489
▁Kısacası	-14490
▁Dili	-14491
▁cehennem	-14492
▁Nuaym	-14493
▁vereceği	-14494
▁1950	-14495
dos	-14496
▁bulunmamaktadır	-14497
▁pres	-14498
▁Lou	-14499
▁konforlu	-14500
▁Altay	-14501
▁çarş	-14502
/24	-14503
Böyle	-14504
▁salonunda	-14505
▁başlaması	-14506
▁askerin	-14507
▁Uzay	-14508
▁Saygı	-14509
lemesine	-14510
▁Sap	-14511
▁kası	-14512
Çocuk	-14513
oker	-14514
▁bekley	-14515
deres	-14516
ediyesi	-14517
▁yükümlü	-14518
piyat	-14519
▁memnuniyeti	-14520
▁1-2	-14521
lamasına	-14522
▁dk	-14523
▁Hekim	-14524
ATI	-14525
▁papaz	-14526
▁biriyle	-14527
▁şehirler	-14528
▁nitelikte	-14529
larınızla	-14530
▁Ekran	-14531
▁Gizli	-14532
▁hâlinde	-14533
▁sitesinden	-14534
▁ız	-14535
▁Anah	-14536
▁hissediyordu	-14537
▁okurken	-14538
▁abi	-14539
▁metod	-14540
▁tanıyan	-14541
▁teminat	-14542
Par	-14543
▁incelemek	-14544
artma	-14545
▁Beyrut	-14546
▁kadınla	-14547
▁kıvr	-14548
kay	-14549
▁edebilmek	-14550
▁His	-14551
civert	-14552
▁EĞ	-14553
▁biliyorsun	-14554
▁yaratır	-14555
▁düzenleyen	-14556
9’	-14557
▁ilgil	-14558
▁Denizi	-14559
▁üstünlük	-14560
▁evler	-14561
▁planlanan	-14562
▁üf	-14563
▁paketi	-14564
▁haftasında	-14565
outube	-14566
▁tümü	-14567
▁Kastamonu	-14568
▁Kabul	-14569
▁bunlarla	-14570
▁savcı	-14571
▁Sivil	-14572
▁ülkesinde	-14573
Öğr	-14574
▁pusu	-14575
emiyorum	-14576
/200	-14577
eneğini	-14578
▁pasaport	-14579
▁üt	-14580
▁Bilgiler	-14581
▁Komün	-14582
▁beklenmedik	-14583
▁doğumlu	-14584
▁arkaya	-14585
▁partisi	-14586
kıya	-14587
▁arif	-14588
▁izi	-14589
▁değişmez	-14590
▁köşesinde	-14591
▁bozukluğu	-14592
▁düşünüyoruz	-14593
+1	-14594
▁Dolar	-14595
▁kurnaz	-14596
▁tahamm	-14597
İNCİ	-14598
▁sormuş	-14599
ciliği	-14600
▁kimdir	-14601
▁hükümdarı	-14602
▁Mini	-14603
▁öğretmenler	-14604
▁süpür	-14605
sinler	-14606
▁kalmamıştı	-14607
▁denildi	-14608
tüd	-14609
▁195	-14610
▁geçtikten	-14611
▁bot	-14612
▁Lenin	-14613
▁üzerlerine	-14614
lüğünün	-14615
2016	-14616
▁odun	-14617
▁Otomobil	-14618
▁yeryüzünde	-14619
sah	-14620
▁Yur	-14621
▁devletlerin	-14622
▁yazarın	-14623
▁gelme	-14624
▁Belediyespor	-14625
▁Harry	-14626
▁Nehri	-14627
gg	-14628
▁mütev	-14629
lenebilir	-14630
itli	-14631
▁adamlarının	-14632
▁sular	-14633
▁chat	-14634
ection	-14635
▁anlaşması	-14636
▁yelpaz	-14637
▁Hayal	-14638
▁ülkelerinde	-14639
▁nesnel	-14640
nal	-14641
▁bakarken	-14642
ott	-14643
▁yetmiş	-14644
▁Kayyım	-14645
▁kurgu	-14646
▁Sermaye	-14647
▁Harem	-14648
▁63	-14649
▁içme	-14650
▁Şi	-14651
▁ışıl	-14652
melere	-14653
ılıyorum	-14654
▁istikamet	-14655
▁Aleksand	-14656
▁vasıf	-14657
▁kurtarı	-14658
▁yapmaktan	-14659
▁peşine	-14660
▁toplamak	-14661
▁yudum	-14662
▁bitkisel	-14663
▁doğalgaz	-14664
cis	-14665
▁tutma	-14666
▁olasılığı	-14667
▁dergi	-14668
lig	-14669
▁piy	-14670
▁Cap	-14671
▁terey	-14672
▁işveren	-14673
▁seçildi	-14674
▁oluşturul	-14675
▁sertifika	-14676
▁seçimleri	-14677
devlet	-14678
▁yürümeye	-14679
▁sürek	-14680
▁Afganistan	-14681
▁Üzerinde	-14682
▁gösterecek	-14683
▁barındıran	-14684
olay	-14685
▁Fiyatları	-14686
▁Erol	-14687
▁kolon	-14688
▁kapısına	-14689
▁klinik	-14690
▁geçmiştir	-14691
▁ölümüne	-14692
▁taşıt	-14693
▁oynuyor	-14694
▁gösteriyordu	-14695
▁atlı	-14696
onomi	-14697
▁batır	-14698
abol	-14699
▁unutulmaz	-14700
sizce	-14701
▁durumdur	-14702
▁Esn	-14703
▁görmesi	-14704
▁Girişim	-14705
▁Çakır	-14706
▁çalışmış	-14707
▁İK	-14708
▁lar	-14709
▁filmde	-14710
▁doğrultu	-14711
lanın	-14712
Çünkü	-14713
eyef	-14714
▁taşımak	-14715
▁>>>	-14716
▁muhafız	-14717
▁motif	-14718
▁uygulamak	-14719
▁kaynaklar	-14720
▁Büt	-14721
▁fos	-14722
▁iddialı	-14723
▁ruhunu	-14724
▁yazarak	-14725
▁sıralama	-14726
iğin	-14727
▁ortalık	-14728
▁azdır	-14729
▁Politik	-14730
▁birebir	-14731
▁poş	-14732
▁kurab	-14733
bulans	-14734
lamıyorum	-14735
▁algıla	-14736
▁geçirildi	-14737
▁yürütül	-14738
▁Değerlendirme	-14739
▁altmış	-14740
oluk	-14741
▁kullanışlı	-14742
▁ilişkiye	-14743
▁Birincisi	-14744
▁Zeynep	-14745
▁Dijital	-14746
▁Moda	-14747
▁:))	-14748
▁engeller	-14749
▁veli	-14750
▁belirlenmiş	-14751
▁ceviz	-14752
▁yanan	-14753
lamasını	-14754
RET	-14755
▁Seyahat	-14756
▁arıyorum	-14757
▁23.	-14758
mağı	-14759
▁oturur	-14760
▁lav	-14761
▁Maked	-14762
▁Oldukça	-14763
▁aileler	-14764
▁çevresi	-14765
âmi	-14766
▁bitkiler	-14767
▁kuvvetleri	-14768
▁bölgesindeki	-14769
▁geliştirilmesi	-14770
▁manev	-14771
▁yapanlar	-14772
▁ülkelere	-14773
▁hazırlanıyor	-14774
▁fiş	-14775
▁Halep	-14776
▁arkasındaki	-14777
▁öksür	-14778
▁çin	-14779
▁_"	-14780
▁birincisi	-14781
▁vermem	-14782
▁Laz	-14783
▁UN	-14784
haf	-14785
▁ال	-14786
▁sağlayarak	-14787
▁inen	-14788
sünüz	-14789
ğinize	-14790
▁kurumların	-14791
▁cild	-14792
▁burs	-14793
▁Birlikte	-14794
▁arayarak	-14795
▁kullanılmış	-14796
▁gerçekleştiren	-14797
▁ulaşmış	-14798
ılmasında	-14799
MET	-14800
▁alınıp	-14801
▁Mektup	-14802
▁**_	-14803
▁Soci	-14804
ilin	-14805
▁muamel	-14806
▁ortağı	-14807
asker	-14808
▁biliyordum	-14809
▁etmesine	-14810
▁tahrik	-14811
laşır	-14812
▁birileri	-14813
lığım	-14814
▁Mutlak	-14815
▁fran	-14816
▁zararı	-14817
▁yorumu	-14818
talar	-14819
▁Belir	-14820
▁başkasına	-14821
▁türkü	-14822
▁(10	-14823
▁aza	-14824
▁pomp	-14825
▁tüketimi	-14826
▁hiyer	-14827
▁görüntüler	-14828
▁lâ	-14829
amdan	-14830
▁Kadının	-14831
▁müşterilerine	-14832
▁eskisi	-14833
▁taşınmaz	-14834
▁ikisini	-14835
▁askerlerin	-14836
▁ağa	-14837
iliğine	-14838
▁çekmeye	-14839
ânı	-14840
▁kaldılar	-14841
▁Çorum	-14842
▁gördüğünü	-14843
▁muayen	-14844
▁muvaffak	-14845
ilince	-14846
▁tutku	-14847
taraf	-14848
▁apaçık	-14849
▁hamam	-14850
atür	-14851
▁Latin	-14852
▁tamamlayan	-14853
müyordu	-14854
▁tasarı	-14855
TİR	-14856
▁muhar	-14857
ART	-14858
▁Papa	-14859
▁içsel	-14860
▁seslendir	-14861
▁edilmesine	-14862
▁gelebilecek	-14863
▁Vir	-14864
▁olmam	-14865
▁görmedim	-14866
UŞ	-14867
▁kurtarma	-14868
▁kabiliyet	-14869
esk	-14870
▁haftanın	-14871
▁ilişkilerini	-14872
▁yapacağ	-14873
▁yıldızı	-14874
▁habersiz	-14875
▁William	-14876
▁Alışveriş	-14877
▁yaşıyoruz	-14878
▁diğerine	-14879
Sor	-14880
▁başvurusu	-14881
falt	-14882
▁Mevlana	-14883
inle	-14884
▁Tibet	-14885
▁titreş	-14886
▁lamba	-14887
▁homur	-14888
,_	-14889
talama	-14890
▁mühür	-14891
veç	-14892
▁Vit	-14893
▁Brezilya	-14894
▁düşünüp	-14895
koş	-14896
▁İkincisi	-14897
▁Aşağıda	-14898
▁Belg	-14899
▁komutanı	-14900
▁KAY	-14901
cem	-14902
▁kentinde	-14903
▁umutsuz	-14904
▁yakalandı	-14905
▁Erken	-14906
▁beraberlik	-14907
▁Haydar	-14908
▁tertip	-14909
▁Tanıtım	-14910
▁beklentiler	-14911
▁düzene	-14912
▁yetişen	-14913
▁aydınlatma	-14914
▁59	-14915
▁atmaya	-14916
▁kemi	-14917
▁Tokat	-14918
amızdan	-14919
▁menü	-14920
▁uçur	-14921
eyan	-14922
▁yönetmelik	-14923
ahit	-14924
cuz	-14925
olas	-14926
elerdir	-14927
▁Arı	-14928
▁Ted	-14929
▁pirinç	-14930
ıv	-14931
lanıyordu	-14932
mizî	-14933
lun	-14934
iskop	-14935
▁TH	-14936
6’	-14937
▁Nar	-14938
▁gitmesi	-14939
▁sırası	-14940
▁nda	-14941
▁Blu	-14942
▁panik	-14943
İTESİ	-14944
▁yönetiminde	-14945
▁3\.	-14946
▁hissediyorum	-14947
uval	-14948
▁çalışmayı	-14949
▁kaymak	-14950
▁artarak	-14951
▁birikim	-14952
▁karab	-14953
diyse	-14954
▁güb	-14955
▁05	-14956
▁kadı	-14957
ELER	-14958
iymiş	-14959
▁görüyordu	-14960
riye	-14961
▁Güçlü	-14962
eliler	-14963
▁diyal	-14964
bül	-14965
▁olursanız	-14966
uck	-14967
▁kadeh	-14968
güdü	-14969
▁taç	-14970
▁alanındaki	-14971
▁çabucak	-14972
▁Kültürü	-14973
lına	-14974
▁yarısını	-14975
▁başlıkları	-14976
▁teşhis	-14977
ue	-14978
amayacağını	-14979
▁İSTANBUL	-14980
▁helikopter	-14981
▁Namaz	-14982
▁şartlarda	-14983
▁anıms	-14984
▁İhracat	-14985
▁rüşvet	-14986
▁anayasa	-14987
td	-14988
▁Prot	-14989
▁Uçak	-14990
▁tıklayınız	-14991
▁Coş	-14992
▁gördükleri	-14993
▁dilini	-14994
mann	-14995
▁duyuru	-14996
▁sözleşmesi	-14997
▁ilki	-14998
▁Rob	-14999
▁Sahip	-15000
ösy	-15001
▁bron	-15002
Han	-15003
gren	-15004
▁güncellem	-15005
▁tercüm	-15006
▁içlerinde	-15007
▁kollarını	-15008
YON	-15009
▁çıktılar	-15010
▁tesisat	-15011
▁liberal	-15012
uang	-15013
▁sürülen	-15014
▁İvan	-15015
▁sınırlarını	-15016
▁pa	-15017
▁üçte	-15018
▁tedbirler	-15019
▁şuan	-15020
▁Yatak	-15021
▁Yanlış	-15022
▁kına	-15023
calı	-15024
ileceği	-15025
▁ünit	-15026
▁vuran	-15027
▁modeller	-15028
▁ruhun	-15029
▁yaşından	-15030
▁İzzet	-15031
▁ilçesine	-15032
▁Profesyonel	-15033
memi	-15034
amamış	-15035
▁namus	-15036
▁Onunla	-15037
▁oluşturmaktadır	-15038
▁Adım	-15039
▁maksat	-15040
▁entr	-15041
▁kalmamış	-15042
▁belirtileri	-15043
▁Kurs	-15044
▁Olim	-15045
ike	-15046
▁farket	-15047
▁barbar	-15048
▁gelene	-15049
▁düşmanın	-15050
▁yetkisi	-15051
▁Yargıtay	-15052
▁görülmüştür	-15053
▁Pamuk	-15054
▁68	-15055
▁önemsiz	-15056
▁dilinde	-15057
▁katkısı	-15058
▁çalıştığını	-15059
îs	-15060
▁düzeyi	-15061
▁Hükümeti	-15062
▁adımı	-15063
▁Ülke	-15064
▁tutarlı	-15065
▁geçim	-15066
▁kaşık	-15067
▁borçlu	-15068
▁miyiz	-15069
▁dersiniz	-15070
▁dizayn	-15071
▁verilmesini	-15072
▁Ekip	-15073
▁taşım	-15074
▁zorunluluk	-15075
▁harç	-15076
▁çıktım	-15077
asp	-15078
▁özelliklere	-15079
vis	-15080
▁Kahramanmaraş	-15081
▁arke	-15082
▁fikrini	-15083
kapı	-15084
▁alem	-15085
▁önünü	-15086
▁tutulması	-15087
Geç	-15088
TS	-15089
▁tutarı	-15090
▁kapasitesi	-15091
▁hoşuma	-15092
▁alı	-15093
▁yaklaşan	-15094
limat	-15095
▁vadede	-15096
▁XI	-15097
▁emlak	-15098
▁Ag	-15099
▁Başta	-15100
▁bulunacak	-15101
▁kafası	-15102
▁toprağın	-15103
lib	-15104
▁Rahat	-15105
▁getirmiştir	-15106
▁konuşmasında	-15107
▁Sos	-15108
▁abar	-15109
▁traj	-15110
ğindeki	-15111
▁Kanununun	-15112
▁dediğini	-15113
▁ıslah	-15114
▁dilen	-15115
▁bağı	-15116
▁bağdaş	-15117
kiye	-15118
▁Alı	-15119
▁duyunca	-15120
▁Yukarıdaki	-15121
▁Melik	-15122
iser	-15123
▁bini	-15124
ff	-15125
▁ilerledi	-15126
▁dinledi	-15127
▁dibinde	-15128
OĞLU	-15129
▁seh	-15130
layalım	-15131
▁takın	-15132
▁Gözleri	-15133
▁kendimize	-15134
Tamam	-15135
▁Sonraki	-15136
▁loj	-15137
▁çözünür	-15138
▁gerekirdi	-15139
▁van	-15140
mezler	-15141
▁baskısı	-15142
übey	-15143
▁sağlanan	-15144
kab	-15145
▁unsuru	-15146
▁Sy	-15147
▁yükle	-15148
▁hikayesi	-15149
▁ürünlerinin	-15150
▁Meydan	-15151
▁çevresine	-15152
▁Güneydoğu	-15153
▁babasına	-15154
▁kalarak	-15155
▁fındık	-15156
İVERS	-15157
▁Düzce	-15158
latıcı	-15159
▁Göre	-15160
▁konsept	-15161
▁Lin	-15162
▁hop	-15163
.00’	-15164
▁görülecek	-15165
▁yönetiminin	-15166
▁Bugüne	-15167
▁korumaya	-15168
▁Batman	-15169
▁uyanık	-15170
▁Stu	-15171
▁170	-15172
emedim	-15173
ansa	-15174
▁perakende	-15175
▁telefonla	-15176
laştı	-15177
▁İmparatorluk	-15178
▁sarım	-15179
▁sabaha	-15180
▁tabiat	-15181
▁eğitimin	-15182
▁bulamaz	-15183
▁parçacık	-15184
▁Üye	-15185
▁kaptır	-15186
ble	-15187
▁kabile	-15188
▁siteye	-15189
▁kendiniz	-15190
rezz	-15191
▁hürriyet	-15192
▁girmeye	-15193
▁Alb	-15194
▁Nam	-15195
▁ortasına	-15196
▁sıkıntısı	-15197
00’	-15198
▁gizemli	-15199
▁kararın	-15200
▁Denetim	-15201
▁kapattı	-15202
▁şeffaf	-15203
▁Mobilya	-15204
▁mevcu	-15205
▁Satı	-15206
▁sürüş	-15207
şr	-15208
malıydı	-15209
▁turnuv	-15210
▁bayr	-15211
▁ırmak	-15212
une	-15213
▁UEFA	-15214
▁ağabey	-15215
▁Celal	-15216
▁bölümleri	-15217
lenmesine	-15218
▁felsefi	-15219
Bay	-15220
▁Bunlara	-15221
Ol	-15222
▁vermeyen	-15223
▁Pers	-15224
▁diyebilirim	-15225
▁bakma	-15226
▁olurum	-15227
▁toplayıp	-15228
amıştır	-15229
▁makale	-15230
▁tanımı	-15231
▁Ist	-15232
.6	-15233
ああああ	-15234
▁olabildiğince	-15235
▁tedavisinde	-15236
Bütün	-15237
▁fiyata	-15238
▁Parça	-15239
▁Hızır	-15240
▁olmamız	-15241
▁problemleri	-15242
oterapi	-15243
▁Başarı	-15244
dört	-15245
▁Ünal	-15246
▁Ölç	-15247
▁gölge	-15248
▁kızını	-15249
▁kurmaya	-15250
İlk	-15251
sion	-15252
▁ÜNİVERS	-15253
▁üze	-15254
▁imha	-15255
▁mahkemeye	-15256
[...]
