<unk>	0
<s>	0
</s>	0
ar	-0
▁b	-1
er	-2
an	-3
in	-4
▁k	-5
en	-6
▁d	-7
ın	-8
▁s	-9
ir	-10
il	-11
▁y	-12
▁g	-13
al	-14
ak	-15
▁o	-16
lar	-17
▁t	-18
▁i	-19
▁v	-20
el	-21
ek	-22
▁h	-23
ma	-24
et	-25
la	-26
▁a	-27
un	-28
da	-29
de	-30
ler	-31
▁bir	-32
▁m	-33
or	-34
▁ve	-35
es	-36
iy	-37
im	-38
ır	-39
em	-40
▁ç	-41
iz	-42
ur	-43
at	-44
ik	-45
ed	-46
on	-47
ün	-48
ay	-49
▁ol	-50
ey	-51
as	-52
lı	-53
▁bu	-54
▁ya	-55
▁p	-56
dı	-57
ür	-58
▁ö	-59
is	-60
iş	-61
▁de	-62
am	-63
le	-64
ış	-65
aş	-66
▁f	-67
ıl	-68
▁da	-69
▁n	-70
▁ş	-71
dan	-72
du	-73
ul	-74
it	-75
▁al	-76
▁gö	-77
▁ka	-78
di	-79
ını	-80
ya	-81
um	-82
▁il	-83
ım	-84
ık	-85
li	-86
▁iç	-87
st	-88
ini	-89
üz	-90
▁ar	-91
ce	-92
ında	-93
ine	-94
ok	-95
ab	-96
den	-97
▁r	-98
ız	-99
▁e	-100
ol	-101
▁sa	-102
inde	-103
▁an	-104
lan	-105
ları	-106
▁z	-107
▁u	-108
yor	-109
az	-110
▁yap	-111
ük	-112
▁baş	-113
ti	-114
▁c	-115
▁1	-116
mas	-117
tı	-118
ların	-119
iler	-120
üm	-121
iyor	-122
mak	-123
ğı	-124
▁için	-125
esi	-126
▁kar	-127
dır	-128
leri	-129
ta	-130
eler	-131
▁gör	-132
▁et	-133
alar	-134
uş	-135
▁son	-136
ra	-137
ev	-138
ül	-139
ına	-140
▁bil	-141
ca	-142
▁gel	-143
üş	-144
inin	-145
▁2	-146
▁ed	-147
te	-148
ği	-149
unu	-150
oğ	-151
cak	-152
dir	-153
ah	-154
▁ay	-155
iye	-156
▁ver	-157
▁ger	-158
ıs	-159
▁“	-160
mış	-161
us	-162
uk	-163
lik	-164
▁ön	-165
▁on	-166
▁ile	-167
ut	-168
eç	-169
ec	-170
▁oldu	-171
▁in	-172
tir	-173
bil	-174
ib	-175
mek	-176
ön	-177
▁kon	-178
ha	-179
▁en	-180
lık	-181
▁(	-182
▁değ	-183
▁tar	-184
uz	-185
..	-186
miş	-187
edi	-188
ez	-189
tır	-190
tan	-191
larak	-192
▁kal	-193
ip	-194
öy	-195
▁ken	-196
len	-197
af	-198
man	-199
▁kad	-200
▁yer	-201
▁iş	-202
ından	-203
▁olarak	-204
▁her	-205
cı	-206
▁kur	-207
▁ma	-208
▁or	-209
üy	-210
▁çok	-211
▁olan	-212
▁ko	-213
ki	-214
se	-215
iniz	-216
ması	-217
laş	-218
ibi	-219
▁var	-220
▁el	-221
▁daha	-222
▁gün	-223
▁bul	-224
anı	-225
lay	-226
eş	-227
op	-228
▁tür	-229
lu	-230
lem	-231
eni	-232
▁ist	-233
ının	-234
▁olduğ	-235
▁bel	-236
eye	-237
▁aç	-238
▁gibi	-239
ağ	-240
san	-241
ro	-242
▁geç	-243
▁çık	-244
ası	-245
▁yar	-246
ih	-247
inden	-248
aki	-249
aman	-250
ıyor	-251
▁ak	-252
ken	-253
sa	-254
imiz	-255
ka	-256
▁sür	-257
▁ne	-258
▁öz	-259
▁kul	-260
▁uy	-261
eki	-262
▁ben	-263
▁düş	-264
me	-265
ap	-266
▁üz	-267
▁yıl	-268
▁ama	-269
▁yan	-270
▁"	-271
▁hal	-272
üt	-273
...	-274
ama	-275
▁doğ	-276
yla	-277
▁yaş	-278
isi	-279
alı	-280
▁dev	-281
▁bun	-282
iç	-283
▁par	-284
▁3	-285
▁çal	-286
eden	-287
▁kadar	-288
▁üzer	-289
▁sonra	-290
▁zaman	-291
▁türk	-292
ecek	-293
ru	-294
▁l	-295
▁dur	-296
ili	-297
daki	-298
os	-299
▁bak	-300
▁top	-301
ci	-302
▁büy	-303
ör	-304
▁tek	-305
▁karş	-306
▁kend	-307
maya	-308
▁kullan	-309
eri	-310
bilir	-311
▁çalış	-312
üç	-313
larını	-314
lü	-315
eh	-316
eb	-317
lerin	-318
ğr	-319
▁kay	-320
ğını	-321
▁gerek	-322
uy	-323
yon	-324
öz	-325
let	-326
▁bo	-327
tur	-328
eli	-329
▁şey	-330
▁mü	-331
▁say	-332
▁hay	-333
unda	-334
▁es	-335
iyle	-336
▁sor	-337
id	-338
▁gen	-339
▁ev	-340
aya	-341
▁ola	-342
▁yaz	-343
ılı	-344
▁bulun	-345
▁ek	-346
▁yön	-347
ece	-348
abil	-349
▁er	-350
lam	-351
met	-352
▁kap	-353
iyet	-354
ist	-355
▁der	-356
▁dön	-357
▁sağ	-358
▁20	-359
lara	-360
av	-361
leş	-362
ilen	-363
may	-364
ımız	-365
ep	-366
▁as	-367
arak	-368
ten	-369
ilm	-370
▁büyük	-371
ad	-372
▁uz	-373
▁biz	-374
▁hak	-375
ark	-376
gi	-377
▁pro	-378
dım	-379
asında	-380
▁değil	-381
ğini	-382
ılan	-383
dığı	-384
▁yüz	-385
▁taraf	-386
▁yak	-387
ıp	-388
men	-389
sel	-390
▁ki	-391
öl	-392
erek	-393
▁mu	-394
if	-395
yi	-396
▁eğ	-397
▁kat	-398
▁söy	-399
▁yeni	-400
▁oy	-401
▁ad	-402
▁san	-403
lerini	-404
bir	-405
nin	-406
▁har	-407
deki	-408
▁at	-409
muş	-410
▁den	-411
▁sah	-412
▁insan	-413
arı	-414
▁yol	-415
▁4	-416
dü	-417
▁karşı	-418
ot	-419
▁do	-420
edir	-421
imi	-422
cu	-423
▁şek	-424
▁siz	-425
▁sev	-426
▁gerç	-427
ede	-428
om	-429
▁gir	-430
ef	-431
ran	-432
▁yok	-433
malar	-434
▁özel	-435
▁göz	-436
▁hem	-437
▁bağ	-438
▁öğr	-439
ers	-440
▁uyg	-441
▁ür	-442
ada	-443
ic	-444
▁ok	-445
lama	-446
▁ise	-447
tu	-448
▁ü	-449
▁böl	-450
dür	-451
bul	-452
▁söz	-453
▁kiş	-454
▁düşün	-455
▁mer	-456
▁bur	-457
uyor	-458
▁hiç	-459
ter	-460
▁gerçek	-461
▁dün	-462
rı	-463
▁tem	-464
ğu	-465
▁tak	-466
eleri	-467
ladı	-468
enin	-469
ne	-470
▁diye	-471
▁öl	-472
kin	-473
▁mil	-474
ısı	-475
▁ser	-476
▁tan	-477
▁ce	-478
00	-479
▁di	-480
▁belir	-481
▁göre	-482
ster	-483
▁5	-484
makta	-485
eyi	-486
▁yük	-487
▁alt	-488
nın	-489
una	-490
▁ort	-491
tık	-492
▁-	-493
tr	-494
▁düz	-495
öyle	-496
▁kor	-497
der	-498
▁tarih	-499
▁ada	-500
lere	-501
▁açık	-502
▁olduğu	-503
▁sır	-504
nı	-505
▁su	-506
▁19	-507
▁gü	-508
elik	-509
▁em	-510
sız	-511
acak	-512
▁kan	-513
tür	-514
lah	-515
maz	-516
▁aş	-517
larda	-518
▁haz	-519
▁veya	-520
oc	-521
▁yet	-522
esinde	-523
▁dedi	-524
▁başk	-525
si	-526
▁has	-527
▁göster	-528
▁alan	-529
▁durum	-530
▁önem	-531
ınız	-532
▁az	-533
▁ağ	-534
▁ilk	-535
▁iyi	-536
▁olduğunu	-537
▁çek	-538
dur	-539
etir	-540
mesi	-541
▁duy	-542
aç	-543
▁fark	-544
▁ilg	-545
▁edil	-546
eyen	-547
tü	-548
▁sav	-549
▁tut	-550
larının	-551
lat	-552
▁iki	-553
ütün	-554
lığı	-555
▁getir	-556
tedir	-557
▁ter	-558
diği	-559
ht	-560
▁tarafından	-561
▁kö	-562
▁şekil	-563
siniz	-564
sı	-565
▁hat	-566
▁kim	-567
ğer	-568
▁değiş	-569
fa	-570
▁içinde	-571
siz	-572
▁türkiye	-573
iv	-574
▁dem	-575
ram	-576
▁201	-577
▁tüm	-578
▁etti	-579
larına	-580
eti	-581
up	-582
▁iz	-583
anın	-584
re	-585
tik	-586
atı	-587
aber	-588
▁bey	-589
unun	-590
.”	-591
▁kaz	-592
dık	-593
▁oluş	-594
iyordu	-595
art	-596
esine	-597
▁kıs	-598
est	-599
üs	-600
▁ban	-601
▁bilg	-602
▁bütün	-603
ileri	-604
▁aynı	-605
abilir	-606
▁is	-607
▁taş	-608
▁doğru	-609
▁av	-610
ye	-611
▁kendi	-612
▁önce	-613
üyor	-614
▁seç	-615
meye	-616
han	-617
maktadır	-618
▁neden	-619
ça	-620
▁sen	-621
▁mo	-622
ülk	-623
▁bin	-624
▁bas	-625
esini	-626
usu	-627
▁öğren	-628
▁kes	-629
ara	-630
mektedir	-631
daş	-632
▁dış	-633
▁olma	-634
▁hiz	-635
sun	-636
▁olur	-637
dece	-638
etim	-639
▁ör	-640
▁zor	-641
lardan	-642
▁sal	-643
▁yay	-644
aret	-645
▁şekilde	-646
▁baz	-647
▁ab	-648
▁güz	-649
liği	-650
lerine	-651
▁hizmet	-652
▁üst	-653
▁birlik	-654
▁mes	-655
kü	-656
alık	-657
ocuk	-658
▁ancak	-659
▁w	-660
tar	-661
▁bek	-662
ret	-663
▁onun	-664
iyorum	-665
ven	-666
lerinin	-667
▁hakk	-668
aları	-669
▁diğer	-670
ayan	-671
ındaki	-672
▁kız	-673
▁faz	-674
▁şu	-675
ıla	-676
▁arasında	-677
na	-678
▁kurul	-679
▁j	-680
▁nas	-681
▁böyle	-682
lığ	-683
▁genel	-684
▁konuş	-685
▁değer	-686
▁devlet	-687
▁6	-688
uv	-689
ünde	-690
▁geliş	-691
ımı	-692
▁devam	-693
▁çocuk	-694
dik	-695
ünü	-696
▁han	-697
ri	-698
ıldı	-699
▁güzel	-700
▁çıkar	-701
▁sonu	-702
lerde	-703
▁git	-704
▁gelen	-705
▁eğit	-706
ayı	-707
raf	-708
▁ülk	-709
▁tab	-710
▁boy	-711
olo	-712
larında	-713
▁görün	-714
▁kit	-715
ğin	-716
▁önemli	-717
▁fak	-718
üne	-719
▁sahip	-720
▁mal	-721
▁ün	-722
▁fazla	-723
ılmış	-724
aca	-725
▁kr	-726
▁ot	-727
hal	-728
▁hayat	-729
iyat	-730
bu	-731
asyon	-732
▁ede	-733
▁başka	-734
ans	-735
ıy	-736
▁tes	-737
ac	-738
leştir	-739
alan	-740
▁dav	-741
dar	-742
ledi	-743
çe	-744
ilik	-745
▁dik	-746
▁im	-747
mem	-748
▁ilgili	-749
stan	-750
▁hazır	-751
larla	-752
▁bile	-753
▁dil	-754
▁eş	-755
tığı	-756
▁adam	-757
üp	-758
▁alın	-759
▁düzen	-760
▁nasıl	-761
ber	-762
unuz	-763
▁birlikte	-764
▁mi	-765
sek	-766
▁am	-767
▁hav	-768
▁şeh	-769
▁can	-770
▁sat	-771
kez	-772
▁bunun	-773
likle	-774
ırak	-775
▁ayrı	-776
istem	-777
lendir	-778
▁gön	-779
▁savaş	-780
▁kadın	-781
eket	-782
▁konu	-783
▁7	-784
▁sadece	-785
▁yat	-786
luk	-787
▁so	-788
▁onu	-789
miştir	-790
▁çev	-791
diğ	-792
ley	-793
▁dönem	-794
▁bırak	-795
▁din	-796
▁sistem	-797
▁yardım	-798
ıcı	-799
▁tel	-800
▁bah	-801
oloj	-802
▁etk	-803
▁üç	-804
kı	-805
▁arka	-806
▁merkez	-807
▁kom	-808
▁bölg	-809
▁güç	-810
▁olmak	-811
▁sık	-812
▁güven	-813
gün	-814
▁önc	-815
del	-816
stanbul	-817
▁saat	-818
ilerin	-819
mi	-820
bet	-821
▁eden	-822
dığını	-823
ebilir	-824
▁eğitim	-825
rup	-826
▁man	-827
mıştı	-828
▁benim	-829
▁üzerine	-830
▁mut	-831
dığ	-832
▁gid	-833
▁bazı	-834
▁te	-835
▁kaç	-836
▁kazan	-837
▁karar	-838
lerinde	-839
▁içer	-840
mayı	-841
olu	-842
▁yür	-843
▁hep	-844
▁mak	-845
▁farklı	-846
masını	-847
▁haf	-848
malı	-849
▁oyun	-850
▁ulaş	-851
▁sı	-852
▁eder	-853
▁ah	-854
sin	-855
lak	-856
▁şim	-857
kan	-858
yal	-859
bn	-860
▁kır	-861
▁kendis	-862
▁olacak	-863
▁bit	-864
▁uzun	-865
gu	-866
▁iliş	-867
20	-868
▁mad	-869
▁8	-870
▁sar	-871
▁görev	-872
▁ses	-873
▁sit	-874
cel	-875
ulu	-876
▁dünya	-877
▁kam	-878
ünkü	-879
laya	-880
▁ik	-881
cek	-882
ğü	-883
▁tama	-884
▁#	-885
▁biri	-886
nun	-887
ika	-888
▁kav	-889
ildi	-890
▁yüksek	-891
▁res	-892
▁küç	-893
kat	-894
rak	-895
lerden	-896
▁‘	-897
mez	-898
▁hareket	-899
ılır	-900
▁tekn	-901
▁10	-902
▁yapılan	-903
ide	-904
▁gaz	-905
por	-906
."	-907
mıştır	-908
cü	-909
▁tah	-910
▁çünkü	-911
▁tam	-912
▁uygu	-913
oz	-914
▁ürün	-915
▁hiçbir	-916
liğ	-917
sal	-918
▁allah	-919
med	-920
▁met	-921
▁iht	-922
▁rah	-923
▁yem	-924
masına	-925
duğu	-926
▁bunu	-927
eğ	-928
▁sek	-929
▁haber	-930
dim	-931
larından	-932
müş	-933
lerinden	-934
▁li	-935
lâ	-936
mayan	-937
▁olduk	-938
▁tas	-939
▁hük	-940
▁anlam	-941
esinin	-942
layan	-943
▁la	-944
▁yal	-945
ağı	-946
indeki	-947
▁bulunan	-948
▁üzerinde	-949
▁ona	-950
▁geçir	-951
▁koy	-952
▁mah	-953
▁düny	-954
▁bar	-955
▁bölüm	-956
▁fakat	-957
▁öy	-958
rar	-959
eg	-960
gil	-961
mişti	-962
siy	-963
ebil	-964
▁halk	-965
ren	-966
▁yine	-967
van	-968
▁ey	-969
▁arkadaş	-970
lum	-971
lük	-972
▁küçük	-973
▁kabul	-974
elim	-975
gram	-976
lerle	-977
▁artık	-978
▁bab	-979
ıt	-980
▁görüş	-981
tör	-982
▁sun	-983
▁olay	-984
▁ber	-985
lardı	-986
ulan	-987
▁belirt	-988
ban	-989
▁tur	-990
▁9	-991
eceğ	-992
▁dok	-993
lo	-994
▁bana	-995
ver	-996
▁kas	-997
dem	-998
▁gönder	-999
tal	-1000
gel	-1001
▁üzere	-1002
▁pol	-1003
▁mev	-1004
bar	-1005
▁olması	-1006
âr	-1007
▁hız	-1008
▁mar	-1009
▁mek	-1010
emiz	-1011
ılması	-1012
▁siy	-1013
orm	-1014
hur	-1015
▁hemen	-1016
▁dikkat	-1017
▁hakkında	-1018
▁muh	-1019
net	-1020
▁bay	-1021
▁genç	-1022
▁ask	-1023
▁eski	-1024
▁yani	-1025
▁teş	-1026
▁etmek	-1027
asına	-1028
▁ortaya	-1029
▁fa	-1030
uma	-1031
ni	-1032
suz	-1033
▁yönet	-1034
çi	-1035
▁yas	-1036
za	-1037
▁pek	-1038
▁yaşam	-1039
gan	-1040
iyoruz	-1041
▁uygun	-1042
▁seb	-1043
▁sab	-1044
gı	-1045
tım	-1046
▁kork	-1047
▁'	-1048
gin	-1049
▁os	-1050
ilmesi	-1051
▁sos	-1052
▁orta	-1053
usunda	-1054
elerin	-1055
çok	-1056
▁oğ	-1057
▁beled	-1058
▁ren	-1059
ıyordu	-1060
▁kol	-1061
▁sak	-1062
▁ayr	-1063
▁işlem	-1064
larımız	-1065
▁cum	-1066
edik	-1067
be	-1068
▁olmuş	-1069
▁şimdi	-1070
▁oluştur	-1071
▁yor	-1072
manın	-1073
▁bilin	-1074
▁art	-1075
▁program	-1076
▁başkanı	-1077
▁ro	-1078
isinde	-1079
▁mey	-1080
ket	-1081
▁proj	-1082
▁his	-1083
▁mem	-1084
▁15	-1085
▁başladı	-1086
ivers	-1087
▁cev	-1088
▁kayn	-1089
▁yakın	-1090
▁diy	-1091
baş	-1092
▁dolay	-1093
çı	-1094
▁fir	-1095
oş	-1096
▁üy	-1097
iversit	-1098
▁burada	-1099
ân	-1100
▁yaklaş	-1101
▁otur	-1102
yan	-1103
▁mı	-1104
ge	-1105
▁,	-1106
mam	-1107
kes	-1108
yı	-1109
▁nok	-1110
madan	-1111
lamak	-1112
▁kül	-1113
maları	-1114
duğ	-1115
acı	-1116
▁başkan	-1117
▁tal	-1118
ince	-1119
▁vardı	-1120
▁*	-1121
▁ul	-1122
he	-1123
▁gül	-1124
▁yerine	-1125
▁erk	-1126
par	-1127
),	-1128
sik	-1129
▁hüküm	-1130
ing	-1131
▁çöz	-1132
▁dest	-1133
▁üniversit	-1134
▁200	-1135
▁geldi	-1136
▁kolay	-1137
▁vardır	-1138
▁ihtiy	-1139
▁mas	-1140
▁ifa	-1141
lanan	-1142
▁geri	-1143
▁anlat	-1144
lantı	-1145
sam	-1146
▁toplum	-1147
nız	-1148
▁hast	-1149
lıyor	-1150
det	-1151
▁benz	-1152
▁kişi	-1153
▁inan	-1154
ilir	-1155
ümüz	-1156
sen	-1157
/1	-1158
▁biraz	-1159
▁etm	-1160
▁–	-1161
▁sil	-1162
▁osman	-1163
▁çeş	-1164
▁ef	-1165
eme	-1166
▁destek	-1167
▁pay	-1168
▁fır	-1169
▁hâ	-1170
▁başar	-1171
▁ayrıca	-1172
tim	-1173
istan	-1174
▁çağ	-1175
işim	-1176
▁ifade	-1177
▁çar	-1178
▁sorun	-1179
▁eğer	-1180
▁sonr	-1181
▁rahat	-1182
▁ail	-1183
▁bilgi	-1184
min	-1185
▁birbir	-1186
▁yen	-1187
▁tat	-1188
aba	-1189
▁tamam	-1190
ig	-1191
▁çin	-1192
▁plan	-1193
▁müdür	-1194
▁film	-1195
aşa	-1196
▁sonuç	-1197
▁deniz	-1198
undan	-1199
▁birçok	-1200
aştır	-1201
▁per	-1202
▁12	-1203
▁uzak	-1204
▁ziy	-1205
üc	-1206
▁sosyal	-1207
▁gelir	-1208
▁le	-1209
tığ	-1210
▁sey	-1211
▁anlaş	-1212
▁â	-1213
▁bizim	-1214
▁beni	-1215
-1	-1216
asını	-1217
▁istedi	-1218
▁şir	-1219
▁pey	-1220
▁bugün	-1221
inizi	-1222
▁yalnız	-1223
ınır	-1224
▁vur	-1225
umuz	-1226
▁:	-1227
▁oda	-1228
ov	-1229
▁cumhur	-1230
▁yayın	-1231
ekli	-1232
▁ner	-1233
).	-1234
▁yarat	-1235
▁kitap	-1236
▁tav	-1237
?”	-1238
oğlu	-1239
▁sağlık	-1240
▁ard	-1241
▁tanı	-1242
▁[	-1243
▁millet	-1244
▁18	-1245
cağ	-1246
sın	-1247
▁araştır	-1248
bi	-1249
▁görül	-1250
unca	-1251
din	-1252
leme	-1253
▁kurum	-1254
▁olabilir	-1255
ort	-1256
▁özellikle	-1257
▁yılında	-1258
▁sur	-1259
lemek	-1260
lenen	-1261
kün	-1262
tif	-1263
▁koş	-1264
uh	-1265
dın	-1266
▁boz	-1267
meler	-1268
gam	-1269
res	-1270
su	-1271
▁kez	-1272
▁herkes	-1273
▁gerçekleştir	-1274
ışı	-1275
▁kah	-1276
▁yağ	-1277
▁istem	-1278
onom	-1279
▁altında	-1280
▁müş	-1281
ğa	-1282
ayet	-1283
▁olsun	-1284
▁dir	-1285
▁kil	-1286
ünün	-1287
▁tasar	-1288
▁biç	-1289
lerimiz	-1290
dum	-1291
▁yanı	-1292
amaz	-1293
▁öyle	-1294
▁hes	-1295
uluk	-1296
▁ediyor	-1297
▁diz	-1298
▁beş	-1299
▁çeşit	-1300
deş	-1301
▁üret	-1302
vet	-1303
dak	-1304
eği	-1305
urt	-1306
▁uç	-1307
lim	-1308
▁kültür	-1309
▁boş	-1310
▁ac	-1311
ırım	-1312
▁sul	-1313
▁ağır	-1314
sil	-1315
▁ch	-1316
og	-1317
bol	-1318
per	-1319
▁anla	-1320
▁tekrar	-1321
tin	-1322
▁kı	-1323
▁müz	-1324
▁0	-1325
.1	-1326
▁öğrenc	-1327
▁bakan	-1328
▁geçen	-1329
▁kir	-1330
▁fiyat	-1331
leyen	-1332
▁ulus	-1333
▁ayak	-1334
imde	-1335
▁bağlı	-1336
iydi	-1337
teş	-1338
tiği	-1339
vi	-1340
▁sok	-1341
▁11	-1342
▁adı	-1343
▁asker	-1344
ch	-1345
medi	-1346
▁ora	-1347
▁telef	-1348
ğimiz	-1349
âm	-1350
aj	-1351
▁vak	-1352
▁aşağı	-1353
diler	-1354
▁olup	-1355
abilirsiniz	-1356
▁sınır	-1357
▁kut	-1358
▁paz	-1359
ünden	-1360
siyon	-1361
▁çoğ	-1362
▁avrup	-1363
▁erkek	-1364
▁dol	-1365
kinci	-1366
edim	-1367
▁kaldır	-1368
eyh	-1369
kara	-1370
▁sel	-1371
▁kaynak	-1372
uyu	-1373
▁kısa	-1374
ba	-1375
▁müm	-1376
iyi	-1377
doğ	-1378
▁men	-1379
▁dö	-1380
▁süre	-1381
▁müs	-1382
▁köy	-1383
▁edilen	-1384
▁günü	-1385
▁telefon	-1386
ilmiş	-1387
gamber	-1388
▁başla	-1389
▁bilim	-1390
▁dair	-1391
nek	-1392
ıntı	-1393
▁temel	-1394
▁gi	-1395
▁13	-1396
▁söyledi	-1397
▁terc	-1398
atan	-1399
asının	-1400
▁ardından	-1401
▁buna	-1402
ilere	-1403
ınıf	-1404
ğim	-1405
▁konusunda	-1406
üf	-1407
▁du	-1408
▁dönüş	-1409
laştır	-1410
▁size	-1411
eceği	-1412
▁sultan	-1413
▁peygamber	-1414
▁öğret	-1415
▁öldür	-1416
▁kuş	-1417
▁ku	-1418
▁siyas	-1419
▁oyn	-1420
ali	-1421
▁değildir	-1422
▁sanat	-1423
!”	-1424
ydı	-1425
▁bor	-1426
sunuz	-1427
▁kontr	-1428
▁abd	-1429
▁dah	-1430
▁hiss	-1431
▁madde	-1432
▁dör	-1433
▁ölüm	-1434
kaç	-1435
▁zar	-1436
▁med	-1437
▁araç	-1438
▁ir	-1439
ılacak	-1440
▁yeniden	-1441
▁paşa	-1442
▁para	-1443
edef	-1444
▁ekonom	-1445
uru	-1446
düğ	-1447
▁yav	-1448
abı	-1449
▁yönetim	-1450
▁ilişk	-1451
▁değerlendir	-1452
▁hey	-1453
▁meydan	-1454
▁kalk	-1455
oy	-1456
▁sin	-1457
▁iti	-1458
ıyorum	-1459
ade	-1460
▁avrupa	-1461
▁id	-1462
▁14	-1463
ime	-1464
▁kardeş	-1465
▁şöyle	-1466
ici	-1467
oğraf	-1468
▁kesin	-1469
▁ait	-1470
ehir	-1471
▁mec	-1472
▁ordu	-1473
gın	-1474
▁um	-1475
▁zamanda	-1476
▁verdi	-1477
▁aleyh	-1478
▁bildir	-1479
....	-1480
duk	-1481
larıyla	-1482
ve	-1483
▁yapan	-1484
▁mümkün	-1485
▁isim	-1486
▁şehir	-1487
▁sınıf	-1488
▁hedef	-1489
ızı	-1490
▁okul	-1491
landır	-1492
nde	-1493
▁çevr	-1494
▁yaptığı	-1495
ngil	-1496
▁kontrol	-1497
▁16	-1498
isini	-1499
tem	-1500
▁şah	-1501
▁paylaş	-1502
meden	-1503
▁şirket	-1504
▁geniş	-1505
▁spor	-1506
aların	-1507
sanız	-1508
▁demek	-1509
leriyle	-1510
▁dal	-1511
▁karış	-1512
▁ölç	-1513
üman	-1514
▁aras	-1515
▁renk	-1516
▁%	-1517
▁cin	-1518
▁üc	-1519
▁kem	-1520
▁soru	-1521
▁osmanlı	-1522
lardır	-1523
▁davran	-1524
ınca	-1525
adan	-1526
▁oluyor	-1527
▁birkaç	-1528
▁gez	-1529
▁müca	-1530
▁temiz	-1531
▁fran	-1532
▁kaf	-1533
▁ankara	-1534
zı	-1535
▁tabi	-1536
▁parç	-1537
▁değişik	-1538
pan	-1539
▁tep	-1540
▁beraber	-1541
▁indir	-1542
▁gazet	-1543
▁dayan	-1544
▁re	-1545
aten	-1546
▁cam	-1547
▁başv	-1548
▁hun	-1549
▁st	-1550
▁engel	-1551
▁geliştir	-1552
▁saç	-1553
▁devr	-1554
acağ	-1555
▁incel	-1556
ıda	-1557
▁tarihi	-1558
▁onlar	-1559
▁pr	-1560
▁olmayan	-1561
esinden	-1562
▁teh	-1563
▁milyon	-1564
▁değiştir	-1565
▁_	-1566
ısında	-1567
▁unu	-1568
▁saldır	-1569
▁ruh	-1570
ke	-1571
cağını	-1572
▁gece	-1573
▁dar	-1574
▁(1	-1575
mı	-1576
▁asl	-1577
▁hatta	-1578
▁ana	-1579
201	-1580
▁belki	-1581
▁çalışmalar	-1582
▁suç	-1583
▁dak	-1584
▁kendiler	-1585
alım	-1586
▁meh	-1587
▁prof	-1588
▁ço	-1589
▁17	-1590
▁yüksel	-1591
alt	-1592
▁oldukça	-1593
▁yaşan	-1594
▁bize	-1595
▁kendini	-1596
▁kuv	-1597
▁po	-1598
▁lis	-1599
▁rek	-1600
izm	-1601
▁yaptı	-1602
▁kalit	-1603
▁ziyaret	-1604
▁fik	-1605
ola	-1606
nsan	-1607
▁rus	-1608
lk	-1609
▁özg	-1610
▁gec	-1611
▁|	-1612
▁tic	-1613
▁içerisinde	-1614
▁merkezi	-1615
▁af	-1616
▁dr	-1617
▁hatır	-1618
▁mücadel	-1619
âh	-1620
▁fot	-1621
▁gereken	-1622
bilirsiniz	-1623
cağı	-1624
hangi	-1625
▁cevap	-1626
▁yapmak	-1627
ator	-1628
bak	-1629
▁giz	-1630
▁ann	-1631
▁kıy	-1632
▁yüzde	-1633
meyi	-1634
▁alış	-1635
erli	-1636
ekk	-1637
▁mis	-1638
iyeti	-1639
▁konusu	-1640
umu	-1641
▁tanrı	-1642
▁yanında	-1643
▁tercih	-1644
▁mik	-1645
▁dan	-1646
isinin	-1647
▁uğr	-1648
▁olsa	-1649
▁yemek	-1650
ğiniz	-1651
erj	-1652
▁tük	-1653
▁des	-1654
/2	-1655
▁ham	-1656
▁un	-1657
▁model	-1658
lek	-1659
50	-1660
▁grup	-1661
▁/	-1662
pr	-1663
▁sizin	-1664
▁bunlar	-1665
umlu	-1666
▁alman	-1667
elen	-1668
▁rağ	-1669
▁gal	-1670
arası	-1671
▁pazar	-1672
yet	-1673
▁oku	-1674
▁vatan	-1675
▁veren	-1676
elere	-1677
elerini	-1678
▁giriş	-1679
eyin	-1680
▁ta	-1681
▁düşünc	-1682
tor	-1683
▁nokt	-1684
eyim	-1685
muz	-1686
▁bes	-1687
▁bi	-1688
▁onların	-1689
▁gerekir	-1690
▁örg	-1691
▁nef	-1692
▁kapsam	-1693
▁elde	-1694
▁ih	-1695
▁herhangi	-1696
▁kür	-1697
▁yapıl	-1698
▁serv	-1699
com	-1700
unuyor	-1701
▁bal	-1702
▁don	-1703
▁30	-1704
▁kötü	-1705
▁çalışan	-1706
,”	-1707
▁tr	-1708
▁gider	-1709
▁ip	-1710
▁çiz	-1711
▁nit	-1712
▁ker	-1713
▁ali	-1714
ize	-1715
▁adet	-1716
▁dost	-1717
iştir	-1718
▁pat	-1719
▁teknoloj	-1720
▁sonunda	-1721
efer	-1722
uvar	-1723
▁dört	-1724
▁hafta	-1725
▁faal	-1726
▁mez	-1727
▁hoş	-1728
▁rağmen	-1729
▁cen	-1730
masının	-1731
▁giy	-1732
▁ücret	-1733
of	-1734
▁çıkan	-1735
tiler	-1736
inci	-1737
▁ister	-1738
▁fil	-1739
şam	-1740
nda	-1741
▁yık	-1742
▁itibar	-1743
?"	-1744
▁bundan	-1745
alet	-1746
▁kurt	-1747
ğın	-1748
▁kara	-1749
âz	-1750
end	-1751
▁çalışma	-1752
parator	-1753
▁seçim	-1754
▁özellik	-1755
▁takım	-1756
▁elek	-1757
ser	-1758
▁kendisine	-1759
▁aldı	-1760
30	-1761
ecektir	-1762
▁aslında	-1763
ari	-1764
▁yoğ	-1765
▁çıktı	-1766
eceğini	-1767
▁sol	-1768
▁hava	-1769
▁gök	-1770
ılıyor	-1771
issel	-1772
ben	-1773
▁gem	-1774
▁adım	-1775
▁ark	-1776
anıyor	-1777
▁etkin	-1778
▁fay	-1779
can	-1780
▁yapı	-1781
lüğ	-1782
▁toprak	-1783
▁ateş	-1784
2,	-1785
▁sektör	-1786
▁bakım	-1787
▁of	-1788
▁yolu	-1789
▁iler	-1790
kil	-1791
mer	-1792
▁derece	-1793
malıdır	-1794
▁onları	-1795
▁düşman	-1796
tiğini	-1797
▁1.	-1798
mesini	-1799
ant	-1800
▁yere	-1801
▁yaşa	-1802
şa	-1803
▁anda	-1804
▁aleyhissel	-1805
▁yöntem	-1806
▁ikinci	-1807
▁yorum	-1808
sınız	-1809
▁ortak	-1810
▁ders	-1811
▁gerçekten	-1812
▁gar	-1813
▁belli	-1814
▁takip	-1815
▁eser	-1816
lis	-1817
▁dışında	-1818
landı	-1819
▁yarar	-1820
▁bat	-1821
ternet	-1822
▁çözüm	-1823
▁«	-1824
las	-1825
▁yaban	-1826
▁ilet	-1827
▁müsl	-1828
▁kims	-1829
▁ap	-1830
fer	-1831
lüğü	-1832
▁unut	-1833
▁tl	-1834
▁silah	-1835
▁senin	-1836
izi	-1837
▁belediye	-1838
▁şekl	-1839
▁iy	-1840
▁orada	-1841
▁yerde	-1842
▁faaliyet	-1843
▁yapar	-1844
▁yuk	-1845
sat	-1846
alarda	-1847
▁amaç	-1848
▁aydın	-1849
▁teknik	-1850
elerde	-1851
yo	-1852
▁zaten	-1853
000	-1854
▁böylece	-1855
itik	-1856
rik	-1857
▁kuvvet	-1858
▁boyunca	-1859
esiyle	-1860
meyen	-1861
▁almak	-1862
▁x	-1863
▁veril	-1864
▁halde	-1865
▁taşı	-1866
▁oran	-1867
▁toplantı	-1868
ast	-1869
▁götür	-1870
▁hayvan	-1871
▁organ	-1872
ala	-1873
▁yum	-1874
▁öde	-1875
▁ara	-1876
mayacak	-1877
▁üzerinden	-1878
▁çeşitli	-1879
▁sabah	-1880
▁mus	-1881
od	-1882
▁zorunda	-1883
▁maç	-1884
▁karşılaş	-1885
alama	-1886
▁ele	-1887
▁teda	-1888
madı	-1889
▁doğr	-1890
▁hik	-1891
▁gerekli	-1892
▁sebep	-1893
imizin	-1894
rah	-1895
▁müslüman	-1896
leye	-1897
▁türlü	-1898
▁kab	-1899
▁mahk	-1900
lış	-1901
▁dolayı	-1902
▁sıra	-1903
▁##	-1904
▁söylem	-1905
▁çocu	-1906
▁enerj	-1907
▁—	-1908
üb	-1909
1,	-1910
▁fotoğraf	-1911
▁fel	-1912
▁doğal	-1913
lığını	-1914
▁mesel	-1915
kır	-1916
▁24	-1917
▁akıl	-1918
luluk	-1919
ülü	-1920
▁amer	-1921
▁val	-1922
▁sem	-1923
▁şart	-1924
şte	-1925
ısından	-1926
▁part	-1927
5,	-1928
▁kalan	-1929
▁elektr	-1930
▁olabil	-1931
okr	-1932
luğu	-1933
▁belediy	-1934
8,	-1935
3,	-1936
▁idi	-1937
gen	-1938
lanmış	-1939
▁örnek	-1940
▁şeyi	-1941
onu	-1942
üst	-1943
fi	-1944
▁geçmiş	-1945
▁ettiği	-1946
emez	-1947
▁durumda	-1948
düğü	-1949
▁soy	-1950
isine	-1951
1.	-1952
▁çif	-1953
imizi	-1954
▁uzman	-1955
▁üniversitesi	-1956
▁acı	-1957
▁öner	-1958
▁ıs	-1959
dî	-1960
sak	-1961
▁sürdür	-1962
▁del	-1963
▁ederek	-1964
for	-1965
menin	-1966
▁güneş	-1967
▁cih	-1968
](	-1969
luğ	-1970
▁zen	-1971
ıyla	-1972
ku	-1973
▁temsil	-1974
mel	-1975
▁soğ	-1976
▁kurulu	-1977
▁piy	-1978
▁amacı	-1979
ob	-1980
ent	-1981
▁sürekli	-1982
▁edin	-1983
ima	-1984
ışık	-1985
▁kelim	-1986
▁ha	-1987
9,	-1988
7,	-1989
▁mark	-1990
▁insanlar	-1991
irler	-1992
▁tanım	-1993
▁kuz	-1994
▁sez	-1995
▁hızlı	-1996
ırken	-1997
▁parti	-1998
▁vaz	-1999
▁belg	-2000
▁hastan	-2001
dıkları	-2002
ukuk	-2003
yıl	-2004
üsü	-2005
gun	-2006
▁.	-2007
ho	-2008
▁num	-2009
cer	-2010
afa	-2011
ira	-2012
▁arab	-2013
▁sıcak	-2014
▁anad	-2015
▁2.	-2016
ıyoruz	-2017
unan	-2018
6,	-2019
br	-2020
taş	-2021
▁kapı	-2022
ısıyla	-2023
▁nak	-2024
lin	-2025
▁hesap	-2026
▁satış	-2027
4,	-2028
▁sam	-2029
,"	-2030
uştur	-2031
▁buy	-2032
▁sahibi	-2033
▁iddi	-2034
▁ihtiyaç	-2035
bat	-2036
2.	-2037
▁>	-2038
▁başına	-2039
▁yardımcı	-2040
▁yüzden	-2041
▁sana	-2042
dük	-2043
▁gelecek	-2044
▁sayf	-2045
ekkür	-2046
▁şeyler	-2047
ale	-2048
▁for	-2049
▁hangi	-2050
kın	-2051
▁şaş	-2052
▁yazı	-2053
▁beb	-2054
layacak	-2055
▁geçti	-2056
▁beyaz	-2057
cut	-2058
mesine	-2059
alarında	-2060
▁edecek	-2061
▁uygulan	-2062
▁**	-2063
▁mahal	-2064
▁canlı	-2065
eder	-2066
sta	-2067
her	-2068
▁bilgiler	-2069
▁çevir	-2070
▁tart	-2071
▁it	-2072
▁gerçekleş	-2073
dr	-2074
isyon	-2075
ılım	-2076
▁istiyor	-2077
arlar	-2078
▁cez	-2079
▁yukarı	-2080
▁2018	-2081
ga	-2082
fet	-2083
eci	-2084
▁hukuk	-2085
▁dağ	-2086
▁may	-2087
bur	-2088
▁yönelik	-2089
manız	-2090
▁güçlü	-2091
▁yurt	-2092
imize	-2093
▁yoktur	-2094
▁ileri	-2095
▁üretim	-2096
lıkla	-2097
▁mağ	-2098
ia	-2099
▁örne	-2100
▁altın	-2101
▁\	-2102
▁etmiş	-2103
▁yatırım	-2104
▁nerede	-2105
▁halinde	-2106
▁nedeniyle	-2107
▁yoğun	-2108
tay	-2109
▁25	-2110
teki	-2111
▁onlara	-2112
▁bunların	-2113
uyordu	-2114
inc	-2115
▁arasındaki	-2116
▁anadolu	-2117
▁şi	-2118
mir	-2119
türk	-2120
lerdir	-2121
elerinin	-2122
▁diyor	-2123
▁yabancı	-2124
lerdi	-2125
▁mevcut	-2126
ngiliz	-2127
ati	-2128
matik	-2129
▁milli	-2130
▁edilm	-2131
tiv	-2132
▁vatandaş	-2133
▁demir	-2134
▁akşam	-2135
▁kayıt	-2136
▁olmaz	-2137
▁det	-2138
üncü	-2139
▁yanlış	-2140
fak	-2141
▁ortam	-2142
▁must	-2143
▁derin	-2144
▁199	-2145
▁fen	-2146
inize	-2147
▁cid	-2148
▁sig	-2149
larım	-2150
▁nes	-2151
hu	-2152
▁kral	-2153
meli	-2154
▁min	-2155
▁gru	-2156
▁meydana	-2157
do	-2158
▁ilç	-2159
▁ilişkin	-2160
ğında	-2161
eştir	-2162
lül	-2163
▁çarp	-2164
▁uluslar	-2165
▁boğ	-2166
▁tu	-2167
▁dağı	-2168
▁toplam	-2169
▁içine	-2170
▁dünyanın	-2171
doğan	-2172
▁sefer	-2173
mekte	-2174
▁net	-2175
▁kendisi	-2176
**	-2177
▁zarar	-2178
alarını	-2179
say	-2180
hak	-2181
▁çift	-2182
▁fet	-2183
taj	-2184
laması	-2185
▁verilen	-2186
▁kuruluş	-2187
▁sına	-2188
▁bayan	-2189
▁malz	-2190
mey	-2191
▁tartış	-2192
▁arz	-2193
masında	-2194
▁çat	-2195
▁rap	-2196
enek	-2197
▁bulunduğu	-2198
meleri	-2199
▁isteyen	-2200
▁başarı	-2201
▁fin	-2202
imin	-2203
▁...	-2204
▁özgür	-2205
▁\-	-2206
▁rak	-2207
▁batı	-2208
▁yavaş	-2209
▁arada	-2210
▁öğretmen	-2211
▁vide	-2212
▁karak	-2213
ıldığı	-2214
▁kamu	-2215
▁mustafa	-2216
10	-2217
▁otel	-2218
rin	-2219
▁str	-2220
▁hale	-2221
yar	-2222
▁pen	-2223
▁tamamen	-2224
▁pren	-2225
lığın	-2226
iğ	-2227
▁hır	-2228
▁örgüt	-2229
▁teşekkür	-2230
layarak	-2231
▁doktor	-2232
▁geliyor	-2233
▁tık	-2234
▁hayır	-2235
▁sırasında	-2236
miyor	-2237
▁yaklaşık	-2238
▁hen	-2239
3.	-2240
allah	-2241
ana	-2242
▁sayesinde	-2243
▁kimse	-2244
alara	-2245
▁huz	-2246
▁aleyhisselâm	-2247
▁sınav	-2248
▁pu	-2249
▁adına	-2250
▁şark	-2251
eniz	-2252
bel	-2253
▁kendisini	-2254
üyle	-2255
▁the	-2256
anlar	-2257
▁insanların	-2258
▁düşünüyor	-2259
▁kok	-2260
▁kuru	-2261
işti	-2262
-2	-2263
▁sırada	-2264
▁ii	-2265
▁fer	-2266
ılma	-2267
▁aday	-2268
▁bizi	-2269
▁güvenlik	-2270
▁se	-2271
lamaya	-2272
mparator	-2273
▁verir	-2274
diğini	-2275
pit	-2276
▁kılı	-2277
evi	-2278
tesi	-2279
bay	-2280
lilik	-2281
amak	-2282
▁izin	-2283
▁doğu	-2284
tıyor	-2285
▁tay	-2286
iliği	-2287
▁polis	-2288
▁çab	-2289
▁mehmet	-2290
▁konuda	-2291
işah	-2292
▁kişinin	-2293
▁önünde	-2294
▁vermek	-2295
▁and	-2296
▁öğ	-2297
▁ez	-2298
ısını	-2299
▁rapor	-2300
lığa	-2301
▁if	-2302
▁yarış	-2303
▁tehlik	-2304
▁yüzyıl	-2305
cısı	-2306
elerine	-2307
▁verdiği	-2308
▁bilgis	-2309
▁bağım	-2310
▁peygamberimiz	-2311
▁uluslararası	-2312
slam	-2313
▁pad	-2314
ulmuş	-2315
.)	-2316
▁yazar	-2317
kar	-2318
▁oğlu	-2319
▁diş	-2320
▁politik	-2321
kanı	-2322
▁meş	-2323
▁dü	-2324
▁pers	-2325
▁benzer	-2326
▁sp	-2327
▁internet	-2328
▁pan	-2329
▁etkil	-2330
▁hz	-2331
▁sistemi	-2332
▁öd	-2333
▁beri	-2334
▁gür	-2335
yum	-2336
lerce	-2337
▁seni	-2338
ılmıştır	-2339
▁mıs	-2340
▁yoksa	-2341
▁kaybet	-2342
iri	-2343
▁kent	-2344
ısına	-2345
▁işaret	-2346
▁kendine	-2347
ımda	-2348
ediler	-2349
▁teslim	-2350
▁savun	-2351
▁us	-2352
▁kullanıcı	-2353
▁komut	-2354
▁beden	-2355
▁açısından	-2356
mal	-2357
▁karşılık	-2358
▁durumu	-2359
▁sizi	-2360
▁yana	-2361
asından	-2362
amaya	-2363
▁olacaktır	-2364
▁yaptık	-2365
olojik	-2366
▁mutlu	-2367
▁beklen	-2368
ğınız	-2369
▁ticaret	-2370
▁dek	-2371
üle	-2372
▁nis	-2373
▁haline	-2374
isk	-2375
▁sonucu	-2376
▁ba	-2377
▁müh	-2378
▁mutlak	-2379
düm	-2380
▁bank	-2381
▁gay	-2382
▁gitti	-2383
▁tarihinde	-2384
▁padişah	-2385
▁şeklinde	-2386
▁işi	-2387
geç	-2388
atür	-2389
liyor	-2390
tep	-2391
▁ekip	-2392
▁anlay	-2393
alarının	-2394
▁kanun	-2395
▁hastalık	-2396
bo	-2397
▁esas	-2398
po	-2399
▁resim	-2400
sem	-2401
▁yıldı	-2402
▁zengin	-2403
lulu	-2404
▁cihaz	-2405
▁dakika	-2406
▁değildi	-2407
inç	-2408
▁nedenle	-2409
▁key	-2410
▁rol	-2411
▁yalnızca	-2412
▁araştırma	-2413
▁mot	-2414
son	-2415
ğine	-2416
5.	-2417
▁def	-2418
▁efen	-2419
liğini	-2420
▁siv	-2421
ılmaz	-2422
▁sebeb	-2423
▁erdoğan	-2424
▁tip	-2425
▁adlı	-2426
talya	-2427
▁makin	-2428
htm	-2429
▁kâ	-2430
▁ayır	-2431
▁talep	-2432
▁cumhurbaş	-2433
▁merak	-2434
▁birden	-2435
▁eg	-2436
îr	-2437
haf	-2438
▁açıklama	-2439
▁kapat	-2440
▁detay	-2441
▁web	-2442
lacak	-2443
▁not	-2444
ilerek	-2445
▁yürüt	-2446
▁müşter	-2447
▁to	-2448
▁dahil	-2449
▁şüp	-2450
bah	-2451
▁bilgisay	-2452
▁hükümet	-2453
gar	-2454
▁yapılacak	-2455
▁mesaj	-2456
urdu	-2457
ülen	-2458
▁hisset	-2459
”,	-2460
▁başlan	-2461
har	-2462
iran	-2463
▁mart	-2464
▁hayal	-2465
▁mektu	-2466
▁güc	-2467
▁kilo	-2468
6.	-2469
▁dışarı	-2470
şı	-2471
▁yoktu	-2472
▁zih	-2473
▁çer	-2474
taki	-2475
▁duvar	-2476
▁insanın	-2477
\.	-2478
7.	-2479
▁emin	-2480
▁sevg	-2481
▁dolu	-2482
▁altına	-2483
▁duygu	-2484
▁dolayısıyla	-2485
amız	-2486
ton	-2487
atik	-2488
▁ho	-2489
ormal	-2490
▁başarılı	-2491
▁kum	-2492
▁demokr	-2493
ıştır	-2494
▁söylen	-2495
▁ekonomik	-2496
eyle	-2497
▁aya	-2498
anlık	-2499
▁bahs	-2500
9.	-2501
▁huzur	-2502
▁tasarım	-2503
▁olmadığını	-2504
sk	-2505
▁çiç	-2506
▁karşısında	-2507
▁ces	-2508
▁kuzey	-2509
lüyor	-2510
▁çö	-2511
ladığı	-2512
▁aracı	-2513
▁ettik	-2514
▁kurtar	-2515
▁yıldır	-2516
mat	-2517
lanması	-2518
▁terör	-2519
▁21	-2520
▁sordu	-2521
ünüz	-2522
ilerinin	-2523
▁sanay	-2524
▁keş	-2525
▁başında	-2526
▁yeş	-2527
ate	-2528
▁aldığı	-2529
▁olmas	-2530
▁28	-2531
▁aşk	-2532
▁sanki	-2533
▁tespit	-2534
▁yandan	-2535
▁dos	-2536
▁güney	-2537
▁idar	-2538
diğinde	-2539
▁fut	-2540
elerinde	-2541
dığımız	-2542
▁servis	-2543
va	-2544
mamış	-2545
esel	-2546
▁eb	-2547
▁prens	-2548
▁açı	-2549
▁önceki	-2550
▁henüz	-2551
▁cep	-2552
▁fat	-2553
▁kasım	-2554
▁uğ	-2555
mıyor	-2556
▁alır	-2557
▁yaptır	-2558
ina	-2559
▁100	-2560
▁müzik	-2561
▁sap	-2562
▁uygulama	-2563
▁kurtul	-2564
▁oper	-2565
▁dam	-2566
ile	-2567
4.	-2568
▁şid	-2569
▁birleş	-2570
izik	-2571
şehir	-2572
anlı	-2573
zmir	-2574
dılar	-2575
▁olun	-2576
ledik	-2577
▁piyas	-2578
▁tekli	-2579
▁günümüz	-2580
▁biçimde	-2581
kim	-2582
▁hafif	-2583
▁davranış	-2584
lanır	-2585
▁koşul	-2586
osu	-2587
ğinde	-2588
▁cil	-2589
isel	-2590
▁kapsamında	-2591
▁bulunuyor	-2592
▁saf	-2593
ger	-2594
▁evet	-2595
▁bağlantı	-2596
▁50	-2597
mamız	-2598
▁işlet	-2599
dığım	-2600
▁be	-2601
▁bunları	-2602
▁od	-2603
teri	-2604
▁2/	-2605
▁aralık	-2606
▁içeri	-2607
▁satın	-2608
▁22	-2609
amet	-2610
▁temmuz	-2611
go	-2612
▁artır	-2613
▁kişiler	-2614
▁günlük	-2615
lâm	-2616
▁kavram	-2617
.,	-2618
▁varsa	-2619
ele	-2620
▁eylül	-2621
▁mur	-2622
▁işte	-2623
ene	-2624
ğan	-2625
▁mon	-2626
▁şam	-2627
alarına	-2628
▁uyan	-2629
▁bazen	-2630
../	-2631
▁iletişim	-2632
▁defa	-2633
▁uc	-2634
▁person	-2635
ğe	-2636
](../	-2637
▁ülkemiz	-2638
▁list	-2639
yüz	-2640
cılık	-2641
▁sorum	-2642
▁konuştu	-2643
40	-2644
▁kullanılan	-2645
▁isten	-2646
▁aktar	-2647
vek	-2648
▁sayılı	-2649
▁bahç	-2650
abilecek	-2651
ıyı	-2652
elikle	-2653
liler	-2654
60	-2655
▁bol	-2656
▁ocak	-2657
▁şer	-2658
▁fayd	-2659
dam	-2660
▁yeri	-2661
▁psik	-2662
▁çoğu	-2663
▁ondan	-2664
▁yıldız	-2665
▁yaşayan	-2666
▁altı	-2667
▁3.	-2668
▁no	-2669
▁yıllık	-2670
▁itibaren	-2671
▁tıp	-2672
▁mük	-2673
▁görüyor	-2674
▁sözleş	-2675
▁ciddi	-2676
▁kayb	-2677
str	-2678
▁varlık	-2679
gör	-2680
▁oluşan	-2681
▁birinci	-2682
asyonu	-2683
lit	-2684
acağı	-2685
▁2017	-2686
▁40	-2687
▁olursa	-2688
aket	-2689
▁edilir	-2690
▁prob	-2691
▁bakış	-2692
▁br	-2693
duğunu	-2694
▁ünlü	-2695
enler	-2696
▁edildi	-2697
▁cumhuriyet	-2698
▁eylem	-2699
rek	-2700
▁soh	-2701
larınız	-2702
▁yılı	-2703
▁27	-2704
▁zev	-2705
▁tarif	-2706
▁hed	-2707
▁cem	-2708
▁tör	-2709
▁end	-2710
▁bilgisayar	-2711
▁inşa	-2712
▁yanına	-2713
▁yü	-2714
▁ic	-2715
esiz	-2716
ital	-2717
▁istiyorum	-2718
▁futbol	-2719
▁oyuncu	-2720
ımıza	-2721
mızı	-2722
▁belediyesi	-2723
▁kısm	-2724
▁alıp	-2725
▁yerleş	-2726
▁olmadığı	-2727
▁ekim	-2728
▁şiddet	-2729
8.	-2730
▁resmi	-2731
▁stan	-2732
dikleri	-2733
▁uygulam	-2734
ârî	-2735
▁şar	-2736
altı	-2737
▁felse	-2738
▁ebu	-2739
nu	-2740
yse	-2741
▁başvur	-2742
red	-2743
çiler	-2744
ırı	-2745
qu	-2746
▁gerekiyor	-2747
elerden	-2748
▁malzem	-2749
▁duyg	-2750
▁ahmet	-2751
lendi	-2752
▁laz	-2753
▁ib	-2754
▁muham	-2755
emek	-2756
▁pet	-2757
ücü	-2758
▁23	-2759
sp	-2760
▁kullanım	-2761
▁köp	-2762
▁düzey	-2763
▁aile	-2764
▁had	-2765
▁uyar	-2766
oloji	-2767
▁birey	-2768
atif	-2769
▁seviy	-2770
▁normal	-2771
▁ceza	-2772
tey	-2773
▁dök	-2774
▁video	-2775
▁balık	-2776
ücu	-2777
▁olmuştur	-2778
no	-2779
▁yunan	-2780
sızlık	-2781
▁köş	-2782
▁kural	-2783
▁kitab	-2784
▁miktar	-2785
▁barış	-2786
lenmiş	-2787
ite	-2788
▁aks	-2789
▁mücadele	-2790
▁eksik	-2791
▁dedim	-2792
hi	-2793
▁pas	-2794
▁etraf	-2795
▁süreç	-2796
▁görüntü	-2797
▁teb	-2798
▁beğ	-2799
▁tüket	-2800
▁çocuğ	-2801
▁doldur	-2802
▁sohbet	-2803
▁memnun	-2804
çev	-2805
▁sayısı	-2806
▁form	-2807
▁hepsi	-2808
▁birliği	-2809
▁tesis	-2810
üme	-2811
ersiz	-2812
▁tec	-2813
▁yeşil	-2814
▁nüf	-2815
▁anal	-2816
▁hüc	-2817
▁boyut	-2818
▁şiir	-2819
▁naz	-2820
ullah	-2821
▁problem	-2822
▁sert	-2823
▁29	-2824
▁biçim	-2825
▁ge	-2826
▁ülke	-2827
▁eğlen	-2828
▁26	-2829
▁nokta	-2830
▁araya	-2831
▁sıkıntı	-2832
▁ışık	-2833
mada	-2834
▁üstün	-2835
one	-2836
▁###	-2837
izyon	-2838
▁basın	-2839
▁kış	-2840
işi	-2841
▁nedir	-2842
▁kemal	-2843
▁örneğin	-2844
▁alınan	-2845
▁sayı	-2846
dern	-2847
ımızı	-2848
▁görmek	-2849
▁kaş	-2850
deniz	-2851
mu	-2852
▁bayram	-2853
ümü	-2854
80	-2855
▁mekan	-2856
▁bağır	-2857
▁davet	-2858
▁mayıs	-2859
▁günde	-2860
▁sokak	-2861
omo	-2862
▁day	-2863
▁saray	-2864
▁enerji	-2865
▁süt	-2866
ii	-2867
▁göl	-2868
▁olmaya	-2869
emi	-2870
▁önüne	-2871
lığına	-2872
▁muht	-2873
▁fırsat	-2874
▁hap	-2875
liğin	-2876
▁yeterli	-2877
hay	-2878
dıktan	-2879
▁far	-2880
▁merh	-2881
▁milletvek	-2882
▁dolaş	-2883
▁ted	-2884
▁ilan	-2885
▁başvuru	-2886
▁haziran	-2887
▁arap	-2888
lamış	-2889
asıyla	-2890
▁heyec	-2891
lesi	-2892
▁gerektiğini	-2893
▁rusya	-2894
▁üm	-2895
▁amacıyla	-2896
memiş	-2897
sü	-2898
▁yola	-2899
▁mel	-2900
▁fikir	-2901
amı	-2902
fe	-2903
▁meg	-2904
▁edip	-2905
▁asla	-2906
▁esn	-2907
▁yapıyor	-2908
▁buluş	-2909
▁fon	-2910
atürk	-2911
dal	-2912
▁işe	-2913
▁danış	-2914
▁değişiklik	-2915
eğin	-2916
▁dönemde	-2917
var	-2918
▁öğrenciler	-2919
▁gelmiş	-2920
▁kaldı	-2921
▁gizli	-2922
▁çay	-2923
ûl	-2924
.2	-2925
▁tabii	-2926
▁ekran	-2927
▁bula	-2928
emin	-2929
ekim	-2930
fen	-2931
▁sonuc	-2932
line	-2933
layıp	-2934
▁motor	-2935
▁lim	-2936
slâm	-2937
yız	-2938
▁vâ	-2939
ılabilir	-2940
▁neler	-2941
kân	-2942
▁üçüncü	-2943
▁şüph	-2944
▁bed	-2945
ucu	-2946
lisi	-2947
ayıf	-2948
▁rad	-2949
▁vücu	-2950
mayın	-2951
▁ten	-2952
▁ettir	-2953
▁güncel	-2954
abet	-2955
▁akl	-2956
▁yaşlı	-2957
▁sim	-2958
muştur	-2959
▁bebek	-2960
tığımız	-2961
▁başbak	-2962
▁göç	-2963
ova	-2964
üler	-2965
hat	-2966
/3	-2967
bilecek	-2968
▁alacak	-2969
lenmesi	-2970
▁bitir	-2971
▁muhammed	-2972
▁çan	-2973
▁mobil	-2974
▁emek	-2975
mür	-2976
▁direk	-2977
▁dünyada	-2978
▁profes	-2979
▁anne	-2980
uç	-2981
▁bulunmaktadır	-2982
asi	-2983
▁söylüyor	-2984
▁yazılı	-2985
▁sonraki	-2986
▁etmeye	-2987
▁güm	-2988
▁zayıf	-2989
ilerini	-2990
▁meclis	-2991
▁başlayan	-2992
▁sene	-2993
▁sül	-2994
diğimiz	-2995
▁deneyim	-2996
▁baktı	-2997
âb	-2998
▁asıl	-2999
uldu	-3000
▁peş	-3001
▁kart	-3002
ısının	-3003
▁basit	-3004
▁elektrik	-3005
▁alma	-3006
▁tez	-3007
▁söyley	-3008
▁dolar	-3009
car	-3010
▁kredi	-3011
ebilirsiniz	-3012
▁soğuk	-3013
▁bilir	-3014
üyordu	-3015
▁böy	-3016
▁düzenlenen	-3017
▁fi	-3018
▁yansı	-3019
xt	-3020
▁çiçek	-3021
▁reklam	-3022
▁teşkil	-3023
▁katkı	-3024
▁almış	-3025
▁müdürlüğü	-3026
▁tor	-3027
▁öt	-3028
▁durumunda	-3029
▁ahmed	-3030
▁nisan	-3031
maktan	-3032
uklu	-3033
▁bakanlığı	-3034
▁hac	-3035
▁mahkem	-3036
kur	-3037
▁tit	-3038
▁fizik	-3039
▁zey	-3040
▁kanal	-3041
▁dile	-3042
▁vazgeç	-3043
cık	-3044
sim	-3045
ât	-3046
▁mısır	-3047
arken	-3048
ilmiştir	-3049
▁atatürk	-3050
▁meslek	-3051
▁sezon	-3052
▁eve	-3053
▁yerleştir	-3054
▁sürec	-3055
▁modern	-3056
▁ikti	-3057
▁etkili	-3058
▁tran	-3059
▁hus	-3060
▁oto	-3061
veriş	-3062
▁yapıldı	-3063
▁yeter	-3064
gal	-3065
▁roman	-3066
▁siyasi	-3067
sini	-3068
▁mutlaka	-3069
mur	-3070
▁düşük	-3071
ire	-3072
diğim	-3073
ınızı	-3074
best	-3075
ise	-3076
iyon	-3077
▁hâlâ	-3078
▁askeri	-3079
▁devleti	-3080
çak	-3081
etler	-3082
▁eleştir	-3083
sizlik	-3084
âzî	-3085
▁karakter	-3086
▁ağaç	-3087
▁bulundu	-3088
▁değerli	-3089
▁müt	-3090
eceğiniz	-3091
▁kıl	-3092
▁tatlı	-3093
mar	-3094
▁sarı	-3095
▁cinsel	-3096
▁piş	-3097
▁giden	-3098
masından	-3099
azı	-3100
▁yapmış	-3101
▁rast	-3102
▁gönül	-3103
▁na	-3104
▁ni	-3105
▁düğ	-3106
▁ediyorum	-3107
tak	-3108
▁etkinlik	-3109
▁çerçev	-3110
▁ters	-3111
tuk	-3112
▁zam	-3113
▁kanı	-3114
to	-3115
▁•	-3116
▁gelip	-3117
meniz	-3118
imli	-3119
▁numar	-3120
▁go	-3121
erken	-3122
dul	-3123
▁türkçe	-3124
▁ağr	-3125
▁yetiş	-3126
muştu	-3127
▁yetk	-3128
akk	-3129
▁girişim	-3130
dev	-3131
▁medya	-3132
ây	-3133
▁namaz	-3134
▁red	-3135
▁kendilerine	-3136
▁öne	-3137
▁yürüy	-3138
▁beğen	-3139
▁temsilc	-3140
▁amerika	-3141
rafik	-3142
▁olduğuna	-3143
gisi	-3144
▁sip	-3145
▁kararı	-3146
▁koc	-3147
lanma	-3148
▁31	-3149
ladık	-3150
▁edece	-3151
▁onay	-3152
inizin	-3153
▁yedi	-3154
yen	-3155
liğe	-3156
70	-3157
▁biliyor	-3158
▁ide	-3159
▁yapacak	-3160
▁genellikle	-3161
▁sonrası	-3162
yas	-3163
▁alıyor	-3164
egor	-3165
les	-3166
▁ilaç	-3167
▁imz	-3168
▁yanıt	-3169
▁poz	-3170
edeki	-3171
bey	-3172
seniz	-3173
▁etik	-3174
▁bö	-3175
▁parça	-3176
▁mor	-3177
tılar	-3178
▁diyerek	-3179
elerle	-3180
gaz	-3181
ağa	-3182
▁yapma	-3183
▁yerinde	-3184
lediği	-3185
ıma	-3186
▁elbet	-3187
▁takdir	-3188
dat	-3189
▁’	-3190
iyordum	-3191
yım	-3192
mes	-3193
fat	-3194
▁kesinlikle	-3195
▁hin	-3196
onik	-3197
▁ölçü	-3198
▁birisi	-3199
▁kırmızı	-3200
ons	-3201
gr	-3202
▁2016	-3203
ck	-3204
▁tuz	-3205
▁test	-3206
▁tedav	-3207
▁haft	-3208
▁lider	-3209
▁saldırı	-3210
▁alarak	-3211
elidir	-3212
cılar	-3213
▁müda	-3214
▁şiş	-3215
▁fu	-3216
▁ilgilen	-3217
▁azal	-3218
▁siyah	-3219
▁teklif	-3220
▁müdürü	-3221
▁uğraş	-3222
▁dokun	-3223
▁hu	-3224
▁yönetic	-3225
▁esk	-3226
▁doğum	-3227
niyet	-3228
▁mim	-3229
▁lüt	-3230
▁edilmesi	-3231
!"	-3232
▁borç	-3233
▁yolc	-3234
▁ederim	-3235
▁sağlıklı	-3236
ilecek	-3237
▁fransız	-3238
▁saygı	-3239
▁fakül	-3240
▁gördüğ	-3241
▁aray	-3242
▁salon	-3243
lenme	-3244
▁edeb	-3245
▁serbest	-3246
▁düşür	-3247
▁başlat	-3248
▁sö	-3249
undaki	-3250
▁şaşır	-3251
▁kop	-3252
▁nur	-3253
iyim	-3254
▁edilmiş	-3255
▁deste	-3256
ham	-3257
dığınız	-3258
etik	-3259
▁bec	-3260
umsuz	-3261
tere	-3262
▁gol	-3263
acağını	-3264
▁personel	-3265
html	-3266
▁hizmeti	-3267
istik	-3268
bal	-3269
▁buraya	-3270
pany	-3271
ımızın	-3272
▁tır	-3273
▁sayıda	-3274
tığını	-3275
▁zorun	-3276
▁sizlere	-3277
▁gülüm	-3278
▁hüs	-3279
▁mün	-3280
rahim	-3281
▁ödül	-3282
▁tedavi	-3283
▁kılıç	-3284
▁zira	-3285
▁proje	-3286
ahat	-3287
ğinden	-3288
stik	-3289
▁mill	-3290
▁öğrenci	-3291
ner	-3292
▁megâzî	-3293
siye	-3294
▁adını	-3295
▁çocuklar	-3296
▁vâkı	-3297
süz	-3298
12	-3299
▁cumhurbaşkanı	-3300
▁kişisel	-3301
iyorlar	-3302
▁gösteren	-3303
▁orman	-3304
▁chp	-3305
▁nakl	-3306
▁gören	-3307
▁almanya	-3308
▁etme	-3309
▁başlar	-3310
▁neredeyse	-3311
▁başta	-3312
ınıza	-3313
▁ayn	-3314
ediği	-3315
dip	-3316
usunu	-3317
▁olduğundan	-3318
▁kabil	-3319
yu	-3320
▁yıllar	-3321
▁dey	-3322
▁toplumsal	-3323
▁zevk	-3324
stos	-3325
imizde	-3326
▁rab	-3327
▁taz	-3328
▁kızı	-3329
▁sitesi	-3330
▁va	-3331
▁başını	-3332
elerinden	-3333
▁programı	-3334
▁bakanı	-3335
▁tahmin	-3336
▁198	-3337
urken	-3338
▁ücretsiz	-3339
▁ağu	-3340
▁şik	-3341
▁tarz	-3342
▁adres	-3343
19	-3344
arım	-3345
▁vakit	-3346
▁çağır	-3347
▁zaf	-3348
▁ton	-3349
▁(2	-3350
▁kahr	-3351
▁oyunu	-3352
emen	-3353
▁korku	-3354
ıza	-3355
▁savaşı	-3356
▁kaliteli	-3357
▁sermay	-3358
▁sonrasında	-3359
▁alanı	-3360
alığı	-3361
eyici	-3362
âl	-3363
▁sanayi	-3364
▁şamp	-3365
ğına	-3366
▁otomo	-3367
acaktır	-3368
elt	-3369
co	-3370
▁yaşında	-3371
ulması	-3372
▁puan	-3373
ebilecek	-3374
ımın	-3375
▁olmalı	-3376
▁yapılması	-3377
▁bür	-3378
▁kategor	-3379
▁tok	-3380
lerim	-3381
▁oysa	-3382
lenir	-3383
▁ned	-3384
▁plat	-3385
ze	-3386
▁vâkıdî	-3387
sey	-3388
iliyor	-3389
vel	-3390
▁süp	-3391
▁ül	-3392
▁kadınlar	-3393
▁doğrudan	-3394
▁sağlamak	-3395
▁bölümü	-3396
▁eşit	-3397
▁yalan	-3398
▁yapılır	-3399
▁konum	-3400
▁ortadan	-3401
▁gelenek	-3402
forman	-3403
▁trans	-3404
▁reh	-3405
umak	-3406
▁mektup	-3407
▁esc	-3408
▁oldukları	-3409
▁taşıy	-3410
▁gide	-3411
▁uzat	-3412
▁suriye	-3413
▁ayar	-3414
▁diren	-3415
▁elinde	-3416
▁hab	-3417
▁kalp	-3418
▁döv	-3419
▁korun	-3420
▁üstüne	-3421
dikten	-3422
▁tecr	-3423
▁evde	-3424
▁şarkı	-3425
▁şeyin	-3426
▁sağlar	-3427
-3	-3428
▁yahu	-3429
▁vermiş	-3430
cil	-3431
iyatı	-3432
dun	-3433
▁siyaset	-3434
zi	-3435
ırlar	-3436
muyor	-3437
text	-3438
▁erken	-3439
▁olmuştu	-3440
lıklar	-3441
▁kadının	-3442
▁birer	-3443
▁ağustos	-3444
▁bağımsız	-3445
▁dahi	-3446
eyecek	-3447
▁amerik	-3448
▁eğitimi	-3449
▁performan	-3450
▁bahis	-3451
▁kadro	-3452
meni	-3453
▁katılım	-3454
memek	-3455
▁mod	-3456
▁ref	-3457
▁lazım	-3458
▁döndü	-3459
▁hoc	-3460
atör	-3461
▁escort	-3462
ildiği	-3463
▁ilgi	-3464
▁derne	-3465
▁uçak	-3466
gıç	-3467
ayla	-3468
▁yatak	-3469
▁hikay	-3470
▁aklı	-3471
▁şehit	-3472
▁koca	-3473
▁baskı	-3474
▁bununla	-3475
▁mühend	-3476
▁kısmı	-3477
▁çalışmaları	-3478
▁kahraman	-3479
▁dışı	-3480
başı	-3481
dek	-3482
▁birinin	-3483
▁yüzünden	-3484
sur	-3485
▁izle	-3486
▁arası	-3487
▁hakkı	-3488
........	-3489
▁elb	-3490
lıkları	-3491
15	-3492
▁yarı	-3493
▁alanında	-3494
▁elbette	-3495
ko	-3496
▁kullanıl	-3497
müştü	-3498
▁tarım	-3499
▁kendilerini	-3500
brahim	-3501
▁döneminde	-3502
▁nin	-3503
▁emir	-3504
▁gücü	-3505
şi	-3506
▁aşırı	-3507
▁karanlık	-3508
▁ins	-3509
▁taşın	-3510
▁kör	-3511
cağız	-3512
▁herkesin	-3513
▁kök	-3514
▁ulusal	-3515
▁efendi	-3516
▁anlamına	-3517
▁edebil	-3518
90	-3519
▁4.	-3520
▁gur	-3521
▁car	-3522
▁çap	-3523
tern	-3524
▁memur	-3525
▁pencer	-3526
ata	-3527
▁th	-3528
sinin	-3529
▁ağz	-3530
kenin	-3531
imleri	-3532
▁kimi	-3533
emmel	-3534
iyan	-3535
yer	-3536
▁hizmetleri	-3537
▁firmalar	-3538
rail	-3539
▁jo	-3540
▁çıkış	-3541
▁onunla	-3542
▁görür	-3543
emeye	-3544
▁stand	-3545
▁si	-3546
▁peki	-3547
▁sona	-3548
▁madd	-3549
fk	-3550
etici	-3551
ündeki	-3552
▁kapalı	-3553
şu	-3554
liğine	-3555
▁bölge	-3556
sına	-3557
ilerine	-3558
▁abdul	-3559
▁göğ	-3560
▁yetiştir	-3561
▁yaparak	-3562
▁nedeni	-3563
▁şubat	-3564
yap	-3565
▁olmasına	-3566
▁yayım	-3567
▁yapılmış	-3568
iği	-3569
▁cüm	-3570
▁vah	-3571
▁fes	-3572
▁kahv	-3573
düz	-3574
▁yapabil	-3575
▁tap	-3576
▁antalya	-3577
nam	-3578
ult	-3579
tp	-3580
▁ince	-3581
▁bilm	-3582
▁dakik	-3583
▁ürünleri	-3584
▁devletin	-3585
25	-3586
▁karıştır	-3587
▁operasyon	-3588
▁nih	-3589
▁risk	-3590
▁gelin	-3591
▁üzerindeki	-3592
evet	-3593
ngiltere	-3594
erler	-3595
▁aj	-3596
▁eşy	-3597
liğinde	-3598
üstü	-3599
▁seçenek	-3600
▁düştü	-3601
▁ayında	-3602
▁öğretim	-3603
▁yaşanan	-3604
ğıt	-3605
zz	-3606
▁bursa	-3607
▁kişilik	-3608
▁lig	-3609
▁uzan	-3610
eyman	-3611
madığı	-3612
▁kulak	-3613
ısız	-3614
alardan	-3615
yonel	-3616
▁kamer	-3617
ded	-3618
acağız	-3619
▁dosy	-3620
▁yönetimi	-3621
rim	-3622
▁küt	-3623
▁por	-3624
▁hanım	-3625
▁olumsuz	-3626
▁babası	-3627
▁hasan	-3628
▁anlayış	-3629
asa	-3630
atej	-3631
bin	-3632
▁hazırlan	-3633
evizyon	-3634
45	-3635
▁ata	-3636
▁dep	-3637
▁ayrıntı	-3638
▁şans	-3639
▁tv	-3640
▁sahn	-3641
amış	-3642
kel	-3643
▁yararlan	-3644
▁adalet	-3645
inizde	-3646
▁yasak	-3647
▁gib	-3648
▁tatil	-3649
brıs	-3650
▁üyesi	-3651
rol	-3652
▁fransa	-3653
▁kitabı	-3654
▁milyar	-3655
▁mükemmel	-3656
▁içi	-3657
▁hala	-3658
▁hızla	-3659
▁öncelikle	-3660
▁veriyor	-3661
▁bilgileri	-3662
tis	-3663
▁alışveriş	-3664
▁göm	-3665
ılıp	-3666
▁yapmaya	-3667
▁büyükşehir	-3668
zu	-3669
▁pop	-3670
▁gerektir	-3671
▁nefes	-3672
imler	-3673
▁sağlam	-3674
▁sessiz	-3675
▁roma	-3676
▁akıllı	-3677
aray	-3678
lamaz	-3679
▁müşteri	-3680
▁verilm	-3681
rac	-3682
▁adamın	-3683
▁lo	-3684
▁gazi	-3685
▁ışı	-3686
▁derec	-3687
▁arama	-3688
▁pla	-3689
▁terk	-3690
▁sağlayan	-3691
unç	-3692
▁birini	-3693
▁zek	-3694
▁tev	-3695
▁aylık	-3696
▁içindeki	-3697
▁paket	-3698
▁baba	-3699
▁hasta	-3700
▁stratej	-3701
▁belirli	-3702
▁taleb	-3703
bek	-3704
ulur	-3705
▁elem	-3706
▁bilinç	-3707
▁köpr	-3708
▁2015	-3709
▁arttır	-3710
artesi	-3711
▁yaygın	-3712
▁nitelik	-3713
▁atı	-3714
nan	-3715
▁197	-3716
biz	-3717
▁harek	-3718
▁tane	-3719
▁kaçır	-3720
▁alanda	-3721
eksiyon	-3722
sas	-3723
emiş	-3724
tül	-3725
▁toplu	-3726
▁yumuş	-3727
▁anlamda	-3728
▁yiye	-3729
▁bilinen	-3730
▁fab	-3731
▁teknoloji	-3732
▁kla	-3733
▁iyice	-3734
▁amel	-3735
▁hayata	-3736
▁etmektedir	-3737
hen	-3738
hale	-3739
▁ihtiyac	-3740
sını	-3741
▁sayın	-3742
▁lan	-3743
ud	-3744
▁sakin	-3745
▁süleyman	-3746
lemeye	-3747
mekten	-3748
▁komisyon	-3749
▁:)	-3750
▁milletvekili	-3751
▁profesyonel	-3752
▁sağlan	-3753
▁hayatı	-3754
▁öte	-3755
▁vergi	-3756
▁tutar	-3757
▁devrim	-3758
▁emniyet	-3759
▁yerel	-3760
▁hür	-3761
▁hol	-3762
tel	-3763
▁istek	-3764
tek	-3765
▁koru	-3766
▁aşağıdaki	-3767
▁grubu	-3768
23	-3769
▁buz	-3770
işleri	-3771
ıyorlar	-3772
▁tavsiye	-3773
▁yerini	-3774
▁gr	-3775
▁ömer	-3776
▁olanlar	-3777
▁eh	-3778
▁vurgu	-3779
▁çoğun	-3780
edek	-3781
▁yir	-3782
▁organiz	-3783
dığında	-3784
▁yıllarda	-3785
▁otob	-3786
▁bon	-3787
ımızda	-3788
▁new	-3789
▁dis	-3790
...”	-3791
larınızı	-3792
▁kıbrıs	-3793
▁girdi	-3794
▁şef	-3795
▁konut	-3796
▁ep	-3797
▁yada	-3798
▁co	-3799
▁verildi	-3800
▁lisans	-3801
kal	-3802
ust	-3803
▁karşılı	-3804
▁)	-3805
ndan	-3806
▁cad	-3807
.3	-3808
▁park	-3809
▁kürt	-3810
shak	-3811
▁heyecan	-3812
▁kere	-3813
▁35	-3814
▁rüz	-3815
cağım	-3816
▁civ	-3817
▁çevre	-3818
lığının	-3819
▁üye	-3820
illa	-3821
▁kus	-3822
laşma	-3823
▁öden	-3824
▁üstünde	-3825
▁esir	-3826
öğr	-3827
▁donan	-3828
▁suy	-3829
işam	-3830
▁iddia	-3831
▁hakik	-3832
▁kullanarak	-3833
form	-3834
▁sün	-3835
▁sayfa	-3836
▁anay	-3837
etin	-3838
▁gidip	-3839
▁sinir	-3840
▁itir	-3841
▁rahatsız	-3842
▁mühendis	-3843
ılış	-3844
▁mir	-3845
▁öldürül	-3846
ydi	-3847
mut	-3848
urum	-3849
▁sus	-3850
split	-3851
uyorum	-3852
▁ism	-3853
ındır	-3854
ly	-3855
▁yardımcısı	-3856
17	-3857
çin	-3858
lığıyla	-3859
eral	-3860
▁ır	-3861
▁hayatını	-3862
▁başbakan	-3863
18	-3864
layın	-3865
▁şif	-3866
▁keyif	-3867
alarından	-3868
▁suret	-3869
şey	-3870
▁vüc	-3871
▁artış	-3872
▁adan	-3873
▁banka	-3874
esindeki	-3875
▁giderek	-3876
▁umut	-3877
mail	-3878
▁me	-3879
▁çor	-3880
▁rum	-3881
▁atan	-3882
▁op	-3883
▁dünyaya	-3884
dit	-3885
▁cer	-3886
▁standart	-3887
▁konuşma	-3888
▁hi	-3889
▁kazandır	-3890
cilik	-3891
▁düşünce	-3892
▁kalma	-3893
tuğ	-3894
▁hâkim	-3895
▁önceden	-3896
▁hissed	-3897
▁demektir	-3898
ansı	-3899
▁çak	-3900
dukları	-3901
▁niyet	-3902
makla	-3903
ğinin	-3904
▁gerekmektedir	-3905
▁iken	-3906
▁şeker	-3907
imden	-3908
▁samsun	-3909
usal	-3910
antaj	-3911
▁olmadan	-3912
▁odası	-3913
▁tören	-3914
▁evren	-3915
▁birik	-3916
▁sorunu	-3917
▁kaybol	-3918
▁otomobil	-3919
▁oyna	-3920
▁kenar	-3921
ılabil	-3922
▁birbirine	-3923
▁suyu	-3924
▁imkan	-3925
▁selam	-3926
▁60	-3927
▁ifad	-3928
ığ	-3929
ess	-3930
▁hit	-3931
▁oğul	-3932
▁etkisi	-3933
▁taşıma	-3934
rem	-3935
▁2014	-3936
▁kalmış	-3937
▁kalın	-3938
▁televizyon	-3939
▁tho	-3940
ilerden	-3941
▁mür	-3942
▁adr	-3943
sında	-3944
ond	-3945
▁cilt	-3946
adem	-3947
▁sonucunda	-3948
▁süs	-3949
larımızın	-3950
ılarak	-3951
▁geçerli	-3952
biliriz	-3953
▁yenil	-3954
▁bunlardan	-3955
lıklı	-3956
▁felsef	-3957
▁odak	-3958
▁imkân	-3959
▁sahiptir	-3960
▁eriş	-3961
book	-3962
dıklarını	-3963
99	-3964
panya	-3965
▁sesi	-3966
▁ust	-3967
▁elini	-3968
▁halkın	-3969
▁vücut	-3970
▁şen	-3971
▁fiyatları	-3972
▁́	-3973
▁ülkenin	-3974
▁becer	-3975
▁ölü	-3976
desi	-3977
▁eur	-3978
ğiz	-3979
▁zafer	-3980
▁etmesi	-3981
onun	-3982
▁sorumlu	-3983
mız	-3984
▁kalab	-3985
▁katıl	-3986
tarı	-3987
▁ödeme	-3988
medik	-3989
▁sü	-3990
▁iktidar	-3991
▁sine	-3992
ang	-3993
▁yağmur	-3994
▁şa	-3995
▁ettim	-3996
▁belirtti	-3997
▁vez	-3998
▁ney	-3999
▁fayda	-4000
acağım	-4001
des	-4002
▁gelince	-4003
▁port	-4004
▁mesaf	-4005
▁gördü	-4006
▁günlerde	-4007
▁=	-4008
▁getiren	-4009
▁teor	-4010
▁vb	-4011
ceği	-4012
▁olanak	-4013
▁isimli	-4014
▁katıldı	-4015
▁turizm	-4016
▁olumlu	-4017
▁sivil	-4018
ker	-4019
▁arac	-4020
▁insanları	-4021
▁bekl	-4022
▁marka	-4023
sev	-4024
▁anah	-4025
müştür	-4026
▁ettiler	-4027
gü	-4028
▁belirten	-4029
diye	-4030
▁diyar	-4031
ane	-4032
▁vek	-4033
▁tanış	-4034
▁bet	-4035
▁thomas	-4036
▁sipar	-4037
▁parmak	-4038
▁târî	-4039
▁şampiyon	-4040
48	-4041
▁kavuş	-4042
▁şeyh	-4043
▁usul	-4044
▁neh	-4045
▁tef	-4046
▁üs	-4047
▁söyler	-4048
▁sevgi	-4049
▁kup	-4050
▁çatış	-4051
▁!	-4052
▁okuy	-4053
kon	-4054
13	-4055
▁doğan	-4056
▁olmasını	-4057
▁köpek	-4058
▁ediyordu	-4059
▁kıv	-4060
irken	-4061
nden	-4062
▁toplan	-4063
▁buradan	-4064
▁bakımından	-4065
üny	-4066
▁?	-4067
▁deng	-4068
▁işin	-4069
▁olacağını	-4070
▁kulüb	-4071
▁giren	-4072
larındaki	-4073
▁sırt	-4074
▁ucuz	-4075
▁vit	-4076
▁online	-4077
ayım	-4078
larımızı	-4079
masıyla	-4080
diğiniz	-4081
spor	-4082
mediği	-4083
lerinizi	-4084
▁böyl	-4085
▁derneği	-4086
▁kapan	-4087
▁nüfus	-4088
layıcı	-4089
▁finans	-4090
▁misaf	-4091
▁çekti	-4092
▁kişilerin	-4093
▁işbir	-4094
▁kel	-4095
malarını	-4096
atıcı	-4097
▁boğaz	-4098
▁efsan	-4099
hane	-4100
▁firma	-4101
▁çelik	-4102
ete	-4103
▁kanıt	-4104
▁eğil	-4105
▁istediği	-4106
▁grub	-4107
▁binlerce	-4108
▁geldiği	-4109
srail	-4110
▁açıklam	-4111
cusu	-4112
rika	-4113
▁gözlem	-4114
eceğiz	-4115
▁lütfen	-4116
▁kalb	-4117
▁çel	-4118
▁32	-4119
▁fakültesi	-4120
▁durdur	-4121
▁parçası	-4122
adı	-4123
kâr	-4124
▁süper	-4125
▁bilimsel	-4126
▁muhaf	-4127
▁projesi	-4128
▁metin	-4129
▁danışman	-4130
ag	-4131
16	-4132
▁işç	-4133
▁detaylı	-4134
▁harit	-4135
▁hişam	-4136
▁ediyoruz	-4137
▁başı	-4138
ry	-4139
▁ilişki	-4140
▁taşıyan	-4141
▁yılda	-4142
eğe	-4143
▁murat	-4144
erseniz	-4145
log	-4146
43	-4147
▁verecek	-4148
▁özelliği	-4149
▁olduğumuz	-4150
▁prot	-4151
▁rez	-4152
▁hesab	-4153
ilendir	-4154
▁makam	-4155
▁ufak	-4156
▁duyar	-4157
▁akadem	-4158
▁temin	-4159
▁zamanlar	-4160
mm	-4161
▁uyku	-4162
▁yapım	-4163
rum	-4164
▁geçer	-4165
▁inanç	-4166
▁kalır	-4167
▁bazıları	-4168
▁fener	-4169
▁bende	-4170
▁1,	-4171
▁sonsuz	-4172
▁târîh	-4173
▁olağan	-4174
▁uygula	-4175
ilebilir	-4176
▁asya	-4177
▁neş	-4178
tepe	-4179
▁yaşama	-4180
▁yerden	-4181
lili	-4182
abz	-4183
▁sitemiz	-4184
lari	-4185
▁söylemek	-4186
▁günümüzde	-4187
▁anlama	-4188
▁gözleri	-4189
şık	-4190
▁deney	-4191
leyerek	-4192
▁sevin	-4193
▁kendisinin	-4194
▁toz	-4195
▁bom	-4196
▁ölçüde	-4197
▁sevgil	-4198
▁abdullah	-4199
▁koruma	-4200
▁alk	-4201
layabil	-4202
tığım	-4203
▁kaçın	-4204
▁edebiyat	-4205
▁tanr	-4206
▁tren	-4207
▁büt	-4208
▁endiş	-4209
▁ısı	-4210
▁özellikleri	-4211
▁adamı	-4212
▁komp	-4213
▁topra	-4214
▁çocukların	-4215
▁pil	-4216
▁aralarında	-4217
onya	-4218
day	-4219
▁istediğiniz	-4220
▁başlangıç	-4221
▁zamanı	-4222
▁kamp	-4223
▁kurban	-4224
▁gıda	-4225
▁kons	-4226
46	-4227
▁komutan	-4228
▁kendimi	-4229
ros	-4230
▁gözlerini	-4231
▁dür	-4232
mesinin	-4233
▁enf	-4234
42	-4235
isinden	-4236
▁işle	-4237
etleri	-4238
▁almaya	-4239
▁dini	-4240
aza	-4241
▁sürede	-4242
▁bez	-4243
▁büyü	-4244
anda	-4245
çer	-4246
leyin	-4247
isiyle	-4248
▁yakal	-4249
unları	-4250
▁süren	-4251
ngilizce	-4252
▁33	-4253
▁başlıyor	-4254
sızın	-4255
▁meml	-4256
▁işler	-4257
▁tanın	-4258
eceğim	-4259
ciler	-4260
meyecek	-4261
▁araba	-4262
aka	-4263
▁yüce	-4264
▁tiyat	-4265
▁buyur	-4266
iyer	-4267
▁bozuk	-4268
nik	-4269
53	-4270
▁acaba	-4271
.[	-4272
▁alb	-4273
▁harika	-4274
▁yakalan	-4275
▁zamanlarda	-4276
▁bulunur	-4277
▁ı	-4278
▁36	-4279
istiyan	-4280
▁tablo	-4281
▁öncesi	-4282
▁başkanlığı	-4283
ys	-4284
ınızda	-4285
ersin	-4286
tıcı	-4287
▁ob	-4288
alarla	-4289
alim	-4290
47	-4291
▁kayna	-4292
▁hüseyin	-4293
▁yarım	-4294
liy	-4295
▁halkı	-4296
tın	-4297
▁sözleri	-4298
lığında	-4299
//	-4300
▁ettiğini	-4301
▁veri	-4302
▁görünce	-4303
lerimizi	-4304
▁irak	-4305
▁düzenli	-4306
distan	-4307
▁ihtim	-4308
▁erz	-4309
▁sh	-4310
▁geçiş	-4311
▁bahset	-4312
▁hunlar	-4313
▁5.	-4314
sul	-4315
usuna	-4316
▁nesn	-4317
▁196	-4318
▁bitk	-4319
ph	-4320
▁bence	-4321
▁mülk	-4322
▁yirmi	-4323
luluğ	-4324
▁platform	-4325
▁yönel	-4326
▁oranı	-4327
▁geril	-4328
abilmek	-4329
▁yel	-4330
▁2013	-4331
▁arzu	-4332
th	-4333
▁üstelik	-4334
▁ht	-4335
▁ürünler	-4336
▁yazılım	-4337
▁şeye	-4338
▁sıkı	-4339
▁ani	-4340
▁üniversite	-4341
▁tim	-4342
uşu	-4343
▁2/1	-4344
▁yo	-4345
tacak	-4346
▁lin	-4347
▁sebebi	-4348
▁pap	-4349
gul	-4350
luluğu	-4351
▁tecrüb	-4352
▁ye	-4353
▁yaşamak	-4354
▁hadis	-4355
▁gittik	-4356
▁akp	-4357
mü	-4358
▁kod	-4359
▁vad	-4360
▁win	-4361
iki	-4362
▁kimsenin	-4363
▁ilişkiler	-4364
ogle	-4365
▁insanı	-4366
▁unsur	-4367
▁dönemi	-4368
▁hil	-4369
areti	-4370
ılmıştı	-4371
▁açıklamada	-4372
▁yolda	-4373
▁ça	-4374
ladığ	-4375
▁sunuyor	-4376
▁muk	-4377
▁gösterir	-4378
▁çıkmış	-4379
fı	-4380
ation	-4381
▁oraya	-4382
▁ayakk	-4383
▁bug	-4384
▁kutsal	-4385
▁önemlidir	-4386
▁servisi	-4387
▁seyahat	-4388
▁bl	-4389
▁hakim	-4390
▁günün	-4391
▁sözc	-4392
▁korkunç	-4393
▁yoluyla	-4394
▁özen	-4395
▁tutuk	-4396
▁ur	-4397
çek	-4398
▁istedik	-4399
pa	-4400
▁+	-4401
▁kısım	-4402
2018	-4403
▁çeki	-4404
lçe	-4405
▁sözü	-4406
▁getirdi	-4407
▁sekiz	-4408
▁van	-4409
▁uyum	-4410
zzet	-4411
▁haklı	-4412
▁güvenli	-4413
▁diler	-4414
▁çıkart	-4415
inal	-4416
▁mahallesi	-4417
▁tehdit	-4418
▁yarg	-4419
▁günah	-4420
▁mit	-4421
cının	-4422
ksiyon	-4423
▁hel	-4424
▁çıkıyor	-4425
▁sabit	-4426
▁ihtiyacı	-4427
▁muhal	-4428
▁akr	-4429
▁etmiştir	-4430
▁memleket	-4431
▁gitmek	-4432
tum	-4433
▁ph	-4434
▁sorgu	-4435
▁tedbir	-4436
▁tra	-4437
▁dip	-4438
▁benden	-4439
ura	-4440
▁mavi	-4441
itir	-4442
maktay	-4443
and	-4444
▁çeken	-4445
▁beşik	-4446
▁sonuna	-4447
▁mezar	-4448
▁gelişim	-4449
▁kampany	-4450
▁dalg	-4451
kul	-4452
▁avantaj	-4453
mos	-4454
reti	-4455
://	-4456
▁feth	-4457
▁yarın	-4458
▁istih	-4459
▁sik	-4460
▁cel	-4461
▁ayrıl	-4462
▁yah	-4463
▁bağış	-4464
▁demiş	-4465
▁seks	-4466
▁yıldırım	-4467
dil	-4468
▁uğra	-4469
▁yüzü	-4470
bahçe	-4471
▁ortalama	-4472
▁parlak	-4473
▁değeri	-4474
▁hediye	-4475
▁fatih	-4476
▁süresi	-4477
▁gördük	-4478
diy	-4479
yle	-4480
tıkları	-4481
▁3/	-4482
▁tarihli	-4483
▁sahib	-4484
▁renkli	-4485
▁maden	-4486
ledim	-4487
▁olamaz	-4488
▁ayı	-4489
leyici	-4490
▁çocuğun	-4491
▁gümüş	-4492
andan	-4493
ann	-4494
▁otobüs	-4495
▁mimar	-4496
▁soruştur	-4497
▁yiyecek	-4498
▁partisi	-4499
▁denetim	-4500
kk	-4501
▁düzenlem	-4502
▁araz	-4503
98	-4504
ft	-4505
tion	-4506
are	-4507
eliği	-4508
▁aktif	-4509
▁con	-4510
▁düzenlen	-4511
▁içerik	-4512
▁zorunlu	-4513
▁dönüştür	-4514
-0	-4515
▁olduklarını	-4516
▁cuma	-4517
▁yılın	-4518
dağ	-4519
▁dağıt	-4520
▁yürür	-4521
memiz	-4522
▁yaralan	-4523
▁fonksiyon	-4524
▁ri	-4525
▁1/	-4526
ore	-4527
▁değişim	-4528
▁kaynağı	-4529
lasyon	-4530
▁cas	-4531
▁jan	-4532
▁evlen	-4533
▁doğrult	-4534
▁ilginç	-4535
âye	-4536
▁analiz	-4537
nün	-4538
▁hücr	-4539
▁inc	-4540
▁başken	-4541
▁tiyatro	-4542
▁düşünüyorum	-4543
▁kıya	-4544
▁eline	-4545
düğünü	-4546
▁delik	-4547
▁faiz	-4548
▁hd	-4549
▁şeri	-4550
▁sağlayacak	-4551
fo	-4552
▁açıkla	-4553
has	-4554
▁3/1	-4555
▁dük	-4556
▁sanırım	-4557
▁kadınların	-4558
dular	-4559
▁şük	-4560
▁savunma	-4561
▁edilmiştir	-4562
▁egemen	-4563
▁dizi	-4564
liğinin	-4565
▁iyil	-4566
▁45	-4567
amın	-4568
int	-4569
▁geçtiğimiz	-4570
.000	-4571
adet	-4572
nak	-4573
liş	-4574
yeni	-4575
▁ederken	-4576
iyiz	-4577
▁alg	-4578
▁bizans	-4579
mo	-4580
vik	-4581
▁google	-4582
▁birleştir	-4583
hayır	-4584
zat	-4585
▁metre	-4586
▁kullanımı	-4587
▁sipariş	-4588
▁şehr	-4589
▁km	-4590
▁duruma	-4591
▁mat	-4592
▁yaşındaki	-4593
▁&	-4594
▁haberleri	-4595
▁festiv	-4596
rü	-4597
▁şub	-4598
tematik	-4599
▁vol	-4600
▁efend	-4601
▁görülen	-4602
ray	-4603
▁yetkil	-4604
▁dedik	-4605
▁istik	-4606
▁yaşadığı	-4607
▁kaydet	-4608
▁mantık	-4609
▁söyleyen	-4610
▁lir	-4611
▁birbirinden	-4612
orta	-4613
▁çalışıyor	-4614
22	-4615
▁oradan	-4616
▁ülkede	-4617
ceğini	-4618
ilmektedir	-4619
▁boyu	-4620
▁belirtilen	-4621
fik	-4622
▁biy	-4623
▁tıpkı	-4624
▁sorumluluk	-4625
rat	-4626
▁bölgede	-4627
▁olası	-4628
▁80	-4629
4)	-4630
▁tad	-4631
▁ağrı	-4632
ron	-4633
▁hâl	-4634
▁trabz	-4635
▁2012	-4636
doğu	-4637
▁selç	-4638
yaz	-4639
▁geb	-4640
duğum	-4641
▁sk	-4642
▁tanıt	-4643
▁başlamış	-4644
11	-4645
49	-4646
▁paris	-4647
▁kurulan	-4648
▁yönlendir	-4649
lılar	-4650
köy	-4651
▁nihayet	-4652
▁okun	-4653
uc	-4654
so	-4655
aberî	-4656
uf	-4657
▁açtı	-4658
▁gördüm	-4659
embe	-4660
▁yör	-4661
▁öfk	-4662
▁içinden	-4663
dün	-4664
ilip	-4665
▁hediy	-4666
dy	-4667
▁kişiye	-4668
ws	-4669
▁açıdan	-4670
▁yerli	-4671
▁klasik	-4672
▁konak	-4673
▁rest	-4674
▁trafik	-4675
▁ismi	-4676
▁husus	-4677
▁attı	-4678
▁anlamı	-4679
▁etki	-4680
...]	-4681
▁düşünür	-4682
▁kapas	-4683
ilmez	-4684
▁konfer	-4685
▁avuk	-4686
▁vermeye	-4687
▁otomatik	-4688
▁70	-4689
▁bulut	-4690
▁lira	-4691
▁insanlara	-4692
▁isyan	-4693
▁yargı	-4694
▁kayıp	-4695
▁yukarıda	-4696
▁garip	-4697
▁güzellik	-4698
▁500	-4699
jen	-4700
bür	-4701
▁site	-4702
▁ant	-4703
▁zamanında	-4704
▁mutfak	-4705
iter	-4706
▁civar	-4707
duğumuz	-4708
ırıl	-4709
▁mesela	-4710
▁oğl	-4711
▁bölgesinde	-4712
bas	-4713
▁çök	-4714
▁kaymak	-4715
▁sağla	-4716
ges	-4717
▁kardeşi	-4718
▁birim	-4719
▁ras	-4720
▁imza	-4721
▁önlem	-4722
▁gene	-4723
▁hazırlık	-4724
▁açıkladı	-4725
▁boya	-4726
▁nam	-4727
ard	-4728
▁edebilir	-4729
▁elektronik	-4730
lıdır	-4731
▁misafir	-4732
▁yaparken	-4733
▁duyur	-4734
▁coğraf	-4735
▁amerikan	-4736
▁eğlenc	-4737
▁düşen	-4738
dığına	-4739
seri	-4740
▁takdirde	-4741
▁geldiğini	-4742
▁azından	-4743
▁yaptıkları	-4744
▁kov	-4745
alandır	-4746
▁öngör	-4747
ks	-4748
▁anti	-4749
▁sunu	-4750
▁aşağıda	-4751
▁belirterek	-4752
▁cema	-4753
kir	-4754
▁lok	-4755
▁ürünü	-4756
▁imparator	-4757
▁1/1	-4758
▁ordusu	-4759
▁konya	-4760
▁kapital	-4761
▁bilen	-4762
yacak	-4763
▁kullanılır	-4764
aseb	-4765
tez	-4766
atın	-4767
▁yolunda	-4768
▁şık	-4769
▁yapabilir	-4770
▁öp	-4771
▁yaşay	-4772
▁alına	-4773
▁görmüş	-4774
▁bulundur	-4775
▁büny	-4776
▁elç	-4777
teşem	-4778
▁rece	-4779
ub	-4780
▁zeytin	-4781
▁muhtem	-4782
▁yılmaz	-4783
▁işçi	-4784
▁kilis	-4785
27	-4786
▁maddi	-4787
yip	-4788
ıldığını	-4789
▁gidiyor	-4790
▁müşteriler	-4791
▁cesaret	-4792
kırı	-4793
▁süreci	-4794
lardaki	-4795
vey	-4796
▁uğur	-4797
▁başlı	-4798
▁bulunma	-4799
▁harekete	-4800
▁olmalıdır	-4801
▁ven	-4802
ıldığında	-4803
▁taht	-4804
▁sevgili	-4805
▁dediler	-4806
▁doğa	-4807
leriniz	-4808
▁mehmed	-4809
▁2,	-4810
▁ec	-4811
▁hassas	-4812
▁görevi	-4813
▁hükümdar	-4814
ula	-4815
▁buyurdu	-4816
anet	-4817
▁şeyleri	-4818
yaş	-4819
öğretim	-4820
▁sıv	-4821
.»	-4822
masın	-4823
▁dudak	-4824
iklet	-4825
▁feder	-4826
▁37	-4827
▁diyen	-4828
yalı	-4829
▁derecede	-4830
▁aran	-4831
▁güvenilir	-4832
▁yatır	-4833
ýn	-4834
▁beşiktaş	-4835
▁bı	-4836
▁dili	-4837
▁zihin	-4838
▁çıkıp	-4839
emesi	-4840
▁kriz	-4841
tanın	-4842
▁nem	-4843
▁hanbel	-4844
atas	-4845
▁içeren	-4846
▁taberî	-4847
▁görsel	-4848
▁ticari	-4849
bb	-4850
▁duran	-4851
ij	-4852
▁fık	-4853
▁kanunu	-4854
▁kuma	-4855
▁yürüyüş	-4856
▁işit	-4857
▁tutan	-4858
▁omuz	-4859
tadır	-4860
sup	-4861
iber	-4862
▁şö	-4863
▁acil	-4864
ebî	-4865
▁yitir	-4866
▁etkilen	-4867
▁geriye	-4868
çu	-4869
▁karma	-4870
▁sistemleri	-4871
ülebilir	-4872
▁söyleye	-4873
▁bask	-4874
▁reis	-4875
ınar	-4876
▁ahlak	-4877
▁anı	-4878
diven	-4879
▁inanıyor	-4880
bor	-4881
olog	-4882
▁müst	-4883
▁pozisyon	-4884
▁jap	-4885
lıktan	-4886
uydu	-4887
lor	-4888
▁metal	-4889
cebook	-4890
▁pazarlama	-4891
▁benzeri	-4892
sv	-4893
▁hakları	-4894
▁bölgesi	-4895
▁nik	-4896
usuz	-4897
lerindeki	-4898
▁muhteşem	-4899
▁gençlik	-4900
▁alay	-4901
▁transfer	-4902
▁niş	-4903
asındaki	-4904
▁bekliyor	-4905
▁toplumun	-4906
▁adeta	-4907
▁merhaba	-4908
▁katılan	-4909
▁onur	-4910
▁modelleri	-4911
▁dikkate	-4912
▁taban	-4913
▁zir	-4914
▁alım	-4915
▁altern	-4916
ung	-4917
▁elinden	-4918
▁araştırmalar	-4919
ps	-4920
26	-4921
▁bugüne	-4922
▁manz	-4923
▁uzay	-4924
▁rabb	-4925
▁ulaştır	-4926
▁arkadaşlar	-4927
▁sonuçları	-4928
▁cumhuriyeti	-4929
gesi	-4930
▁”	-4931
▁şikayet	-4932
ayacak	-4933
▁yürü	-4934
▁galib	-4935
▁pa	-4936
leyip	-4937
isin	-4938
▁[...]	-4939
▁genelde	-4940
▁kızıl	-4941
▁uzaklaş	-4942
▁sof	-4943
▁adana	-4944
):	-4945
▁doğrultusunda	-4946
▁utan	-4947
imet	-4948
▁bunlara	-4949
▁elbis	-4950
lerken	-4951
▁performans	-4952
▁arasına	-4953
▁dua	-4954
▁sir	-4955
lanıyor	-4956
lal	-4957
cisi	-4958
▁düşünül	-4959
▁teşvik	-4960
▁önümüz	-4961
▁mutluluk	-4962
sit	-4963
üye	-4964
▁tepki	-4965
illi	-4966
▁emr	-4967
▁dekor	-4968
ağın	-4969
▁büyüm	-4970
mamak	-4971
▁yumuşak	-4972
okul	-4973
biy	-4974
▁maliyet	-4975
▁konuk	-4976
▁filmi	-4977
▁çalıştır	-4978
▁âlem	-4979
▁işgal	-4980
▁fabrik	-4981
racat	-4982
emedi	-4983
▁geçici	-4984
",	-4985
ysa	-4986
▁kesim	-4987
▁sanatçı	-4988
müyor	-4989
▁herkese	-4990
▁açılan	-4991
▁belirlen	-4992
▁he	-4993
▁yüzey	-4994
oyu	-4995
▁etmişti	-4996
▁ödem	-4997
▁çarpış	-4998
▁gerektiği	-4999
▁beyin	-5000
▁takımı	-5001
▁titr	-5002
▁onlardan	-5003
▁kalabalık	-5004
▁alternatif	-5005
▁şunu	-5006
uyucu	-5007
▁itibariyle	-5008
▁hali	-5009
imizden	-5010
▁evi	-5011
▁ramaz	-5012
usuf	-5013
lanmıştır	-5014
▁yolcu	-5015
▁çocukları	-5016
mede	-5017
▁sadr	-5018
▁çocuğu	-5019
▁sizler	-5020
▁sıf	-5021
▁birine	-5022
▁fiyatı	-5023
▁riv	-5024
▁buh	-5025
▁cami	-5026
▁alabilirsiniz	-5027
âyet	-5028
▁farkında	-5029
▁maz	-5030
▁oyunları	-5031
▁vası	-5032
▁tavır	-5033
▁adlandır	-5034
▁olurdu	-5035
cam	-5036
▁olsay	-5037
▁tahta	-5038
ûlullah	-5039
larca	-5040
▁kimlik	-5041
▁yaklaşım	-5042
▁38	-5043
▁hazırlanan	-5044
▁cm	-5045
eyerek	-5046
▁anahtar	-5047
▁yasal	-5048
▁bulmak	-5049
▁ülkemizde	-5050
▁şeref	-5051
▁oynan	-5052
▁kursu	-5053
▁ideal	-5054
▁evr	-5055
▁yerlerde	-5056
▁işlemi	-5057
uluğ	-5058
▁varol	-5059
-5	-5060
.0	-5061
▁»	-5062
▁mic	-5063
▁denet	-5064
▁alev	-5065
▁konser	-5066
▁ikisi	-5067
▁sesle	-5068
▁recep	-5069
▁taşım	-5070
▁hoca	-5071
eğini	-5072
▁özgü	-5073
▁olmadı	-5074
▁kültürel	-5075
azam	-5076
▁tayyip	-5077
▁kolayca	-5078
▁sermaye	-5079
41	-5080
▁hapis	-5081
▁sözler	-5082
▁mezun	-5083
▁rakam	-5084
28	-5085
ilerle	-5086
ılmasını	-5087
▁türkler	-5088
▁sürü	-5089
▁2/2	-5090
▁dönüp	-5091
▁geleneksel	-5092
▁bahar	-5093
otel	-5094
▁hekim	-5095
▁moda	-5096
▁aldım	-5097
▁okuma	-5098
▁çam	-5099
▁90	-5100
manı	-5101
led	-5102
▁darbe	-5103
mesiyle	-5104
▁kuy	-5105
▁çabuk	-5106
halde	-5107
▁amac	-5108
pe	-5109
▁iii	-5110
▁fiziksel	-5111
ie	-5112
▁kurs	-5113
▁lu	-5114
▁özgürlük	-5115
▁açıkça	-5116
âlâ	-5117
▁ağız	-5118
▁harf	-5119
▁ex	-5120
▁çerçevesinde	-5121
sine	-5122
▁noktada	-5123
▁evden	-5124
▁kıyafet	-5125
tuğu	-5126
▁gemi	-5127
▁karşılaştır	-5128
▁nö	-5129
▁dokuz	-5130
▁eşi	-5131
▁cennet	-5132
cin	-5133
▁işleri	-5134
▁darb	-5135
▁bastır	-5136
▁verilir	-5137
leşme	-5138
▁arasından	-5139
diniz	-5140
▁bakalım	-5141
nternet	-5142
95	-5143
▁coş	-5144
▁ilav	-5145
▁yuvar	-5146
çesi	-5147
▁kurumsal	-5148
▁1/2	-5149
▁görebil	-5150
▁eklen	-5151
.5	-5152
▁gerekti	-5153
▁üyeleri	-5154
▁daire	-5155
pat	-5156
▁bis	-5157
▁alındı	-5158
▁rü	-5159
▁organizasyon	-5160
▁biliyorum	-5161
ıf	-5162
▁nefret	-5163
▁kelime	-5164
▁alınması	-5165
ord	-5166
▁kırk	-5167
▁ayakkabı	-5168
▁deli	-5169
▁hayran	-5170
atasaray	-5171
▁tepk	-5172
▁hastalı	-5173
elli	-5174
ceğim	-5175
▁kilomet	-5176
-6	-5177
▁facebook	-5178
97	-5179
işehir	-5180
''	-5181
için	-5182
▁sön	-5183
▁bahsed	-5184
▁kıymet	-5185
ruk	-5186
▁düzelt	-5187
aat	-5188
▁yaprak	-5189
▁gösterdi	-5190
yid	-5191
tülü	-5192
▁som	-5193
melidir	-5194
▁gereği	-5195
rî	-5196
▁azalt	-5197
▁pişir	-5198
▁yusuf	-5199
▁almaktadır	-5200
▁izlen	-5201
▁vs	-5202
▁zinc	-5203
deri	-5204
▁çizg	-5205
▁durumlarda	-5206
▁olmayacak	-5207
▁	-5208
▁kalem	-5209
▁bakın	-5210
▁ekmek	-5211
▁sef	-5212
smail	-5213
▁ceph	-5214
sy	-5215
.’	-5216
▁taraftan	-5217
urlar	-5218
▁takv	-5219
▁gazete	-5220
▁olmaktan	-5221
▁havuz	-5222
cağına	-5223
imle	-5224
▁rej	-5225
tah	-5226
tüm	-5227
▁çekil	-5228
▁gündem	-5229
▁bankası	-5230
▁çalışması	-5231
▁temizlik	-5232
▁tw	-5233
▁düşündü	-5234
▁ilçesinde	-5235
▁nez	-5236
lon	-5237
▁sığın	-5238
ınma	-5239
▁hikây	-5240
▁istif	-5241
▁kli	-5242
▁maaş	-5243
36	-5244
▁şehrin	-5245
▁vir	-5246
▁pratik	-5247
keti	-5248
yken	-5249
isiniz	-5250
▁katı	-5251
▁gözden	-5252
▁ekib	-5253
35	-5254
kâ	-5255
▁mali	-5256
▁evvel	-5257
▁rahmet	-5258
lerimi	-5259
▁dans	-5260
▁öv	-5261
abiliyor	-5262
▁depo	-5263
21	-5264
▁başlamıştı	-5265
tığında	-5266
▁endü	-5267
▁yapısı	-5268
dığından	-5269
▁kullanmak	-5270
▁sabır	-5271
▁derken	-5272
▁hindistan	-5273
▁özet	-5274
ınızın	-5275
▁vic	-5276
▁hatt	-5277
▁tehlikeli	-5278
▁hü	-5279
▁evlilik	-5280
▁görünüyor	-5281
▁gayet	-5282
▁karşılan	-5283
▁çağr	-5284
ılmasına	-5285
▁kanser	-5286
▁birinc	-5287
▁yetenek	-5288
ğının	-5289
▁bacak	-5290
▁kapasit	-5291
gaç	-5292
▁ağa	-5293
▁restor	-5294
larımıza	-5295
▁2011	-5296
▁olmaktadır	-5297
▁benimle	-5298
▁getirmek	-5299
sar	-5300
▁etmem	-5301
▁pah	-5302
ino	-5303
▁bizzat	-5304
usunun	-5305
▁bk	-5306
denin	-5307
âil	-5308
stit	-5309
lukla	-5310
giz	-5311
▁olduğum	-5312
▁olayı	-5313
ılmaktadır	-5314
▁yorgun	-5315
▁ramazan	-5316
▁kula	-5317
melerini	-5318
▁ilah	-5319
pt	-5320
ladım	-5321
hn	-5322
▁faydalan	-5323
▁sendik	-5324
▁matematik	-5325
▁ordus	-5326
▁hor	-5327
▁gelmişti	-5328
▁gündüz	-5329
gre	-5330
▁olunca	-5331
▁ris	-5332
diklerini	-5333
▁açılış	-5334
▁gülüms	-5335
▁gösteriyor	-5336
▁sız	-5337
▁bireysel	-5338
▁sever	-5339
▁beklem	-5340
şe	-5341
▁yapımı	-5342
▁nev	-5343
▁doğrusu	-5344
▁evin	-5345
▁karşıya	-5346
bon	-5347
▁lezzet	-5348
▁vererek	-5349
yada	-5350
▁korumak	-5351
▁fenerbahçe	-5352
▁derg	-5353
▁tir	-5354
▁şeyden	-5355
▁boyun	-5356
ıklı	-5357
▁gördüğü	-5358
▁duruyor	-5359
▁kusur	-5360
vin	-5361
▁http	-5362
larımı	-5363
▁yazık	-5364
▁yeryüz	-5365
▁yakından	-5366
▁şair	-5367
▁tro	-5368
▁faktör	-5369
lıkta	-5370
maması	-5371
▁yeten	-5372
▁sağlığı	-5373
▁yayınları	-5374
▁ulu	-5375
ai	-5376
▁yur	-5377
âde	-5378
▁iv	-5379
▁daima	-5380
▁vel	-5381
▁ayağa	-5382
3)	-5383
96	-5384
leyecek	-5385
▁aziz	-5386
▁etmez	-5387
▁kumaş	-5388
asız	-5389
▁denk	-5390
▁hayatta	-5391
▁galatasaray	-5392
▁gürül	-5393
▁arkasında	-5394
▁mensup	-5395
ona	-5396
arya	-5397
▁kırık	-5398
lerimizin	-5399
▁örgütü	-5400
▁yangın	-5401
▁desteği	-5402
▁yolculuk	-5403
türkiye	-5404
medim	-5405
anıp	-5406
▁bağlan	-5407
▁uyarı	-5408
▁pir	-5409
ary	-5410
▁görünüm	-5411
hp	-5412
▁üretic	-5413
adaki	-5414
▁aşa	-5415
▁ediliyor	-5416
▁nakliyat	-5417
diğine	-5418
▁olaylar	-5419
his	-5420
▁netic	-5421
▁yaşar	-5422
ordin	-5423
ilmesini	-5424
▁gurur	-5425
{{	-5426
▁sevk	-5427
çeri	-5428
▁rekabet	-5429
▁serg	-5430
▁falan	-5431
ris	-5432
▁uygulaması	-5433
git	-5434
▁beyan	-5435
▁6.	-5436
▁incelen	-5437
▁gecik	-5438
38	-5439
iner	-5440
▁defter	-5441
▁mağaz	-5442
▁sürük	-5443
tansiy	-5444
▁herhalde	-5445
▁rüzg	-5446
inler	-5447
▁''	-5448
▁değin	-5449
▁rakip	-5450
üldü	-5451
▁denilen	-5452
▁karab	-5453
▁aleyhisselâmın	-5454
▁ekonomi	-5455
mesinde	-5456
▁milliyet	-5457
ğimi	-5458
▁vali	-5459
▁uyandır	-5460
tab	-5461
jital	-5462
allı	-5463
liliği	-5464
▁gibiydi	-5465
▁söyledik	-5466
▁popüler	-5467
▁ertesi	-5468
▁kalite	-5469
▁cok	-5470
▁ameliyat	-5471
istin	-5472
▁alışkan	-5473
44	-5474
▁öm	-5475
▁polit	-5476
▁haberi	-5477
malarına	-5478
▁sağlaya	-5479
▁mül	-5480
▁sığ	-5481
▁sonradan	-5482
▁deri	-5483
▁antr	-5484
▁rehber	-5485
▁edilecek	-5486
{{{	-5487
▁fazlası	-5488
▁potansiy	-5489
▁ofis	-5490
ng	-5491
teydi	-5492
▁yenilik	-5493
▁ru	-5494
▁kongr	-5495
▁aykırı	-5496
▁hıristiyan	-5497
▁çığ	-5498
▁yolunu	-5499
▁öğrencilerin	-5500
▁ceb	-5501
yasal	-5502
ple	-5503
slan	-5504
▁yürüm	-5505
▁doğur	-5506
▁doy	-5507
▁yaşat	-5508
ıb	-5509
ıydı	-5510
▁dilek	-5511
▁aktiv	-5512
▁kurumu	-5513
manızı	-5514
▁günler	-5515
▁selim	-5516
▁koltuk	-5517
▁arş	-5518
▁olmayı	-5519
▁çıl	-5520
▁faydalı	-5521
▁avukat	-5522
:00	-5523
▁cumhurbaşkan	-5524
val	-5525
--	-5526
▁oldum	-5527
▁değilim	-5528
▁biridir	-5529
mekle	-5530
▁saha	-5531
oto	-5532
emeyen	-5533
▁depr	-5534
▁hayatın	-5535
▁ış	-5536
▁lam	-5537
▁annesi	-5538
▁iman	-5539
▁sigort	-5540
▁tanıtım	-5541
▁bül	-5542
▁post	-5543
▁aracılığıyla	-5544
▁com	-5545
▁yenilen	-5546
▁tayin	-5547
sün	-5548
▁karadeniz	-5549
ori	-5550
▁yı	-5551
▁çıkacak	-5552
▁sözcük	-5553
▁pkk	-5554
▁verg	-5555
▁güçlendir	-5556
▁halka	-5557
▁kağıt	-5558
▁blog	-5559
esef	-5560
▁halı	-5561
▁taraftar	-5562
!’	-5563
▁yerler	-5564
▁gazetec	-5565
ese	-5566
▁akın	-5567
▁düğün	-5568
▁koz	-5569
tıktan	-5570
▁çalıştı	-5571
▁kemik	-5572
▁sergil	-5573
▁vas	-5574
▁köylü	-5575
eddin	-5576
pg	-5577
şallah	-5578
▁irade	-5579
▁koç	-5580
▁malat	-5581
▁siyasal	-5582
▁noktası	-5583
▁komşu	-5584
▁kadını	-5585
▁göğüs	-5586
▁len	-5587
▁seyir	-5588
▁2010	-5589
▁bayrak	-5590
▁deh	-5591
rag	-5592
veren	-5593
sör	-5594
lemiş	-5595
isa	-5596
▁şaşkın	-5597
▁mahall	-5598
▁erkekler	-5599
▁kilit	-5600
▁euro	-5601
▁öldü	-5602
uyoruz	-5603
▁hele	-5604
▁radyo	-5605
▁bilgisi	-5606
▁kanat	-5607
▁iptal	-5608
anti	-5609
”.	-5610
▁evine	-5611
▁tuhaf	-5612
▁cins	-5613
▁çıkardı	-5614
▁ra	-5615
▁disip	-5616
▁kızın	-5617
dınız	-5618
▁bilmiyorum	-5619
ack	-5620
şek	-5621
aydı	-5622
▁(1)	-5623
amik	-5624
takım	-5625
▁kralı	-5626
▁karşın	-5627
▁haş	-5628
▁sağlıyor	-5629
ife	-5630
▁yunanistan	-5631
▁kaptan	-5632
▁dijital	-5633
▁bilgilendir	-5634
los	-5635
▁gayret	-5636
▁olacağı	-5637
▁nec	-5638
▁bölün	-5639
▁gev	-5640
▁edebilirsiniz	-5641
▁est	-5642
ûm	-5643
şlet	-5644
▁buldu	-5645
▁![	-5646
▁cinayet	-5647
▁ayakta	-5648
▁esnaf	-5649
▁hip	-5650
▁suretiyle	-5651
leyic	-5652
kesi	-5653
▁plak	-5654
unuzu	-5655
▁kayded	-5656
şet	-5657
ısınız	-5658
▁kendileri	-5659
37	-5660
▁bid	-5661
▁öbür	-5662
▁sigara	-5663
▁dikkatli	-5664
pek	-5665
▁bulan	-5666
▁hata	-5667
▁sandal	-5668
▁ümit	-5669
▁refer	-5670
mesinden	-5671
▁çalışır	-5672
▁mevzu	-5673
▁amaçlı	-5674
acağınız	-5675
▁işlev	-5676
▁kast	-5677
▁işlemleri	-5678
▁yetkili	-5679
▁şak	-5680
▁şube	-5681
▁tutul	-5682
▁hisse	-5683
▁şehri	-5684
▁edilebilir	-5685
lus	-5686
▁anlatıyor	-5687
anız	-5688
▁sahil	-5689
▁edildiği	-5690
luğun	-5691
akkale	-5692
▁baştan	-5693
tikten	-5694
▁kıyı	-5695
▁cenaz	-5696
▁mikro	-5697
▁bulama	-5698
▁kullandı	-5699
▁babasının	-5700
▁demokratik	-5701
▁önde	-5702
▁akdeniz	-5703
▁küresel	-5704
▁duruş	-5705
▁temas	-5706
▁karışık	-5707
▁modeli	-5708
lüğe	-5709
▁anlaya	-5710
▁ze	-5711
ilerde	-5712
▁bedel	-5713
▁nitekim	-5714
▁vücud	-5715
▁48	-5716
▁denir	-5717
▁mecbur	-5718
ünce	-5719
▁lond	-5720
▁duygusal	-5721
▁dönüşüm	-5722
▁yedek	-5723
▁belgesi	-5724
▁melek	-5725
▁inşaat	-5726
▁kader	-5727
▁gelişmeler	-5728
▁veli	-5729
▁esnasında	-5730
▁çağrı	-5731
maktır	-5732
▁devir	-5733
▁itiraz	-5734
elerek	-5735
iyetini	-5736
▁meden	-5737
▁insana	-5738
kas	-5739
sav	-5740
▁kıp	-5741
▁görünen	-5742
▁onlarla	-5743
▁merdiven	-5744
▁silahlı	-5745
▁karşılıklı	-5746
▁fe	-5747
▁uçuş	-5748
ebi	-5749
▁imal	-5750
ülür	-5751
▁verici	-5752
ayıp	-5753
▁antik	-5754
▁geldiğinde	-5755
bakır	-5756
images	-5757
▁güne	-5758
▁anlattı	-5759
▁hepsini	-5760
▁öteki	-5761
anları	-5762
▁kitl	-5763
▁adıyla	-5764
▁alabil	-5765
▁ast	-5766
14	-5767
esin	-5768
▁satı	-5769
ograf	-5770
▁yu	-5771
eleriyle	-5772
▁türü	-5773
▁gelişmiş	-5774
izmin	-5775
not	-5776
57	-5777
▁ısrar	-5778
▁dava	-5779
▁konuyu	-5780
amıyor	-5781
▁kuşat	-5782
24	-5783
tifak	-5784
▁cemaat	-5785
▁enstit	-5786
▁kahvaltı	-5787
▁sebebiyle	-5788
▁makal	-5789
▁mümkündür	-5790
▁teker	-5791
▁topluluk	-5792
▁zul	-5793
▁mini	-5794
▁otuz	-5795
▁aslan	-5796
▁hareketi	-5797
▁ettikleri	-5798
39	-5799
▁meyv	-5800
▁nereye	-5801
▁qu	-5802
!..	-5803
▁tanık	-5804
rın	-5805
▁planı	-5806
▁önemi	-5807
▁rengi	-5808
ock	-5809
▁sürece	-5810
liydi	-5811
▁ilave	-5812
▁konuşan	-5813
madım	-5814
lilerin	-5815
▁300	-5816
▁hastanesi	-5817
▁ihtimal	-5818
▁iade	-5819
▁zemin	-5820
▁ibaret	-5821
▁dernek	-5822
▁verdim	-5823
▁gözük	-5824
▁zehir	-5825
rama	-5826
▁petrol	-5827
▁birbirlerine	-5828
▁kanunun	-5829
yim	-5830
▁abdül	-5831
▁yumur	-5832
landığı	-5833
eceğimiz	-5834
▁güvenliği	-5835
dows	-5836
▁sembol	-5837
▁maddesi	-5838
▁görüşmeler	-5839
▁ortada	-5840
▁geliyordu	-5841
ity	-5842
▁leh	-5843
▁görülür	-5844
▁göze	-5845
▁bağımlı	-5846
mparatorluğu	-5847
▁yükselt	-5848
inda	-5849
▁ebû	-5850
▁seyyid	-5851
▁kaya	-5852
▁hakan	-5853
▁günden	-5854
kun	-5855
▁pis	-5856
▁olmakla	-5857
▁kütüp	-5858
▁rüy	-5859
▁kullanan	-5860
▁kesîr	-5861
▁diyet	-5862
▁kıyas	-5863
▁tutum	-5864
▁sınırlı	-5865
▁olmasa	-5866
▁firmamız	-5867
▁sakın	-5868
▁malzeme	-5869
▁getirdiği	-5870
▁şirketi	-5871
erv	-5872
ûr	-5873
▁neyse	-5874
/0	-5875
▁hatırlat	-5876
▁hayli	-5877
iret	-5878
tük	-5879
▁je	-5880
▁çekin	-5881
▁yurtdı	-5882
▁jandar	-5883
▁hur	-5884
▁afrika	-5885
ıyordum	-5886
▁bıraktı	-5887
▁mahmut	-5888
▁kuşk	-5889
▁gidecek	-5890
▁hayırlı	-5891
bert	-5892
tic	-5893
▁kahve	-5894
▁gözalt	-5895
▁çevresinde	-5896
ex	-5897
▁mahkeme	-5898
larken	-5899
demir	-5900
▁birtakım	-5901
▁müdahale	-5902
ediğini	-5903
tip	-5904
▁yapıp	-5905
▁verilmesi	-5906
ısal	-5907
kaya	-5908
▁kararlı	-5909
eyn	-5910
▁gu	-5911
ülmesi	-5912
▁vitam	-5913
▁eşya	-5914
▁haberler	-5915
▁yasa	-5916
▁psikolojik	-5917
okulu	-5918
▁kartı	-5919
▁nesil	-5920
▁olduğunda	-5921
▁bizler	-5922
ığı	-5923
▁vi	-5924
âd	-5925
▁ederler	-5926
▁anlatan	-5927
▁eskiden	-5928
▁sorunları	-5929
▁mekke	-5930
▁niçin	-5931
▁bina	-5932
▁tabak	-5933
bot	-5934
ozof	-5935
▁dum	-5936
▁vermektedir	-5937
mus	-5938
▁incelem	-5939
uncu	-5940
▁kiralama	-5941
▁verme	-5942
▁yüzünü	-5943
suzluk	-5944
▁kaçak	-5945
▁fuar	-5946
▁sigorta	-5947
▁sıradan	-5948
iyorsunuz	-5949
▁pal	-5950
▁vezir	-5951
▁göstermek	-5952
îm	-5953
▁tarihleri	-5954
▁nat	-5955
lıyordu	-5956
▁sta	-5957
▁olgun	-5958
ibe	-5959
▁cumartesi	-5960
eğine	-5961
▁budur	-5962
▁yüzüne	-5963
▁olduğunuz	-5964
utu	-5965
lığından	-5966
▁meclisi	-5967
▁egz	-5968
dıkça	-5969
▁algı	-5970
▁koyu	-5971
▁yoksul	-5972
▁aksine	-5973
ûn	-5974
▁istiyordu	-5975
▁bileş	-5976
▁mac	-5977
▁demokrasi	-5978
▁andro	-5979
▁ran	-5980
▁telefonu	-5981
▁zihn	-5982
▁bilgiye	-5983
▁sekret	-5984
▁sinema	-5985
▁musun	-5986
eceğine	-5987
emem	-5988
▁yaptım	-5989
▁okulu	-5990
▁lak	-5991
▁39	-5992
▁hakkındaki	-5993
▁aydınlat	-5994
▁koordin	-5995
▁ortamda	-5996
▁arkasından	-5997
▁yemin	-5998
▁ulaşabilirsiniz	-5999
▁şunları	-6000
zan	-6001
▁alınır	-6002
gs	-6003
▁vefat	-6004
▁dayalı	-6005
▁kimyasal	-6006
mayıp	-6007
▁34	-6008
▁şahıs	-6009
▁yahut	-6010
▁sonuçlar	-6011
0,	-6012
irim	-6013
▁evinde	-6014
ımdan	-6015
▁değerlendirme	-6016
▁istiyoruz	-6017
gat	-6018
▁anlatır	-6019
▁gerekse	-6020
▁olmaları	-6021
▁okur	-6022
▁çanakkale	-6023
eydi	-6024
ilmişti	-6025
▁gitmiş	-6026
caya	-6027
wn	-6028
▁ikin	-6029
▁gönderdi	-6030
▁bölümünde	-6031
▁yöntemi	-6032
sının	-6033
▁mâ	-6034
▁zirv	-6035
▁çekici	-6036
▁zamanla	-6037
sh	-6038
▁yetersiz	-6039
..."	-6040
▁dünyayı	-6041
▁halen	-6042
ebilmek	-6043
▁üstü	-6044
▁usta	-6045
▁miktarda	-6046
▁önümüzdeki	-6047
▁olağanüstü	-6048
-4	-6049
▁politika	-6050
32	-6051
▁işbirliği	-6052
▁babam	-6053
.00	-6054
▁toh	-6055
▁yönünde	-6056
▁saniye	-6057
fed	-6058
gâh	-6059
▁artan	-6060
▁ülkeler	-6061
lıyorum	-6062
şim	-6063
▁anayasa	-6064
▁civarında	-6065
▁çav	-6066
▁talima	-6067
▁rivayet	-6068
▁pak	-6069
▁ortasında	-6070
mit	-6071
ruf	-6072
▁imkanı	-6073
▁tüketic	-6074
▁alak	-6075
▁ca	-6076
nü	-6077
gah	-6078
▁yaratıcı	-6079
teyiz	-6080
üyü	-6081
▁bulgar	-6082
▁2008	-6083
▁paylaşım	-6084
hid	-6085
▁süz	-6086
▁yazdığı	-6087
▁mhp	-6088
▁yapıla	-6089
osk	-6090
▁kuran	-6091
75	-6092
duktan	-6093
1)	-6094
▁kalıcı	-6095
▁hacı	-6096
▁za	-6097
land	-6098
unus	-6099
▁erzurum	-6100
cıların	-6101
ere	-6102
▁banyo	-6103
▁zah	-6104
▁gelmesi	-6105
elendir	-6106
uluyor	-6107
sinde	-6108
▁ninni	-6109
liye	-6110
▁altyap	-6111
kem	-6112
▁hunların	-6113
isiz	-6114
▁kazanç	-6115
▁köyü	-6116
▁anında	-6117
▁eli	-6118
.'	-6119
▁tanesi	-6120
▁istediğini	-6121
▁ithal	-6122
▁sanıyor	-6123
▁kib	-6124
▁sertif	-6125
▁anlamak	-6126
▁koku	-6127
▁albüm	-6128
▁delâil	-6129
▁çadır	-6130
▁ci	-6131
▁tâ	-6132
▁varmış	-6133
▁kolaylaştır	-6134
▁duru	-6135
▁kulüp	-6136
▁oluşturan	-6137
▁açıldı	-6138
▁cüml	-6139
▁edilmektedir	-6140
▁gazetesi	-6141
▁göv	-6142
▁filozof	-6143
▁biliyordu	-6144
▁maruz	-6145
▁yapabilirsiniz	-6146
].	-6147
▁kuvvetli	-6148
▁yaptığını	-6149
▁muay	-6150
▁;	-6151
▁general	-6152
▁hazret	-6153
▁mol	-6154
▁tipi	-6155
▁ti	-6156
▁kendisinden	-6157
▁tasarımı	-6158
▁final	-6159
▁eskişehir	-6160
memesi	-6161
▁dışişleri	-6162
▁cerrah	-6163
▁resûlullah	-6164
âzım	-6165
▁kalıp	-6166
melik	-6167
▁sorunun	-6168
▁şeytan	-6169
rük	-6170
▁çey	-6171
▁mevcuttur	-6172
▁bugünkü	-6173
▁çil	-6174
▁başarısız	-6175
▁turk	-6176
▁edici	-6177
▁seyret	-6178
▁stat	-6179
▁kavg	-6180
▁müşrik	-6181
▁arkadaşı	-6182
ich	-6183
nsanlar	-6184
▁seviş	-6185
kit	-6186
ebek	-6187
▁sivas	-6188
▁isterseniz	-6189
lemesi	-6190
▁kullandığı	-6191
▁dörd	-6192
▁yaşıyor	-6193
▁üretimi	-6194
▁öyl	-6195
note	-6196
▁başlayacak	-6197
▁salı	-6198
▁girer	-6199
▁yaptığımız	-6200
▁müsa	-6201
▁muhab	-6202
alesef	-6203
▁ihracat	-6204
paz	-6205
29	-6206
▁cevabı	-6207
▁gelmiştir	-6208
▁atilla	-6209
▁futbolcu	-6210
▁7.	-6211
▁ege	-6212
▁geride	-6213
ğeri	-6214
▁medine	-6215
landa	-6216
yak	-6217
▁istiyorsanız	-6218
56	-6219
▁windows	-6220
ill	-6221
▁hastalığı	-6222
................	-6223
darı	-6224
kah	-6225
▁idare	-6226
▁burası	-6227
ste	-6228
ell	-6229
▁küf	-6230
▁meyve	-6231
ağını	-6232
vanı	-6233
henn	-6234
▁kumandan	-6235
▁yüküm	-6236
▁kapıyı	-6237
▁birinde	-6238
▁yıllardır	-6239
kap	-6240
▁diyarbakır	-6241
▁gücünü	-6242
▁kısaca	-6243
▁gerekç	-6244
▁çuk	-6245
▁hakikat	-6246
▁güler	-6247
satı	-6248
▁kü	-6249
▁bulunması	-6250
sis	-6251
▁düzeyde	-6252
şap	-6253
▁diyorum	-6254
▁pam	-6255
▁emekli	-6256
▁anım	-6257
ustur	-6258
▁kısmını	-6259
masyon	-6260
▁yüzlerce	-6261
▁trabzon	-6262
▁edir	-6263
îh	-6264
▁keskin	-6265
imini	-6266
▁ilçe	-6267
▁durdu	-6268
▁alınacak	-6269
erk	-6270
▁konularda	-6271
paşa	-6272
▁zeh	-6273
▁aşkın	-6274
▁barındır	-6275
▁görünüş	-6276
33	-6277
▁boyn	-6278
▁okum	-6279
▁etrafında	-6280
▁fan	-6281
▁hic	-6282
▁çır	-6283
▁direktör	-6284
unlar	-6285
▁kendime	-6286
▁canlandır	-6287
▁kutu	-6288
▁yılından	-6289
▁kısı	-6290
▁tamamlan	-6291
mediğini	-6292
▁kullanma	-6293
▁gözaltına	-6294
▁sch	-6295
▁masa	-6296
▁bilge	-6297
▁bulur	-6298
hone	-6299
mis	-6300
▁sadrazam	-6301
▁sayede	-6302
▁tuv	-6303
▁önder	-6304
▁yapıldığı	-6305
▁acel	-6306
▁getirir	-6307
antep	-6308
▁sov	-6309
▁tabgaç	-6310
▁malatya	-6311
▁zorluk	-6312
▁bulunduğunu	-6313
▁kurtuluş	-6314
▁sevinç	-6315
în	-6316
▁geldik	-6317
▁müdürlüğ	-6318
▁uyu	-6319
▁öğrenmek	-6320
▁bro	-6321
ülmüş	-6322
▁bakar	-6323
bab	-6324
▁diplo	-6325
▁kötül	-6326
▁resm	-6327
▁girmiş	-6328
▁döner	-6329
▁beyler	-6330
▁ayet	-6331
▁hikmet	-6332
▁subay	-6333
ırdı	-6334
▁ömür	-6335
▁karşısına	-6336
▁adayı	-6337
▁seçen	-6338
▁yılları	-6339
▁yayınlanan	-6340
▁gı	-6341
cev	-6342
▁lük	-6343
▁açma	-6344
▁mahkemesi	-6345
▁altındaki	-6346
▁tey	-6347
▁47	-6348
▁çıktığı	-6349
duğunuz	-6350
▁ulaşım	-6351
iyye	-6352
▁sürücü	-6353
bilirim	-6354
▁yüzyılda	-6355
lerimize	-6356
âk	-6357
kür	-6358
▁bozul	-6359
▁suyun	-6360
riyet	-6361
▁tarafı	-6362
bahar	-6363
▁sunan	-6364
▁ırk	-6365
ilmesine	-6366
▁havalim	-6367
▁yolları	-6368
▁kuvvetleri	-6369
▁kalacak	-6370
▁bilet	-6371
yaj	-6372
▁aksi	-6373
▁mesle	-6374
▁etmeyi	-6375
▁seven	-6376
▁olsaydı	-6377
ilerinden	-6378
▁çik	-6379
▁günleri	-6380
ahh	-6381
çisi	-6382
▁sebeple	-6383
türü	-6384
istler	-6385
▁alanlar	-6386
▁kaza	-6387
▁gölg	-6388
▁konus	-6389
pi	-6390
▁lek	-6391
▁fas	-6392
▁ailen	-6393
▁komutanı	-6394
▁farkı	-6395
▁set	-6396
▁nereden	-6397
itter	-6398
▁damar	-6399
ğım	-6400
otik	-6401
▁karan	-6402
▁şimdiye	-6403
iti	-6404
▁yeterince	-6405
alılar	-6406
▁oluyordu	-6407
▁ziyade	-6408
▁zamana	-6409
▁log	-6410
▁gözler	-6411
▁varsay	-6412
▁bkz	-6413
▁kimin	-6414
▁hükümeti	-6415
▁etiketler	-6416
▁gündeme	-6417
▁olmaması	-6418
▁maalesef	-6419
▁sıvı	-6420
düler	-6421
▁tarafında	-6422
▁kendinizi	-6423
▁elli	-6424
▁keyifli	-6425
▁ww	-6426
ildiğini	-6427
ök	-6428
▁durak	-6429
maların	-6430
▁anlar	-6431
▁yuv	-6432
luğa	-6433
▁durumun	-6434
▁kopar	-6435
▁bidâye	-6436
top	-6437
▁dolan	-6438
▁sömür	-6439
55	-6440
▁yab	-6441
▁zav	-6442
peryal	-6443
▁yumurta	-6444
▁hemş	-6445
▁sıfır	-6446
▁gezeg	-6447
▁gelişme	-6448
▁delil	-6449
2)	-6450
▁sis	-6451
▁android	-6452
▁şekli	-6453
yordu	-6454
▁sözünü	-6455
uki	-6456
alarıyla	-6457
▁duyduğu	-6458
▁başladılar	-6459
▁şüphesiz	-6460
▁dürüst	-6461
▁fo	-6462
üzel	-6463
▁nar	-6464
emizde	-6465
▁alkol	-6466
▁yiy	-6467
▁çağdaş	-6468
▁köl	-6469
▁ailesi	-6470
▁alıcı	-6471
meyin	-6472
▁bizden	-6473
▁oranında	-6474
▁garanti	-6475
▁uyumlu	-6476
▁fikr	-6477
iyel	-6478
▁pazartesi	-6479
▁aşama	-6480
fil	-6481
▁görevlendir	-6482
▁müf	-6483
▁tom	-6484
tl	-6485
▁çekir	-6486
▁istan	-6487
mıştım	-6488
▁valisi	-6489
▁siteleri	-6490
▁denize	-6491
▁anlaşma	-6492
▁esîr	-6493
▁sovyet	-6494
▁kurtu	-6495
▁dönemin	-6496
▁şem	-6497
sından	-6498
▁kafa	-6499
▁tasarruf	-6500
ano	-6501
▁uygar	-6502
amızda	-6503
▁alanları	-6504
ji	-6505
▁ölen	-6506
▁tac	-6507
▁york	-6508
spanya	-6509
▁korkut	-6510
▁ahşap	-6511
▁londra	-6512
zam	-6513
▁gelerek	-6514
▁çiğ	-6515
▁gibidir	-6516
▁uydur	-6517
▁dola	-6518
▁olanı	-6519
onlar	-6520
isyen	-6521
▁yerleri	-6522
▁silin	-6523
▁laf	-6524
▁sâ	-6525
fir	-6526
lup	-6527
▁kişiyi	-6528
ıplak	-6529
▁kısıt	-6530
likleri	-6531
▁hid	-6532
▁gösterdiği	-6533
▁annem	-6534
▁lisesi	-6535
▁zer	-6536
▁şiddetli	-6537
▁heykel	-6538
tes	-6539
▁doç	-6540
▁makine	-6541
▁erdem	-6542
hakî	-6543
▁niye	-6544
nşa	-6545
▁görecek	-6546
luğunu	-6547
amadı	-6548
ılmaya	-6549
▁tarafa	-6550
ilebil	-6551
▁alması	-6552
▁genişlet	-6553
▁devamlı	-6554
tikleri	-6555
▁kargo	-6556
▁razı	-6557
▁göstermektedir	-6558
rip	-6559
▁1/3	-6560
▁8.	-6561
▁istis	-6562
anların	-6563
▁çalışmak	-6564
büs	-6565
▁yapın	-6566
▁görünür	-6567
▁bekleyen	-6568
▁kred	-6569
yabil	-6570
▁öncelik	-6571
▁gökyüz	-6572
▁beyhakî	-6573
▁bomb	-6574
▁ehl	-6575
▁zik	-6576
▁john	-6577
talyan	-6578
▁gerçeği	-6579
nel	-6580
▁dert	-6581
▁ulaşmak	-6582
▁kimseye	-6583
işle	-6584
▁kitabın	-6585
▁olmanın	-6586
yiz	-6587
▁sizden	-6588
▁makyaj	-6589
sc	-6590
▁kapak	-6591
▁meşhur	-6592
▁bulaş	-6593
▁dediği	-6594
▁müslim	-6595
▁geçiyor	-6596
:)	-6597
ılıyordu	-6598
▁misin	-6599
oğol	-6600
▁kiralık	-6601
▁oğlum	-6602
▁anlayışı	-6603
▁konferans	-6604
▁raporu	-6605
abileceği	-6606
▁jandarma	-6607
▁2000	-6608
▁sayılır	-6609
▁muhalef	-6610
▁alınarak	-6611
▁şahin	-6612
▁dördüncü	-6613
▁tarihsel	-6614
▁vakıf	-6615
▁kurş	-6616
▁girip	-6617
▁yoluna	-6618
▁mevsim	-6619
▁âyet	-6620
▁0,	-6621
▁cehenn	-6622
▁söylemiş	-6623
▁süreli	-6624
-201	-6625
menizi	-6626
▁alçak	-6627
▁istanbul	-6628
▁vesil	-6629
▁müd	-6630
▁sahne	-6631
▁çevres	-6632
dîn	-6633
mıyorum	-6634
ırda	-6635
▁akrab	-6636
rom	-6637
▁edirne	-6638
mad	-6639
▁beslenme	-6640
▁millî	-6641
▁iphone	-6642
▁rezerv	-6643
▁bünyesinde	-6644
▁harca	-6645
daha	-6646
▁dalı	-6647
▁ligi	-6648
▁ga	-6649
▁yapması	-6650
▁kulübü	-6651
▁mersin	-6652
▁varlığı	-6653
▁kurmak	-6654
avv	-6655
ılmak	-6656
▁kaldığı	-6657
▁heyet	-6658
▁örneği	-6659
▁maçı	-6660
▁besin	-6661
▁niteli	-6662
▁ens	-6663
▁verimli	-6664
▁tedavisi	-6665
▁gelmez	-6666
▁selçuklu	-6667
▁46	-6668
▁tarzı	-6669
▁disiplin	-6670
▁rüzgâr	-6671
▁mater	-6672
leki	-6673
▁yönde	-6674
▁yahudi	-6675
▁oğuz	-6676
▁adamları	-6677
▁seri	-6678
▁bırakıp	-6679
▁koyun	-6680
azi	-6681
▁tuş	-6682
▁iğ	-6683
▁eseri	-6684
▁komün	-6685
▁cezalandır	-6686
_0	-6687
▁cal	-6688
▁başladım	-6689
idi	-6690
▁çant	-6691
▁www	-6692
▁yüzyılın	-6693
▁cevab	-6694
melerin	-6695
▁belirlenen	-6696
▁kaymakam	-6697
▁başlıklı	-6698
▁cis	-6699
▁ekibi	-6700
▁gözü	-6701
nci	-6702
amayan	-6703
▁müte	-6704
▁zincir	-6705
▁mete	-6706
▁gönl	-6707
▁150	-6708
masız	-6709
▁buğ	-6710
▁nöbet	-6711
▁3,	-6712
▁tb	-6713
▁özür	-6714
▁kağan	-6715
foot	-6716
sizin	-6717
▁türklerin	-6718
▁sayg	-6719
lanarak	-6720
▁kale	-6721
▁masraf	-6722
▁akış	-6723
▁vakfı	-6724
▁erişim	-6725
▁yerlere	-6726
▁dor	-6727
▁canım	-6728
eğer	-6729
▁tüketim	-6730
▁bitki	-6731
▁hariç	-6732
▁merkezinde	-6733
5)	-6734
▁tüf	-6735
▁diğeri	-6736
▁perş	-6737
▁macer	-6738
hem	-6739
hiş	-6740
▁efendim	-6741
▁sorular	-6742
▁cezası	-6743
▁prote	-6744
▁yağı	-6745
nas	-6746
▁dib	-6747
▁keyf	-6748
cılığı	-6749
?»	-6750
yat	-6751
▁dosya	-6752
▁gözet	-6753
▁kaydetti	-6754
opa	-6755
ağına	-6756
▁şe	-6757
▁ötürü	-6758
▁kek	-6759
yani	-6760
ong	-6761
▁sorunlar	-6762
▁otor	-6763
▁gülen	-6764
▁birleşik	-6765
tıp	-6766
▁zamanın	-6767
▁muhar	-6768
▁seyr	-6769
ışma	-6770
ww	-6771
gini	-6772
amam	-6773
▁unutul	-6774
▁44	-6775
▁tüy	-6776
▁ürünün	-6777
udi	-6778
▁hakkını	-6779
leyse	-6780
▁karn	-6781
▁açan	-6782
▁link	-6783
▁musunuz	-6784
ceğiz	-6785
▁sözleşme	-6786
▁salonu	-6787
lg	-6788
▁altını	-6789
▁ekipleri	-6790
▁genelinde	-6791
şleri	-6792
▁ov	-6793
▁sc	-6794
▁birşey	-6795
lerdeki	-6796
58	-6797
▁buhârî	-6798
▁devamı	-6799
▁kalmıştı	-6800
ille	-6801
elle	-6802
▁kaps	-6803
▁öncesinde	-6804
▁robot	-6805
▁hazin	-6806
▁olayları	-6807
▁vicdan	-6808
▁süredir	-6809
▁yönetmeli	-6810
▁mevki	-6811
▁ayrıntılı	-6812
▁gümrük	-6813
▁sunulan	-6814
▁arşiv	-6815
▁kazanan	-6816
▁yönetmen	-6817
▁giderken	-6818
memişti	-6819
ick	-6820
▁kocaman	-6821
▁geçirdi	-6822
▁müdahal	-6823
▁olabilecek	-6824
▁murad	-6825
▁indirim	-6826
▁misiniz	-6827
▁fetö	-6828
iyorlardı	-6829
▁düşünceler	-6830
itesi	-6831
▁yürek	-6832
▁çizgi	-6833
eter	-6834
▁geçip	-6835
▁başa	-6836
▁kalmak	-6837
▁düzgün	-6838
▁yansıt	-6839
▁diyal	-6840
▁kayseri	-6841
▁rö	-6842
benim	-6843
▁eğlenceli	-6844
▁materyal	-6845
▁medeniyet	-6846
footnote	-6847
▁savaşa	-6848
▁eliyle	-6849
▁numaralı	-6850
▁çalışmaya	-6851
hep	-6852
▁saati	-6853
âv	-6854
mec	-6855
duğunda	-6856
▁hatırla	-6857
▁yoldan	-6858
▁ikna	-6859
akat	-6860
▁zem	-6861
eyip	-6862
▁uyk	-6863
▁verim	-6864
▁anlamında	-6865
▁ita	-6866
▁gelmektedir	-6867
▁işini	-6868
▁avustur	-6869
▁makinesi	-6870
▁varlığını	-6871
▁deprem	-6872
amayacak	-6873
ladığını	-6874
▁ederiz	-6875
▁bıçak	-6876
juv	-6877
▁çeliş	-6878
▁bisiklet	-6879
dön	-6880
ts	-6881
lâh	-6882
▁gereksin	-6883
▁çarşam	-6884
alay	-6885
▁geliştirme	-6886
uar	-6887
mışlar	-6888
uzu	-6889
▁kültürü	-6890
▁seviye	-6891
likler	-6892
▁42	-6893
▁köken	-6894
▁2009	-6895
▁bodr	-6896
▁toplantısı	-6897
▁kariyer	-6898
▁apple	-6899
ılda	-6900
umun	-6901
▁·	-6902
▁döş	-6903
arik	-6904
▁ermeni	-6905
▁istedim	-6906
▁moğol	-6907
▁yerinden	-6908
▁kötülük	-6909
▁ilişkileri	-6910
▁başladık	-6911
▁boşal	-6912
▁oruç	-6913
▁üzün	-6914
▁öykü	-6915
▁başından	-6916
▁teşekkürler	-6917
▁uzmanı	-6918
▁emperyal	-6919
/201	-6920
▁atık	-6921
▁çekim	-6922
▁gan	-6923
▁tamir	-6924
▁muhtemelen	-6925
78	-6926
▁çaba	-6927
▁epey	-6928
▁dışına	-6929
▁sınırları	-6930
▁sektöründe	-6931
▁ölümü	-6932
iyo	-6933
eyş	-6934
▁belge	-6935
▁istemez	-6936
▁arslan	-6937
▁milletvekil	-6938
▁zorlu	-6939
▁taze	-6940
▁koydu	-6941
▁uygulamaları	-6942
ress	-6943
▁hom	-6944
▁perşembe	-6945
▁bakarak	-6946
▁gaziantep	-6947
▁mesleki	-6948
▁başladığı	-6949
ndeki	-6950
abiliriz	-6951
▁43	-6952
▁kamyon	-6953
▁uzaklaştır	-6954
▁almıştır	-6955
▁bütç	-6956
▁fikri	-6957
200	-6958
▁amir	-6959
▁bekir	-6960
▁bildirdi	-6961
iya	-6962
▁mekaniz	-6963
www	-6964
cik	-6965
▁labor	-6966
▁endüstr	-6967
▁zeki	-6968
▁edilerek	-6969
▁kullanılması	-6970
▁raf	-6971
lanacak	-6972
atistik	-6973
▁taşımak	-6974
▁aldır	-6975
▁görüyoruz	-6976
nce	-6977
▁köprü	-6978
okol	-6979
▁kaynakları	-6980
▁keşfet	-6981
▁isterim	-6982
▁çavuş	-6983
▁olayın	-6984
▁inti	-6985
▁şarap	-6986
▁bekledi	-6987
▁pi	-6988
-8	-6989
%20	-6990
▁kapısı	-6991
maktaydı	-6992
▁kaydı	-6993
sus	-6994
▁ellerini	-6995
yâ	-6996
▁tavsiy	-6997
▁etken	-6998
▁tıkan	-6999
▁caz	-7000
▁oluşur	-7001
▁arkadaşları	-7002
▁meşgul	-7003
beri	-7004
▁gerçekleşen	-7005
ıyorlardı	-7006
göz	-7007
▁firması	-7008
emeyecek	-7009
salar	-7010
▁sec	-7011
▁şap	-7012
▁hitap	-7013
▁190	-7014
▁bilinc	-7015
▁tazmin	-7016
▁bağlam	-7017
▁uzaktan	-7018
▁mahalle	-7019
likten	-7020
buki	-7021
▁karmaşık	-7022
▁55	-7023
▁tarihte	-7024
▁potansiyel	-7025
ısındaki	-7026
▁akla	-7027
lamadan	-7028
▁söylediği	-7029
▁ittifak	-7030
▁çarşamba	-7031
▁fit	-7032
▁bodrum	-7033
png	-7034
aladı	-7035
abilen	-7036
vat	-7037
âmil	-7038
▁büyüy	-7039
▁belirgin	-7040
▁yapmayı	-7041
6)	-7042
▁buradaki	-7043
▁dakikada	-7044
tiy	-7045
▁metr	-7046
▁bizimle	-7047
▁bonus	-7048
▁kasab	-7049
▁uyuştur	-7050
ates	-7051
▁kaybetti	-7052
mp	-7053
▁orhan	-7054
▁beslen	-7055
örü	-7056
▁sisteminin	-7057
abilirler	-7058
oda	-7059
ump	-7060
▁lideri	-7061
▁hani	-7062
▁denen	-7063
▁şirketin	-7064
▁muam	-7065
yol	-7066
miyordu	-7067
▁oyunun	-7068
▁olgu	-7069
ds	-7070
▁stres	-7071
▁çekmek	-7072
bütün	-7073
▁derhal	-7074
letişim	-7075
▁bilmek	-7076
▁bulabilirsiniz	-7077
▁pahalı	-7078
▁çalışmalarını	-7079
▁bos	-7080
dağı	-7081
▁rica	-7082
▁halkının	-7083
▁bitti	-7084
gut	-7085
▁fıs	-7086
▁olmazsa	-7087
-10	-7088
bit	-7089
▁hasar	-7090
▁kıt	-7091
til	-7092
alel	-7093
▁organize	-7094
zade	-7095
▁panel	-7096
▁büyüme	-7097
▁savaşın	-7098
atçı	-7099
▁adresi	-7100
▁kadına	-7101
barı	-7102
▁tırman	-7103
▁harp	-7104
ref	-7105
ladılar	-7106
ülecek	-7107
▁çıkması	-7108
miz	-7109
▁akademik	-7110
]](../	-7111
▁yavru	-7112
▁teâlâ	-7113
▁konuya	-7114
▁şimdiden	-7115
▁icra	-7116
▁bağırdı	-7117
▁gönüllü	-7118
▁yaralı	-7119
▁yılının	-7120
▁geçerek	-7121
▁antren	-7122
▁my	-7123
▁bayramı	-7124
▁sizleri	-7125
▁col	-7126
▁soluk	-7127
▁uk	-7128
▁perde	-7129
▁muc	-7130
▁olacaktı	-7131
▁bakımdan	-7132
▁çür	-7133
ğından	-7134
içi	-7135
▁oyunlar	-7136
▁vasıt	-7137
▁ayda	-7138
▁suçlu	-7139
▁ima	-7140
▁fed	-7141
▁fırsatı	-7142
▁garant	-7143
▁400	-7144
▁yut	-7145
▁iyilik	-7146
▁akım	-7147
▁fakir	-7148
▁laborat	-7149
▁duv	-7150
hoş	-7151
▁ayrım	-7152
▁felsefe	-7153
▁arayan	-7154
veya	-7155
▁halil	-7156
▁oturan	-7157
▁konfor	-7158
▁tarifi	-7159
▁tersine	-7160
idor	-7161
tılı	-7162
▁burun	-7163
▁sonuçta	-7164
▁4/	-7165
▁değilse	-7166
mıyordu	-7167
▁ibadet	-7168
▁evrensel	-7169
▁filistin	-7170
▁açıklaması	-7171
mil	-7172
ikat	-7173
▁plastik	-7174
▁hizmetler	-7175
▁geçirmek	-7176
▁malzemeleri	-7177
▁beklenen	-7178
lüğünü	-7179
▁çıkma	-7180
iğit	-7181
▁sözcü	-7182
▁arif	-7183
▁kilometre	-7184
▁teşkilat	-7185
▁müthiş	-7186
▁ram	-7187
▁topar	-7188
çuk	-7189
araj	-7190
▁açığa	-7191
▁keç	-7192
▁tun	-7193
▁uygulanan	-7194
▁çıkarak	-7195
larsa	-7196
▁yapış	-7197
pro	-7198
▁kalkış	-7199
▁pe	-7200
▁karşımıza	-7201
▁karşılığında	-7202
▁senden	-7203
evî	-7204
▁lat	-7205
▁çoktan	-7206
▁sıç	-7207
▁karay	-7208
kender	-7209
▁twitter	-7210
▁düzenleme	-7211
▁şartı	-7212
▁havada	-7213
▁basket	-7214
burg	-7215
▁bakır	-7216
▁alet	-7217
▁kodu	-7218
▁ai	-7219
▁zorla	-7220
▁manevi	-7221
▁ücreti	-7222
▁cah	-7223
▁hepimiz	-7224
▁sünnet	-7225
▁karın	-7226
▁protokol	-7227
org	-7228
▁işken	-7229
.10	-7230
31	-7231
▁dünyası	-7232
şak	-7233
▁boşluk	-7234
▁anlamlı	-7235
▁oldular	-7236
liğiyle	-7237
ükle	-7238
oper	-7239
▁öylesine	-7240
▁iyileştir	-7241
ull	-7242
▁sahîh	-7243
▁kazandı	-7244
▁komisyonu	-7245
▁intik	-7246
▁duruyordu	-7247
▁mağdur	-7248
▁diledi	-7249
▁beklent	-7250
▁görevli	-7251
▁numarası	-7252
▁41	-7253
▁aptal	-7254
▁soruşturma	-7255
▁atöl	-7256
▁yemeği	-7257
▁alınmış	-7258
dini	-7259
▁yolun	-7260
▁anayas	-7261
liğinden	-7262
▁miktarı	-7263
▁tü	-7264
▁gerçi	-7265
▁sahte	-7266
▁diyordu	-7267
▁şartları	-7268
▁sesini	-7269
34	-7270
labilir	-7271
isindeki	-7272
▁bizde	-7273
▁ermen	-7274
▁muz	-7275
▁çukur	-7276
▁yararlı	-7277
▁çinli	-7278
▁şahit	-7279
▁blok	-7280
diğinden	-7281
▁gelişen	-7282
▁kamera	-7283
-7	-7284
▁sadık	-7285
▁oluşum	-7286
▁turn	-7287
▁verilecek	-7288
▁gergin	-7289
▁karşılığı	-7290
▁gerekirse	-7291
▁gidece	-7292
▁ört	-7293
▁sürpr	-7294
▁reddet	-7295
▁hafız	-7296
▁olduğunun	-7297
▁tuttu	-7298
▁düzeni	-7299
fan	-7300
▁gençler	-7301
▁gürültü	-7302
▁döndür	-7303
▁bölgeye	-7304
sâ	-7305
▁düşüş	-7306
▁meb	-7307
▁istihdam	-7308
▁lise	-7309
▁yapmanız	-7310
▁gözyaş	-7311
▁okumak	-7312
▁üstlen	-7313
▁mm	-7314
bunu	-7315
▁dünyadaki	-7316
▁dergisi	-7317
diren	-7318
dilik	-7319
▁çıplak	-7320
▁itaat	-7321
don	-7322
▁hürriyet	-7323
68	-7324
▁bizlere	-7325
irli	-7326
▁pozit	-7327
▁soruları	-7328
lediler	-7329
▁belirsiz	-7330
▁burjuv	-7331
▁apart	-7332
▁hek	-7333
▁yavuz	-7334
▁biliyoruz	-7335
▁örgütün	-7336
▁rev	-7337
▁lit	-7338
▁kalktı	-7339
▁masaj	-7340
▁değişen	-7341
iliğinden	-7342
sever	-7343
▁şifr	-7344
▁açar	-7345
▁kin	-7346
▁kurulmuş	-7347
▁yoksun	-7348
▁kaçınılmaz	-7349
tas	-7350
▁duyarlı	-7351
▁kütüphan	-7352
▁milletin	-7353
▁verilmiştir	-7354
ciğer	-7355
▁görevini	-7356
▁eleman	-7357
▁geleceğ	-7358
▁musa	-7359
masi	-7360
▁hesabı	-7361
dis	-7362
▁dinlen	-7363
▁suya	-7364
▁hev	-7365
▁kitapları	-7366
▁uzanan	-7367
▁kutlu	-7368
▁araçları	-7369
ork	-7370
tre	-7371
▁tbmm	-7372
▁rahatlıkla	-7373
▁dondur	-7374
ende	-7375
▁yardımı	-7376
▁oyunc	-7377
▁bileti	-7378
▁büyüt	-7379
▁festival	-7380
▁kendinden	-7381
▁görünt	-7382
▁yarattığı	-7383
▁ürünlerin	-7384
▁çinliler	-7385
graf	-7386
▁..	-7387
▁yardımıyla	-7388
madığını	-7389
▁çocuklara	-7390
▁bilmiyor	-7391
▁çöp	-7392
ümde	-7393
▁emret	-7394
▁tüc	-7395
▁lay	-7396
▁imzalan	-7397
▁öğrencileri	-7398
esidir	-7399
▁almıştı	-7400
▁öğle	-7401
▁somut	-7402
ersiniz	-7403
7)	-7404
kiler	-7405
▁venedik	-7406
▁dışındaki	-7407
▁demişti	-7408
çilerin	-7409
▁zavallı	-7410
▁ajans	-7411
malısınız	-7412
unuza	-7413
▁verip	-7414
▁salladı	-7415
zin	-7416
▁ag	-7417
▁yiğit	-7418
▁doktora	-7419
▁zararlı	-7420
▁gam	-7421
▁kadı	-7422
▁başkent	-7423
düs	-7424
▁tatmin	-7425
▁yönetmelik	-7426
çilik	-7427
gül	-7428
değer	-7429
▁hissetti	-7430
▁sic	-7431
▁kud	-7432
▁giyim	-7433
sm	-7434
▁bardak	-7435
▁koridor	-7436
▁satır	-7437
▁bulunuyordu	-7438
▁peyn	-7439
▁düşündüğ	-7440
▁atıyor	-7441
▁çıkmak	-7442
▁temsilcisi	-7443
▁gram	-7444
▁oranda	-7445
▁kâğıt	-7446
laşması	-7447
▁böylelikle	-7448
kay	-7449
▁altından	-7450
▁parlam	-7451
▁sistemin	-7452
▁rektör	-7453
▁beda	-7454
▁kocaeli	-7455
▁sporcu	-7456
▁çatı	-7457
9)	-7458
▁9.	-7459
▁tuvalet	-7460
▁çekiyor	-7461
▁alanlarda	-7462
mışlardı	-7463
▁haykır	-7464
▁kâr	-7465
▁çir	-7466
▁rüzgar	-7467
▁sanal	-7468
▁ric	-7469
▁ödülü	-7470
▁kureyş	-7471
▁vil	-7472
▁hang	-7473
indan	-7474
zaman	-7475
▁döviz	-7476
▁olmasın	-7477
▁finansal	-7478
▁yukarıdaki	-7479
▁kaba	-7480
▁dostluk	-7481
▁görülmektedir	-7482
▁lüks	-7483
▁seviyorum	-7484
▁müslümanlar	-7485
▁parma	-7486
▁güçlük	-7487
▁bulunmak	-7488
biye	-7489
▁karısı	-7490
iliğin	-7491
▁sürecinde	-7492
▁macar	-7493
▁tutun	-7494
iyete	-7495
und	-7496
ılığı	-7497
▁farklılık	-7498
▁dairesi	-7499
▁dayanıklı	-7500
▁görme	-7501
ğünü	-7502
▁horm	-7503
▁yanıl	-7504
mayacağını	-7505
▁q	-7506
▁şanlı	-7507
büy	-7508
oft	-7509
▁tutmak	-7510
▁süreçte	-7511
▁özlem	-7512
akkak	-7513
▁hayred	-7514
▁olayların	-7515
▁müddet	-7516
▁4/1	-7517
▁kıla	-7518
▁kayde	-7519
▁kızar	-7520
▁montaj	-7521
▁hükm	-7522
▁vakt	-7523
skender	-7524
▁rom	-7525
▁ikram	-7526
▁mosk	-7527
▁hayret	-7528
▁içten	-7529
şlem	-7530
▁haftada	-7531
▁gittim	-7532
▁sizinle	-7533
65	-7534
soy	-7535
▁om	-7536
lamıştı	-7537
▁olmuyor	-7538
nşaat	-7539
▁gidiş	-7540
▁filmin	-7541
▁izlemek	-7542
▁grafik	-7543
oter	-7544
▁dinin	-7545
▁odasına	-7546
▁yabgu	-7547
ulmuştur	-7548
▁salih	-7549
▁düşmüş	-7550
lım	-7551
▁arist	-7552
▁bilem	-7553
▁sy	-7554
▁şok	-7555
▁mide	-7556
▁çıkarmak	-7557
ünc	-7558
▁miras	-7559
▁caddesi	-7560
bank	-7561
▁değişikliği	-7562
stagram	-7563
▁albay	-7564
çın	-7565
▁kuram	-7566
▁liman	-7567
▁payı	-7568
▁yakış	-7569
▁sürüyor	-7570
▁çırp	-7571
▁ağırlık	-7572
▁kore	-7573
lanabilir	-7574
▁konular	-7575
▁sep	-7576
dunuz	-7577
▁ettiğimiz	-7578
enk	-7579
uyan	-7580
▁bük	-7581
▁klima	-7582
ding	-7583
▁dönen	-7584
▁üretilen	-7585
▁10.	-7586
sî	-7587
▁porno	-7588
▁görmez	-7589
▁hüz	-7590
ört	-7591
▁kedi	-7592
▁gerçekte	-7593
▁koleksiyon	-7594
▁ilim	-7595
▁yumurt	-7596
ektif	-7597
▁alana	-7598
ılımı	-7599
▁muhafaza	-7600
▁hastalıkları	-7601
ğla	-7602
▁etiket	-7603
cal	-7604
arş	-7605
▁yarısı	-7606
▁olanların	-7607
▁nice	-7608
▁arma	-7609
▁divan	-7610
▁tohum	-7611
▁uf	-7612
▁belirtildi	-7613
▁bahçe	-7614
▁ergen	-7615
▁paralel	-7616
▁çılgın	-7617
▁2007	-7618
100	-7619
▁yetişkin	-7620
▁masal	-7621
▁sakarya	-7622
▁gönderilen	-7623
▁hotel	-7624
gulan	-7625
▁geçmek	-7626
▁çoğunlukla	-7627
▁mum	-7628
akal	-7629
▁hamil	-7630
▁aklına	-7631
▁verilmiş	-7632
▁verebilir	-7633
▁trak	-7634
▁seçimi	-7635
▁kullanı	-7636
▁karbon	-7637
▁topu	-7638
▁zeus	-7639
▁imam	-7640
▁sürdü	-7641
▁kerim	-7642
kül	-7643
▁rız	-7644
▁kitaplar	-7645
▁yükselen	-7646
▁tablet	-7647
▁donanım	-7648
▁çekip	-7649
▁âdet	-7650
yorum	-7651
▁traf	-7652
▁müzak	-7653
kö	-7654
▁eğlence	-7655
▁avusturya	-7656
▁katil	-7657
▁elbise	-7658
▁samimi	-7659
▁3/2	-7660
▁zekâ	-7661
▁endek	-7662
▁boru	-7663
▁vermesi	-7664
sağ	-7665
▁düşer	-7666
▁göst	-7667
ğinizi	-7668
▁denli	-7669
▁gayrim	-7670
▁pişman	-7671
▁muhaseb	-7672
▁oyuncak	-7673
▁bayra	-7674
rad	-7675
▁120	-7676
▁yapılıyor	-7677
das	-7678
▁olduğumu	-7679
▁dâh	-7680
▁başlıca	-7681
▁arkadaşım	-7682
▁balkan	-7683
▁muaz	-7684
ice	-7685
▁eşlik	-7686
▁bölümde	-7687
▁tamamı	-7688
▁estetik	-7689
▁forum	-7690
▁uyuşturucu	-7691
▁ışığı	-7692
▁hayatında	-7693
▁müj	-7694
▁biçimi	-7695
uyorlar	-7696
rut	-7697
▁lev	-7698
▁orij	-7699
▁gerekiyordu	-7700
likte	-7701
▁tedarik	-7702
ment	-7703
sir	-7704
▁üzül	-7705
▁duygusu	-7706
▁herkesi	-7707
umuzun	-7708
▁söyle	-7709
▁şikâyet	-7710
▁emre	-7711
▁vade	-7712
▁edenler	-7713
lamalar	-7714
▁aldık	-7715
▁nazar	-7716
▁kampanya	-7717
▁vermişti	-7718
ecik	-7719
esto	-7720
▁ifadelerini	-7721
▁eyalet	-7722
▁askerî	-7723
▁haksız	-7724
tıklarını	-7725
lamaları	-7726
▁we	-7727
▁tebrik	-7728
▁kontrolü	-7729
▁uygulamalar	-7730
▁rahatsızlık	-7731
▁ağab	-7732
▁işık	-7733
▁miydi	-7734
▁çim	-7735
▁sadak	-7736
▁star	-7737
▁sertifik	-7738
ester	-7739
we	-7740
balaj	-7741
▁hadi	-7742
▁digit	-7743
▁demokras	-7744
bana	-7745
eğinin	-7746
▁sürpriz	-7747
▁yanından	-7748
▁padişahın	-7749
lç	-7750
▁ayrıldı	-7751
▁katli	-7752
tarih	-7753
unuzun	-7754
▁yerin	-7755
▁arkasına	-7756
diğin	-7757
▁kullanılabilir	-7758
▁1-	-7759
▁gecesi	-7760
▁hayatına	-7761
kam	-7762
▁sıfat	-7763
▁yapılmıştır	-7764
▁astr	-7765
lanmaktadır	-7766
melerine	-7767
▁yaşamış	-7768
▁char	-7769
ebiliyor	-7770
▁<	-7771
▁lâ	-7772
göl	-7773
lahi	-7774
▁etkileri	-7775
cuk	-7776
▁sunum	-7777
iyetle	-7778
▁örtü	-7779
ılırken	-7780
▁katkıda	-7781
▁muhakkak	-7782
▁bü	-7783
▁versiyon	-7784
▁önemlisi	-7785
__	-7786
▁işyer	-7787
▁üyelik	-7788
▁kazanmak	-7789
▁aynen	-7790
danın	-7791
umuzu	-7792
▁itiraf	-7793
alya	-7794
▁medyum	-7795
▁şeylerin	-7796
▁firmaları	-7797
miyorum	-7798
▁bulabil	-7799
▁akses	-7800
67	-7801
tti	-7802
▁ord	-7803
itler	-7804
hiç	-7805
▁barbar	-7806
▁gittikçe	-7807
▁tasavv	-7808
sten	-7809
▁denem	-7810
▁liste	-7811
▁olabilirsiniz	-7812
▁zır	-7813
▁yıllarında	-7814
ağında	-7815
▁girmek	-7816
▁krem	-7817
▁olmasından	-7818
▁pant	-7819
▁camii	-7820
▁tahsil	-7821
ilmeye	-7822
ısın	-7823
▁beklemek	-7824
imizle	-7825
▁ağac	-7826
▁görünüyordu	-7827
bire	-7828
▁bölgenin	-7829
▁alanına	-7830
▁büyükel	-7831
amaş	-7832
dedi	-7833
▁hakaret	-7834
▁tüken	-7835
▁düzel	-7836
nâ	-7837
▁ispat	-7838
▁aman	-7839
▁geleceği	-7840
▁niz	-7841
▁tehlike	-7842
▁atom	-7843
▁adama	-7844
▁alırken	-7845
▁solu	-7846
▁play	-7847
▁kalmadı	-7848
▁tartışma	-7849
▁hakem	-7850
▁engelli	-7851
▁açıp	-7852
▁ekledi	-7853
tiş	-7854
şah	-7855
▁metrek	-7856
▁şüphe	-7857
ebe	-7858
▁ente	-7859
▁destan	-7860
▁ömr	-7861
tam	-7862
söz	-7863
▁aşık	-7864
85	-7865
devlet	-7866
▁bakımı	-7867
▁azer	-7868
▁türkmen	-7869
▁projeler	-7870
inip	-7871
▁kartal	-7872
▁esen	-7873
▁kamuoy	-7874
▁sesleri	-7875
▁haned	-7876
▁ambalaj	-7877
▁parayı	-7878
larınızın	-7879
▁kaplı	-7880
▁izledi	-7881
▁kıskan	-7882
▁kesi	-7883
▁edeceğiz	-7884
▁kanaat	-7885
▁görmeye	-7886
▁vizyon	-7887
emiyor	-7888
▁rüya	-7889
▁boşan	-7890
malıyız	-7891
▁saatlerinde	-7892
▁başlaya	-7893
▁dikkatle	-7894
▁diğerleri	-7895
uluğu	-7896
▁atak	-7897
▁elindeki	-7898
yük	-7899
▁put	-7900
ersen	-7901
▁istediğim	-7902
beyaz	-7903
▁koruyucu	-7904
▁veriler	-7905
▁üzeri	-7906
▁başlamıştır	-7907
çağ	-7908
gir	-7909
▁soylu	-7910
▁pom	-7911
mara	-7912
▁inanılmaz	-7913
niz	-7914
▁terap	-7915
ses	-7916
▁durumuna	-7917
▁uydu	-7918
▁kimseler	-7919
▁kalkınma	-7920
▁faaliyetleri	-7921
▁anlatı	-7922
▁mütte	-7923
▁berek	-7924
özel	-7925
▁aracın	-7926
▁felaket	-7927
▁sizlerle	-7928
▁zamandır	-7929
▁doku	-7930
▁kep	-7931
bağ	-7932
▁eklem	-7933
▁mekân	-7934
ımızdan	-7935
elif	-7936
▁gezi	-7937
▁devrimci	-7938
oks	-7939
▁fı	-7940
mik	-7941
ılırsa	-7942
▁yaptığım	-7943
▁giys	-7944
▁hücum	-7945
larınıza	-7946
▁devletleri	-7947
▁değerleri	-7948
▁çalıştığı	-7949
▁zehebî	-7950
▁söyledim	-7951
▁adamlar	-7952
çileri	-7953
▁kuşkusuz	-7954
▁öğüt	-7955
▁kurşun	-7956
▁noktaya	-7957
sos	-7958
▁emlak	-7959
▁katıldığı	-7960
fez	-7961
▁sınıfı	-7962
▁aldıkları	-7963
▁verdiler	-7964
▁kazak	-7965
▁kuşku	-7966
mt	-7967
sviç	-7968
▁valide	-7969
▁yır	-7970
▁sunduğu	-7971
lülük	-7972
▁bulma	-7973
▁kalıyor	-7974
▁py	-7975
▁yüklen	-7976
▁fıkr	-7977
▁iyileş	-7978
▁talimat	-7979
izmi	-7980
lileri	-7981
▁minik	-7982
▁görüşme	-7983
▁göğs	-7984
▁tarihinden	-7985
▁seçenekleri	-7986
▁fatur	-7987
ânî	-7988
▁mesele	-7989
▁randev	-7990
lası	-7991
▁nakliye	-7992
▁eşsiz	-7993
ğınızda	-7994
▁ötesinde	-7995
▁sinan	-7996
▁sancak	-7997
▁saatte	-7998
▁cor	-7999
urî	-8000
▁atmos	-8001
ilmek	-8002
liyordu	-8003
▁yurtdış	-8004
▁stratejik	-8005
leyebilirsiniz	-8006
the	-8007
çağı	-8008
malara	-8009
▁özgün	-8010
▁yazılmış	-8011
▁enfeksiyon	-8012
▁abdur	-8013
▁anlatım	-8014
▁inceleme	-8015
▁sm	-8016
▁öğrenme	-8017
2’	-8018
▁yapay	-8019
▁sahipleri	-8020
▁plana	-8021
▁anılan	-8022
▁enstitüsü	-8023
▁tarafta	-8024
▁egzersiz	-8025
▁programları	-8026
ff	-8027
▁surat	-8028
▁asan	-8029
▁çamaş	-8030
adi	-8031
itasyon	-8032
baycan	-8033
▁obj	-8034
▁istenen	-8035
#_	-8036
dırıcı	-8037
▁harc	-8038
▁ruhu	-8039
▁oturup	-8040
▁yönetici	-8041
lamayı	-8042
▁moskova	-8043
ýr	-8044
▁kalkıp	-8045
▁ülkemizin	-8046
name	-8047
ayın	-8048
▁savaşçı	-8049
amıyorum	-8050
▁umarım	-8051
▁unutmayın	-8052
▁arda	-8053
▁düşünen	-8054
▁kapının	-8055
raz	-8056
▁konuyla	-8057
▁olmasının	-8058
▁birdenbire	-8059
▁karaman	-8060
▁olanları	-8061
▁kurdu	-8062
tc	-8063
ladığımız	-8064
dv	-8065
▁etmeden	-8066
mamıştı	-8067
▁rit	-8068
▁stok	-8069
masıdır	-8070
88	-8071
▁benî	-8072
▁saltan	-8073
ach	-8074
▁sunul	-8075
▁sınavı	-8076
▁yang	-8077
▁oturdu	-8078
▁isteği	-8079
▁yazın	-8080
ağının	-8081
▁mırıl	-8082
▁çetin	-8083
▁yaşamın	-8084
▁alp	-8085
▁bran	-8086
▁ailenin	-8087
▁sayılan	-8088
▁bedava	-8089
▁yazıyor	-8090
▁parçalan	-8091
düş	-8092
▁bud	-8093
▁bilgilere	-8094
▁idam	-8095
▁eti	-8096
ette	-8097
▁ikiye	-8098
posta	-8099
▁etmekte	-8100
hab	-8101
▁yazarı	-8102
▁beyn	-8103
▁tün	-8104
▁kg	-8105
▁zap	-8106
▁düşündüm	-8107
▁muv	-8108
▁aldığını	-8109
▁bozukluk	-8110
▁hr	-8111
▁250	-8112
dükten	-8113
▁yapılmaktadır	-8114
ruz	-8115
▁izleyen	-8116
▁dersi	-8117
leyebil	-8118
▁dağıtım	-8119
eyiz	-8120
▁oğlan	-8121
▁tıb	-8122
▁vakti	-8123
▁peşinde	-8124
▁).	-8125
▁çirkin	-8126
▁geldim	-8127
▁gününde	-8128
▁çen	-8129
▁reform	-8130
▁haç	-8131
▁frank	-8132
▁hattı	-8133
▁ilişkisi	-8134
▁ismini	-8135
ftn	-8136
rit	-8137
▁bakanlık	-8138
▁dönemlerde	-8139
▁sih	-8140
▁istasyon	-8141
▁bildiği	-8142
▁değişken	-8143
▁yakında	-8144
▁olabileceğini	-8145
ont	-8146
▁pamuk	-8147
▁kolaylıkla	-8148
▁elçi	-8149
▁sordum	-8150
yası	-8151
▁gor	-8152
▁dedek	-8153
▁kılav	-8154
▁kızlar	-8155
▁kişilere	-8156
usun	-8157
▁kudret	-8158
▁etkileş	-8159
▁yazdı	-8160
▁timur	-8161
▁konuları	-8162
▁okula	-8163
▁kısmında	-8164
▁cengiz	-8165
▁aktivit	-8166
▁sözlerini	-8167
▁mühim	-8168
▁eşliğinde	-8169
▁alabilir	-8170
▁verin	-8171
▁savcı	-8172
▁kokusu	-8173
laşmış	-8174
▁terörist	-8175
ilmelidir	-8176
mazlar	-8177
▁yeğ	-8178
▁dekorasyon	-8179
urk	-8180
▁kaldırdı	-8181
▁midir	-8182
▁yaratı	-8183
ecekti	-8184
▁etmedi	-8185
▁tescil	-8186
▁rady	-8187
▁düşünmek	-8188
mesin	-8189
▁slo	-8190
▁aşağıya	-8191
▁organik	-8192
▁rüş	-8193
▁--	-8194
▁çalışırken	-8195
▁senar	-8196
▁trump	-8197
▁bulacak	-8198
▁olmasıdır	-8199
▁ülkelerde	-8200
▁arapça	-8201
▁işten	-8202
onsor	-8203
▁kadir	-8204
ndir	-8205
▁orijinal	-8206
taç	-8207
▁kandır	-8208
▁saatleri	-8209
▁dizisi	-8210
lidir	-8211
▁eserleri	-8212
lil	-8213
▁aniden	-8214
▁kade	-8215
▁hocam	-8216
▁satışa	-8217
▁prim	-8218
▁ülkelerin	-8219
şimdi	-8220
düğünde	-8221
▁ediyorlar	-8222
▁kısac	-8223
şin	-8224
atlar	-8225
▁vazif	-8226
▁farkına	-8227
▁sıcaklık	-8228
▁müslümanların	-8229
▁şof	-8230
▁yazan	-8231
▁eğilim	-8232
▁devreye	-8233
dığın	-8234
▁kapsamlı	-8235
▁tavuk	-8236
▁öyleyse	-8237
işe	-8238
▁gizem	-8239
emizin	-8240
inizden	-8241
▁şehirde	-8242
▁icin	-8243
▁noktasında	-8244
iyetin	-8245
▁verdik	-8246
▁yaptığ	-8247
▁yılına	-8248
▁aylarında	-8249
tro	-8250
mini	-8251
▁fal	-8252
▁öğrencilere	-8253
ınd	-8254
▁festivali	-8255
▁korunması	-8256
üydü	-8257
▁etsin	-8258
▁arı	-8259
▁kurut	-8260
▁gelmek	-8261
66	-8262
▁sinyal	-8263
▁irti	-8264
▁ihmal	-8265
▁inanc	-8266
▁ste	-8267
▁sarayı	-8268
▁hayatının	-8269
!»	-8270
çılık	-8271
▁anlamıyla	-8272
▁basketbol	-8273
▁aldılar	-8274
▁itibarı	-8275
▁listesi	-8276
set	-8277
▁rot	-8278
▁nişan	-8279
▁ifadesi	-8280
neden	-8281
▁meşru	-8282
▁çaresiz	-8283
olik	-8284
zen	-8285
▁aradan	-8286
▁münaseb	-8287
▁parçaları	-8288
▁başkenti	-8289
▁enflasyon	-8290
▁kanlı	-8291
▁teknolojik	-8292
▁birincisi	-8293
▁sunmaktadır	-8294
iğin	-8295
▁kâmil	-8296
▁fre	-8297
▁mail	-8298
▁ök	-8299
▁yazma	-8300
▁uygulamaya	-8301
böl	-8302
▁bakmak	-8303
▁servet	-8304
büyük	-8305
yn	-8306
▁derler	-8307
pet	-8308
▁başlık	-8309
haz	-8310
▁elden	-8311
59	-8312
had	-8313
▁belâz	-8314
▁özellikler	-8315
▁yalı	-8316
▁desen	-8317
▁cesur	-8318
naz	-8319
ûmet	-8320
▁fig	-8321
▁kabar	-8322
▁bırakın	-8323
▁kaleme	-8324
▁yapıyoruz	-8325
▁öf	-8326
▁profil	-8327
▁hamur	-8328
▁yöntemleri	-8329
▁zorundadır	-8330
▁teklifi	-8331
▁oluşturduğu	-8332
gazi	-8333
▁duyul	-8334
▁kayıtlı	-8335
▁edecektir	-8336
▁kucak	-8337
▁dalga	-8338
▁galiba	-8339
▁aklıma	-8340
▁toplanan	-8341
cilerin	-8342
ladıkları	-8343
▁au	-8344
kurmay	-8345
▁terim	-8346
▁ked	-8347
▁yaşamı	-8348
▁deyişle	-8349
▁savaşta	-8350
▁sayısının	-8351
▁bası	-8352
▁katk	-8353
▁tarihine	-8354
bî	-8355
▁rolü	-8356
▁tebliğ	-8357
▁tarafına	-8358
▁konusundaki	-8359
▁ulaştı	-8360
▁ket	-8361
▁sponsor	-8362
açık	-8363
▁sars	-8364
▁yıla	-8365
▁şerif	-8366
▁gösteri	-8367
▁kurucu	-8368
▁sark	-8369
▁milyonlarca	-8370
▁yara	-8371
▁sesli	-8372
▁teşeb	-8373
malarının	-8374
▁yapılabil	-8375
çinde	-8376
▁getirildi	-8377
▁kemer	-8378
▁bm	-8379
▁kullanıcılar	-8380
▁etek	-8381
tüel	-8382
▁özal	-8383
pp	-8384
▁yapılabilir	-8385
▁bilinçli	-8386
▁yetki	-8387
▁düzenlediği	-8388
▁vadeli	-8389
▁hafifçe	-8390
▁kendisiyle	-8391
▁kısmen	-8392
▁santr	-8393
▁seksi	-8394
mişler	-8395
oğul	-8396
▁11.	-8397
▁rahip	-8398
▁kef	-8399
▁sektörü	-8400
▁federasyonu	-8401
aklı	-8402
▁yaratık	-8403
▁yıkama	-8404
▁prenses	-8405
▁hatun	-8406
unacak	-8407
▁turnuv	-8408
▁sade	-8409
▁düşmanı	-8410
-19	-8411
▁mahkûm	-8412
▁belâzurî	-8413
panyol	-8414
ml	-8415
▁küp	-8416
gn	-8417
▁bulmuş	-8418
▁dinlem	-8419
▁alama	-8420
▁evrak	-8421
▁âlim	-8422
cıları	-8423
▁başkalarının	-8424
▁full	-8425
▁ilgisi	-8426
▁bütçe	-8427
çası	-8428
▁cümle	-8429
▁insanlık	-8430
▁yaratan	-8431
▁şartlar	-8432
▁bahçeli	-8433
▁geçmişte	-8434
▁testi	-8435
▁asit	-8436
ebileceği	-8437
{{{1	-8438
alarca	-8439
omet	-8440
▁lik	-8441
▁pilot	-8442
▁sırf	-8443
▁turgut	-8444
başka	-8445
nsanların	-8446
▁azerbaycan	-8447
▁japon	-8448
▁uyuş	-8449
▁kaşığı	-8450
▁hayreddîn	-8451
▁burn	-8452
▁gran	-8453
▁numara	-8454
▁sakat	-8455
▁(2)	-8456
▁yanındaki	-8457
▁meydanı	-8458
▁görüldüğü	-8459
▁sevdiği	-8460
▁küm	-8461
▁yücel	-8462
▁dayanan	-8463
▁getiriyor	-8464
▁manzar	-8465
▁merhamet	-8466
▁bağlıdır	-8467
enkul	-8468
cağınız	-8469
▁gerçekleşti	-8470
▁sust	-8471
▁taahh	-8472
hey	-8473
▁isteyenler	-8474
▁doğuş	-8475
rez	-8476
▁bakıyor	-8477
ash	-8478
▁by	-8479
übe	-8480
▁gereksiz	-8481
▁tüketici	-8482
▁şimdilik	-8483
▁yil	-8484
▁semt	-8485
▁dışarıda	-8486
▁katılımı	-8487
çısı	-8488
▁konseyi	-8489
▁pozitif	-8490
▁kapitalist	-8491
87	-8492
▁diyecek	-8493
▁kardeşim	-8494
maktadırlar	-8495
ayarak	-8496
iğe	-8497
ebilen	-8498
▁aklım	-8499
▁ihtiyar	-8500
▁tanrının	-8501
▁kendiliğinden	-8502
▁cüz	-8503
▁ülkeye	-8504
▁herşey	-8505
▁getirilen	-8506
▁konuşmaya	-8507
▁taşır	-8508
▁ucu	-8509
▁kadınları	-8510
vir	-8511
▁şur	-8512
▁japonya	-8513
▁merkezine	-8514
labil	-8515
▁buhar	-8516
▁kendimizi	-8517
▁ihal	-8518
▁dostu	-8519
▁meselesi	-8520
▁yuvarlak	-8521
▁2-	-8522
▁kaygı	-8523
larımın	-8524
ami	-8525
daroğlu	-8526
lav	-8527
ğiyle	-8528
▁müzesi	-8529
edd	-8530
?’	-8531
▁çı	-8532
▁edemez	-8533
▁üyeler	-8534
▁hayvanlar	-8535
▁sağlanması	-8536
▁ortadoğu	-8537
opol	-8538
▁vekil	-8539
▁hukuki	-8540
▁görüp	-8541
▁pantol	-8542
uzun	-8543
ınıyor	-8544
abilmesi	-8545
▁kupası	-8546
dro	-8547
âf	-8548
▁semp	-8549
▁canav	-8550
▁fah	-8551
▁seninle	-8552
▁geçtiği	-8553
▁iklim	-8554
1’	-8555
ikal	-8556
▁manisa	-8557
▁çıkarıp	-8558
▁türkç	-8559
▁vergisi	-8560
▁koşulları	-8561
oni	-8562
▁rıza	-8563
▁oğulları	-8564
▁kaybı	-8565
mışlardır	-8566
▁dünyasında	-8567
▁bilinmeyen	-8568
▁çelebi	-8569
▁anlatmak	-8570
raç	-8571
▁sınırsız	-8572
▁havalimanı	-8573
▁kırım	-8574
▁bağdat	-8575
▁tıbbi	-8576
▁tik	-8577
berg	-8578
▁kurduğu	-8579
▁çöl	-8580
▁üni	-8581
▁şarj	-8582
▁samsung	-8583
aa	-8584
dinde	-8585
▁satılık	-8586
▁beklet	-8587
▁zamanki	-8588
gur	-8589
▁ettiğiniz	-8590
laç	-8591
▁bilmez	-8592
▁hint	-8593
▁durumunu	-8594
▁deyip	-8595
▁odaya	-8596
ülasyon	-8597
▁dâhil	-8598
▁market	-8599
▁sayfada	-8600
ınan	-8601
esince	-8602
▁kaybed	-8603
▁geldiler	-8604
▁iktis	-8605
▁birbirini	-8606
pir	-8607
▁75	-8608
▁yapacağı	-8609
▁49	-8610
▁milletler	-8611
ılışı	-8612
▁emri	-8613
▁kaybeden	-8614
▁uyarınca	-8615
▁ısıt	-8616
▁sürer	-8617
sor	-8618
▁çapında	-8619
aşı	-8620
4’	-8621
▁içe	-8622
▁şev	-8623
▁görem	-8624
▁sıralarda	-8625
);	-8626
▁paş	-8627
▁dinamik	-8628
]](	-8629
▁turist	-8630
▁mih	-8631
abileceğiniz	-8632
▁göçmen	-8633
▁genelkurmay	-8634
ilirken	-8635
▁bakıyordu	-8636
gâ	-8637
esir	-8638
cav	-8639
▁mesci	-8640
▁serin	-8641
luğunda	-8642
ney	-8643
yurt	-8644
▁(19	-8645
▁caf	-8646
▁toplantıda	-8647
▁sıkıştır	-8648
▁çıkmıştı	-8649
▁içecek	-8650
▁haftalık	-8651
▁zan	-8652
▁bulup	-8653
▁sistemine	-8654
▁2019	-8655
▁bunda	-8656
tıkça	-8657
ürler	-8658
lıyoruz	-8659
▁önlemek	-8660
jan	-8661
▁gösterilen	-8662
...)	-8663
▁eşyalar	-8664
ezid	-8665
sana	-8666
▁muhalefet	-8667
▁işletme	-8668
▁baktım	-8669
▁vermeden	-8670
▁erkeklerin	-8671
▁piyasa	-8672
▁sindir	-8673
▁plaj	-8674
▁kavim	-8675
▁alem	-8676
▁ihan	-8677
▁istemiş	-8678
▁hoşlan	-8679
ああ	-8680
▁almayı	-8681
kiralama	-8682
▁ardı	-8683
▁mr	-8684
▁tüp	-8685
gor	-8686
▁sizde	-8687
bı	-8688
▁seslen	-8689
▁varoluş	-8690
▁biber	-8691
▁odada	-8692
▁zihinsel	-8693
▁kraliç	-8694
▁asansör	-8695
resyon	-8696
▁türden	-8697
oli	-8698
▁ölçüm	-8699
▁değişiklikler	-8700
abak	-8701
▁protein	-8702
▁kalitesi	-8703
▁yalvar	-8704
▁ekipman	-8705
▁galip	-8706
▁yıldan	-8707
▁vermiştir	-8708
delik	-8709
▁buldum	-8710
▁danışmanlık	-8711
▁mc	-8712
▁basamak	-8713
▁hükümetin	-8714
▁bam	-8715
▁maçında	-8716
▁kavga	-8717
▁konuşmak	-8718
▁oluşturur	-8719
▁nükle	-8720
▁yetin	-8721
▁vermez	-8722
▁yaşamını	-8723
cum	-8724
▁giyin	-8725
▁imkânsız	-8726
lgili	-8727
▁sistemini	-8728
peki	-8729
▁izlem	-8730
lerinize	-8731
▁beton	-8732
▁maliye	-8733
▁bilmeyen	-8734
▁yakıt	-8735
!)	-8736
osman	-8737
ndaki	-8738
▁vatandaşlar	-8739
▁etkiler	-8740
▁düşünerek	-8741
sviçre	-8742
▁yönelt	-8743
gerçek	-8744
▁hareketleri	-8745
▁işlen	-8746
▁geçmeden	-8747
▁####	-8748
▁layık	-8749
▁hızlandır	-8750
▁bölgesel	-8751
mektir	-8752
▁nor	-8753
▁alek	-8754
▁maddeler	-8755
▁başkanlık	-8756
iyse	-8757
▁aldat	-8758
▁görülüyor	-8759
unt	-8760
▁4,	-8761
▁çoğal	-8762
anıyordu	-8763
▁satışı	-8764
▁çalışmalarına	-8765
je	-8766
eğinde	-8767
▁soğut	-8768
ral	-8769
▁kongre	-8770
uan	-8771
▁sitesinde	-8772
▁uğrat	-8773
▁adında	-8774
▁indi	-8775
▁haram	-8776
▁hollanda	-8777
▁kalmaz	-8778
82	-8779
ilya	-8780
▁eminim	-8781
▁bla	-8782
▁mağlup	-8783
odu	-8784
dandı	-8785
▁ilanı	-8786
▁yayımlanan	-8787
lop	-8788
▁hazine	-8789
▁girdiği	-8790
eyebilirsiniz	-8791
▁gayrimenkul	-8792
▁aram	-8793
▁hepsinin	-8794
▁gönderildi	-8795
▁gazeteci	-8796
▁yolculuğ	-8797
▁formu	-8798
▁instagram	-8799
▁kaynaklanan	-8800
enlerin	-8801
▁şansı	-8802
▁baskın	-8803
lâk	-8804
▁acele	-8805
▁hükûmet	-8806
▁çeker	-8807
▁yerleşim	-8808
▁2006	-8809
▁hastane	-8810
▁körfez	-8811
▁köle	-8812
▁neticesinde	-8813
larıdır	-8814
▁yavaşça	-8815
ian	-8816
▁zann	-8817
▁tarihin	-8818
▁posta	-8819
▁bedeli	-8820
▁taşıyor	-8821
▁istemiyorum	-8822
sür	-8823
▁yığın	-8824
▁öyk	-8825
▁şan	-8826
olar	-8827
▁kenara	-8828
▁sn	-8829
▁ihtil	-8830
edin	-8831
▁yazılan	-8832
▁uygur	-8833
▁tarihinin	-8834
asın	-8835
▁iletişime	-8836
▁isimler	-8837
tün	-8838
▁haberdar	-8839
▁kavuştur	-8840
▁böcek	-8841
▁resmen	-8842
▁mobilya	-8843
tığımızda	-8844
hai	-8845
▁atış	-8846
▁okyan	-8847
▁delikanlı	-8848
▁erkeğin	-8849
spanyol	-8850
▁zırh	-8851
gari	-8852
▁açıklan	-8853
emektedir	-8854
▁titiz	-8855
▁taksit	-8856
▁marmara	-8857
▁amc	-8858
▁politikası	-8859
tiğimiz	-8860
▁sandaly	-8861
▁gülümsem	-8862
▁idari	-8863
▁65	-8864
iyesi	-8865
▁menfa	-8866
baz	-8867
▁masum	-8868
▁açtığı	-8869
▁içerir	-8870
▁hazırlanmış	-8871
▁istedikleri	-8872
▁lâzım	-8873
▁olurlar	-8874
nes	-8875
tüğü	-8876
▁adli	-8877
▁sanık	-8878
▁adil	-8879
adüf	-8880
mayacağı	-8881
▁misyon	-8882
▁muhtar	-8883
▁mıdır	-8884
▁yağış	-8885
ure	-8886
▁iri	-8887
▁tank	-8888
▁kuşak	-8889
▁kavramı	-8890
▁yapıştır	-8891
▁protesto	-8892
▁ötek	-8893
▁hedefi	-8894
▁kestir	-8895
▁halbuki	-8896
▁amaçla	-8897
▁ayrılan	-8898
▁oluşturmak	-8899
izz	-8900
▁projenin	-8901
▁mö	-8902
▁göreve	-8903
▁nehir	-8904
▁metaf	-8905
▁kayg	-8906
manıza	-8907
▁açmak	-8908
▁esnek	-8909
nî	-8910
▁lastik	-8911
▁abbas	-8912
sım	-8913
▁artı	-8914
▁nu	-8915
▁hum	-8916
▁başlay	-8917
▁âşık	-8918
miştim	-8919
▁gönderdiği	-8920
▁verdikleri	-8921
▁görüyorum	-8922
▁teknolojisi	-8923
▁gri	-8924
▁işlemler	-8925
▁atar	-8926
▁sunar	-8927
▁mektubu	-8928
ington	-8929
▁evleri	-8930
use	-8931
urfa	-8932
▁olmay	-8933
▁yağlı	-8934
dıköy	-8935
▁ruhsal	-8936
▁askerler	-8937
▁resimleri	-8938
enizi	-8939
▁kudüs	-8940
yanın	-8941
rib	-8942
▁atılan	-8943
▁tutup	-8944
lusu	-8945
▁4/2	-8946
linik	-8947
▁ettiğim	-8948
▁havaya	-8949
▁parlament	-8950
▁gelebilir	-8951
oğu	-8952
▁maddenin	-8953
▁hdp	-8954
▁huy	-8955
▁haric	-8956
memiştir	-8957
▁dediğimiz	-8958
▁boşalt	-8959
senin	-8960
▁yürürlüğe	-8961
▁tarihe	-8962
▁devamını	-8963
▁kurumlar	-8964
▁kuralları	-8965
▁söylenen	-8966
▁fırın	-8967
77	-8968
▁lar	-8969
▁kiral	-8970
▁oturma	-8971
▁peter	-8972
▁günümüze	-8973
▁atöly	-8974
▁manas	-8975
▁üretici	-8976
au	-8977
▁avuç	-8978
endi	-8979
abileceğini	-8980
ned	-8981
▁air	-8982
tra	-8983
▁gelmeye	-8984
▁istemek	-8985
dığımı	-8986
▁yollar	-8987
▁istatistik	-8988
önü	-8989
etice	-8990
▁sıkış	-8991
▁yahudiler	-8992
izasyon	-8993
▁yargılan	-8994
▁flor	-8995
▁kullanılarak	-8996
▁mühendisliği	-8997
▁karg	-8998
)’	-8999
umuza	-9000
▁edit	-9001
▁onda	-9002
▁güneşin	-9003
dere	-9004
▁kömür	-9005
▁talih	-9006
▁denizli	-9007
▁kolları	-9008
▁bizleri	-9009
sah	-9010
lıkların	-9011
nav	-9012
▁gereklidir	-9013
lüt	-9014
▁eng	-9015
▁ödey	-9016
▁ilahi	-9017
▁işine	-9018
▁müttefik	-9019
▁amr	-9020
ela	-9021
▁bilgilerin	-9022
▁piyasaya	-9023
▁dökül	-9024
▁bilmem	-9025
ulus	-9026
▁iştir	-9027
▁ikili	-9028
▁arg	-9029
▁reç	-9030
▁dehşet	-9031
mişlerdi	-9032
▁izni	-9033
▁sözleşmesi	-9034
▁şehzade	-9035
▁xvi	-9036
▁fena	-9037
▁andır	-9038
olojisi	-9039
▁partiler	-9040
▁ilçesi	-9041
▁önündeki	-9042
▁söyleyerek	-9043
▁kusursuz	-9044
▁rezervasyon	-9045
iyeli	-9046
▁bakıldığında	-9047
▁amerikalı	-9048
▁alımı	-9049
▁tutk	-9050
▁arıyor	-9051
▁afyon	-9052
▁başlarında	-9053
▁kimseyi	-9054
▁kağı	-9055
▁yazısı	-9056
▁seçilen	-9057
▁vuruş	-9058
▁benzet	-9059
▁kendinize	-9060
▁sarhoş	-9061
stil	-9062
▁olas	-9063
▁edilemez	-9064
89	-9065
▁okuyucu	-9066
▁malzemeler	-9067
8)	-9068
▁geçtik	-9069
▁selçuk	-9070
jpg	-9071
▁tokat	-9072
▁ağzı	-9073
▁anket	-9074
▁geçerken	-9075
▁sizlerin	-9076
itt	-9077
lanıp	-9078
io	-9079
liyoruz	-9080
arda	-9081
▁mesajı	-9082
▁2005	-9083
▁vahşi	-9084
▁arayış	-9085
▁evlat	-9086
▁yürüdü	-9087
▁vazgeçilmez	-9088
htiy	-9089
▁tesadüf	-9090
▁girecek	-9091
▁komik	-9092
lamanın	-9093
▁duyulan	-9094
▁dönüyor	-9095
memektedir	-9096
▁toptan	-9097
▁kablo	-9098
▁gelişimi	-9099
▁gecenin	-9100
▁değişimi	-9101
▁referans	-9102
▁artar	-9103
▁bekleniyor	-9104
▁tahsis	-9105
▁farkınd	-9106
▁yüzünde	-9107
▁benzeyen	-9108
86	-9109
▁buğday	-9110
▁isimleri	-9111
▁müziği	-9112
ril	-9113
▁ensâb	-9114
▁bülent	-9115
▁geçirdiği	-9116
▁doğdu	-9117
▁bilimleri	-9118
yolu	-9119
▁avcı	-9120
▁cehennem	-9121
▁medres	-9122
▁ürk	-9123
▁kalkan	-9124
▁berlin	-9125
▁lü	-9126
alarak	-9127
▁çıkmaz	-9128
▁lamb	-9129
▁siyen	-9130
▁yıkan	-9131
▁fazlasıyla	-9132
utube	-9133
▁örgü	-9134
▁açıl	-9135
▁geçecek	-9136
▁seçkin	-9137
▁vaj	-9138
▁engin	-9139
▁paten	-9140
▁ilerlem	-9141
lub	-9142
▁burs	-9143
▁sıy	-9144
▁göstererek	-9145
▁inşallah	-9146
▁şirketleri	-9147
▁rejim	-9148
▁bereket	-9149
▁bölümünü	-9150
▁dilim	-9151
▁yazıcı	-9152
▁şubesi	-9153
▁beraberinde	-9154
▁ayrıc	-9155
76	-9156
▁dönük	-9157
▁sözlü	-9158
▁araçlar	-9159
mişlerdir	-9160
▁çamaşır	-9161
▁kurma	-9162
▁attığı	-9163
▁direkt	-9164
▁efendimiz	-9165
iii	-9166
▁yazdır	-9167
▁dikkatini	-9168
▁kadarıyla	-9169
▁toplantısında	-9170
▁cadde	-9171
▁redded	-9172
▁karşıt	-9173
▁yarışma	-9174
▁arabistan	-9175
▁çalışıyordu	-9176
smet	-9177
▁rekor	-9178
fmt	-9179
▁dışarıdan	-9180
ulacak	-9181
▁donat	-9182
▁böylesine	-9183
▁başlangıçta	-9184
▁kurulum	-9185
▁hırsız	-9186
▁tırnak	-9187
irdi	-9188
çılar	-9189
çık	-9190
▁sunucu	-9191
iver	-9192
emize	-9193
▁üzüntü	-9194
▁herş	-9195
▁cemal	-9196
▁netice	-9197
▁hareketle	-9198
▁beklentiler	-9199
▁tol	-9200
▁kriter	-9201
▁yed	-9202
▁oynamak	-9203
▁bakanlar	-9204
lamıştır	-9205
▁bilimler	-9206
▁lav	-9207
▁ordusunun	-9208
▁verdiğini	-9209
▁maçta	-9210
▁nükleer	-9211
▁durup	-9212
mayacaktır	-9213
▁hususunda	-9214
▁vd	-9215
leden	-9216
eğim	-9217
▁hain	-9218
▁sarf	-9219
▁deneme	-9220
rosoft	-9221
▁alakalı	-9222
▁sayısız	-9223
▁otop	-9224
▁öncü	-9225
ld	-9226
▁katal	-9227
▁digiturk	-9228
abilmektedir	-9229
hassa	-9230
▁halif	-9231
▁bayanlar	-9232
▁yaşamaya	-9233
kânı	-9234
▁atmosfer	-9235
▁işletim	-9236
âne	-9237
▁kongresi	-9238
▁muhtemel	-9239
▁kahkah	-9240
▁unvan	-9241
ilecektir	-9242
▁geleni	-9243
▁sözlerine	-9244
▁katılımcı	-9245
acaktı	-9246
▁emanet	-9247
▁durumlar	-9248
▁metro	-9249
▁casino	-9250
diki	-9251
▁anlatmaya	-9252
▁soya	-9253
▁hastanın	-9254
▁içini	-9255
▁geçiren	-9256
!!	-9257
▁damla	-9258
▁olabilirdi	-9259
▁başlığı	-9260
▁vekili	-9261
▁ziraat	-9262
▁istikrar	-9263
▁pel	-9264
▁buçuk	-9265
▁kolu	-9266
▁oynayan	-9267
▁tarihten	-9268
eceğin	-9269
ılabilecek	-9270
.(	-9271
-20	-9272
▁5/	-9273
▁devletler	-9274
▁çözümü	-9275
▁merkezleri	-9276
▁takdim	-9277
▁gittiği	-9278
ildiğinde	-9279
▁ilerleyen	-9280
nsanın	-9281
▁boyutu	-9282
espor	-9283
▁nimet	-9284
▁çekerek	-9285
▁sürüm	-9286
lıların	-9287
▁gebelik	-9288
ücük	-9289
▁tetik	-9290
▁19.	-9291
ılacağı	-9292
▁etmesini	-9293
▁gun	-9294
▁görüşü	-9295
▁kullanmaya	-9296
▁çoban	-9297
▁sosyalist	-9298
▁1000	-9299
▁okuyan	-9300
lendirme	-9301
▁arız	-9302
▁kurtulmak	-9303
▁cenaze	-9304
▁durmadan	-9305
ax	-9306
▁evli	-9307
▁promos	-9308
opagan	-9309
▁sandık	-9310
▁bilgiyi	-9311
ülük	-9312
▁fiil	-9313
duklarını	-9314
▁şirketler	-9315
▁tencer	-9316
▁toplumu	-9317
▁toprağa	-9318
mun	-9319
▁davası	-9320
▁başlayarak	-9321
ith	-9322
ani	-9323
▁maddesinin	-9324
ilerinde	-9325
▁randevu	-9326
▁aldığımız	-9327
gk	-9328
▁kitapta	-9329
yeri	-9330
▁tutuklu	-9331
▁ileride	-9332
▁yeniçeri	-9333
▁güçleri	-9334
▁kullanır	-9335
anızı	-9336
ena	-9337
▁kritik	-9338
▁sağladı	-9339
▁kılıçdaroğlu	-9340
▁kelimeler	-9341
▁baya	-9342
▁lanet	-9343
ny	-9344
▁amatör	-9345
▁çeyrek	-9346
▁kısacası	-9347
▁düşüncesi	-9348
▁husu	-9349
▁liu	-9350
▁geçin	-9351
tiz	-9352
▁kilise	-9353
iliğe	-9354
▁baraj	-9355
▁aramak	-9356
▁gelsin	-9357
▁fın	-9358
▁harem	-9359
▁yıllarca	-9360
▁tavan	-9361
▁üskü	-9362
▁kazı	-9363
▁yürütülen	-9364
▁aşamasında	-9365
▁aittir	-9366
olos	-9367
52	-9368
▁derv	-9369
ladığım	-9370
▁değerler	-9371
▁projeleri	-9372
79	-9373
layınız	-9374
▁rey	-9375
▁mutf	-9376
▁aldığım	-9377
▁talebi	-9378
▁inci	-9379
▁zeytinya	-9380
seni	-9381
▁glo	-9382
▁bürün	-9383
▁sekreter	-9384
lini	-9385
▁serp	-9386
▁kadıköy	-9387
ıra	-9388
▁cat	-9389
▁elleri	-9390
▁parkı	-9391
▁heyeti	-9392
wer	-9393
▁fev	-9394
beral	-9395
▁kullanıyor	-9396
▁sök	-9397
▁kafasını	-9398
lenin	-9399
▁altyapı	-9400
▁gre	-9401
▁mıydı	-9402
▁ülkeleri	-9403
▁olmalıydı	-9404
doğru	-9405
▁yanaş	-9406
▁profesör	-9407
▁atarak	-9408
▁propagan	-9409
▁ortamı	-9410
▁yi	-9411
stra	-9412
bugün	-9413
▁aşam	-9414
▁birimi	-9415
▁haliyle	-9416
veni	-9417
▁dostum	-9418
îd	-9419
▁ty	-9420
emizi	-9421
▁intihar	-9422
▁gelecekte	-9423
▁görüntül	-9424
▁konaklama	-9425
▁bulundukları	-9426
▁akar	-9427
▁denizi	-9428
▁uşak	-9429
▁yapıt	-9430
▁grubun	-9431
ülerek	-9432
▁önemini	-9433
.4	-9434
▁biriydi	-9435
teb	-9436
▁masanın	-9437
▁sessizce	-9438
oth	-9439
▁max	-9440
▁dinle	-9441
▁umur	-9442
▁hizmete	-9443
▁kalesi	-9444
▁gülümsedi	-9445
▁sağlamaktadır	-9446
▁limon	-9447
vari	-9448
▁kars	-9449
lasman	-9450
▁odaları	-9451
▁işlerini	-9452
3’	-9453
▁ölmüş	-9454
cen	-9455
larımızla	-9456
▁alanlarında	-9457
cavüz	-9458
▁imar	-9459
▁maksim	-9460
▁deyince	-9461
▁yükseldi	-9462
▁sözde	-9463
şir	-9464
▁bürokr	-9465
▁mav	-9466
rım	-9467
▁dükkan	-9468
▁hüzün	-9469
▁soyut	-9470
▁buluştur	-9471
▁insanlarla	-9472
inizle	-9473
▁ihlal	-9474
▁oksi	-9475
▁çıkmıştır	-9476
▁$	-9477
leşmiş	-9478
muh	-9479
lüğüne	-9480
ışın	-9481
▁oynanan	-9482
çü	-9483
dig	-9484
dola	-9485
▁duş	-9486
▁etmel	-9487
layı	-9488
▁dilerim	-9489
▁kıymetli	-9490
bun	-9491
mece	-9492
▁nerde	-9493
▁şehre	-9494
▁tadını	-9495
▁yaptılar	-9496
▁poli	-9497
ıltı	-9498
barat	-9499
▁içeriği	-9500
▁tüccar	-9501
▁yazmak	-9502
▁çıkardığı	-9503
▁bozkır	-9504
▁askerlik	-9505
▁lezzetli	-9506
▁deyim	-9507
▁durur	-9508
▁çıkarı	-9509
▁bulunmayan	-9510
ğunu	-9511
ladıktan	-9512
yaspor	-9513
▁dikkati	-9514
▁bildirildi	-9515
çal	-9516
▁domat	-9517
▁halebî	-9518
▁sessizlik	-9519
batı	-9520
kisi	-9521
▁edelim	-9522
enni	-9523
▁ukray	-9524
beş	-9525
▁ayırt	-9526
▁ilham	-9527
▁skor	-9528
▁öğrenim	-9529
▁temizliği	-9530
_00	-9531
leştirme	-9532
pol	-9533
▁staj	-9534
▁real	-9535
▁odasında	-9536
▁turan	-9537
▁görüldü	-9538
▁harcam	-9539
▁dünyasının	-9540
▁duman	-9541
▁bilişim	-9542
▁bulunmuş	-9543
▁başak	-9544
▁gözle	-9545
▁istifa	-9546
▁kapıya	-9547
▁konf	-9548
▁olursunuz	-9549
▁belgeler	-9550
▁konuşuyor	-9551
▁geliştirmek	-9552
▁neye	-9553
▁yaptığınız	-9554
▁yüklü	-9555
ras	-9556
▁promosyon	-9557
ski	-9558
brek	-9559
▁600	-9560
▁sevimli	-9561
▁kurucusu	-9562
▁12.	-9563
iyorsun	-9564
lý	-9565
ço	-9566
▁olurken	-9567
beni	-9568
▁büyüsü	-9569
yü	-9570
acağımız	-9571
▁askerleri	-9572
▁tanıma	-9573
▁kentin	-9574
▁sağladığı	-9575
▁sex	-9576
çocuk	-9577
isti	-9578
ysse	-9579
▁2004	-9580
lanmaya	-9581
ayi	-9582
▁planda	-9583
bk	-9584
lana	-9585
▁muhalif	-9586
▁cezaev	-9587
▁bilhassa	-9588
laki	-9589
▁kalması	-9590
▁stil	-9591
▁kalbi	-9592
▁doğrul	-9593
▁yılların	-9594
▁ebev	-9595
▁pür	-9596
▁aksesuar	-9597
▁müraca	-9598
▁arazi	-9599
▁sürüc	-9600
iyetine	-9601
▁hissettir	-9602
alarındaki	-9603
arka	-9604
▁kuruş	-9605
▁ajansı	-9606
▁kavray	-9607
▁inanıyorum	-9608
kent	-9609
▁nap	-9610
._	-9611
▁masaya	-9612
▁olursak	-9613
▁vermedi	-9614
▁ailesinin	-9615
▁konuşmalar	-9616
▁kızgın	-9617
▁verilmektedir	-9618
eddüt	-9619
▁akan	-9620
▁sisteme	-9621
şen	-9622
ebilmesi	-9623
▁seçeneği	-9624
▁hareketli	-9625
▁kategorisinde	-9626
▁pırıl	-9627
▁batılı	-9628
▁koltuğ	-9629
▁180	-9630
▁nehri	-9631
mamı	-9632
▁onar	-9633
▁kaldırıp	-9634
hil	-9635
▁burcu	-9636
baba	-9637
▁yoldaş	-9638
▁başarılar	-9639
▁çet	-9640
▁töreni	-9641
▁prog	-9642
▁çözül	-9643
▁işçiler	-9644
▁öğrencisi	-9645
▁okumaya	-9646
▁tümüyle	-9647
▁geleceğini	-9648
ug	-9649
▁asgari	-9650
ılacaktır	-9651
▁bırakarak	-9652
▁örnekleri	-9653
▁bırakmak	-9654
54	-9655
ebir	-9656
bilim	-9657
▁frag	-9658
▁idiler	-9659
▁onlarca	-9660
ish	-9661
▁saçma	-9662
▁manastır	-9663
nc	-9664
fin	-9665
▁pul	-9666
▁taahhüt	-9667
▁görevleri	-9668
▁elma	-9669
▁tecavüz	-9670
izme	-9671
▁ihale	-9672
▁edildiğini	-9673
▁hızı	-9674
nut	-9675
▁korkusu	-9676
▁mühendislik	-9677
▁bag	-9678
▁hissede	-9679
bunun	-9680
▁hormon	-9681
▁kurtarmak	-9682
luğunun	-9683
▁nüfuz	-9684
sık	-9685
layabilir	-9686
▁dedektif	-9687
▁etkisini	-9688
▁wal	-9689
▁toplumda	-9690
▁kuruluşu	-9691
kol	-9692
▁anlata	-9693
▁çare	-9694
▁yapılandır	-9695
▁sitemizde	-9696
vent	-9697
▁sad	-9698
▁dövüş	-9699
▁diyanet	-9700
▁hangisi	-9701
▁kişiden	-9702
▁olabileceği	-9703
▁rumeli	-9704
▁verileri	-9705
▁hün	-9706
▁ın	-9707
▁kitle	-9708
▁etmeleri	-9709
▁derdi	-9710
landığını	-9711
▁dergi	-9712
▁gördüğüm	-9713
▁oynadığı	-9714
▁platformu	-9715
ömer	-9716
ğrul	-9717
▁topa	-9718
dirler	-9719
▁halini	-9720
akâr	-9721
▁uğruna	-9722
▁seviyede	-9723
▁atmak	-9724
▁onarım	-9725
▁çamur	-9726
▁suresi	-9727
ileriyle	-9728
▁@	-9729
▁adası	-9730
▁kâfir	-9731
▁partner	-9732
▁atıldı	-9733
▁devre	-9734
▁led	-9735
▁yavrum	-9736
▁teknolojileri	-9737
▁vize	-9738
yok	-9739
▁umu	-9740
▁marx	-9741
ılmalıdır	-9742
▁içerisine	-9743
▁balıkesir	-9744
▁ke	-9745
▁amas	-9746
▁ulaşan	-9747
ifor	-9748
▁krizi	-9749
▁58	-9750
▁kaynaklar	-9751
▁vasıtasıyla	-9752
▁verdiğimiz	-9753
gon	-9754
▁seminer	-9755
▁basınç	-9756
▁odanın	-9757
▁inkâr	-9758
irt	-9759
▁personeli	-9760
▁düzenlendi	-9761
▁gördüğünüz	-9762
▁biten	-9763
▁fazlasını	-9764
▁yaralandı	-9765
▁viy	-9766
▁kime	-9767
▁çalışarak	-9768
▁dede	-9769
▁tabir	-9770
amıyordu	-9771
▁bekliyoruz	-9772
▁🙂	-9773
▁şaf	-9774
▁faydası	-9775
▁kurulması	-9776
tun	-9777
▁eri	-9778
▁bakıp	-9779
▁miyim	-9780
ardı	-9781
lerse	-9782
▁arke	-9783
▁ordunun	-9784
▁problemi	-9785
▁bölgedeki	-9786
cım	-9787
portaj	-9788
▁yönünden	-9789
▁20.	-9790
zir	-9791
▁filmleri	-9792
▁aşı	-9793
layabilirsiniz	-9794
gelen	-9795
▁kıyasla	-9796
▁tereddüt	-9797
sed	-9798
▁oğlunun	-9799
▁değerini	-9800
▁1980	-9801
▁umum	-9802
▁tâbi	-9803
▁alkış	-9804
▁patates	-9805
▁ihtiyaçlarını	-9806
▁disk	-9807
▁ümmet	-9808
▁kurmuş	-9809
▁tazminat	-9810
▁işareti	-9811
▁ağzından	-9812
▁koyup	-9813
▁oluşu	-9814
▁tamamladı	-9815
▁çekiş	-9816
▁fren	-9817
▁çıkmaya	-9818
▁paylaşmak	-9819
▁vurdu	-9820
▁namazı	-9821
▁balkon	-9822
▁bardağı	-9823
win	-9824
▁pembe	-9825
leyebilir	-9826
▁annesinin	-9827
▁çocuğa	-9828
▁başarıyla	-9829
▁çeşitleri	-9830
▁böbrek	-9831
▁firmanın	-9832
kti	-9833
▁yıp	-9834
▁yapmıştır	-9835
by	-9836
aydın	-9837
▁temsilcileri	-9838
▁etkisiyle	-9839
▁alışkanlık	-9840
61	-9841
▁odysse	-9842
▁diyorlar	-9843
69	-9844
▁gördüğümüz	-9845
▁ülkeyi	-9846
▁öztürk	-9847
▁dönmüş	-9848
▁gas	-9849
▁toplamda	-9850
▁kafkas	-9851
▁reg	-9852
▁forma	-9853
▁ilti	-9854
▁geçmesi	-9855
▁buton	-9856
▁kadınlara	-9857
51	-9858
’’	-9859
▁yeniçer	-9860
idin	-9861
ınıp	-9862
▁filan	-9863
▁kızım	-9864
▁söndür	-9865
edikleri	-9866
tv	-9867
▁konunun	-9868
▁sofr	-9869
▁sebze	-9870
▁cerrahi	-9871
▁abon	-9872
▁odaklı	-9873
▁fabrika	-9874
▁menfaat	-9875
▁sıklıkla	-9876
sveç	-9877
▁bolu	-9878
▁ekme	-9879
▁mân	-9880
luğuna	-9881
▁oturmuş	-9882
[[	-9883
dışı	-9884
ırsa	-9885
▁teşebbüs	-9886
▁iyisi	-9887
▁miz	-9888
▁ellerinde	-9889
▁alf	-9890
▁komünist	-9891
▁şoför	-9892
▁oyunda	-9893
▁biçiminde	-9894
▁keşif	-9895
ınak	-9896
▁gezin	-9897
gay	-9898
▁köşe	-9899
▁kimya	-9900
▁rasûl	-9901
ns	-9902
▁köt	-9903
▁ender	-9904
▁muazzam	-9905
▁tıkanık	-9906
▁çalışıyoruz	-9907
▁suudi	-9908
▁etmeniz	-9909
▁evrim	-9910
inceye	-9911
▁anlatılan	-9912
▁etmekten	-9913
▁şüpheli	-9914
▁yönden	-9915
▁oyuna	-9916
▁yorumlar	-9917
dor	-9918
cın	-9919
▁bilginin	-9920
▁özelliklerini	-9921
▁eren	-9922
amanın	-9923
▁teşkilatı	-9924
nis	-9925
▁hukuku	-9926
▁kurumları	-9927
▁cevabını	-9928
lenerek	-9929
▁dönemine	-9930
ülebil	-9931
▁istenilen	-9932
▁keşke	-9933
▁pik	-9934
üsünü	-9935
▁asır	-9936
▁koya	-9937
▁kelimesi	-9938
▁tuğ	-9939
▁röportaj	-9940
▁yâ	-9941
▁ceket	-9942
▁konulu	-9943
▁artıyor	-9944
▁geceleri	-9945
5’	-9946
▁şeydir	-9947
▁saçları	-9948
▁saptan	-9949
▁getirerek	-9950
▁diyarbek	-9951
▁140	-9952
▁medi	-9953
cesi	-9954
▁domates	-9955
▁deneyimi	-9956
▁çocukluk	-9957
▁dub	-9958
▁çoğunluğu	-9959
▁maksa	-9960
▁youtube	-9961
ius	-9962
▁sayısını	-9963
▁dayanarak	-9964
▁dersleri	-9965
▁kazanmış	-9966
▁boylu	-9967
▁muhtaç	-9968
▁microsoft	-9969
▁kendilerinin	-9970
itan	-9971
▁kaşık	-9972
▁şanlıurfa	-9973
▁cey	-9974
▁sonbahar	-9975
▁zamandan	-9976
▁dişi	-9977
▁mağar	-9978
▁esin	-9979
▁hâr	-9980
▁yatan	-9981
▁vatandaşların	-9982
',	-9983
ünç	-9984
▁partinin	-9985
▁öğrenildi	-9986
hiz	-9987
hel	-9988
▁buda	-9989
▁serisi	-9990
▁loj	-9991
▁böylesi	-9992
ekte	-9993
▁milleti	-9994
▁telek	-9995
▁planlama	-9996
▁kabu	-9997
osunu	-9998
▁mevzuat	-9999
▁prensip	-10000
▁düzenlenecek	-10001
▁giydir	-10002
eğiyle	-10003
▁hastaneye	-10004
iyorsa	-10005
▁üyelerinin	-10006
tına	-10007
dok	-10008
▁ölür	-10009
▁derinlik	-10010
▁peynir	-10011
▁çevirdi	-10012
▁kararlar	-10013
▁ipek	-10014
▁ley	-10015
▁kana	-10016
▁içindir	-10017
▁bekliyorum	-10018
ift	-10019
▁jam	-10020
▁doğalgaz	-10021
ayn	-10022
▁senaryo	-10023
▁referan	-10024
cy	-10025
▁ayın	-10026
▁dönerek	-10027
ordu	-10028
▁yapmaktadır	-10029
mud	-10030
▁parçalar	-10031
▁öle	-10032
▁okulda	-10033
▁uzakta	-10034
▁riski	-10035
▁vaziyet	-10036
kend	-10037
▁girerek	-10038
▁depresyon	-10039
▁firmaların	-10040
▁yazmış	-10041
adam	-10042
ularak	-10043
▁viz	-10044
▁etkileyen	-10045
▁devletinin	-10046
▁birbirleriyle	-10047
2017	-10048
▁kâh	-10049
▁geor	-10050
▁kaldım	-10051
▁bilinmektedir	-10052
▁içki	-10053
▁çekildi	-10054
▁nil	-10055
▁rüt	-10056
siyle	-10057
▁saman	-10058
umda	-10059
hisar	-10060
▁virüs	-10061
▁yunus	-10062
▁değiştirmek	-10063
▁devlete	-10064
▁restoran	-10065
omen	-10066
▁güver	-10067
istiy	-10068
larımızdan	-10069
▁5,	-10070
mazlık	-10071
▁irtibat	-10072
kız	-10073
▁tatar	-10074
▁etnik	-10075
▁itibarıyla	-10076
▁muğla	-10077
ix	-10078
ûd	-10079
nasıl	-10080
▁refah	-10081
▁edi	-10082
sınıf	-10083
▁derviş	-10084
▁birleşmiş	-10085
▁yapacağız	-10086
▁meme	-10087
▁kenti	-10088
▁çıkarken	-10089
64	-10090
▁reş	-10091
▁mükelle	-10092
▁acımasız	-10093
imp	-10094
,»	-10095
mazdı	-10096
▁halife	-10097
▁isabet	-10098
▁fiyatlar	-10099
▁yaptıklarını	-10100
▁nefis	-10101
▁analizi	-10102
▁kararını	-10103
▁ihraç	-10104
▁başardı	-10105
▁tecrübe	-10106
lilere	-10107
▁mp	-10108
▁jack	-10109
amda	-10110
âlet	-10111
▁dolap	-10112
▁mekanik	-10113
▁öfke	-10114
▁ikamet	-10115
▁tet	-10116
▁oluşturulan	-10117
▁kis	-10118
▁kaplama	-10119
▁dim	-10120
▁hop	-10121
▁3-	-10122
▁bekler	-10123
▁söylemişti	-10124
▁başkası	-10125
madılar	-10126
▁anlaşması	-10127
ux	-10128
▁ağırlıklı	-10129
▁arttı	-10130
âma	-10131
▁3/3	-10132
▁şaşırtıcı	-10133
▁ettiklerini	-10134
yaman	-10135
alığın	-10136
▁sevdiğim	-10137
▁gerektiren	-10138
▁ağrısı	-10139
▁saldırgan	-10140
laşan	-10141
tınız	-10142
dos	-10143
ekler	-10144
▁tuna	-10145
▁ihanet	-10146
▁patron	-10147
onspor	-10148
▁aslı	-10149
▁bunca	-10150
▁hikaye	-10151
▁gruplar	-10152
▁büyüklük	-10153
▁gerekçesiyle	-10154
▁1990	-10155
cağından	-10156
▁omz	-10157
▁ölümsüz	-10158
▁diyelim	-10159
▁dul	-10160
▁domuz	-10161
??	-10162
▁ayşe	-10163
▁şudur	-10164
deler	-10165
ersem	-10166
▁chat	-10167
▁ateşli	-10168
▁bölgelerde	-10169
usundan	-10170
▁neg	-10171
▁zulüm	-10172
▁isminin	-10173
▁laboratuvar	-10174
▁kombin	-10175
▁toplama	-10176
▁öğretmenler	-10177
▁duyan	-10178
▁sorunsuz	-10179
▁çatışma	-10180
▁hücre	-10181
ebiliriz	-10182
".	-10183
▁dersin	-10184
▁birlikt	-10185
▁kalıntı	-10186
▁tutarak	-10187
▁sola	-10188
pınar	-10189
acağına	-10190
▁diliyorum	-10191
▁fuarı	-10192
▁yetkin	-10193
▁elveriş	-10194
▁2003	-10195
▁yolla	-10196
▁klinik	-10197
▁görevlisi	-10198
▁çıkaran	-10199
▁süf	-10200
▁pantolon	-10201
▁mermer	-10202
▁mesafe	-10203
▁veriyordu	-10204
▁sorumluluğ	-10205
kom	-10206
}](../	-10207
▁ster	-10208
çişleri	-10209
▁`	-10210
▁imkânı	-10211
belki	-10212
▁ihtimali	-10213
▁vallahi	-10214
▁ölümünden	-10215
▁veda	-10216
▁devrimi	-10217
▁sergilen	-10218
cunun	-10219
▁izah	-10220
tuğunu	-10221
▁düşünüyordu	-10222
▁sosy	-10223
▁dönüm	-10224
▁bulgaristan	-10225
▁ret	-10226
▁tao	-10227
▁çarş	-10228
▁sanatı	-10229
▁wu	-10230
▁neyi	-10231
▁trav	-10232
▁istediğimiz	-10233
ğün	-10234
▁yönlü	-10235
irse	-10236
▁koymak	-10237
▁depolama	-10238
ıh	-10239
▁ışın	-10240
ebileceğini	-10241
▁moral	-10242
▁fakült	-10243
▁alâ	-10244
▁ray	-10245
▁yep	-10246
press	-10247
birliği	-10248
▁tabiat	-10249
▁izleyic	-10250
▁üste	-10251
▁üreten	-10252
▁takımın	-10253
▁geçerlidir	-10254
▁konse	-10255
▁okut	-10256
▁kişileri	-10257
iliğini	-10258
▁dog	-10259
▁düşünün	-10260
kırım	-10261
▁türkü	-10262
▁kalmıştır	-10263
▁lt	-10264
▁ihtiyaçları	-10265
▁yaşına	-10266
▁belirtmek	-10267
lanmıştı	-10268
abi	-10269
▁xx	-10270
▁başlamak	-10271
▁solun	-10272
▁ortamında	-10273
▁abi	-10274
▁yelken	-10275
▁çıkarma	-10276
▁elektrikli	-10277
▁nic	-10278
▁duvara	-10279
▁dolarlık	-10280
▁şiirleri	-10281
▁hazretleri	-10282
▁yaşadıkları	-10283
▁malik	-10284
▁ayrılmış	-10285
▁radikal	-10286
▁maksimum	-10287
▁belgeleri	-10288
▁görebilirsiniz	-10289
▁etkinliği	-10290
’,	-10291
▁malı	-10292
▁kuruluşları	-10293
▁apol	-10294
ily	-10295
▁torb	-10296
▁sunmak	-10297
▁yapıldığını	-10298
▁tadı	-10299
▁ağzına	-10300
▁vesile	-10301
▁oz	-10302
▁kumanda	-10303
▁dayanışma	-10304
▁bulduğu	-10305
▁inf	-10306
▁açılması	-10307
mah	-10308
▁idrar	-10309
iliyordu	-10310
▁yapacağını	-10311
▁yakışık	-10312
navut	-10313
▁kılan	-10314
▁mutluluğ	-10315
melisiniz	-10316
▁birbirlerini	-10317
▁borçlu	-10318
▁kararlaştır	-10319
▁çektiği	-10320
▁durumdan	-10321
bizim	-10322
▁rüyada	-10323
yem	-10324
▁cap	-10325
▁sho	-10326
▁hesaba	-10327
▁sağa	-10328
▁odalar	-10329
▁mantıklı	-10330
larımızda	-10331
ect	-10332
▁önünden	-10333
▁asil	-10334
▁cihazı	-10335
▁yin	-10336
tiniz	-10337
▁peşinden	-10338
aban	-10339
my	-10340
ive	-10341
▁gölü	-10342
▁seh	-10343
▁büro	-10344
▁anladım	-10345
-15	-10346
▁2002	-10347
▁azın	-10348
operatif	-10349
▁aşkı	-10350
▁şiddetle	-10351
▁muvaf	-10352
leniyor	-10353
▁yurttaş	-10354
▁hazırladığı	-10355
▁açıklamaya	-10356
▁keşfed	-10357
▁zamanlı	-10358
▁yapıyorum	-10359
▁13.	-10360
▁kapıdan	-10361
▁verirken	-10362
▁yapılarak	-10363
index	-10364
▁beşinci	-10365
▁tc	-10366
▁mid	-10367
▁apartman	-10368
ğren	-10369
dığının	-10370
▁olmaksızın	-10371
▁götürdü	-10372
▁buzdola	-10373
▁maddeleri	-10374
▁topluluğu	-10375
cell	-10376
▁hayvanların	-10377
cını	-10378
lunun	-10379
▁çözümler	-10380
ümüzü	-10381
▁ayının	-10382
▁ukrayna	-10383
▁sorunların	-10384
▁sop	-10385
▁hediyeler	-10386
osiklet	-10387
▁sevilen	-10388
▁53	-10389
▁paul	-10390
▁saygın	-10391
▁mücadelesi	-10392
▁anladı	-10393
▁telgraf	-10394
▁şimdiki	-10395
▁propaganda	-10396
ýþ	-10397
▁katlı	-10398
▁anlamsız	-10399
▁sürdürülebilir	-10400
▁ceviz	-10401
▁motoru	-10402
▁deneyimli	-10403
▁olmadığına	-10404
▁eğr	-10405
▁süresince	-10406
▁trt	-10407
ılmamış	-10408
tt	-10409
▁başlandı	-10410
lçesi	-10411
cinin	-10412
rahman	-10413
şan	-10414
▁yama	-10415
▁gitmeye	-10416
▁muayene	-10417
çünkü	-10418
▁sayıları	-10419
lî	-10420
dünya	-10421
▁edilmelidir	-10422
▁wil	-10423
ünüzü	-10424
▁komutanlığı	-10425
▁adem	-10426
▁cahil	-10427
▁figür	-10428
▁kaynaklı	-10429
▁olacağız	-10430
▁nın	-10431
▁kıyamet	-10432
▁hepimizin	-10433
▁blu	-10434
▁halkla	-10435
▁katılmak	-10436
▁üzüm	-10437
▁oynat	-10438
ulmuştu	-10439
▁endişe	-10440
siyet	-10441
ucak	-10442
▁resul	-10443
▁ebeveyn	-10444
94	-10445
▁aydınlık	-10446
▁minim	-10447
▁canı	-10448
▁vaat	-10449
▁ağacı	-10450
▁oturt	-10451
▁satıcı	-10452
▁ayağı	-10453
▁gıd	-10454
▁gövde	-10455
▁limit	-10456
▁tekstil	-10457
▁pres	-10458
▁çıktığını	-10459
kor	-10460
▁rep	-10461
▁sözlük	-10462
▁müzaker	-10463
▁edebiyatı	-10464
▁ettikten	-10465
ss	-10466
▁süm	-10467
ınızdan	-10468
oterap	-10469
▁kılın	-10470
▁erdi	-10471
▁tütün	-10472
▁önceleri	-10473
92	-10474
▁sib	-10475
▁zat	-10476
▁şuan	-10477
▁müracaat	-10478
▁faş	-10479
▁müfet	-10480
▁konul	-10481
▁şehirler	-10482
ling	-10483
▁dinî	-10484
eyebilir	-10485
▁adnan	-10486
kik	-10487
▁cephe	-10488
▁kanalı	-10489
▁değiliz	-10490
▁şeklindeki	-10491
▁helik	-10492
▁gemisi	-10493
▁jen	-10494
▁anlaşılır	-10495
üyorum	-10496
afet	-10497
▁zür	-10498
▁çekilen	-10499
▁zarf	-10500
▁yazılar	-10501
ğimde	-10502
masa	-10503
▁komş	-10504
ansiyon	-10505
▁yükleme	-10506
▁tıklayın	-10507
▁sevdik	-10508
▁bölgeler	-10509
▁sük	-10510
▁eserler	-10511
▁entel	-10512
▁anlaşılan	-10513
▁zahmet	-10514
▁ky	-10515
▁sürdürdü	-10516
çının	-10517
▁karı	-10518
▁sorar	-10519
▁bütünüyle	-10520
▁hissi	-10521
▁haklarını	-10522
▁bulgu	-10523
▁pasta	-10524
▁tanınan	-10525
▁resmî	-10526
▁sayfası	-10527
71	-10528
▁getirmiş	-10529
▁defalarca	-10530
idir	-10531
▁parası	-10532
▁hy	-10533
▁deplasman	-10534
tiğim	-10535
▁atın	-10536
▁işkence	-10537
▁anna	-10538
▁almadan	-10539
▁vitamin	-10540
bre	-10541
mül	-10542
▁şöy	-10543
▁fındık	-10544
unup	-10545
▁mantar	-10546
▁kılavuz	-10547
▁hastalar	-10548
tezi	-10549
▁oradaki	-10550
kuş	-10551
▁istemiyor	-10552
eski	-10553
ald	-10554
▁wor	-10555
▁soruyu	-10556
lının	-10557
▁versin	-10558
ünür	-10559
▁mesut	-10560
▁seo	-10561
sinden	-10562
▁dönmek	-10563
sıyla	-10564
▁nolu	-10565
▁gerçeklik	-10566
▁kendim	-10567
▁demokrat	-10568
▁kk	-10569
ranı	-10570
▁sergi	-10571
▁motosiklet	-10572
▁kullanıcıların	-10573
ırtı	-10574
▁gücünün	-10575
▁çalışmaların	-10576
akar	-10577
▁şimşek	-10578
▁medyada	-10579
ağından	-10580
▁getirilmesi	-10581
▁geleceğe	-10582
▁trabzonspor	-10583
▁direktörü	-10584
▁mütev	-10585
▁casus	-10586
▁zorlan	-10587
▁topluma	-10588
▁kombi	-10589
▁gündür	-10590
▁patent	-10591
▁çığlık	-10592
mektedirler	-10593
62	-10594
▁ilke	-10595
▁okuya	-10596
▁dışarıya	-10597
iriz	-10598
▁muhafız	-10599
▁muhabbet	-10600
emiştir	-10601
▁ederse	-10602
kitap	-10603
▁korum	-10604
▁zarif	-10605
▁telaf	-10606
▁sektörde	-10607
▁noktasına	-10608
dırlar	-10609
▁https	-10610
▁gezegen	-10611
▁uygulanması	-10612
▁direniş	-10613
▁pc	-10614
barek	-10615
▁wat	-10616
mon	-10617
▁‘’	-10618
▁avu	-10619
▁yoz	-10620
▁papaz	-10621
culuk	-10622
▁fırat	-10623
▁pasap	-10624
▁şeyhül	-10625
▁yığ	-10626
işik	-10627
▁troya	-10628
▁açıklandı	-10629
.[[	-10630
leşen	-10631
▁tatb	-10632
▁girişi	-10633
gb	-10634
▁fatura	-10635
▁nelerdir	-10636
▁adlandırılan	-10637
df	-10638
▁binanın	-10639
▁etmeyen	-10640
▁aldığınız	-10641
▁yöneticisi	-10642
▁saatlik	-10643
▁püs	-10644
▁dahilinde	-10645
gg	-10646
▁hoşnut	-10647
hr	-10648
▁ressam	-10649
▁edilmişti	-10650
tının	-10651
▁muhafaz	-10652
▁söylenebilir	-10653
▁duyu	-10654
▁sahipliği	-10655
▁edebilecek	-10656
abilirdi	-10657
ledikleri	-10658
▁salt	-10659
▁nazik	-10660
▁global	-10661
ibet	-10662
▁taklit	-10663
çinin	-10664
▁genetik	-10665
▁samim	-10666
▁yetmez	-10667
ght	-10668
▁hatay	-10669
▁bilgin	-10670
-30	-10671
stri	-10672
▁kira	-10673
şletme	-10674
mediler	-10675
▁mimari	-10676
▁kısmının	-10677
93	-10678
▁yaratmak	-10679
işan	-10680
▁reng	-10681
▁öğrencinin	-10682
▁işg	-10683
ood	-10684
▁ahlaki	-10685
▁paramet	-10686
▁oynay	-10687
▁fav	-10688
azığ	-10689
▁lif	-10690
▁boşa	-10691
▁helikop	-10692
▁sahibinin	-10693
▁sag	-10694
ever	-10695
▁atıp	-10696
▁istemedi	-10697
63	-10698
umuzda	-10699
jinal	-10700
▁dahası	-10701
▁fırtın	-10702
▁buluyor	-10703
▁tecrübeli	-10704
▁arkadaşlık	-10705
▁gerilim	-10706
cem	-10707
usa	-10708
▁ila	-10709
▁birde	-10710
▁ihsan	-10711
▁türb	-10712
▁sonuca	-10713
▁yöneticileri	-10714
şçi	-10715
▁anlamaya	-10716
▁yaşta	-10717
▁gelişmeleri	-10718
metik	-10719
▁güldü	-10720
▁trend	-10721
oid	-10722
81	-10723
▁zab	-10724
▁merkezli	-10725
▁ufuk	-10726
▁koyduğu	-10727
▁52	-10728
dara	-10729
▁laik	-10730
▁işletmeler	-10731
:30	-10732
▁davut	-10733
▁vermeyi	-10734
▁sektörünün	-10735
▁jean	-10736
üsünde	-10737
▁herif	-10738
▁korsan	-10739
ydu	-10740
▁tüfek	-10741
▁duydum	-10742
mamıştır	-10743
▁ederdi	-10744
▁tarafın	-10745
tive	-10746
▁küfür	-10747
acaksınız	-10748
▁atlı	-10749
▁bırakır	-10750
dut	-10751
▁sub	-10752
▁şirketlerin	-10753
▁fâ	-10754
▁şefkat	-10755
▁aracılığı	-10756
▁ingil	-10757
▁21.	-10758
▁güreş	-10759
▁tesir	-10760
▁üsküdar	-10761
▁nadir	-10762
▁direnç	-10763
▁öğleden	-10764
▁temeli	-10765
▁mardin	-10766
▁programına	-10767
ümin	-10768
kut	-10769
▁birç	-10770
▁müsteş	-10771
▁edeceğini	-10772
▁format	-10773
▁çalıştım	-10774
▁holding	-10775
▁getirecek	-10776
▁kaçan	-10777
▁bot	-10778
73	-10779
▁soruyor	-10780
▁saltanat	-10781
▁açılır	-10782
▁gençlerin	-10783
▁kullanıldığı	-10784
▁açlık	-10785
▁bilgilerini	-10786
▁krist	-10787
▁vücudun	-10788
▁arnavut	-10789
▁kuruldu	-10790
▁aleyhine	-10791
▁logo	-10792
▁mülte	-10793
http	-10794
▁şeylere	-10795
▁satan	-10796
▁kısmına	-10797
▁alınmıştır	-10798
▁ülkesi	-10799
▁ا	-10800
▁anıt	-10801
▁muhat	-10802
▁telekom	-10803
▁sw	-10804
▁ayna	-10805
▁oturuyor	-10806
ayıcı	-10807
▁tünel	-10808
▁armağan	-10809
▁cinsiyet	-10810
kab	-10811
▁çalı	-10812
▁yenilg	-10813
▁duyurdu	-10814
îler	-10815
▁farz	-10816
▁bahse	-10817
▁burak	-10818
▁mahmud	-10819
▁bıraktığı	-10820
▁bilindiği	-10821
alaş	-10822
▁angel	-10823
▁özerk	-10824
lediğini	-10825
▁aşamada	-10826
▁yepyeni	-10827
▁salonunda	-10828
▁olduktan	-10829
iyen	-10830
▁söyleyecek	-10831
rab	-10832
▁güzer	-10833
▁dükkân	-10834
▁etkinlikleri	-10835
▁feda	-10836
▁david	-10837
▁hamam	-10838
72	-10839
▁çıkarılan	-10840
dükleri	-10841
▁oranları	-10842
▁fırtına	-10843
ato	-10844
▁telaş	-10845
▁bitkisel	-10846
▁emeklilik	-10847
seler	-10848
▁muhasebe	-10849
dest	-10850
▁veriyoruz	-10851
rus	-10852
▁frek	-10853
▁akşamı	-10854
▁unutma	-10855
▁kenarında	-10856
feri	-10857
▁daim	-10858
▁efendiler	-10859
▁başkaları	-10860
lgi	-10861
▁yılan	-10862
.11.	-10863
malarda	-10864
▁santral	-10865
▁kahveren	-10866
▁nakit	-10867
▁yapmıştı	-10868
laştırma	-10869
▁beh	-10870
▁borsa	-10871
83	-10872
lüğün	-10873
kaz	-10874
▁açıklamalarda	-10875
▁rehberi	-10876
▁başlarına	-10877
▁parsel	-10878
▁olanlara	-10879
▁sürdürüyor	-10880
▁nitelikli	-10881
ita	-10882
▁üt	-10883
▁nasip	-10884
lemektedir	-10885
mine	-10886
eğince	-10887
▁opsiyon	-10888
▁başsav	-10889
▁trakya	-10890
▁değişti	-10891
hy	-10892
▁zeyn	-10893
▁poş	-10894
insan	-10895
▁ateşi	-10896
▁neşeli	-10897
▁viyana	-10898
▁imkansız	-10899
ion	-10900
▁kare	-10901
▁muciz	-10902
▁bilmedi	-10903
asıdır	-10904
▁meraklı	-10905
▁insani	-10906
▁aramızda	-10907
duğuna	-10908
▁mutsuz	-10909
▁çekirdek	-10910
:0	-10911
▁olg	-10912
▁etmenin	-10913
▁açılmış	-10914
▁gelmedi	-10915
ou	-10916
.1,	-10917
▁gözlük	-10918
▁yaşadığımız	-10919
ileş	-10920
kili	-10921
meme	-10922
▁siyasî	-10923
meliyiz	-10924
▁hayati	-10925
▁süfyan	-10926
▁aleyhisselâma	-10927
▁duyguları	-10928
▁okudum	-10929
▁mezunu	-10930
ory	-10931
▁zon	-10932
aleti	-10933
▁üş	-10934
asan	-10935
▁elle	-10936
▁varan	-10937
▁müsabak	-10938
▁gözlerinin	-10939
▁yanlı	-10940
▁açıktır	-10941
ticaret	-10942
▁geçmişti	-10943
▁karşısındaki	-10944
zî	-10945
▁sebz	-10946
▁ışığında	-10947
▁brez	-10948
ymış	-10949
▁sınırı	-10950
▁niteliği	-10951
▁ekstra	-10952
hap	-10953
▁sesler	-10954
▁heyecanlı	-10955
▁sonraları	-10956
ilme	-10957
▁vücudu	-10958
▁çevrim	-10959
▁imaj	-10960
▁vitamini	-10961
erin	-10962
▁vurgulayan	-10963
▁peç	-10964
▁erit	-10965
▁hükümdarı	-10966
▁rasûlallah	-10967
▁eği	-10968
lüğünde	-10969
▁imalat	-10970
▁siyenp	-10971
▁bilinir	-10972
▁kıskanç	-10973
▁belirtir	-10974
▁sigar	-10975
▁hazar	-10976
▁gülümsey	-10977
ncel	-10978
▁mars	-10979
▁özdeş	-10980
▁bomba	-10981
▁koşullar	-10982
▁kooperatif	-10983
menize	-10984
▁yapılmasını	-10985
▁doğanın	-10986
▁kos	-10987
nal	-10988
▁simg	-10989
▁çiğn	-10990
ttihat	-10991
▁binası	-10992
▁efsane	-10993
▁intikam	-10994
▁olmanız	-10995
▁yorumları	-10996
▁boyutlu	-10997
▁tamamını	-10998
▁çalışıyorum	-10999
▁inter	-11000
▁yapabilecek	-11001
▁toprakları	-11002
que	-11003
con	-11004
kinden	-11005
▁hı	-11006
casına	-11007
▁aldıktan	-11008
oyun	-11009
▁15.	-11010
▁yaşı	-11011
▁pencere	-11012
▁eksiksiz	-11013
▁saldırıya	-11014
vil	-11015
▁gereğince	-11016
▁afgan	-11017
▁idrak	-11018
▁endüstriyel	-11019
amıza	-11020
▁devri	-11021
▁sudan	-11022
▁göstergesi	-11023
▁açıklamalar	-11024
eğinden	-11025
nşallah	-11026
▁sokağa	-11027
▁bildirim	-11028
▁şeyhülis	-11029
pu	-11030
▁ili	-11031
▁sürül	-11032
▁ellerine	-11033
▁tercüme	-11034
▁yakala	-11035
▁huzurlu	-11036
▁yollarını	-11037
▁referandum	-11038
▁anahtarı	-11039
amay	-11040
▁noktaları	-11041
bnü	-11042
▁renkler	-11043
▁toplantıya	-11044
▁gezdir	-11045
▁canavar	-11046
▁enerjisi	-11047
▁bör	-11048
▁keşf	-11049
▁kırsal	-11050
▁kışkır	-11051
▁sokakta	-11052
▁harik	-11053
▁sıkça	-11054
▁kitabında	-11055
▁sıralan	-11056
▁toprağı	-11057
▁kapısını	-11058
▁sürecinin	-11059
isar	-11060
imizdeki	-11061
▁duyuru	-11062
▁tezgah	-11063
▁>>	-11064
stem	-11065
leyiş	-11066
▁alık	-11067
▁dursun	-11068
▁entegre	-11069
▁başrol	-11070
▁las	-11071
▁pomp	-11072
ilemez	-11073
cim	-11074
vers	-11075
▁tespiti	-11076
gö	-11077
▁bron	-11078
▁bebeğin	-11079
▁konuştuk	-11080
▁söylüyorum	-11081
▁insanlardan	-11082
()	-11083
▁lüz	-11084
▁yapıyordu	-11085
▁ej	-11086
osun	-11087
▁malko	-11088
▁ilişkili	-11089
▁veriyorum	-11090
▁öldürüldü	-11091
dk	-11092
wa	-11093
liliğini	-11094
böyle	-11095
▁ortalık	-11096
▁çalışanların	-11097
▁yasası	-11098
▁evler	-11099
▁olimp	-11100
▁imiş	-11101
▁ödev	-11102
▁neyin	-11103
▁ayrıcalık	-11104
▁ayrılır	-11105
▁gidiyordu	-11106
▁suda	-11107
lir	-11108
▁sırasıyla	-11109
▁tesisat	-11110
▁yapalım	-11111
▁bağırsak	-11112
▁hayvancılık	-11113
asal	-11114
acılık	-11115
maktayız	-11116
▁mübarek	-11117
▁yaşandı	-11118
ydım	-11119
▁sürdüren	-11120
▁hayv	-11121
▁mız	-11122
sab	-11123
sol	-11124
▁başlayıp	-11125
▁yüze	-11126
▁himay	-11127
▁tutku	-11128
▁nitelendir	-11129
▁çıkmaktadır	-11130
bih	-11131
▁up	-11132
▁grupları	-11133
▁görüntülen	-11134
burada	-11135
▁değiştirme	-11136
stein	-11137
▁best	-11138
▁salat	-11139
lerimizden	-11140
izzt	-11141
▁otorit	-11142
▁tanrıça	-11143
▁tuta	-11144
▁diken	-11145
▁sitede	-11146
▁yazarın	-11147
▁giriyor	-11148
▁tutuyor	-11149
▁bildiğimiz	-11150
▁vat	-11151
▁muy	-11152
ason	-11153
▁til	-11154
▁insanlığın	-11155
▁hastalığın	-11156
▁54	-11157
▁pri	-11158
▁kaydeden	-11159
şik	-11160
faiye	-11161
74	-11162
uel	-11163
▁konularında	-11164
▁varken	-11165
▁temizleme	-11166
tisiz	-11167
▁görüşleri	-11168
▁gerçekleştirmek	-11169
akende	-11170
▁günlerinde	-11171
▁kâğı	-11172
▁parf	-11173
▁arın	-11174
▁hatip	-11175
▁süvari	-11176
▁uygulanır	-11177
fel	-11178
mamızı	-11179
91	-11180
hos	-11181
▁algılan	-11182
▁hastanede	-11183
▁war	-11184
▁büyüyen	-11185
▁macaristan	-11186
▁sunuyoruz	-11187
▁gb	-11188
trik	-11189
▁kuyu	-11190
amızın	-11191
▁düşünmeye	-11192
temiz	-11193
▁mülkiyet	-11194
▁17.	-11195
▁atmış	-11196
▁diyebiliriz	-11197
▁pes	-11198
▁üzgün	-11199
acık	-11200
▁doz	-11201
▁eks	-11202
▁emeği	-11203
▁adının	-11204
▁nüfusu	-11205
▁sürgün	-11206
▁heves	-11207
▁ıslak	-11208
abe	-11209
▁mask	-11210
▁(...)	-11211
▁anlık	-11212
▁okumuş	-11213
▁biliyorsunuz	-11214
ole	-11215
▁1970	-11216
▁amasya	-11217
▁elazığ	-11218
▁müdürlük	-11219
▁kızları	-11220
▁gerektirir	-11221
▁gelmesini	-11222
ümüzde	-11223
üd	-11224
▁oyla	-11225
▁işleme	-11226
▁uzattı	-11227
▁standar	-11228
▁bağlamda	-11229
▁görülebilir	-11230
▁nato	-11231
▁patlama	-11232
▁enver	-11233
▁kurallar	-11234
ût	-11235
ışlı	-11236
▁miy	-11237
▁verem	-11238
▁tedir	-11239
▁şayet	-11240
▁fikirler	-11241
▁zordur	-11242
▁karşılamak	-11243
pas	-11244
▁sektörün	-11245
kale	-11246
▁gro	-11247
▁hemde	-11248
▁tanıyor	-11249
▁oyuncular	-11250
▁programında	-11251
▁taciz	-11252
ışıklık	-11253
▁fırlat	-11254
▁oluşmaktadır	-11255
▁yoğurt	-11256
▁savunan	-11257
▁çub	-11258
▁cömer	-11259
▁okudu	-11260
▁what	-11261
▁orgaz	-11262
▁edilmesini	-11263
sch	-11264
▁kapsayan	-11265
lanmak	-11266
▁cihan	-11267
▁negatif	-11268
▁mükellef	-11269
▁halkına	-11270
tığına	-11271
▁fetih	-11272
▁liberal	-11273
arac	-11274
▁ahlâk	-11275
▁koyar	-11276
▁evrenin	-11277
▁farket	-11278
lerimizde	-11279
gis	-11280
tamam	-11281
▁edeceği	-11282
▁huzuruna	-11283
▁strateji	-11284
▁öğretmeni	-11285
▁gözünü	-11286
mekteydi	-11287
▁yaşantı	-11288
acaklar	-11289
▁hususta	-11290
▁münasebet	-11291
hut	-11292
▁lah	-11293
▁uyanık	-11294
▁server	-11295
▁tavırla	-11296
▁şeylerden	-11297
yetik	-11298
şer	-11299
▁18.	-11300
▁borc	-11301
▁durmuş	-11302
▁tarihlerinde	-11303
latan	-11304
▁alar	-11305
değ	-11306
▁romantik	-11307
▁öncelikli	-11308
▁fotoğrafları	-11309
uyla	-11310
▁seçme	-11311
▁uğramış	-11312
▁gelişmesi	-11313
▁adaylar	-11314
▁düşünceleri	-11315
rid	-11316
▁katılma	-11317
▁sabırsız	-11318
▁silâh	-11319
▁sürün	-11320
▁avustr	-11321
▁130	-11322
▁yönü	-11323
▁diyalog	-11324
rafa	-11325
▁bedeni	-11326
▁keyfini	-11327
ebilmektedir	-11328
▁alerj	-11329
▁lazer	-11330
▁paketi	-11331
▁teorik	-11332
▁gündelik	-11333
stır	-11334
ersek	-11335
▁kimdir	-11336
▁diyarbekrî	-11337
▁çocuklarının	-11338
▁ruhsat	-11339
▁iğren	-11340
▁yapıya	-11341
▁örnekler	-11342
parta	-11343
rist	-11344
▁üçünc	-11345
▁görkem	-11346
▁alındığı	-11347
▁tasavvuf	-11348
▁tedirgin	-11349
taydı	-11350
▁atıl	-11351
olan	-11352
güzel	-11353
siklop	-11354
▁sürecek	-11355
mâ	-11356
▁denge	-11357
lamıyor	-11358
▁anlayabil	-11359
▁etkileyici	-11360
lot	-11361
dını	-11362
sünü	-11363
▁hoşuna	-11364
coin	-11365
sınlar	-11366
▁aklın	-11367
▁ezber	-11368
▁değişir	-11369
gön	-11370
▁paranın	-11371
▁gökhan	-11372
▁atma	-11373
ford	-11374
ınacak	-11375
▁kirli	-11376
▁sayfasında	-11377
▁kaldırılması	-11378
cesine	-11379
▁aktör	-11380
▁düştüğü	-11381
▁cevapları	-11382
ty	-11383
zak	-11384
ence	-11385
▁çem	-11386
▁yahud	-11387
▁kablos	-11388
▁gittiler	-11389
▁sekreteri	-11390
lm	-11391
ilet	-11392
▁duydu	-11393
▁küçüm	-11394
▁götürür	-11395
▁çikola	-11396
▁bağımsızlık	-11397
▁taşıdığı	-11398
▁havay	-11399
▁fiziki	-11400
dey	-11401
ırız	-11402
▁hamile	-11403
▁yanımda	-11404
▁çanta	-11405
▁drizzt	-11406
▁yumruk	-11407
▁filmler	-11408
▁16.	-11409
lû	-11410
▁fiş	-11411
▁ömrü	-11412
▁ferah	-11413
▁kendilerinden	-11414
▁yazıyı	-11415
diz	-11416
▁jul	-11417
▁şükür	-11418
▁türleri	-11419
▁vücudum	-11420
▁antrenman	-11421
▁bok	-11422
▁topluluğ	-11423
muyordu	-11424
▁getirip	-11425
?..	-11426
▁tutuş	-11427
▁fransızca	-11428
▁ihtiyacınız	-11429
▁gelmiyor	-11430
▁ürünlerini	-11431
tanrı	-11432
▁merakla	-11433
▁dersler	-11434
▁bölgesine	-11435
-16	-11436
ilde	-11437
leks	-11438
sosyal	-11439
▁seviyor	-11440
▁detayları	-11441
şit	-11442
▁şöh	-11443
▁hakkına	-11444
gız	-11445
▁mû	-11446
haber	-11447
▁taşıt	-11448
▁çıkışı	-11449
▁isterse	-11450
▁ms	-11451
▁maçın	-11452
lığımız	-11453
veti	-11454
▁çektir	-11455
▁gitmişti	-11456
▁bilgilendirme	-11457
▁düşkün	-11458
▁(%	-11459
▁kullanılabil	-11460
âs	-11461
▁hij	-11462
▁haftası	-11463
▁içerisindeki	-11464
▁kullanılacak	-11465
-11	-11466
▁sünen	-11467
▁seviyesi	-11468
-18	-11469
ümün	-11470
▁elçisi	-11471
▁operatör	-11472
▁müsaade	-11473
ilmesinin	-11474
▁dündar	-11475
▁aileler	-11476
▁yarışması	-11477
▁sınıflandır	-11478
▁51	-11479
▁keyfi	-11480
▁haftanın	-11481
▁hükümleri	-11482
▁perakende	-11483
▁gücüne	-11484
▁bık	-11485
▁harcan	-11486
▁başkanımız	-11487
▁bankalar	-11488
peg	-11489
▁şebek	-11490
▁benimsem	-11491
▁bunlarla	-11492
▁konusudur	-11493
▁yapılmasına	-11494
▁mısınız	-11495
▁02	-11496
▁ateşe	-11497
▁kurtarma	-11498
▁doğruya	-11499
▁karışım	-11500
▁muharrem	-11501
▁2001	-11502
▁işveren	-11503
▁rakib	-11504
▁dindar	-11505
▁takvim	-11506
slami	-11507
▁galax	-11508
▁sorumlusu	-11509
dıma	-11510
▁geçit	-11511
▁mahkum	-11512
ashington	-11513
ysanız	-11514
▁bektaş	-11515
▁islam	-11516
▁koymuş	-11517
▁otomotiv	-11518
▁özü	-11519
▁şun	-11520
▁çorb	-11521
▁yüzme	-11522
▁taşınmaz	-11523
▁nihai	-11524
▁kilometr	-11525
▁düşüyor	-11526
▁karakteri	-11527
▁kimliği	-11528
▁cemiyeti	-11529
▁bağlantısından	-11530
▁oturum	-11531
▁bayezid	-11532
▁osmanlılar	-11533
ekiz	-11534
▁kapsamda	-11535
işimi	-11536
▁filmde	-11537
▁oyuncusu	-11538
▁ayakları	-11539
▁ansiklop	-11540
gıcı	-11541
▁seyred	-11542
▁yapının	-11543
▁edeceğim	-11544
▁oluşuyor	-11545
▁seferinde	-11546
▁sanı	-11547
▁açarak	-11548
▁yapama	-11549
▁kararları	-11550
▁bekliyordu	-11551
ddi	-11552
ikler	-11553
ıncaya	-11554
▁avrupalı	-11555
▁4/3	-11556
madık	-11557
▁bağlantılı	-11558
▁mineral	-11559
▁yakınında	-11560
rd	-11561
▁durumları	-11562
{{{2	-11563
▁ilâh	-11564
iyeler	-11565
▁sorgulama	-11566
▁yalçın	-11567
▁yürütül	-11568
▁pasif	-11569
▁oranla	-11570
▁başladığını	-11571
▁hizmetlerini	-11572
▁menü	-11573
▁sahada	-11574
▁girişimi	-11575
load	-11576
▁markası	-11577
ktis	-11578
▁pitt	-11579
],	-11580
▁galaxy	-11581
▁karara	-11582
eyecektir	-11583
▁başlamadan	-11584
tap	-11585
▁koyan	-11586
▁ert	-11587
▁gömlek	-11588
▁kentsel	-11589
▁tarihini	-11590
▁verirler	-11591
▁öğrendim	-11592
▁edilecektir	-11593
▁tarikat	-11594
▁kesti	-11595
▁tunus	-11596
▁ilgisini	-11597
▁aleyhisselam	-11598
▁kesintisiz	-11599
▁sağlayacaktır	-11600
beti	-11601
▁seçin	-11602
zim	-11603
xhtml	-11604
▁haritası	-11605
▁memuru	-11606
▁düşüncelerini	-11607
tular	-11608
▁geliştirilen	-11609
▁olmadığından	-11610
▁110	-11611
▁01	-11612
▁fos	-11613
▁çekme	-11614
▁duyuyor	-11615
▁nedenleri	-11616
▁takib	-11617
▁birileri	-11618
▁belirlenmesi	-11619
iyy	-11620
beyi	-11621
▁160	-11622
üminyum	-11623
âli	-11624
▁aln	-11625
▁eğitime	-11626
▁kampanyası	-11627
▁emp	-11628
▁belç	-11629
diğimi	-11630
jik	-11631
riz	-11632
▁konumu	-11633
▁olmam	-11634
▁ikisinin	-11635
▁vurguladı	-11636
▁piyasada	-11637
▁tema	-11638
▁köklü	-11639
▁bireylerin	-11640
▁cömert	-11641
▁hiçbiri	-11642
▁kole	-11643
▁entelek	-11644
▁göstermeye	-11645
▁ilişkilerin	-11646
▁ağabey	-11647
▁psikiyat	-11648
ledir	-11649
▁iyidir	-11650
▁yapmadan	-11651
▁yeryüzünde	-11652
▁özge	-11653
▁hristiyan	-11654
▁09	-11655
▁1960	-11656
ılmasının	-11657
▁ilanları	-11658
▁yapamaz	-11659
▁sorumluluğu	-11660
▁çevresindeki	-11661
lülü	-11662
▁zıt	-11663
▁çalışmanın	-11664
▁dk	-11665
▁yıldızı	-11666
▁haksızlık	-11667
▁aydınlatma	-11668
▁diril	-11669
▁gittiğini	-11670
▁operasyonu	-11671
▁işsiz	-11672
▁lehine	-11673
▁tanımak	-11674
▁1999	-11675
▁sıkıcı	-11676
▁yükseliş	-11677
▁başbakanı	-11678
▁programın	-11679
itim	-11680
▁artması	-11681
▁biyolojik	-11682
▁ala	-11683
▁aramaya	-11684
▁lakin	-11685
▁oğlunu	-11686
▁birbiriyle	-11687
▁doğmuş	-11688
▁taksim	-11689
▁boyunda	-11690
▁fethullah	-11691
▁özgürlüğü	-11692
▁söylüyordu	-11693
▁yayınlandı	-11694
▁bac	-11695
ıtay	-11696
▁yapılacaktır	-11697
▁istediklerini	-11698
▁soykırım	-11699
▁izn	-11700
▁ebed	-11701
▁açmış	-11702
nat	-11703
▁rut	-11704
▁çalışanlar	-11705
▁eki	-11706
lişkin	-11707
general	-11708
▁kadros	-11709
▁veziri	-11710
▁serdar	-11711
lamalı	-11712
▁kurgu	-11713
ward	-11714
attin	-11715
▁fars	-11716
luktan	-11717
▁katliam	-11718
▁dolara	-11719
▁sağlama	-11720
▁saadet	-11721
▁oluşturul	-11722
▁tesisleri	-11723
▁artvin	-11724
▁duygular	-11725
▁bankacılık	-11726
▁kazandığı	-11727
ğun	-11728
▁56	-11729
▁chan	-11730
ümüzün	-11731
▁kh	-11732
▁turu	-11733
▁etmiyor	-11734
▁kre	-11735
enize	-11736
ümüze	-11737
▁haydi	-11738
ational	-11739
▁slogan	-11740
▁termin	-11741
▁cay	-11742
▁artışı	-11743
rop	-11744
▁canını	-11745
▁belgesel	-11746
ien	-11747
▁öldürmek	-11748
edip	-11749
verdi	-11750
oviç	-11751
▁kolon	-11752
▁başlangı	-11753
ee	-11754
▁rize	-11755
larımla	-11756
▁bireyin	-11757
▁kökenli	-11758
sadece	-11759
▁maddesinde	-11760
▁emretti	-11761
▁teknikleri	-11762
▁çu	-11763
▁eğitimin	-11764
▁mısın	-11765
▁beye	-11766
▁reak	-11767
▁düşünme	-11768
▁mağaza	-11769
▁bre	-11770
▁kabuk	-11771
▁kastam	-11772
▁izliyor	-11773
▁şöval	-11774
▁boşuna	-11775
lamaktadır	-11776
▁filtr	-11777
artık	-11778
▁kasa	-11779
▁zalim	-11780
link	-11781
sche	-11782
▁zil	-11783
▁yazıda	-11784
▁yaşadı	-11785
▁bildiğim	-11786
▁gerçekleştirdi	-11787
ayeti	-11788
malık	-11789
▁oluruz	-11790
▁bilerek	-11791
ğimizi	-11792
▁kolunu	-11793
▁çekilmiş	-11794
▁sorusu	-11795
▁felsefesi	-11796
▁geçtiğini	-11797
notes	-11798
▁shih	-11799
esun	-11800
▁14.	-11801
▁stü	-11802
▁ganimet	-11803
hir	-11804
▁ts	-11805
dine	-11806
▁ayıp	-11807
▁hanedan	-11808
▁oturduğu	-11809
▁inş	-11810
▁bakter	-11811
▁ediyorlardı	-11812
ikli	-11813
▁formül	-11814
▁sağlığını	-11815
▁aki	-11816
▁iftar	-11817
▁ürper	-11818
▁yaptıktan	-11819
▁minnet	-11820
▁farklıdır	-11821
▁tarifleri	-11822
▁andan	-11823
mayalım	-11824
▁tarzda	-11825
▁pasaport	-11826
▁inancı	-11827
▁kazanır	-11828
▁klas	-11829
▁yazıları	-11830
▁yakışıklı	-11831
▁yüzlü	-11832
▁maliyeti	-11833
▁yorumu	-11834
▁adımlar	-11835
▁yemekler	-11836
▁düzenledi	-11837
amızı	-11838
▁ünvan	-11839
▁uzmanlar	-11840
▁yapacağınız	-11841
▁bart	-11842
▁bağlantısı	-11843
8’	-11844
▁başıma	-11845
▁dünyadan	-11846
▁portekiz	-11847
▁yoğunlaş	-11848
faf	-11849
cağımız	-11850
▁ilaçlar	-11851
▁sürat	-11852
▁kırp	-11853
▁çalışmalarının	-11854
▁suçu	-11855
▁iktidarı	-11856
▁söyleş	-11857
▁alacağı	-11858
▁etmeyin	-11859
▁sigortası	-11860
▁bilimi	-11861
▁elimden	-11862
▁[[	-11863
izy	-11864
▁yöne	-11865
ces	-11866
▁vermem	-11867
gür	-11868
linin	-11869
▁klav	-11870
▁iskel	-11871
▁oksijen	-11872
▁coğrafya	-11873
▁ziya	-11874
▁deleg	-11875
▁bırakan	-11876
▁fidan	-11877
▁ağırlığı	-11878
▁verildiği	-11879
▁2-3	-11880
▁tabur	-11881
▁bant	-11882
▁peşin	-11883
kiye	-11884
▁yetkilileri	-11885
alanı	-11886
▁mezhep	-11887
/10	-11888
eve	-11889
▁gerçekçi	-11890
▁harman	-11891
▁nuri	-11892
▁yakınlarında	-11893
bes	-11894
lenmiştir	-11895
losu	-11896
▁alüminyum	-11897
▁washington	-11898
▁davranışları	-11899
▁alex	-11900
▁okulun	-11901
nönü	-11902
▁otopark	-11903
▁saatler	-11904
▁dinlemek	-11905
▁yemen	-11906
▁varlığın	-11907
▁gey	-11908
ope	-11909
ksür	-11910
▁esmer	-11911
▁işlerin	-11912
▁elverişli	-11913
▁kahverengi	-11914
-12	-11915
▁mahrum	-11916
▁adıyaman	-11917
oç	-11918
fiye	-11919
▁kardeşler	-11920
▁rı	-11921
olsun	-11922
▁satılan	-11923
▁cisim	-11924
▁saklı	-11925
▁alıyordu	-11926
▁haberine	-11927
▁evinin	-11928
▁sitenin	-11929
eliğin	-11930
▁sokul	-11931
▁badem	-11932
▁konusunu	-11933
▁sürecini	-11934
▁kullanılmıştır	-11935
▁izleme	-11936
▁6,	-11937
▁şekillendir	-11938
tayız	-11939
▁super	-11940
▁sürecin	-11941
▁eksikliği	-11942
▁olacaksınız	-11943
▁nan	-11944
▁harizm	-11945
▁işçilerin	-11946
▁çalışanları	-11947
kurt	-11948
▁akç	-11949
▁cir	-11950
▁plâ	-11951
mesidir	-11952
▁azar	-11953
▁havası	-11954
▁birikim	-11955
▁yazmaya	-11956
▁helikopter	-11957
84	-11958
▁pot	-11959
▁merhab	-11960
radı	-11961
▁haricinde	-11962
▁seçimleri	-11963
▁güneydoğu	-11964
▁bebeğ	-11965
▁yaptırım	-11966
▁özelliğini	-11967
cül	-11968
▁fısılda	-11969
▁olduğumuzu	-11970
▁katında	-11971
▁suik	-11972
▁abdülham	-11973
▁alı	-11974
▁izler	-11975
▁ölüme	-11976
▁şirin	-11977
▁geçmişi	-11978
▁sorusuna	-11979
dört	-11980
▁zeka	-11981
▁faruk	-11982
▁gelenler	-11983
▁çikolata	-11984
hun	-11985
▁koyarak	-11986
▁kullanın	-11987
▁renkleri	-11988
▁yükümlülük	-11989
▁nesne	-11990
deti	-11991
▁down	-11992
▁dereceye	-11993
▁tehlikeye	-11994
▁hastaların	-11995
▁kazanım	-11996
▁cd	-11997
minin	-11998
▁hoşgör	-11999
▁çarpıcı	-12000
▁göstermiş	-12001
▁göreceksiniz	-12002
▁jon	-12003
▁tefs	-12004
▁türkleri	-12005
▁çalışmalara	-12006
▁aksaray	-12007
▁destekleyen	-12008
atlı	-12009
tahya	-12010
▁beyi	-12011
▁çıkarır	-12012
oo	-12013
▁taç	-12014
▁panik	-12015
▁gözünde	-12016
rev	-12017
▁arıza	-12018
▁diyabet	-12019
▁soğu	-12020
mayınız	-12021
▁64	-12022
▁george	-12023
▁kanada	-12024
▁karaciğer	-12025
apur	-12026
▁benims	-12027
▁tapına	-12028
▁seçilmiş	-12029
ettin	-12030
▁motiv	-12031
▁vasıf	-12032
▁aksiyon	-12033
▁performansı	-12034
▁08	-12035
▁ailesine	-12036
keş	-12037
▁usb	-12038
kadın	-12039
▁kibar	-12040
▁pirinç	-12041
▁dünyasına	-12042
▁sınava	-12043
▁başvurusu	-12044
▁temelinde	-12045
bölüm	-12046
▁zu	-12047
▁gizlice	-12048
elek	-12049
uver	-12050
▁luk	-12051
▁apollon	-12052
mayız	-12053
▁medy	-12054
▁odysseus	-12055
▁piyasası	-12056
pen	-12057
▁gösterg	-12058
▁hırs	-12059
▁görüntüsü	-12060
▁sigortalı	-12061
▁öksür	-12062
▁artırmak	-12063
mark	-12064
▁kurulmuştur	-12065
▁57	-12066
▁atina	-12067
alarımız	-12068
efa	-12069
▁bulmaya	-12070
ankara	-12071
▁sarım	-12072
▁hikâye	-12073
▁kronik	-12074
▁komitesi	-12075
lanmaz	-12076
▁söylediler	-12077
▁ağı	-12078
tuğrul	-12079
▁let	-12080
▁veriliyor	-12081
▁zapt	-12082
▁konsan	-12083
▁ardında	-12084
▁görüşmek	-12085
▁baktığımızda	-12086
▁gölge	-12087
▁düzeyinde	-12088
şar	-12089
▁güçsüz	-12090
▁sempoz	-12091
▁ustası	-12092
▁görmüyor	-12093
▁huzursuz	-12094
▁sular	-12095
▁ifadesini	-12096
▁memnuniyet	-12097
▁başkalarına	-12098
▁%100	-12099
▁sisteminde	-12100
▁1920	-12101
▁00	-12102
celi	-12103
▁kıza	-12104
▁kaçış	-12105
▁belirlemek	-12106
▁fant	-12107
▁çubuk	-12108
▁özenle	-12109
sika	-12110
▁gerektiğine	-12111
▁endüstri	-12112
▁ekrem	-12113
▁doğumlu	-12114
▁araştırmaları	-12115
▁kaldığını	-12116
emediği	-12117
▁güzelliği	-12118
▁entelektüel	-12119
ting	-12120
▁ucunda	-12121
▁duygularını	-12122
▁istil	-12123
▁suyunu	-12124
▁yükseköğretim	-12125
▁dolaylı	-12126
▁turkcell	-12127
hard	-12128
▁diyoruz	-12129
▁nedense	-12130
▁gizlilik	-12131
▁aşan	-12132
▁kurab	-12133
mama	-12134
▁enter	-12135
▁stu	-12136
▁katar	-12137
▁kktc	-12138
▁uzlaş	-12139
▁girmesi	-12140
iyenin	-12141
▁durmak	-12142
▁konudaki	-12143
▁ekonomisi	-12144
▁gerektiğinde	-12145
▁andr	-12146
▁erim	-12147
▁erzin	-12148
▁süvar	-12149
râ	-12150
▁tsk	-12151
▁taksi	-12152
▁güçler	-12153
▁kadem	-12154
▁tanınmış	-12155
▁tamamıyla	-12156
▁ejder	-12157
▁tekir	-12158
▁şanslı	-12159
▁şapk	-12160
▁melik	-12161
▁tasarlanmış	-12162
▁alıntı	-12163
▁askerin	-12164
▁yanda	-12165
eceksiniz	-12166
eceğinden	-12167
▁şehrinde	-12168
▁hareketin	-12169
▁ambul	-12170
▁kaldırmak	-12171
▁taşımacılık	-12172
esih	-12173
▁kabin	-12174
▁sende	-12175
▁sonuçlarını	-12176
▁kredisi	-12177
▁çevresi	-12178
▁bambaşka	-12179
▁deve	-12180
▁orda	-12181
bis	-12182
laj	-12183
▁kanseri	-12184
▁koordinatör	-12185
akki	-12186
terek	-12187
▁gelirken	-12188
▁konuşmada	-12189
vis	-12190
▁hükmü	-12191
▁nah	-12192
▁özbek	-12193
▁almaz	-12194
▁konuşurken	-12195
yın	-12196
▁araçların	-12197
▁ellerinden	-12198
laz	-12199
▁programlar	-12200
cap	-12201
▁yapıyorlar	-12202
▁terey	-12203
▁edince	-12204
îf	-12205
▁büs	-12206
ğınık	-12207
▁kahire	-12208
▁7,	-12209
▁eyüp	-12210
▁tasarı	-12211
▁yapacağım	-12212
▁yazının	-12213
▁seviyesine	-12214
föy	-12215
▁yazıp	-12216
▁kurnaz	-12217
▁katılacak	-12218
zâde	-12219
▁cild	-12220
lediğiniz	-12221
jpeg	-12222
▁nevi	-12223
▁yelpaz	-12224
▁sonsuza	-12225
▁antlaş	-12226
▁cüzdan	-12227
▁züm	-12228
▁hatalı	-12229
▁dönüştü	-12230
▁bireyler	-12231
off	-12232
▁teminat	-12233
▁mıy	-12234
maraş	-12235
▁odun	-12236
▁işleyen	-12237
▁inceledi	-12238
tığın	-12239
▁kaymakamı	-12240
▁gereksinim	-12241
erik	-12242
▁duya	-12243
▁ediniz	-12244
daresi	-12245
▁rasyon	-12246
▁kurtarı	-12247
▁ikincisi	-12248
▁endeksi	-12249
▁geminin	-12250
▁olanaksız	-12251
dra	-12252
▁***	-12253
▁(3)	-12254
▁ded	-12255
▁başarıya	-12256
▁past	-12257
▁şaşırt	-12258
▁yalın	-12259
▁şampiyonası	-12260
▁jür	-12261
▁sahneye	-12262
00’	-12263
▁fatma	-12264
seydi	-12265
cileri	-12266
▁döneme	-12267
▁kapıda	-12268
▁sütü	-12269
▁kurb	-12270
▁engellemek	-12271
ruklu	-12272
▁tümü	-12273
lerince	-12274
▁kategori	-12275
▁damg	-12276
▁hist	-12277
▁öylece	-12278
▁ingiliz	-12279
▁seslendi	-12280
▁yaklaştı	-12281
▁dilerseniz	-12282
▁papa	-12283
larınızda	-12284
epe	-12285
sti	-12286
▁pusu	-12287
imdeki	-12288
▁etmekle	-12289
▁doğrudur	-12290
▁bulunmuştur	-12291
▁seçti	-12292
▁sezonu	-12293
▁siteler	-12294
▁eda	-12295
▁tul	-12296
▁karam	-12297
▁nizam	-12298
ideki	-12299
emişti	-12300
▁makul	-12301
▁ilgilendir	-12302
▁metab	-12303
▁olanağı	-12304
▁fotoğrafı	-12305
▁manzara	-12306
▁kdv	-12307
▁karat	-12308
▁çiftlik	-12309
ora	-12310
▁ağzını	-12311
▁anlamını	-12312
▁yatırımcı	-12313
stih	-12314
▁gevş	-12315
▁tö	-12316
▁sûr	-12317
▁molek	-12318
▁bulduk	-12319
lişkiler	-12320
▁sözcüsü	-12321
▁geliştirilmesi	-12322
▁lib	-12323
▁düşmanın	-12324
▁tutmuş	-12325
▁yazarlar	-12326
▁host	-12327
▁tanıdık	-12328
▁mimarlık	-12329
▁hareketler	-12330
▁olabiliyor	-12331
▁çatal	-12332
pss	-12333
âtı	-12334
▁küçül	-12335
▁koruyan	-12336
üh	-12337
▁dâv	-12338
▁burda	-12339
▁tanımı	-12340
▁etmişlerdir	-12341
lhan	-12342
▁kastamonu	-12343
▁olanın	-12344
▁istifade	-12345
▁marks	-12346
ehr	-12347
▁kışın	-12348
lıklarını	-12349
▁hikayesi	-12350
▁kala	-12351
▁getirmeye	-12352
▁etkinlikler	-12353
▁çeviri	-12354
dyum	-12355
▁olana	-12356
▁siteniz	-12357
▁vurgulan	-12358
▁hazırlamak	-12359
▁uygundur	-12360
▁türkistan	-12361
▁yıldön	-12362
▁norm	-12363
▁saçlı	-12364
▁devletlerin	-12365
leridir	-12366
▁görüşlerini	-12367
▁katılımıyla	-12368
▁ayg	-12369
▁rütb	-12370
▁lojistik	-12371
▁farkındalık	-12372
dp	-12373
ırt	-12374
ým	-12375
▁kutup	-12376
▁sicil	-12377
▁yedik	-12378
▁maksat	-12379
▁muayen	-12380
▁birebir	-12381
▁arabanın	-12382
▁yetmiş	-12383
▁sabaha	-12384
▁hamilelik	-12385
▁bölgelerinde	-12386
▁yaramaz	-12387
▁fey	-12388
▁afet	-12389
▁girmeye	-12390
kapı	-12391
▁geçirmiş	-12392
hsan	-12393
alisyon	-12394
▁polonya	-12395
▁bilmiyordu	-12396
▁yüzük	-12397
▁erzincan	-12398
▁yöntemler	-12399
1⁄	-12400
▁anneler	-12401
▁(200	-12402
▁detaylar	-12403
▁yeme	-12404
▁fenomen	-12405
▁çocuklarını	-12406
▁serü	-12407
▁döneminin	-12408
▁yeteneği	-12409
▁harç	-12410
ılınca	-12411
amin	-12412
▁sürüş	-12413
▁ford	-12414
▁istiyorsun	-12415
▁hâlde	-12416
▁tasvir	-12417
7’	-12418
_**	-12419
▁günkü	-12420
▁kaçtı	-12421
stiklal	-12422
ekonom	-12423
▁buydu	-12424
-200	-12425
anik	-12426
▁nüs	-12427
▁rüşvet	-12428
▁şekeri	-12429
▁üzerlerine	-12430
▁babamın	-12431
▁açıyor	-12432
lev	-12433
▁ileriye	-12434
▁biriktir	-12435
▁göstermiştir	-12436
müs	-12437
guldak	-12438
▁levent	-12439
▁köyde	-12440
▁ardına	-12441
▁fol	-12442
▁etkisiz	-12443
▁perişan	-12444
duy	-12445
▁başlangıcı	-12446
▁got	-12447
▁burjuva	-12448
▁senesinde	-12449
diğince	-12450
▁belirlenir	-12451
▁avm	-12452
▁şeydi	-12453
▁sadakat	-12454
▁çorba	-12455
▁kalitesini	-12456
ayrı	-12457
▁kararın	-12458
▁kablosuz	-12459
▁soğan	-12460
▁yayılan	-12461
ıldım	-12462
ledikten	-12463
ilmi	-12464
▁ebi	-12465
▁tüz	-12466
▁manev	-12467
▁biliyorsun	-12468
30’	-12469
▁kım	-12470
▁tabanc	-12471
▁mırıldandı	-12472
▁baha	-12473
oğulları	-12474
▁asf	-12475
▁mücev	-12476
▁konuşmasını	-12477
▁bayrağı	-12478
▁olsalar	-12479
▁fotoğraflar	-12480
▁aa	-12481
▁katman	-12482
ýz	-12483
▁sırala	-12484
▁yanıma	-12485
▁mukad	-12486
une	-12487
▁black	-12488
▁sormak	-12489
▁fri	-12490
▁büyül	-12491
20,	-12492
▁4-	-12493
▁mezh	-12494
▁olaya	-12495
▁duymuş	-12496
▁affet	-12497
work	-12498
▁1\.	-12499
üsüne	-12500
▁damat	-12501
▁hunlara	-12502
▁kavur	-12503
▁willi	-12504
▁oynama	-12505
▁karşıtı	-12506
uku	-12507
main	-12508
▁kası	-12509
▁yorul	-12510
▁bilimin	-12511
▁bulunmadığı	-12512
▁soci	-12513
rul	-12514
▁ünit	-12515
▁imzal	-12516
ydılar	-12517
▁adresine	-12518
▁girdiler	-12519
▁niteliğinde	-12520
▁mutluluğu	-12521
▁yerlerden	-12522
▁gelecektir	-12523
▁denizin	-12524
▁oluşturuyor	-12525
evler	-12526
▁kırgız	-12527
▁bors	-12528
▁süpür	-12529
▁bitcoin	-12530
▁1)	-12531
▁çayı	-12532
▁bozukluğu	-12533
▁malum	-12534
▁aleyhi	-12535
bül	-12536
sapp	-12537
zmit	-12538
▁şüphel	-12539
▁yurtdışı	-12540
▁ülkesine	-12541
▁did	-12542
▁makale	-12543
▁santim	-12544
▁kocası	-12545
▁heyecanla	-12546
▁tıklayınız	-12547
lığım	-12548
▁tepe	-12549
▁rahatça	-12550
▁madem	-12551
▁robert	-12552
▁köprüsü	-12553
▁yerlerinde	-12554
▁toto	-12555
lendiği	-12556
▁milliyetçi	-12557
▁arasındadır	-12558
▁ju	-12559
▁tasdik	-12560
dö	-12561
▁elif	-12562
▁esrar	-12563
ılmadan	-12564
▁alıştır	-12565
▁bölümüne	-12566
▁federasyon	-12567
▁beklenmedik	-12568
▁metod	-12569
▁başlama	-12570
▁olaylara	-12571
▁galibiyet	-12572
▁kullanıma	-12573
▁geomet	-12574
▁programa	-12575
▁said	-12576
▁tapınak	-12577
▁kaplan	-12578
▁helal	-12579
▁müşav	-12580
▁sürek	-12581
▁faaliyetlerini	-12582
▁gruba	-12583
▁soyun	-12584
▁amiral	-12585
▁burç	-12586
gren	-12587
lesin	-12588
atıyla	-12589
▁sipah	-12590
▁beylik	-12591
▁mescid	-12592
▁aralı	-12593
▁dayat	-12594
▁gününe	-12595
▁akh	-12596
▁borcu	-12597
▁yardıma	-12598
▁yetenekli	-12599
nş	-12600
▁puanı	-12601
▁ortala	-12602
▁soruya	-12603
▁namus	-12604
▁ertuğrul	-12605
▁yanan	-12606
▁sırası	-12607
▁karışımı	-12608
▁alanın	-12609
▁askerlerin	-12610
▁naf	-12611
tığımda	-12612
▁siteye	-12613
▁ansızın	-12614
▁gösteriş	-12615
30,	-12616
▁spr	-12617
▁ilkel	-12618
▁kalori	-12619
▁buralarda	-12620
▁istediler	-12621
▁çıktık	-12622
:**	-12623
▁ros	-12624
▁arsa	-12625
▁bosna	-12626
▁sikiş	-12627
▁belirlem	-12628
▁verdiğim	-12629
▁tercüm	-12630
▁koşullarda	-12631
▁kayak	-12632
▁kaptır	-12633
oteles	-12634
▁ambar	-12635
▁ruhun	-12636
▁ihtiyacını	-12637
▁newt	-12638
▁şafak	-12639
▁özdemir	-12640
▁söze	-12641
duğundan	-12642
▁yerlerini	-12643
▁arındır	-12644
▁giresun	-12645
▁meslektaş	-12646
stal	-12647
▁yog	-12648
iyetinde	-12649
▁vermiyor	-12650
▁güle	-12651
▁azgın	-12652
▁yatay	-12653
abilim	-12654
edecek	-12655
▁çakır	-12656
▁koalisyon	-12657
▁sovyetler	-12658
asker	-12659
▁sensör	-12660
ememiş	-12661
▁içti	-12662
▁andre	-12663
▁olunan	-12664
▁aleksan	-12665
▁yürürlük	-12666
▁yerlerine	-12667
ct	-12668
▁resimler	-12669
▁başlatılan	-12670
▁tüzel	-12671
▁müfettiş	-12672
▁normalde	-12673
vak	-12674
▁mul	-12675
▁dağları	-12676
▁toprağın	-12677
▁biş	-12678
▁kaldık	-12679
▁yakalandı	-12680
10,	-12681
▁redde	-12682
ederken	-12683
▁kadrosu	-12684
▁okurken	-12685
▁geçim	-12686
medikleri	-12687
▁söyleyebiliriz	-12688
▁başlattı	-12689
▁adımlarla	-12690
▁avustralya	-12691
▁belirtileri	-12692
▁yaşadık	-12693
▁ülkeden	-12694
▁emperyalist	-12695
▁yedir	-12696
▁haftasında	-12697
▁cemil	-12698
▁doyur	-12699
▁sırrı	-12700
▁hayali	-12701
▁harita	-12702
▁kütahya	-12703
▁yenilikçi	-12704
▁lübn	-12705
iliğine	-12706
500	-12707
▁hacer	-12708
▁kafası	-12709
▁istiyorsunuz	-12710
gâbe	-12711
limi	-12712
▁kına	-12713
▁derim	-12714
▁yapmakta	-12715
▁güncelleme	-12716
▁800	-12717
▁asılı	-12718
▁kollarını	-12719
▁başlayınca	-12720
▁tehdi	-12721
▁susuz	-12722
taraf	-12723
amadığı	-12724
▁meryem	-12725
▁düşünmüş	-12726
leşti	-12727
▁eserin	-12728
▁tahrip	-12729
▁birinden	-12730
cumhur	-12731
liyorum	-12732
ografi	-12733
▁dilin	-12734
▁james	-12735
▁şeffaf	-12736
▁mühür	-12737
▁elit	-12738
▁ortağı	-12739
aym	-12740
▁pınar	-12741
▁liraya	-12742
▁iştah	-12743
▁okullar	-12744
imer	-12745
▁ısır	-12746
▁usulü	-12747
▁yarattı	-12748
▁hesabına	-12749
vâ	-12750
▁belirlendi	-12751
genel	-12752
▁istikamet	-12753
▁ayrılık	-12754
▁desteğini	-12755
▁tuzak	-12756
▁eskisi	-12757
esk	-12758
erson	-12759
▁davr	-12760
▁coğrafy	-12761
esiydi	-12762
▁anma	-12763
▁ibar	-12764
▁ekleyin	-12765
▁aydır	-12766
▁arkada	-12767
▁modeller	-12768
▁66	-12769
▁2\.	-12770
▁şakir	-12771
▁olmamış	-12772
▁kaldırıldı	-12773
▁sorunlarını	-12774
▁altmış	-12775
▁düzenleyen	-12776
▁varlıklar	-12777
madde	-12778
▁fethi	-12779
▁dinler	-12780
▁sürecine	-12781
▁gücün	-12782
▁demirel	-12783
▁sevindir	-12784
▁rul	-12785
çelik	-12786
▁coşku	-12787
▁edilip	-12788
▁şöhret	-12789
▁söylemeye	-12790
hayat	-12791
▁herak	-12792
▁otelleri	-12793
oza	-12794
kendi	-12795
▁usdu	-12796
▁word	-12797
▁köyünde	-12798
▁yanak	-12799
▁kabullen	-12800
eleme	-12801
▁diyebil	-12802
▁dinsel	-12803
▁ortaçağ	-12804
▁mevs	-12805
ademi	-12806
▁ertel	-12807
▁tekin	-12808
▁çocuklarda	-12809
▁helen	-12810
mparatoru	-12811
▁savaştan	-12812
▁yemekleri	-12813
▁hidro	-12814
▁tesli	-12815
▁kesildi	-12816
▁bildiğiniz	-12817
▁ayağını	-12818
▁babanın	-12819
▁umutsuz	-12820
▁gelmeden	-12821
▁sper	-12822
▁geçirilen	-12823
▁rem	-12824
▁kristal	-12825
▁çıkınca	-12826
omi	-12827
▁benziyor	-12828
▁konuşur	-12829
▁izmir	-12830
▁batman	-12831
▁dağınık	-12832
▁ölümüne	-12833
▁konforlu	-12834
abd	-12835
dare	-12836
▁iştirak	-12837
emeyeceği	-12838
▁81	-12839
mann	-12840
▁mahsus	-12841
▁zararı	-12842
▁ayıran	-12843
▁yazdım	-12844
▁aut	-12845
▁ekrana	-12846
▁başarısı	-12847
▁dalgalan	-12848
▁topla	-12849
▁sürdüğü	-12850
▁tutmaya	-12851
▁taşımaktadır	-12852
▁(3	-12853
hael	-12854
▁yaşayacak	-12855
▁çın	-12856
▁matba	-12857
▁bellek	-12858
-9	-12859
▁gayri	-12860
▁sivri	-12861
abilirim	-12862
▁cemiyet	-12863
▁hazırladı	-12864
▁ülkesinde	-12865
▁memnuniyeti	-12866
▁yürümeye	-12867
▁metrekare	-12868
▁inanan	-12869
emde	-12870
▁düzce	-12871
ören	-12872
tekin	-12873
▁alanya	-12874
▁ithalat	-12875
▁batır	-12876
▁haydar	-12877
▁taktik	-12878
▁kendiniz	-12879
▁muvaffak	-12880
▁mahkemeye	-12881
▁olacağına	-12882
▁nikah	-12883
▁hizmetine	-12884
▁nesnel	-12885
▁zeynep	-12886
▁bahçesi	-12887
▁yaklaşan	-12888
▁telefonla	-12889
▁kurumların	-12890
▁kendimize	-12891
▁bostan	-12892
-100	-12893
eyebil	-12894
▁yayını	-12895
▁konuşması	-12896
▁edilmez	-12897
▁karanlıkta	-12898
▁bölgesindeki	-12899
▁ilân	-12900
▁düşünmüyor	-12901
kiş	-12902
▁altay	-12903
▁tersi	-12904
▁plus	-12905
▁köyün	-12906
▁zihniyet	-12907
▁metafizik	-12908
▁çalışacak	-12909
▁görüntüler	-12910
▁afrin	-12911
▁kanununun	-12912
▁malzemesi	-12913
▁gösterecek	-12914
▁latin	-12915
▁merhabalar	-12916
▁cidd	-12917
▁tekne	-12918
▁biriyle	-12919
▁hırsızlık	-12920
▁ine	-12921
▁ısın	-12922
▁adımı	-12923
▁degil	-12924
▁gelirse	-12925
▁bağlayan	-12926
▁aristoteles	-12927
ürken	-12928
▁kayyım	-12929
▁titreş	-12930
▁yapılacağı	-12931
▁þ	-12932
▁anlaşılıyor	-12933
▁1,5	-12934
▁çözünür	-12935
▁büsbütün	-12936
eyr	-12937
▁kun	-12938
▁edinilen	-12939
▁mesafede	-12940
▁motif	-12941
▁çağırdı	-12942
▁85	-12943
vo	-12944
ekkül	-12945
▁dilen	-12946
▁aşiret	-12947
▁istiyorlar	-12948
lukta	-12949
▁hastalıklar	-12950
▁olmayacaktır	-12951
▁üf	-12952
▁öneri	-12953
▁zonguldak	-12954
▁direksiyon	-12955
çiliği	-12956
▁tuttuğu	-12957
▁babasına	-12958
▁başkanları	-12959
▁tuttur	-12960
▁bırakma	-12961
meyip	-12962
▁demet	-12963
▁yapısını	-12964
▁başlaması	-12965
▁homur	-12966
▁paylaştı	-12967
▁gerçekleşecek	-12968
lanmasını	-12969
ekt	-12970
skiy	-12971
▁gaf	-12972
▁sakal	-12973
▁katled	-12974
▁kalmaya	-12975
▁erol	-12976
▁konferansı	-12977
▁rön	-12978
▁işlemlerini	-12979
way	-12980
▁tonu	-12981
▁tarımsal	-12982
▁ziyareti	-12983
▁mevlâ	-12984
mayarak	-12985
▁kabile	-12986
▁kağıdı	-12987
▁şarkıcı	-12988
▁yönetiminde	-12989
▁konumda	-12990
▁açıklamak	-12991
▁mahv	-12992
▁dizayn	-12993
▁içeriye	-12994
▁abdurrahman	-12995
▁nedenini	-12996
▁dizinin	-12997
▁tansiyon	-12998
▁sahiplerinin	-12999
aktif	-13000
vert	-13001
▁solunum	-13002
amayacağı	-13003
▁kazanma	-13004
▁orjinal	-13005
▁çabucak	-13006
▁arıyorum	-13007
▁ss	-13008
▁“...	-13009
▁gizemli	-13010
▁kadınla	-13011
▁olacağım	-13012
▁planlanan	-13013
▁kesme	-13014
▁2)	-13015
▁manay	-13016
▁portakal	-13017
▁antlaşması	-13018
▁çiftçi	-13019
▁konsept	-13020
▁kullanılmış	-13021
▁tutarı	-13022
▁belçika	-13023
▁dediğim	-13024
kardeş	-13025
luklar	-13026
▁elimde	-13027
▁karşıy	-13028
▁elektro	-13029
▁bölümleri	-13030
▁org	-13031
cular	-13032
eceğimi	-13033
▁sormuş	-13034
▁yanıtladı	-13035
▁step	-13036
▁arayıp	-13037
▁düzeyi	-13038
▁whatsapp	-13039
▁edebilmek	-13040
?'	-13041
suru	-13042
▁algıla	-13043
▁hiyer	-13044
genç	-13045
▁ılık	-13046
▁ferman	-13047
▁teşhis	-13048
▁coğrafi	-13049
▁değişmez	-13050
▁vef	-13051
▁bini	-13052
iciler	-13053
▁kaybetmiş	-13054
▁arkadaşlarının	-13055
▁kın	-13056
▁arkadan	-13057
▁başkasının	-13058
şk	-13059
▁modül	-13060
▁bakıma	-13061
▁ilaçlama	-13062
▁arkasındaki	-13063
▁avlu	-13064
▁bırakmış	-13065
▁iktidara	-13066
▁müşterilerine	-13067
▁portföy	-13068
▁araştırmaya	-13069
▁çıkarmaya	-13070
▁konuşmasında	-13071
▁ürünlerinin	-13072
lash	-13073
▁sayılmaz	-13074
▁programda	-13075
▁dönüşü	-13076
▁uğrayan	-13077
▁demiştir	-13078
▁akciğer	-13079
▁yaşandığı	-13080
▁xvii	-13081
▁taham	-13082
▁sarışın	-13083
bolu	-13084
▁bine	-13085
▁yapmaz	-13086
▁lez	-13087
▁adresinden	-13088
▁uçur	-13089
▁adamlarının	-13090
▁makar	-13091
▁seferi	-13092
▁doküman	-13093
▁üstünlük	-13094
▁ifadeyle	-13095
▁ortaokul	-13096
koz	-13097
▁müdafa	-13098
▁konumunda	-13099
▁bakılırsa	-13100
▁ücretleri	-13101
pon	-13102
neğin	-13103
▁tarafsız	-13104
▁seviyesinde	-13105
▁350	-13106
▁pin	-13107
.19	-13108
ünüze	-13109
▁bileşen	-13110
▁hayvanları	-13111
▁mobily	-13112
▁başkanlığında	-13113
▁cür	-13114
lenebilir	-13115
lerimizle	-13116
▁müze	-13117
▁unutulmaz	-13118
▁ız	-13119
gele	-13120
▁fla	-13121
▁eleştiri	-13122
2016	-13123
▁sağlanır	-13124
▁tamamlandı	-13125
▁frekans	-13126
▁ideolojik	-13127
ms	-13128
▁oynar	-13129
▁ruslar	-13130
âmet	-13131
▁tıklayarak	-13132
cis	-13133
▁show	-13134
▁nazım	-13135
▁çorap	-13136
deres	-13137
▁güncellem	-13138
veç	-13139
▁yüc	-13140
▁apaçık	-13141
▁tekirdağ	-13142
▁nitelikte	-13143
▁hapishan	-13144
mb	-13145
▁tahliye	-13146
▁ilgilendiren	-13147
▁anlıyor	-13148
▁şartıyla	-13149
▁açısı	-13150
▁benzin	-13151
cia	-13152
ğünde	-13153
▁seçmen	-13154
▁ecza	-13155
▁tarla	-13156
▁kullanışlı	-13157
▁yönetiminin	-13158
▁nr	-13159
▁dokunul	-13160
▁gücüyle	-13161
▁fizy	-13162
▁sürüp	-13163
▁uzmanlık	-13164
▁tanıyan	-13165
▁yaparlar	-13166
ls	-13167
alik	-13168
▁iğrenç	-13169
▁kapıları	-13170
▁lezz	-13171
▁kadeh	-13172
vân	-13173
sonra	-13174
tecek	-13175
▁mevcu	-13176
▁topçu	-13177
▁çalın	-13178
▁nedenlerle	-13179
emezdi	-13180
▁belediyespor	-13181
▁işlerine	-13182
etz	-13183
larımdan	-13184
▁çerçeve	-13185
▁verilerin	-13186
emeyeceğini	-13187
▁kahramanmaraş	-13188
▁askı	-13189
▁tapu	-13190
▁platon	-13191
gim	-13192
▁meal	-13193
▁güldür	-13194
▁oynuyor	-13195
▁yükümlü	-13196
▁etap	-13197
▁katkısı	-13198
▁ilerleme	-13199
▁açıklanan	-13200
▁oluşturma	-13201
▁zeytinyağı	-13202
+1	-13203
▁olmasaydı	-13204
zav	-13205
▁pazarı	-13206
▁zindan	-13207
▁cari	-13208
▁geçtikçe	-13209
▁âdem	-13210
▁koşulu	-13211
▁turları	-13212
▁objektif	-13213
▁hazırlanıyor	-13214
▁geceler	-13215
▁iftir	-13216
▁ihbar	-13217
lenmektedir	-13218
▁kaydır	-13219
▁vereceği	-13220
▁→	-13221
▁dediğini	-13222
▁ly	-13223
alist	-13224
▁takı	-13225
cilere	-13226
hracat	-13227
▁müess	-13228
latır	-13229
▁arayarak	-13230
zon	-13231
▁başlıkları	-13232
▁haberleşme	-13233
▁arzusu	-13234
▁adları	-13235
▁kanuni	-13236
▁yeterlidir	-13237
▁ülkelerinde	-13238
▁bulunduğumuz	-13239
landırma	-13240
▁uefa	-13241
▁tahrik	-13242
▁çekmeye	-13243
▁_"	-13244
▁mevlana	-13245
▁alıyoruz	-13246
▁öc	-13247
thon	-13248
▁hon	-13249
üsünün	-13250
dia	-13251
▁pav	-13252
▁gelme	-13253
▁kapısına	-13254
affer	-13255
▁beyrut	-13256
▁bulunmamaktadır	-13257
jo	-13258
bakan	-13259
▁şişman	-13260
isy	-13261
zer	-13262
▁atlet	-13263
▁almanca	-13264
▁olmayıp	-13265
▁mücevher	-13266
▁bakınca	-13267
▁başkasına	-13268
hon	-13269
▁halep	-13270
▁veter	-13271
▁ruhunu	-13272
▁bölgeleri	-13273
▁belirleyen	-13274
▁ios	-13275
ebilirler	-13276
▁valiliği	-13277
▁afganistan	-13278
▁cı	-13279
▁bakarken	-13280
▁çevresine	-13281
row	-13282
▁emzir	-13283
▁arkaya	-13284
▁ulaştırma	-13285
ja	-13286
▁zaferi	-13287
▁zanned	-13288
▁geçmiştir	-13289
▁düşünüyoruz	-13290
▁yaya	-13291
▁mürekk	-13292
▁videosu	-13293
▁yarısında	-13294
hol	-13295
▁nenni	-13296
ica	-13297
▁72	-13298
▁celal	-13299
▁felsefi	-13300
▁kabiliyet	-13301
▁sonucuna	-13302
▁tartışmalar	-13303
▁lou	-13304
▁oldug	-13305
▁sizce	-13306
▁>>>	-13307
▁lor	-13308
▁yaratır	-13309
▁faydaları	-13310
▁istemeyen	-13311
▁muamel	-13312
mamalıdır	-13313
ıldılar	-13314
▁kızını	-13315
▁engeller	-13316
▁rehberlik	-13317
▁sitesinden	-13318
▁ocağı	-13319
ilmesinde	-13320
▁doğrultu	-13321
▁ülkelere	-13322
▁niy	-13323
▁editör	-13324
hit	-13325
▁dun	-13326
▁ciğer	-13327
▁püskür	-13328
▁öğrenin	-13329
▁yudum	-13330
▁peşine	-13331
▁dilini	-13332
▁çalışmayı	-13333
lular	-13334
▁prol	-13335
▁kaynaş	-13336
▁fikirleri	-13337
▁icat	-13338
eneğini	-13339
▁iddialı	-13340
isten	-13341
âret	-13342
▁1950	-13343
▁alınıp	-13344
▁sağlanan	-13345
▁şartlarda	-13346
lediklerini	-13347
qq	-13348
▁orgazm	-13349
ılmaması	-13350
▁abar	-13351
▁cenk	-13352
▁ziyarete	-13353
▁belirlenmiş	-13354
aşehir	-13355
elenen	-13356
▁çıldır	-13357
▁seviyeye	-13358
▁bulunmakta	-13359
▁alanındaki	-13360
ayir	-13361
▁patr	-13362
▁hissediyordu	-13363
▁fizi	-13364
▁öküz	-13365
▁oturur	-13366
▁william	-13367
▁hijyen	-13368
▁yaşıyoruz	-13369
▁kapasitesi	-13370
cd	-13371
size	-13372
▁seçildi	-13373
▁tekniği	-13374
▁yes	-13375
▁bölük	-13376
▁hiper	-13377
▁koordinasyon	-13378
zle	-13379
▁kalkın	-13380
▁kullanılıyor	-13381
rını	-13382
tüsü	-13383
▁yürüyen	-13384
▁tedavisinde	-13385
ıklar	-13386
▁tahr	-13387
▁bayağı	-13388
▁you	-13389
▁ahiret	-13390
▁hâlinde	-13391
▁kalmamış	-13392
▁karargâh	-13393
▁üyeli	-13394
▁etrafına	-13395
oluk	-13396
▁tüketimi	-13397
▁tot	-13398
▁vuran	-13399
▁sağlamış	-13400
malıydı	-13401
lemesine	-13402
▁tanrılar	-13403
▁tertip	-13404
▁önemsiz	-13405
▁incelemek	-13406
fone	-13407
ava	-13408
etti	-13409
▁torun	-13410
▁alevi	-13411
▁gözde	-13412
▁sevda	-13413
yeş	-13414
▁omur	-13415
▁yılbaşı	-13416
▁havaalan	-13417
hac	-13418
▁kalor	-13419
▁nuaym	-13420
▁polisin	-13421
oker	-13422
▁keb	-13423
▁arar	-13424
▁kelimeleri	-13425
▁gördükleri	-13426
,_	-13427
dari	-13428
▁yon	-13429
▁iniş	-13430
▁üçte	-13431
▁eksen	-13432
▁yıldızlar	-13433
▁zorunluluk	-13434
▁erdir	-13435
▁şiiri	-13436
▁fikrini	-13437
▁yetişen	-13438
▁notu	-13439
▁baskısı	-13440
▁problemleri	-13441
▁195	-13442
▁bağı	-13443
▁seti	-13444
▁hayalet	-13445
▁verit	-13446
ûh	-13447
▁tutulması	-13448
▁izi	-13449
▁olursanız	-13450
▁istihbarat	-13451
▁59	-13452
▁1-2	-13453
▁22.	-13454
▁yapanlar	-13455
▁çalıştığını	-13456
delen	-13457
diğimde	-13458
kincisi	-13459
▁verebil	-13460
▁alındığında	-13461
ansa	-13462
inat	-13463
▁artarak	-13464
▁dengeli	-13465
▁bulunacak	-13466
▁yüksekokulu	-13467
/24	-13468
kıs	-13469
▁katolik	-13470
stro	-13471
▁him	-13472
▁keh	-13473
▁ayni	-13474
saspor	-13475
▁kıvıl	-13476
▁katlan	-13477
▁vücuda	-13478
oya	-13479
▁doları	-13480
▁kamuoyu	-13481
▁yargıtay	-13482
▁içme	-13483
▁komb	-13484
layalım	-13485
▁olasılığı	-13486
▁yanlarında	-13487
▁rahim	-13488
amayacağını	-13489
▁olduğunuzu	-13490
/200	-13491
▁azı	-13492
mezdi	-13493
▁hend	-13494
▁ünal	-13495
▁müstak	-13496
▁yöneticiler	-13497
▁dere	-13498
abilme	-13499
kadir	-13500
▁balon	-13501
▁sıralar	-13502
alığa	-13503
▁uykuya	-13504
▁düşünüp	-13505
▁veh	-13506
▁hoşuma	-13507
▁bav	-13508
▁heg	-13509
üğü	-13510
▁vis	-13511
▁villa	-13512
▁merteb	-13513
▁durumdur	-13514
▁ilişkiye	-13515
▁kilisesi	-13516
▁füz	-13517
astik	-13518
fon	-13519
▁seda	-13520
▁kentinde	-13521
king	-13522
▁çağı	-13523
▁ödülleri	-13524
▁beraberlik	-13525
▁edilmesine	-13526
▁edilmek	-13527
▁yetkisi	-13528
▁bahan	-13529
▁biliyordum	-13530
mün	-13531
▁(10	-13532
▁tibet	-13533
▁otelde	-13534
▁tesisi	-13535
▁elçiler	-13536
▁geçirildi	-13537
▁tedbirler	-13538
ymp	-13539
▁atlat	-13540
▁kadır	-13541
▁çember	-13542
▁yazarak	-13543
▁birlikleri	-13544
▁sağlayabil	-13545
▁700	-13546
▁bilek	-13547
▁coşkun	-13548
larlar	-13549
▁oktay	-13550
▁yükle	-13551
▁yatağa	-13552
▁birbiri	-13553
▁savaşlar	-13554
▁fare	-13555
▁yurd	-13556
▁lübnan	-13557
▁ziyaretçiler	-13558
▁brezilya	-13559
▁etmesine	-13560
▁düm	-13561
▁hanı	-13562
▁uçan	-13563
▁kenan	-13564
▁komis	-13565
▁seramik	-13566
▁cihazlar	-13567
::	-13568
ciye	-13569
▁fiyata	-13570
▁dolandırıcı	-13571
aynı	-13572
▁grev	-13573
sinler	-13574
▁yıkım	-13575
▁uygulanacak	-13576
▁şiirler	-13577
▁yönetmeliği	-13578
▁gülümseyerek	-13579
hani	-13580
▁bağdaş	-13581
▁düzene	-13582
▁makineleri	-13583
▁yurtdışında	-13584
▁63	-13585
▁inen	-13586
▁pürüz	-13587
▁gelirler	-13588
▁ida	-13589
▁köşesinde	-13590
▁tamamlayan	-13591
▁olmayabilir	-13592
▁tekel	-13593
▁vadisi	-13594
▁harry	-13595
▁mesai	-13596
lamasını	-13597
▁dinledi	-13598
▁politikalar	-13599
▁gösteriyordu	-13600
-17	-13601
non	-13602
▁ilgil	-13603
▁sanatlar	-13604
▁hissediyorum	-13605
uta	-13606
low	-13607
dekiler	-13608
▁görmesi	-13609
dına	-13610
▁başaran	-13611
küç	-13612
▁şal	-13613
▁keçi	-13614
▁değir	-13615
▁unsuru	-13616
▁odaklan	-13617
dış	-13618
▁ps	-13619
▁köye	-13620
▁polat	-13621
▁çarşı	-13622
ılıyorum	-13623
lerinizin	-13624
▁ambulans	-13625
mparatorluk	-13626
▁99	-13627
▁anas	-13628
ceğiniz	-13629
▁habersiz	-13630
▁geçtikten	-13631
▁olabildiğince	-13632
vay	-13633
▁câ	-13634
▁ehli	-13635
▁mag	-13636
▁ücretli	-13637
▁**_	-13638
▁yağm	-13639
▁intern	-13640
▁prensi	-13641
▁taraflı	-13642
özellikle	-13643
▁dilediğiniz	-13644
▁yaklaşımı	-13645
▁sağlayarak	-13646
▁neb	-13647
▁resûl	-13648
▁çıktılar	-13649
▁gerçekleştiren	-13650
▁şaka	-13651
hz	-13652
get	-13653
diyse	-13654
▁aygıt	-13655
▁bitim	-13656
müz	-13657
mağı	-13658
▁okullarda	-13659
▁asfalt	-13660
▁denildi	-13661
▁seg	-13662
▁kont	-13663
▁hemşir	-13664
▁yapısal	-13665
▁ihtiyacımız	-13666
ekon	-13667
▁çorum	-13668
▁ticareti	-13669
▁utanç	-13670
▁nda	-13671
▁coşk	-13672
▁kadınlarda	-13673
▁kesik	-13674
amızdan	-13675
▁kandil	-13676
▁herşeyi	-13677
▁suikast	-13678
▁korkuyor	-13679
▁kayın	-13680
dakiler	-13681
▁devasa	-13682
▁teknolojinin	-13683
boş	-13684
▁tutarlı	-13685
▁konsolos	-13686
▁nut	-13687
▁görmedim	-13688
▁hattâ	-13689
▁seslendir	-13690
▁kama	-13691
ruğu	-13692
▁city	-13693
▁koşu	-13694
▁kpss	-13695
melerinin	-13696
▁kurtulmuş	-13697
▁gazeteciler	-13698
▁duyunca	-13699
▁güvence	-13700
▁görkemli	-13701
▁romalı	-13702
▁3\.	-13703
▁ilki	-13704
▁keder	-13705
▁sorul	-13706
▁durgun	-13707
▁parfüm	-13708
▁yaşından	-13709
▁gördüğünü	-13710
▁gelebilecek	-13711
▁cab	-13712
▁dikt	-13713
▁güçlerin	-13714
▁hasret	-13715
▁kapattı	-13716
▁uzaklık	-13717
▁gözlerine	-13718
▁kalmamıştı	-13719
▁yapmam	-13720
▁çıktım	-13721
▁olimpiyat	-13722
▁barındıran	-13723
▁oral	-13724
▁akışı	-13725
▁katma	-13726
▁dibinde	-13727
▁eşitlik	-13728
▁federal	-13729
oca	-13730
▁mg	-13731
alam	-13732
▁mans	-13733
▁sing	-13734
▁önünü	-13735
lacaktır	-13736
▁aralarındaki	-13737
atları	-13738
müyordu	-13739
küp	-13740
mezler	-13741
▁topladı	-13742
▁personelin	-13743
▁korumaya	-13744
▁görüyordu	-13745
▁sistemler	-13746
▁kalka	-13747
▁note	-13748
▁düzenlemeler	-13749
▁açıklamasında	-13750
▁galer	-13751
▁görülecek	-13752
▁görüntüleri	-13753
▁üçlü	-13754
▁parçacık	-13755
▁üstündeki	-13756
iskop	-13757
▁daral	-13758
▁tabanlı	-13759
▁toplamak	-13760
▁duyum	-13761
▁bulamaz	-13762
▁meksika	-13763
▁menderes	-13764
▁ilâ	-13765
▁azdır	-13766
▁hızır	-13767
▁olurum	-13768
▁oğluna	-13769
▁ulaşmış	-13770
sır	-13771
rini	-13772
▁yaptırmak	-13773
▁verilmesini	-13774
sion	-13775
▁adi	-13776
▁diri	-13777
▁kötülü	-13778
▁elin	-13779
▁tefsîr	-13780
yür	-13781
▁müc	-13782
sünüz	-13783
▁ölçekli	-13784
▁alarm	-13785
▁dikiş	-13786
▁destekli	-13787
▁diğerine	-13788
pazarı	-13789
▁gitmesi	-13790
▁ikisini	-13791
▁gerçeğe	-13792
▁sistemde	-13793
▁sürülen	-13794
▁okulları	-13795
▁yazılımı	-13796
▁sermayenin	-13797
▁dedikodu	-13798
alamaya	-13799
▁okuyup	-13800
▁kozmetik	-13801
▁kardeşinin	-13802
▁saraya	-13803
▁element	-13804
▁çalışmış	-13805
▁yapmaktan	-13806
bran	-13807
ızda	-13808
▁karlı	-13809
▁başının	-13810
▁muhabir	-13811
▁tarihçi	-13812
▁zenginlik	-13813
ayip	-13814
▁170	-13815
▁yurdu	-13816
▁yapılmalıdır	-13817
▁özeti	-13818
▁planları	-13819
ilince	-13820
▁içsel	-13821
▁tutulan	-13822
▁lavab	-13823
▁görüştü	-13824
▁muhtelif	-13825
▁kürek	-13826
▁eğitmen	-13827
▁çalışmalarında	-13828
▁05	-13829
▁diyebilirim	-13830
▁hıristiy	-13831
▁yöneten	-13832
▁beyoğlu	-13833
▁muzaffer	-13834
▁sanmıyorum	-13835
▁okş	-13836
yıldı	-13837
▁burayı	-13838
▁çatlak	-13839
▁konten	-13840
▁suriyeli	-13841
malarından	-13842
▁adayların	-13843
▁sahasında	-13844
▁görevlileri	-13845
▁sû	-13846
eron	-13847
▁loc	-13848
▁berg	-13849
▁kalç	-13850
▁biter	-13851
▁silik	-13852
▁allahü	-13853
▁yarısını	-13854
▁ağaçların	-13855
▁değerlendirmek	-13856
▁yurti	-13857
▁görevine	-13858
▁ortasına	-13859
▁karada	-13860
▁bakınız	-13861
▁toplayıp	-13862
▁sınırlarını	-13863
▁özelliklere	-13864
örneğin	-13865
▁torunu	-13866
▁dersiniz	-13867
▁davranışı	-13868
▁başbakanlık	-13869
nar	-13870
olas	-13871
wood	-13872
▁ltd	-13873
▁annenin	-13874
▁araştırmacı	-13875
anne	-13876
▁özcan	-13877
▁yarışı	-13878
cih	-13879
▁levin	-13880
▁miyiz	-13881
▁takın	-13882
▁havanın	-13883
▁ilişkilerini	-13884
▁hareketsiz	-13885
ruh	-13886
ancak	-13887
mazsa	-13888
▁maked	-13889
▁kuyruk	-13890
▁ilçesine	-13891
▁seferber	-13892
▁çıkabilir	-13893
lamıyorum	-13894
▁eşyaları	-13895
▁:))	-13896
amadım	-13897
ilmeli	-13898
▁hicret	-13899
▁volkan	-13900
lamasına	-13901
▁gemileri	-13902
▁sıcaklığı	-13903
eyt	-13904
lib	-13905
▁kıvr	-13906
▁hürmet	-13907
▁akademi	-13908
▁yürürken	-13909
▁salg	-13910
iğinin	-13911
▁bilinci	-13912
▁boşanma	-13913
▁açıkçası	-13914
civert	-13915
▁çiv	-13916
▁allâh	-13917
▁gla	-13918
▁trib	-13919
▁kitabını	-13920
cay	-13921
▁sellem	-13922
▁kıyısında	-13923
▁yeg	-13924
▁fuat	-13925
[{	-13926
fakat	-13927
▁şuur	-13928
▁yatıştır	-13929
▁mesajları	-13930
▁yüzy	-13931
▁kabart	-13932
▁ehliyet	-13933
▁talepleri	-13934
▁motivasyon	-13935
▁kak	-13936
▁dille	-13937
▁umudu	-13938
▁duymak	-13939
▁kayıtsız	-13940
▁üstünden	-13941
6’	-13942
▁talip	-13943
▁geleceğin	-13944
içe	-13945
rarı	-13946
▁ozan	-13947
▁meras	-13948
▁animasyon	-13949
▁getirmiştir	-13950
ella	-13951
eyan	-13952
▁ödemek	-13953
▁savur	-13954
▁ırmak	-13955
▁parametr	-13956
▁hül	-13957
▁arayüz	-13958
ımar	-13959
▁hut	-13960
▁geli	-13961
▁pist	-13962
▁sayısal	-13963
▁çocuklarına	-13964
▁akş	-13965
▁köf	-13966
▁world	-13967
▁dileriz	-13968
▁bağışıklık	-13969
▁konulan	-13970
▁görüşünü	-13971
▁sevgiler	-13972
▁göndermek	-13973
oterapi	-13974
ılmasında	-13975
▁kaldılar	-13976
yön	-13977
larıma	-13978
▁oluşturmaktadır	-13979
▁yerleşik	-13980
laşır	-13981
osunun	-13982
ğımız	-13983
▁dibine	-13984
▁sefere	-13985
▁tembel	-13986
▁altıncı	-13987
mizî	-13988
▁23.	-13989
▁bill	-13990
▁çeşme	-13991
taur	-13992
▁hedefe	-13993
▁kullanmayı	-13994
▁iso	-13995
▁nispet	-13996
▁örgütlen	-13997
▁betim	-13998
▁zannet	-13999
▁merkeze	-14000
▁açıklayan	-14001
▁pencereden	-14002
▁işlevi	-14003
▁benimsen	-14004
▁telif	-14005
▁kutusu	-14006
▁sahası	-14007
anıyla	-14008
larınızla	-14009
▁sevinirim	-14010
▁videoyu	-14011
▁dışından	-14012
▁taar	-14013
▁kurmaya	-14014
-14	-14015
iyonu	-14016
▁olayda	-14017
▁kullandıkları	-14018
▁tarl	-14019
▁şifre	-14020
▁önlemler	-14021
▁gözlü	-14022
▁içmek	-14023
▁terakki	-14024
▁kesilmiş	-14025
aht	-14026
▁mert	-14027
▁gidin	-14028
▁mensu	-14029
▁düşündük	-14030
▁ihrac	-14031
▁yukarıya	-14032
▁bölümünün	-14033
üyoruz	-14034
▁küçücük	-14035
▁maksadı	-14036
▁topraklar	-14037
▁görülmüştür	-14038
▁jose	-14039
▁dilinde	-14040
▁alıyorum	-14041
▁fırç	-14042
lüğünün	-14043
▁eksiklik	-14044
▁danışmanı	-14045
▁sıkıntılı	-14046
▁gra	-14047
▁denizde	-14048
▁güzergah	-14049
▁big	-14050
▁gözlerim	-14051
▁sonlandır	-14052
ımla	-14053
▁özkan	-14054
▁vadede	-14055
▁nezdinde	-14056
▁sms	-14057
▁bursaspor	-14058
lun	-14059
▁martin	-14060
▁gidelim	-14061
▁havaalanı	-14062
▁görevliler	-14063
ecekler	-14064
▁çevreye	-14065
▁î	-14066
ric	-14067
lid	-14068
▁madrid	-14069
▁yanınızda	-14070
▁kant	-14071
▁tanrıç	-14072
▁elimizde	-14073
▁asistan	-14074
▁saygılı	-14075
▁seans	-14076
▁çözmek	-14077
eceğinizi	-14078
▁5/3	-14079
▁fış	-14080
ılırdı	-14081
▁bazında	-14082
▁minimum	-14083
tih	-14084
▁emel	-14085
illeus	-14086
▁anabilim	-14087
▁seçimler	-14088
▁etkileşim	-14089
▁üniversiteler	-14090
▁hp	-14091
karah	-14092
▁dağılı	-14093
▁oluyoruz	-14094
emis	-14095
âhib	-14096
▁tetkik	-14097
ildikten	-14098
tiklerini	-14099
▁görmedi	-14100
peri	-14101
▁evliy	-14102
▁bedenin	-14103
izin	-14104
▁doğduğu	-14105
▁ortaklık	-14106
▁68	-14107
iymiş	-14108
▁ikil	-14109
▁toplandı	-14110
ýk	-14111
ida	-14112
▁menz	-14113
devamı	-14114
melerde	-14115
▁olmamız	-14116
▁sütun	-14117
▁sıkıntısı	-14118
▁içgü	-14119
▁cenev	-14120
▁metni	-14121
▁cik	-14122
▁saz	-14123
▁ilerledi	-14124
▁bulabilir	-14125
▁kalarak	-14126
▁öneriler	-14127
▁şır	-14128
▁hamza	-14129
▁kenarına	-14130
▁grubunun	-14131
▁uygulamak	-14132
▁beklediği	-14133
▁karşınıza	-14134
▁öldürülen	-14135
▁ödüllendir	-14136
▁kıdem	-14137
mese	-14138
▁üze	-14139
öğren	-14140
▁amca	-14141
▁kapağı	-14142
▁öldüğü	-14143
gara	-14144
sene	-14145
▁muaf	-14146
▁olunur	-14147
▁olmamak	-14148
▁öldürür	-14149
▁içlerinde	-14150
▁tutuklandı	-14151
▁akademisyen	-14152
▁zel	-14153
▁yürütme	-14154
▁sım	-14155
▁kumar	-14156
▁atmaya	-14157
▁sgk	-14158
▁sundu	-14159
luğundan	-14160
.6	-14161
sec	-14162
▁babasını	-14163
▁ağacın	-14164
gem	-14165
▁batak	-14166
▁kalkar	-14167
ıyorsunuz	-14168
syö	-14169
▁şölen	-14170
▁almakta	-14171
▁isteriz	-14172
▁gerekirdi	-14173
şler	-14174
▁cim	-14175
▁muş	-14176
avrup	-14177
▁müsteşar	-14178
.00’	-14179
cağın	-14180
▁spek	-14181
▁yükü	-14182
▁gömle	-14183
▁yahya	-14184
▁yapılar	-14185
▁sultanın	-14186
ingen	-14187
▁bağlar	-14188
▁akademisi	-14189
▁eğitimini	-14190
▁yazımızda	-14191
▁gömül	-14192
▁koştur	-14193
küçük	-14194
▁tutma	-14195
▁kasaba	-14196
▁kültürünün	-14197
▁8,	-14198
▁kayboldu	-14199
▁ال	-14200
▁dram	-14201
▁parçal	-14202
▁uğradı	-14203
▁dolaşım	-14204
▁müşterilerimize	-14205
▁kimler	-14206
▁memlek	-14207
▁bakımlı	-14208
▁küs	-14209
▁kaçıp	-14210
▁reisi	-14211
▁kararının	-14212
▁söyleyeyim	-14213
▁karşılığını	-14214
ğil	-14215
▁kesint	-14216
tıyordu	-14217
▁işlemini	-14218
▁psikolog	-14219
uer	-14220
▁amp	-14221
▁peri	-14222
▁sıyr	-14223
▁çiçekler	-14224
▁lord	-14225
▁tipik	-14226
▁müsait	-14227
alp	-14228
▁verilerine	-14229
▁bb	-14230
▁seçimlerde	-14231
▁3-4	-14232
▁kurumun	-14233
▁konusuna	-14234
▁pekiştir	-14235
▁davanın	-14236
▁bütünleş	-14237
▁şahsiyet	-14238
▁davranışlar	-14239
emm	-14240
cc	-14241
ああああ	-14242
▁krallık	-14243
▁verecektir	-14244
meyle	-14245
▁tahir	-14246
▁periyo	-14247
lass	-14248
▁süslü	-14249
▁etrafa	-14250
▁biliniyor	-14251
▁programının	-14252
ûb	-14253
▁ağası	-14254
▁ıslah	-14255
▁girdim	-14256
▁düşündüğü	-14257
▁zıp	-14258
▁sami	-14259
▁çıktığında	-14260
mayınca	-14261
inizdeki	-14262
▁olduğun	-14263
▁bedensel	-14264
mana	-14265
▁out	-14266
▁levh	-14267
▁çalışmada	-14268
unuzda	-14269
▁62	-14270
▁meta	-14271
▁sulh	-14272
▁yemiş	-14273
▁alırlar	-14274
▁güzeldi	-14275
▁belirtiyor	-14276
▁barışı	-14277
▁kokulu	-14278
▁kapılarını	-14279
▁kurallarına	-14280
▁abdil	-14281
▁maltepe	-14282
▁psikoloji	-14283
▁nuh	-14284
▁dine	-14285
▁zeyd	-14286
▁geceyi	-14287
▁söylerken	-14288
lanıyordu	-14289
▁blo	-14290
herkes	-14291
▁müjde	-14292
▁paralar	-14293
iba	-14294
▁ml	-14295
▁nör	-14296
▁tahlil	-14297
▁mücadelenin	-14298
▁imha	-14299
▁katılmış	-14300
olat	-14301
port	-14302
efendi	-14303
▁mukav	-14304
▁gününü	-14305
▁esasen	-14306
▁dünyaca	-14307
▁muhatap	-14308
▁adayları	-14309
▁noktalar	-14310
▁ziyaretçi	-14311
▁fonksiyonu	-14312
ğindeki	-14313
▁düşündür	-14314
▁sanıyorum	-14315
▁sitemizden	-14316
▁ilm	-14317
▁krip	-14318
▁dilde	-14319
▁halid	-14320
▁neydi	-14321
▁anlayan	-14322
▁bazılarının	-14323
▁fr	-14324
eros	-14325
▁havale	-14326
▁evlerin	-14327
▁savaşları	-14328
viz	-14329
▁dışa	-14330
ble	-14331
ileceği	-14332
▁karabük	-14333
▁konuşmayı	-14334
▁işkenc	-14335
▁motorlu	-14336
▁yararlanmak	-14337
▁çi	-14338
▁bire	-14339
▁sapan	-14340
▁paraya	-14341
▁anlaşıldı	-14342
▁sahiplerine	-14343
▁müslümanlara	-14344
şti	-14345
▁çuv	-14346
kanlı	-14347
▁burhan	-14348
▁getirdiler	-14349
▁kot	-14350
▁yrd	-14351
▁yenik	-14352
▁şükrü	-14353
▁görmemiş	-14354
cağımı	-14355
▁korur	-14356
▁yürüten	-14357
ea	-14358
sizce	-14359
▁desc	-14360
▁mana	-14361
▁tram	-14362
▁açılacak	-14363
▁rock	-14364
▁istisna	-14365
▁dra	-14366
▁hort	-14367
▁kürk	-14368
malıyım	-14369
dikçe	-14370
▁görünmez	-14371
▁kolaylık	-14372
▁ayına	-14373
▁göçebe	-14374
▁elimizden	-14375
▁veteriner	-14376
▁bölümünden	-14377
▁fl	-14378
edisi	-14379
▁kösem	-14380
▁bakmaya	-14381
▁saçlarını	-14382
anak	-14383
▁kitâb	-14384
▁abdest	-14385
▁ülkemize	-14386
▁anlaşmaya	-14387
▁dosyaları	-14388
▁havalandır	-14389
▁mücadelede	-14390
▁alınca	-14391
▁evlerine	-14392
9’	-14393
osuna	-14394
▁bahane	-14395
▁cevaplar	-14396
▁kullandığımız	-14397
ahmet	-14398
▁ideoloj	-14399
▁temizlen	-14400
▁vatandaşı	-14401
▁dönemlerinde	-14402
olay	-14403
▁çöktü	-14404
▁sıraya	-14405
▁bölgeyi	-14406
▁kuruluşlar	-14407
larımda	-14408
iden	-14409
▁satran	-14410
dayet	-14411
▁atas	-14412
▁odadan	-14413
▁böyledir	-14414
▁karşılaştı	-14415
tle	-14416
hm	-14417
▁toy	-14418
rezzak	-14419
▁ceset	-14420
▁kralın	-14421
▁boğaziçi	-14422
▁soyundan	-14423
▁etmektir	-14424
otu	-14425
▁77	-14426
▁thy	-14427
▁şişe	-14428
▁gecede	-14429
▁ışıl	-14430
jung	-14431
melere	-14432
diğinin	-14433
▁cezayir	-14434
▁programını	-14435
post	-14436
▁inç	-14437
▁tayf	-14438
▁davul	-14439
▁niyetli	-14440
▁yüzbaşı	-14441
▁sorulara	-14442
▁çerçevede	-14443
ciliği	-14444
▁chris	-14445
emiyorum	-14446
▁plakalı	-14447
emedim	-14448
ınızdaki	-14449
▁süreyle	-14450
▁dakikalık	-14451
▁enj	-14452
▁şerit	-14453
▁yapısına	-14454
▁evlili	-14455
▁üretmek	-14456
▁işsizlik	-14457
▁ürettiği	-14458
▁bulunarak	-14459
▁aydan	-14460
▁tatbik	-14461
▁yıpran	-14462
▁iletişimi	-14463
lov	-14464
▁rec	-14465
leydi	-14466
▁kazanıyor	-14467
1⁄4	-14468
hed	-14469
ûlü	-14470
üsün	-14471
▁köpük	-14472
▁şükran	-14473
▁koyuyor	-14474
▁söylenir	-14475
▁gerçekleri	-14476
▁gitme	-14477
ileştir	-14478
▁bitkiler	-14479
▁cihazları	-14480
▁istemiyordu	-14481
▁doğar	-14482
▁uçurum	-14483
▁çarptı	-14484
▁fragmanı	-14485
▁fabrikası	-14486
▁kısır	-14487
▁sınıfta	-14488
▁kullanıcıları	-14489
▁aff	-14490
▁miting	-14491
▁çekirde	-14492
vaz	-14493
zem	-14494
▁tanır	-14495
▁göründü	-14496
▁çankaya	-14497
▁amacımız	-14498
▁yatırımlar	-14499
▁şehircilik	-14500
▁hizmetini	-14501
▁olabilmektedir	-14502
▁tarama	-14503
▁vermeyen	-14504
bazı	-14505
▁gülüş	-14506
▁âdeta	-14507
▁işlere	-14508
▁ayakkab	-14509
▁oluşturulması	-14510
ilar	-14511
▁hayatlarını	-14512
▁çalışmasını	-14513
lig	-14514
▁kopyal	-14515
ilebilecek	-14516
▁yaşlarında	-14517
hik	-14518
▁makinası	-14519
▁fert	-14520
▁abone	-14521
▁düşüncenin	-14522
▁göstermesi	-14523
yeşil	-14524
▁lenin	-14525
▁tadil	-14526
▁61	-14527
cili	-14528
eciler	-14529
▁dağlar	-14530
▁malları	-14531
▁anlattığı	-14532
▁litre	-14533
▁şeyle	-14534
▁aranan	-14535
▁tamiri	-14536
▁ilgilidir	-14537
▁03	-14538
izde	-14539
memi	-14540
▁onca	-14541
▁erkan	-14542
▁boğa	-14543
▁stüd	-14544
latıcı	-14545
▁başlangıc	-14546
▁hazreti	-14547
▁turistik	-14548
▁spa	-14549
▁gönderme	-14550
fran	-14551
çilere	-14552
▁geçmişe	-14553
▁merkezde	-14554
▁maddelerin	-14555
▁67	-14556
▁suna	-14557
▁ümmü	-14558
▁sihir	-14559
▁ulaşır	-14560
mın	-14561
▁getirilmiş	-14562
▁md	-14563
▁360	-14564
▁marmar	-14565
▁önü	-14566
▁sinop	-14567
▁parasını	-14568
organ	-14569
▁1998	-14570
▁berbat	-14571
▁tesbit	-14572
▁balıkçı	-14573
▁indirdi	-14574
▁but	-14575
▁dâr	-14576
▁yüreğ	-14577
▁ilkesi	-14578
▁okuyor	-14579
ncil	-14580
ozan	-14581
laştı	-14582
▁batıya	-14583
▁prosed	-14584
▁michael	-14585
▁yırt	-14586
▁hisseder	-14587
▁avantajlı	-14588
▁faaliyetler	-14589
versi	-14590
ıyorsun	-14591
▁görünümü	-14592
▁çıkıyordu	-14593
kr	-14594
oşa	-14595
▁anıms	-14596
▁esnada	-14597
▁huzurunda	-14598
▁yakalamak	-14599
▁çinlilerin	-14600
▁ödü	-14601
▁dolaşan	-14602
▁karayolu	-14603
▁sizlerde	-14604
▁dayanır	-14605
▁ibarettir	-14606
▁oyuncuları	-14607
cas	-14608
▁metot	-14609
▁çalan	-14610
▁istersen	-14611
▁anası	-14612
▁yastık	-14613
▁andıran	-14614
▁çalışmaktadır	-14615
▁secde	-14616
▁sulama	-14617
▁okyanus	-14618
▁akhilleus	-14619
▁kurallara	-14620
oliz	-14621
▁isparta	-14622
▁itfaiye	-14623
abilirsin	-14624
▁görülebil	-14625
▁köşk	-14626
ramanı	-14627
▁kötüye	-14628
leştirilmiş	-14629
▁girit	-14630
▁aklını	-14631
▁etmemiş	-14632
▁düzensiz	-14633
▁kabak	-14634
▁çalışkan	-14635
▁with	-14636
▁firav	-14637
zar	-14638
▁ikiz	-14639
▁düşmesi	-14640
▁almasını	-14641
gue	-14642
ifa	-14643
anam	-14644
▁hatası	-14645
▁yararı	-14646
▁koştu	-14647
▁yukar	-14648
▁gemiler	-14649
▁aileleri	-14650
▁gerekmez	-14651
▁chu	-14652
▁ülkedeki	-14653
▁hükümlerine	-14654
▁|--	-14655
▁kaçmak	-14656
▁açıklık	-14657
▁toplanmış	-14658
run	-14659
ladıklarını	-14660
kart	-14661
odos	-14662
▁çıkarılması	-14663
▁kupon	-14664
▁çapraz	-14665
▁kraliçe	-14666
▁kuvveti	-14667
▁görebilir	-14668
▁yanlarına	-14669
uri	-14670
▁karayol	-14671
▁zât	-14672
▁madam	-14673
▁nihat	-14674
▁olaydan	-14675
▁bilgisini	-14676
▁bölgesinin	-14677
mev	-14678
▁askere	-14679
▁benzersiz	-14680
▁makamında	-14681
▁yetkililer	-14682
bâ	-14683
▁95	-14684
uluğa	-14685
▁anon	-14686
▁aktaran	-14687
▁konuşul	-14688
▁fazladır	-14689
▁yönetmeni	-14690
▁milletvekilleri	-14691
ew	-14692
▁ucuna	-14693
▁gözüne	-14694
▁iseniz	-14695
▁resimli	-14696
▁gidiyorum	-14697
▁felsefenin	-14698
iğine	-14699
▁eksi	-14700
▁mantığı	-14701
▁kalmadan	-14702
stantin	-14703
▁kentte	-14704
▁gözlerle	-14705
araba	-14706
▁onayı	-14707
▁sözün	-14708
▁görmüştü	-14709
cm	-14710
▁universit	-14711
▁akı	-14712
diğinizde	-14713
▁padişaha	-14714
▁elleriyle	-14715
▁boğazı	-14716
▁alanların	-14717
!...	-14718
odal	-14719
▁yenileme	-14720
▁hassasiyet	-14721
▁fedakâr	-14722
şeh	-14723
▁büyücü	-14724
▁sandalye	-14725
▁saatlerde	-14726
olun	-14727
▁ayaklan	-14728
eceğimizi	-14729
▁çözümleri	-14730
yoruz	-14731
▁ashab	-14732
▁harbiye	-14733
▁sustu	-14734
▁göksel	-14735
▁takılan	-14736
▁demirtaş	-14737
▁markanın	-14738
▁reaksiyon	-14739
âî	-14740
çekmece	-14741
▁ordusunu	-14742
▁seçimlerinde	-14743
▁çalışmalarda	-14744
▁jet	-14745
▁inandır	-14746
▁astronom	-14747
▁tirmizî	-14748
▁yönündeki	-14749
åÿ	-14750
▁eman	-14751
▁king	-14752
calı	-14753
▁jim	-14754
▁tahammül	-14755
▁1.5	-14756
▁aradı	-14757
▁yılını	-14758
▁şunlardır	-14759
▁tunç	-14760
▁varıp	-14761
▁çekmiş	-14762
ero	-14763
▁one	-14764
▁çınar	-14765
▁duruşu	-14766
▁fışkır	-14767
▁soğutma	-14768
▁şarkısı	-14769
▁çalıştık	-14770
eld	-14771
▁olu	-14772
▁havlu	-14773
▁büyüklüğü	-14774
▁organizasyonu	-14775
▁yağma	-14776
▁iğn	-14777
▁güzeli	-14778
▁ağaçlar	-14779
larý	-14780
▁anat	-14781
▁kullanımına	-14782
boy	-14783
▁sky	-14784
▁poşet	-14785
▁maddesine	-14786
▁tavrı	-14787
era	-14788
▁sıh	-14789
stedi	-14790
▁akıntı	-14791
▁olmakta	-14792
▁görevden	-14793
tiyaz	-14794
▁otelin	-14795
yıldız	-14796
▁kıvılcım	-14797
▁uygulamayı	-14798
▁hükümetinin	-14799
ifi	-14800
▁atama	-14801
▁halkını	-14802
▁sevgilisi	-14803
▁olabilirler	-14804
▁politikaları	-14805
▁beg	-14806
▁sultanı	-14807
▁kürdistan	-14808
)'	-14809
▁iğne	-14810
▁param	-14811
▁üstesinden	-14812
▁egemenlik	-14813
rada	-14814
▁çalar	-14815
▁dilekç	-14816
▁kullanıyorum	-14817
▁tri	-14818
▁içindeydi	-14819
lant	-14820
▁branş	-14821
▁anlamış	-14822
▁ahal	-14823
▁kıpçak	-14824
▁onlarda	-14825
fice	-14826
▁bitmiş	-14827
▁kurarak	-14828
▁projede	-14829
▁yeraltı	-14830
gusu	-14831
▁tükür	-14832
▁açacak	-14833
▁duyduğum	-14834
▁önerileri	-14835
ceğine	-14836
▁toplamı	-14837
▁acayip	-14838
▁koyuldu	-14839
▁devrinde	-14840
▁öğün	-14841
▁tevfik	-14842
▁oluşmuş	-14843
▁kulağına	-14844
▁çıkararak	-14845
oh	-14846
▁kiz	-14847
▁hamd	-14848
▁donanma	-14849
▁içeride	-14850
▁doğuştan	-14851
▁temelini	-14852
▁sağlamaya	-14853
▁söyleyebilirim	-14854
▁acent	-14855
▁uysal	-14856
▁voley	-14857
eleyen	-14858
▁gelene	-14859
▁öldürdü	-14860
.]	-14861
▁geliri	-14862
▁sınıfın	-14863
▁başındaki	-14864
key	-14865
ness	-14866
▁olabilmek	-14867
dünüz	-14868
▁arıt	-14869
▁sony	-14870
▁filiz	-14871
▁koşarak	-14872
▁yolunun	-14873
▁birisidir	-14874
▁listesinde	-14875
▁şampiyonlar	-14876
▁güce	-14877
▁sabun	-14878
▁istismar	-14879
▁görmezden	-14880
▁kahramanı	-14881
▁dna	-14882
▁örüm	-14883
▁hümay	-14884
▁koyul	-14885
▁eylemi	-14886
▁çiling	-14887
▁]	-14888
bus	-14889
ilmemiş	-14890
▁yansım	-14891
▁terörle	-14892
▁mesajlar	-14893
berr	-14894
▁tanrısı	-14895
▁kolaydır	-14896
▁felâ	-14897
▁kuzu	-14898
▁sarık	-14899
▁yoğur	-14900
▁eşinin	-14901
▁tarihî	-14902
▁sevgisi	-14903
▁butonuna	-14904
rich	-14905
▁yakalay	-14906
▁112	-14907
ction	-14908
▁şifa	-14909
▁çöküş	-14910
▁diktatör	-14911
▁çeyre	-14912
▁ekranda	-14913
▁derinden	-14914
▁uygulamanın	-14915
riye	-14916
▁burc	-14917
▁teması	-14918
osh	-14919
▁ensar	-14920
▁şeriat	-14921
▁eklemek	-14922
▁raporda	-14923
▁yapmaları	-14924
ky	-14925
oma	-14926
▁nci	-14927
▁eşek	-14928
▁kelebek	-14929
ngilizler	-14930
▁yarımada	-14931
▁hizmetlere	-14932
▁öğrencilerinin	-14933
▁vakf	-14934
▁ihtiyacım	-14935
▁ves	-14936
▁hurma	-14937
▁dosyası	-14938
▁yatakta	-14939
▁tanıdığı	-14940
▁sema	-14941
▁görerek	-14942
▁renkte	-14943
▁köprülü	-14944
[...]
