<unk>	0
<s>	0
</s>	0
ar	-0
▁b	-1
er	-2
an	-3
in	-4
▁k	-5
en	-6
▁d	-7
ın	-8
▁s	-9
ir	-10
il	-11
▁y	-12
▁g	-13
al	-14
ak	-15
▁o	-16
lar	-17
▁t	-18
▁i	-19
▁v	-20
el	-21
ek	-22
▁h	-23
ma	-24
et	-25
la	-26
▁a	-27
un	-28
da	-29
de	-30
ler	-31
▁bir	-32
▁m	-33
or	-34
▁ve	-35
es	-36
iy	-37
im	-38
ır	-39
em	-40
▁ç	-41
iz	-42
ur	-43
at	-44
ik	-45
ed	-46
on	-47
ün	-48
ay	-49
▁ol	-50
ey	-51
as	-52
lı	-53
▁bu	-54
▁ya	-55
▁p	-56
dı	-57
ür	-58
▁ö	-59
is	-60
iş	-61
▁de	-62
am	-63
le	-64
ış	-65
aş	-66
▁f	-67
ıl	-68
▁da	-69
▁n	-70
dan	-71
▁ş	-72
du	-73
ul	-74
it	-75
▁al	-76
▁gö	-77
▁ka	-78
di	-79
ını	-80
ya	-81
um	-82
▁il	-83
ım	-84
ık	-85
li	-86
▁iç	-87
st	-88
ini	-89
üz	-90
▁ar	-91
ında	-92
ce	-93
ine	-94
ok	-95
ab	-96
den	-97
▁r	-98
ız	-99
ol	-100
▁e	-101
▁sa	-102
inde	-103
▁an	-104
lan	-105
ları	-106
▁z	-107
▁u	-108
yor	-109
az	-110
▁yap	-111
ük	-112
▁baş	-113
ti	-114
▁c	-115
▁1	-116
mas	-117
tı	-118
ların	-119
iler	-120
üm	-121
mak	-122
iyor	-123
ğı	-124
▁için	-125
esi	-126
▁kar	-127
dır	-128
ta	-129
leri	-130
eler	-131
▁gör	-132
▁et	-133
alar	-134
uş	-135
▁son	-136
ev	-137
ra	-138
ül	-139
ına	-140
▁bil	-141
ca	-142
▁gel	-143
üş	-144
▁2	-145
inin	-146
▁ed	-147
te	-148
ği	-149
unu	-150
oğ	-151
cak	-152
dir	-153
ah	-154
▁ay	-155
iye	-156
▁ver	-157
▁ger	-158
ıs	-159
▁“	-160
mış	-161
us	-162
uk	-163
▁ön	-164
lik	-165
▁on	-166
▁ile	-167
ut	-168
eç	-169
ec	-170
▁oldu	-171
▁in	-172
bil	-173
tir	-174
ib	-175
mek	-176
ön	-177
▁kon	-178
ha	-179
▁en	-180
lık	-181
▁(	-182
▁değ	-183
..	-184
▁tar	-185
uz	-186
miş	-187
edi	-188
ez	-189
tır	-190
tan	-191
larak	-192
▁kal	-193
ip	-194
öy	-195
▁ken	-196
len	-197
af	-198
man	-199
▁kad	-200
▁yer	-201
▁iş	-202
ından	-203
▁olarak	-204
▁kur	-205
▁her	-206
cı	-207
▁or	-208
üy	-209
▁ma	-210
▁çok	-211
▁olan	-212
▁ko	-213
ki	-214
se	-215
iniz	-216
ması	-217
laş	-218
ibi	-219
▁var	-220
▁el	-221
▁daha	-222
▁gün	-223
▁bul	-224
anı	-225
lay	-226
eş	-227
op	-228
▁tür	-229
lu	-230
lem	-231
eni	-232
ının	-233
▁ist	-234
▁bel	-235
▁olduğ	-236
eye	-237
▁gibi	-238
▁aç	-239
ağ	-240
san	-241
▁geç	-242
ro	-243
▁çık	-244
ası	-245
▁yar	-246
ih	-247
inden	-248
aki	-249
aman	-250
ıyor	-251
ken	-252
sa	-253
ka	-254
imiz	-255
▁ak	-256
▁sür	-257
▁ne	-258
▁öz	-259
▁kul	-260
▁uy	-261
eki	-262
▁ben	-263
me	-264
ap	-265
▁düş	-266
▁üz	-267
▁yan	-268
▁yıl	-269
▁ama	-270
▁"	-271
alı	-272
üt	-273
ama	-274
...	-275
yla	-276
▁doğ	-277
▁yaş	-278
isi	-279
▁hal	-280
▁dev	-281
▁bun	-282
iç	-283
▁çal	-284
▁par	-285
▁3	-286
eden	-287
▁kadar	-288
▁üzer	-289
▁sonra	-290
▁zaman	-291
ecek	-292
▁türk	-293
ru	-294
▁l	-295
▁dur	-296
daki	-297
ili	-298
os	-299
▁bak	-300
▁top	-301
▁büy	-302
ci	-303
ör	-304
▁tek	-305
▁karş	-306
▁kend	-307
maya	-308
▁kullan	-309
eri	-310
bilir	-311
üç	-312
▁çalış	-313
larını	-314
lü	-315
eb	-316
lerin	-317
eh	-318
▁kay	-319
ğr	-320
ğını	-321
yon	-322
▁gerek	-323
öz	-324
uy	-325
let	-326
▁bo	-327
tur	-328
eli	-329
▁şey	-330
▁mü	-331
▁say	-332
▁hay	-333
unda	-334
iyle	-335
▁es	-336
▁gen	-337
▁sor	-338
id	-339
aya	-340
▁ev	-341
▁ola	-342
▁ek	-343
ılı	-344
▁bulun	-345
▁yaz	-346
▁yön	-347
ece	-348
abil	-349
lam	-350
▁er	-351
met	-352
▁kap	-353
ist	-354
iyet	-355
▁der	-356
▁dön	-357
▁sağ	-358
▁20	-359
lara	-360
leş	-361
av	-362
ilen	-363
ımız	-364
may	-365
ep	-366
▁as	-367
arak	-368
ten	-369
ilm	-370
▁büyük	-371
ad	-372
▁uz	-373
▁biz	-374
▁hak	-375
gi	-376
ark	-377
▁pro	-378
dım	-379
asında	-380
▁değil	-381
▁yüz	-382
ğini	-383
dığı	-384
ılan	-385
▁taraf	-386
▁yak	-387
ıp	-388
sel	-389
men	-390
▁ki	-391
öl	-392
erek	-393
if	-394
▁mu	-395
yi	-396
▁eğ	-397
▁oy	-398
▁kat	-399
▁san	-400
▁söy	-401
lerini	-402
▁yeni	-403
▁ad	-404
nin	-405
bir	-406
▁har	-407
▁at	-408
deki	-409
▁den	-410
muş	-411
▁sah	-412
▁insan	-413
arı	-414
▁4	-415
▁karşı	-416
▁yol	-417
dü	-418
ot	-419
▁do	-420
edir	-421
▁şek	-422
imi	-423
cu	-424
▁siz	-425
▁sev	-426
▁gerç	-427
ede	-428
om	-429
▁gir	-430
ran	-431
ef	-432
malar	-433
▁yok	-434
▁özel	-435
▁göz	-436
▁bağ	-437
▁hem	-438
▁öğr	-439
ers	-440
▁ür	-441
▁uyg	-442
ada	-443
ic	-444
▁ok	-445
lama	-446
▁ise	-447
tu	-448
▁ü	-449
▁böl	-450
dür	-451
bul	-452
▁mer	-453
▁kiş	-454
▁söz	-455
▁düşün	-456
uyor	-457
▁hiç	-458
▁dün	-459
▁bur	-460
ter	-461
▁gerçek	-462
rı	-463
▁tem	-464
ğu	-465
eleri	-466
enin	-467
▁tak	-468
▁diye	-469
ladı	-470
ne	-471
▁öl	-472
kin	-473
▁mil	-474
▁ser	-475
▁tan	-476
▁di	-477
ısı	-478
▁belir	-479
00	-480
ster	-481
▁ce	-482
▁göre	-483
makta	-484
eyi	-485
▁yük	-486
▁alt	-487
▁5	-488
nın	-489
una	-490
▁ort	-491
tr	-492
tık	-493
▁düz	-494
öyle	-495
▁-	-496
▁kor	-497
▁ada	-498
▁açık	-499
der	-500
lere	-501
▁tarih	-502
▁olduğu	-503
nı	-504
▁sır	-505
▁su	-506
elik	-507
acak	-508
▁gü	-509
▁em	-510
▁19	-511
sız	-512
maz	-513
▁aş	-514
larda	-515
lah	-516
▁kan	-517
tür	-518
▁haz	-519
▁veya	-520
oc	-521
esinde	-522
▁başk	-523
▁dedi	-524
▁yet	-525
si	-526
▁has	-527
▁durum	-528
▁göster	-529
▁alan	-530
▁önem	-531
▁ağ	-532
▁az	-533
ınız	-534
▁ilk	-535
▁iyi	-536
▁çek	-537
▁olduğunu	-538
mesi	-539
dur	-540
etir	-541
aç	-542
▁fark	-543
▁ilg	-544
▁duy	-545
▁edil	-546
eyen	-547
▁sav	-548
tü	-549
lat	-550
▁tut	-551
▁iki	-552
larının	-553
ütün	-554
lığı	-555
▁getir	-556
tedir	-557
ht	-558
▁ter	-559
diği	-560
▁tarafından	-561
siniz	-562
sı	-563
▁şekil	-564
▁kö	-565
ğer	-566
▁hat	-567
▁kim	-568
▁değiş	-569
iv	-570
siz	-571
fa	-572
ram	-573
▁içinde	-574
▁türkiye	-575
▁dem	-576
▁201	-577
▁etti	-578
▁tüm	-579
anın	-580
up	-581
eti	-582
▁iz	-583
larına	-584
re	-585
tik	-586
▁bey	-587
aber	-588
atı	-589
.”	-590
unun	-591
▁kaz	-592
dık	-593
▁oluş	-594
iyordu	-595
art	-596
est	-597
▁kıs	-598
esine	-599
üs	-600
▁ban	-601
abilir	-602
▁bilg	-603
ileri	-604
ye	-605
▁bütün	-606
▁is	-607
▁aynı	-608
▁doğru	-609
▁av	-610
▁taş	-611
▁önce	-612
han	-613
meye	-614
▁kendi	-615
maktadır	-616
▁seç	-617
ünü	-618
▁bas	-619
▁neden	-620
▁sen	-621
▁ül	-622
ça	-623
usu	-624
▁mo	-625
esini	-626
▁bin	-627
▁kes	-628
daş	-629
ara	-630
▁dış	-631
mektedir	-632
▁öğren	-633
▁olma	-634
▁hiz	-635
sun	-636
dece	-637
etim	-638
kü	-639
▁olur	-640
▁zor	-641
▁ör	-642
lardan	-643
▁yay	-644
aret	-645
▁şekilde	-646
▁sal	-647
▁baz	-648
▁ab	-649
▁güz	-650
▁üst	-651
lerine	-652
liği	-653
▁mes	-654
▁hizmet	-655
▁birlik	-656
ocuk	-657
▁ancak	-658
alık	-659
▁w	-660
tar	-661
ret	-662
▁bek	-663
iyorum	-664
▁onun	-665
lerinin	-666
▁diğer	-667
▁hakk	-668
ven	-669
aları	-670
ayan	-671
ındaki	-672
▁şu	-673
▁faz	-674
ıla	-675
na	-676
▁kız	-677
▁arasında	-678
▁kurul	-679
▁j	-680
▁böyle	-681
▁genel	-682
lığ	-683
▁nas	-684
▁6	-685
▁konuş	-686
▁değer	-687
▁han	-688
▁çocuk	-689
dik	-690
▁devlet	-691
▁güzel	-692
ımı	-693
ri	-694
▁devam	-695
ünde	-696
uv	-697
ıldı	-698
▁geliş	-699
▁çıkar	-700
lerde	-701
▁sonu	-702
▁git	-703
üyor	-704
raf	-705
ayı	-706
▁gelen	-707
▁eğit	-708
▁tab	-709
▁boy	-710
olo	-711
larında	-712
ğin	-713
üne	-714
▁önemli	-715
▁fak	-716
▁mal	-717
▁ülk	-718
▁kit	-719
▁sahip	-720
▁ün	-721
▁fazla	-722
ılmış	-723
aca	-724
asyon	-725
▁ot	-726
iyat	-727
▁kr	-728
▁hayat	-729
▁ede	-730
hal	-731
bu	-732
▁başka	-733
ac	-734
ans	-735
ıy	-736
▁tes	-737
leştir	-738
dar	-739
ledi	-740
alan	-741
çe	-742
▁dik	-743
▁dav	-744
ilik	-745
▁ilgili	-746
mem	-747
▁im	-748
stan	-749
▁hazır	-750
▁bile	-751
▁dil	-752
larla	-753
▁adam	-754
▁eş	-755
tığı	-756
üp	-757
▁alın	-758
▁düzen	-759
unuz	-760
▁nasıl	-761
sek	-762
ber	-763
▁hav	-764
▁sat	-765
▁birlikte	-766
▁mi	-767
▁am	-768
▁şeh	-769
likle	-770
kez	-771
▁can	-772
ırak	-773
▁bunun	-774
▁savaş	-775
▁kadın	-776
lendir	-777
istem	-778
▁ayrı	-779
▁gön	-780
eket	-781
▁konu	-782
▁sadece	-783
▁yat	-784
▁7	-785
luk	-786
▁görün	-787
▁so	-788
▁onu	-789
miştir	-790
▁çev	-791
diğ	-792
▁dönem	-793
ley	-794
▁bırak	-795
▁din	-796
▁yardım	-797
kı	-798
▁bah	-799
▁etk	-800
▁sistem	-801
▁tel	-802
▁arka	-803
oloj	-804
▁üç	-805
▁kom	-806
ıcı	-807
▁merkez	-808
▁sık	-809
▁olmak	-810
▁güç	-811
▁bölg	-812
gün	-813
▁önc	-814
▁güven	-815
del	-816
▁saat	-817
stanbul	-818
ilerin	-819
mi	-820
▁eden	-821
bet	-822
▁eğitim	-823
dığını	-824
rup	-825
▁benim	-826
▁man	-827
mıştı	-828
▁üzerine	-829
dığ	-830
ebilir	-831
▁bazı	-832
▁te	-833
▁mut	-834
▁gid	-835
▁kaç	-836
▁mak	-837
▁kazan	-838
olu	-839
malı	-840
▁yür	-841
lerinde	-842
▁içer	-843
▁farklı	-844
mayı	-845
▁karar	-846
▁hep	-847
▁oyun	-848
masını	-849
▁haf	-850
▁eder	-851
▁sı	-852
▁ah	-853
▁ulaş	-854
▁kır	-855
bn	-856
lak	-857
kan	-858
▁bit	-859
yal	-860
sin	-861
▁şim	-862
▁kendis	-863
▁sar	-864
▁olacak	-865
▁uzun	-866
gu	-867
▁iliş	-868
20	-869
▁görev	-870
▁mad	-871
▁sit	-872
▁ses	-873
▁dünya	-874
cel	-875
laya	-876
▁ik	-877
▁8	-878
cek	-879
▁kam	-880
ünkü	-881
ulu	-882
ğü	-883
▁biri	-884
nun	-885
▁kav	-886
ildi	-887
ika	-888
▁tama	-889
▁res	-890
▁‘	-891
▁yüksek	-892
kat	-893
▁#	-894
▁küç	-895
rak	-896
▁hareket	-897
ılır	-898
lerden	-899
mez	-900
▁10	-901
▁tekn	-902
."	-903
ide	-904
▁yapılan	-905
por	-906
mıştır	-907
cü	-908
▁gaz	-909
▁tah	-910
▁tam	-911
▁çünkü	-912
sal	-913
liğ	-914
▁uygu	-915
▁ürün	-916
▁met	-917
oz	-918
▁iht	-919
▁hiçbir	-920
▁allah	-921
masına	-922
med	-923
▁bunu	-924
duğu	-925
▁rah	-926
eğ	-927
dim	-928
▁yem	-929
▁sek	-930
▁haber	-931
larından	-932
müş	-933
mayan	-934
▁li	-935
lerinden	-936
lâ	-937
▁olduk	-938
▁la	-939
esinin	-940
▁anlam	-941
▁hük	-942
▁tas	-943
ağı	-944
▁yal	-945
▁bulunan	-946
indeki	-947
layan	-948
▁koy	-949
▁üzerinde	-950
▁ona	-951
▁düny	-952
▁bar	-953
▁geçir	-954
▁mah	-955
gil	-956
▁bölüm	-957
▁fakat	-958
rar	-959
▁öy	-960
gel	-961
mişti	-962
ren	-963
▁halk	-964
siy	-965
▁arkadaş	-966
ebil	-967
▁yine	-968
lum	-969
▁ey	-970
▁kabul	-971
▁küçük	-972
lerle	-973
gram	-974
van	-975
lük	-976
elim	-977
aba	-978
tör	-979
lardı	-980
ıt	-981
▁sun	-982
▁artık	-983
▁görüş	-984
▁ber	-985
▁olay	-986
▁tur	-987
ban	-988
ulan	-989
▁belirt	-990
▁dok	-991
▁kas	-992
eceğ	-993
▁bana	-994
tal	-995
ver	-996
lo	-997
eg	-998
bar	-999
dem	-1000
▁9	-1001
▁pol	-1002
▁üzere	-1003
▁mev	-1004
▁olması	-1005
âr	-1006
▁gönder	-1007
▁hız	-1008
hur	-1009
▁mar	-1010
▁siy	-1011
ılması	-1012
orm	-1013
emiz	-1014
▁mek	-1015
▁dikkat	-1016
▁hemen	-1017
▁bay	-1018
▁hakkında	-1019
▁muh	-1020
▁genç	-1021
net	-1022
▁teş	-1023
▁yani	-1024
▁eski	-1025
uma	-1026
asına	-1027
▁ortaya	-1028
▁ask	-1029
▁fa	-1030
▁etmek	-1031
çi	-1032
suz	-1033
ni	-1034
▁yas	-1035
▁yönet	-1036
▁uygun	-1037
iyoruz	-1038
gan	-1039
▁pek	-1040
▁yaşam	-1041
za	-1042
▁sab	-1043
gı	-1044
▁seb	-1045
▁'	-1046
▁orta	-1047
tım	-1048
▁sos	-1049
▁os	-1050
▁kork	-1051
gin	-1052
çok	-1053
▁oğ	-1054
▁ren	-1055
▁kol	-1056
larımız	-1057
▁beled	-1058
usunda	-1059
▁işlem	-1060
ilmesi	-1061
▁cum	-1062
▁ayr	-1063
elerin	-1064
ıyordu	-1065
▁yor	-1066
▁sak	-1067
▁olmuş	-1068
▁başkanı	-1069
▁art	-1070
manın	-1071
be	-1072
▁oluştur	-1073
▁ro	-1074
edik	-1075
▁şimdi	-1076
▁bilin	-1077
▁mem	-1078
▁program	-1079
▁yakın	-1080
▁mey	-1081
baş	-1082
isinde	-1083
▁his	-1084
▁proj	-1085
▁diy	-1086
ivers	-1087
▁başladı	-1088
▁kayn	-1089
çı	-1090
▁cev	-1091
▁15	-1092
▁dolay	-1093
ket	-1094
▁fir	-1095
▁üy	-1096
ân	-1097
yan	-1098
oş	-1099
▁otur	-1100
iversit	-1101
▁yaklaş	-1102
▁,	-1103
yı	-1104
▁mı	-1105
ge	-1106
▁burada	-1107
kes	-1108
lamak	-1109
mam	-1110
madan	-1111
maları	-1112
▁nok	-1113
▁tal	-1114
▁kül	-1115
duğ	-1116
ince	-1117
▁başkan	-1118
▁*	-1119
▁vardı	-1120
▁ul	-1121
▁gül	-1122
ing	-1123
▁erk	-1124
he	-1125
sik	-1126
par	-1127
▁vardır	-1128
▁yerine	-1129
),	-1130
▁çöz	-1131
▁hüküm	-1132
▁dest	-1133
▁200	-1134
acı	-1135
▁geri	-1136
▁ihtiy	-1137
▁üniversit	-1138
▁mas	-1139
▁kolay	-1140
▁geldi	-1141
▁ifa	-1142
▁toplum	-1143
lantı	-1144
▁anlat	-1145
sam	-1146
▁hast	-1147
lanan	-1148
nız	-1149
lıyor	-1150
▁benz	-1151
det	-1152
sen	-1153
▁çeş	-1154
ümüz	-1155
▁kişi	-1156
▁–	-1157
▁osman	-1158
ilir	-1159
▁etm	-1160
▁inan	-1161
▁ef	-1162
▁biraz	-1163
▁destek	-1164
eme	-1165
▁pay	-1166
▁sil	-1167
▁başar	-1168
/1	-1169
▁bab	-1170
▁hâ	-1171
▁fır	-1172
▁çağ	-1173
▁ifade	-1174
tim	-1175
▁ayrıca	-1176
istan	-1177
işim	-1178
▁çar	-1179
▁sorun	-1180
▁eğer	-1181
▁sonr	-1182
▁rahat	-1183
▁birbir	-1184
▁bilgi	-1185
min	-1186
▁ail	-1187
▁deniz	-1188
▁yen	-1189
▁müdür	-1190
▁çin	-1191
▁tat	-1192
ig	-1193
▁film	-1194
▁tamam	-1195
▁sonuç	-1196
▁birçok	-1197
▁ziy	-1198
undan	-1199
aşa	-1200
▁per	-1201
▁plan	-1202
▁bizim	-1203
▁gelir	-1204
▁sosyal	-1205
▁sey	-1206
aştır	-1207
▁12	-1208
üc	-1209
▁anlaş	-1210
▁bugün	-1211
▁uzak	-1212
▁â	-1213
inizi	-1214
▁le	-1215
asını	-1216
▁beni	-1217
-1	-1218
▁cumhur	-1219
▁şir	-1220
▁istedi	-1221
▁oda	-1222
▁yalnız	-1223
▁yaptı	-1224
▁pey	-1225
▁vur	-1226
ınır	-1227
▁yayın	-1228
▁:	-1229
umuz	-1230
ekli	-1231
ov	-1232
▁tav	-1233
?”	-1234
▁sağlık	-1235
▁ner	-1236
▁[	-1237
ğa	-1238
sın	-1239
▁ard	-1240
▁yarat	-1241
).	-1242
bi	-1243
oğlu	-1244
▁18	-1245
▁kitap	-1246
▁millet	-1247
▁tanı	-1248
▁araştır	-1249
kün	-1250
leme	-1251
▁görül	-1252
unca	-1253
din	-1254
▁olabilir	-1255
▁kurum	-1256
▁sur	-1257
ort	-1258
res	-1259
▁özellikle	-1260
uh	-1261
tif	-1262
▁yılında	-1263
su	-1264
lemek	-1265
▁kez	-1266
cağ	-1267
ışı	-1268
lenen	-1269
▁boz	-1270
▁kah	-1271
dın	-1272
meler	-1273
▁altında	-1274
▁koş	-1275
gam	-1276
▁gerçekleştir	-1277
▁herkes	-1278
▁yağ	-1279
ayet	-1280
onom	-1281
▁olsun	-1282
amaz	-1283
▁istem	-1284
▁dir	-1285
lerimiz	-1286
▁tasar	-1287
ünün	-1288
▁müş	-1289
▁biç	-1290
▁yanı	-1291
dum	-1292
▁hes	-1293
deş	-1294
▁kil	-1295
▁öyle	-1296
▁çeşit	-1297
▁üret	-1298
dak	-1299
▁beş	-1300
uluk	-1301
▁diz	-1302
urt	-1303
▁ediyor	-1304
▁boş	-1305
bol	-1306
lim	-1307
eği	-1308
▁ağır	-1309
vet	-1310
▁ac	-1311
▁uç	-1312
per	-1313
tin	-1314
▁sul	-1315
og	-1316
ırım	-1317
▁tekrar	-1318
▁ch	-1319
▁kültür	-1320
sil	-1321
▁anla	-1322
▁kı	-1323
.1	-1324
▁fiyat	-1325
▁müz	-1326
▁kir	-1327
▁0	-1328
▁geçen	-1329
▁öğrenc	-1330
vi	-1331
▁bakan	-1332
▁bağlı	-1333
▁ulus	-1334
leyen	-1335
ch	-1336
▁sok	-1337
imde	-1338
tiği	-1339
teş	-1340
iydi	-1341
▁adı	-1342
▁ayak	-1343
medi	-1344
abilirsiniz	-1345
diler	-1346
▁11	-1347
ğimiz	-1348
▁ora	-1349
▁aşağı	-1350
▁telef	-1351
ünden	-1352
aj	-1353
▁asker	-1354
▁olup	-1355
▁avrup	-1356
âm	-1357
▁vak	-1358
siyon	-1359
▁çoğ	-1360
▁kut	-1361
▁paz	-1362
▁sınır	-1363
▁dol	-1364
▁erkek	-1365
kara	-1366
▁süre	-1367
eyh	-1368
▁kaldır	-1369
edim	-1370
kinci	-1371
▁kaynak	-1372
iyi	-1373
▁dö	-1374
▁kısa	-1375
▁sel	-1376
doğ	-1377
▁müm	-1378
uyu	-1379
ba	-1380
▁men	-1381
ilmiş	-1382
▁müs	-1383
▁edilen	-1384
▁günü	-1385
▁başla	-1386
ıntı	-1387
▁telefon	-1388
▁bilim	-1389
nek	-1390
▁köy	-1391
gamber	-1392
▁temel	-1393
▁gi	-1394
asının	-1395
▁ardından	-1396
▁buna	-1397
▁13	-1398
▁söyledi	-1399
▁dair	-1400
atan	-1401
▁terc	-1402
▁du	-1403
ilere	-1404
ğim	-1405
laştır	-1406
▁dönüş	-1407
ınıf	-1408
▁size	-1409
▁konusunda	-1410
eceği	-1411
▁sultan	-1412
▁sanat	-1413
üf	-1414
▁oyn	-1415
ali	-1416
▁kuş	-1417
▁öldür	-1418
▁bor	-1419
▁siyas	-1420
!”	-1421
▁abd	-1422
▁peygamber	-1423
▁ku	-1424
▁zar	-1425
▁değildir	-1426
▁öğret	-1427
▁hiss	-1428
ydı	-1429
▁dah	-1430
sunuz	-1431
▁med	-1432
▁dör	-1433
▁kontr	-1434
ılacak	-1435
▁madde	-1436
....	-1437
kaç	-1438
▁ölüm	-1439
▁araç	-1440
▁ir	-1441
uru	-1442
düğ	-1443
edef	-1444
▁paşa	-1445
▁yeniden	-1446
▁ekonom	-1447
▁yönetim	-1448
▁para	-1449
▁yav	-1450
▁ilişk	-1451
▁avrupa	-1452
▁iti	-1453
ıyorum	-1454
oy	-1455
▁değerlendir	-1456
▁meydan	-1457
▁id	-1458
▁sin	-1459
▁kardeş	-1460
abı	-1461
▁kalk	-1462
ade	-1463
oğraf	-1464
▁hey	-1465
▁mec	-1466
▁14	-1467
▁ordu	-1468
▁verdi	-1469
▁bildir	-1470
ime	-1471
▁kesin	-1472
▁şöyle	-1473
ici	-1474
ınca	-1475
▁zamanda	-1476
larıyla	-1477
▁ait	-1478
▁um	-1479
▁aleyh	-1480
duk	-1481
ve	-1482
ehir	-1483
▁isim	-1484
tem	-1485
ngil	-1486
ızı	-1487
▁mümkün	-1488
▁hedef	-1489
▁yaptığı	-1490
▁sınıf	-1491
▁yapan	-1492
nde	-1493
▁çevr	-1494
▁okul	-1495
meden	-1496
▁16	-1497
▁şehir	-1498
▁geniş	-1499
isini	-1500
▁dal	-1501
▁spor	-1502
landır	-1503
▁aras	-1504
▁kontrol	-1505
▁kem	-1506
▁paylaş	-1507
▁şah	-1508
sanız	-1509
aların	-1510
üman	-1511
leriyle	-1512
▁karış	-1513
▁renk	-1514
▁ölç	-1515
▁üc	-1516
gın	-1517
▁cin	-1518
▁şirket	-1519
▁müca	-1520
▁demek	-1521
▁oluyor	-1522
▁davran	-1523
▁osmanlı	-1524
▁gez	-1525
▁soru	-1526
▁temiz	-1527
lardır	-1528
▁fran	-1529
▁kaf	-1530
▁birkaç	-1531
▁ankara	-1532
▁%	-1533
zı	-1534
▁tabi	-1535
▁beraber	-1536
▁saç	-1537
▁tep	-1538
pan	-1539
▁indir	-1540
▁parç	-1541
▁dayan	-1542
aten	-1543
▁cam	-1544
ke	-1545
adan	-1546
▁gazet	-1547
▁değişik	-1548
▁başv	-1549
▁engel	-1550
▁re	-1551
▁st	-1552
ğın	-1553
▁unu	-1554
▁incel	-1555
▁onlar	-1556
▁hun	-1557
▁ruh	-1558
▁milyon	-1559
▁geliştir	-1560
▁olmayan	-1561
▁devr	-1562
▁tarihi	-1563
▁değiştir	-1564
▁dar	-1565
▁pr	-1566
▁gece	-1567
▁|	-1568
esinden	-1569
ısında	-1570
▁_	-1571
▁ana	-1572
▁teh	-1573
ıda	-1574
cağını	-1575
▁kendiler	-1576
mı	-1577
▁asl	-1578
▁(1	-1579
▁saldır	-1580
▁belki	-1581
▁dak	-1582
▁17	-1583
▁rek	-1584
▁kendini	-1585
▁hatta	-1586
▁suç	-1587
▁yüksel	-1588
alım	-1589
▁çalışmalar	-1590
alt	-1591
▁prof	-1592
▁çıktı	-1593
izm	-1594
▁oldukça	-1595
▁kalit	-1596
▁ziyaret	-1597
201	-1598
▁meh	-1599
ola	-1600
▁yaşan	-1601
▁ço	-1602
▁bize	-1603
▁mücadel	-1604
acağ	-1605
▁rus	-1606
bilirsiniz	-1607
▁kuv	-1608
▁dr	-1609
▁ann	-1610
▁lis	-1611
▁yüzde	-1612
▁merkezi	-1613
▁fot	-1614
cağı	-1615
▁gec	-1616
▁hatır	-1617
▁fik	-1618
nsan	-1619
▁po	-1620
hangi	-1621
meyi	-1622
▁mis	-1623
▁özg	-1624
ator	-1625
▁içerisinde	-1626
▁gereken	-1627
▁tanrı	-1628
▁cevap	-1629
▁yapmak	-1630
▁tic	-1631
bak	-1632
ekk	-1633
▁af	-1634
▁konusu	-1635
lk	-1636
▁alış	-1637
▁giz	-1638
▁kıy	-1639
âh	-1640
▁yanında	-1641
▁mik	-1642
isinin	-1643
umu	-1644
iyeti	-1645
/2	-1646
erj	-1647
▁olsa	-1648
▁uğr	-1649
▁tercih	-1650
▁ham	-1651
▁un	-1652
▁dan	-1653
erli	-1654
▁tük	-1655
▁des	-1656
▁gal	-1657
▁model	-1658
ğiniz	-1659
▁grup	-1660
lek	-1661
▁yemek	-1662
yet	-1663
▁sizin	-1664
▁veren	-1665
▁bunlar	-1666
▁gerekir	-1667
▁/	-1668
▁alman	-1669
yordu	-1670
umlu	-1671
elerini	-1672
▁vatan	-1673
▁ta	-1674
pr	-1675
▁pazar	-1676
▁giriş	-1677
▁rağ	-1678
50	-1679
tor	-1680
eyin	-1681
▁elde	-1682
▁oku	-1683
arası	-1684
elere	-1685
▁düşünc	-1686
▁bi	-1687
muz	-1688
▁nokt	-1689
▁nef	-1690
▁örg	-1691
▁onların	-1692
▁yapıl	-1693
eyim	-1694
▁kapsam	-1695
▁bes	-1696
▁herhangi	-1697
▁kür	-1698
▁bal	-1699
,”	-1700
▁serv	-1701
elen	-1702
▁ih	-1703
com	-1704
▁tr	-1705
▁çalışan	-1706
▁kötü	-1707
▁çiz	-1708
▁ali	-1709
▁ker	-1710
▁nit	-1711
▁don	-1712
ize	-1713
ğında	-1714
▁30	-1715
▁gider	-1716
iştir	-1717
▁pat	-1718
▁ip	-1719
efer	-1720
▁adet	-1721
▁dost	-1722
▁giy	-1723
▁sonunda	-1724
▁cen	-1725
▁ücret	-1726
▁teknoloj	-1727
▁dört	-1728
▁mez	-1729
▁faal	-1730
▁hoş	-1731
▁fil	-1732
▁ister	-1733
masının	-1734
▁hafta	-1735
▁kurt	-1736
nda	-1737
▁itibar	-1738
▁rağmen	-1739
▁çıkan	-1740
şam	-1741
inci	-1742
▁kara	-1743
uvar	-1744
?"	-1745
▁yık	-1746
▁part	-1747
of	-1748
ecektir	-1749
alet	-1750
▁sol	-1751
▁özellik	-1752
parator	-1753
end	-1754
ari	-1755
▁bundan	-1756
âz	-1757
▁kendisine	-1758
▁aldı	-1759
ser	-1760
▁yapı	-1761
30	-1762
▁çalışma	-1763
▁takım	-1764
▁seçim	-1765
▁bakım	-1766
▁hava	-1767
▁aslında	-1768
▁elek	-1769
▁yoğ	-1770
ben	-1771
eceğini	-1772
▁ark	-1773
▁of	-1774
▁onları	-1775
▁etkin	-1776
▁adım	-1777
▁gök	-1778
malıdır	-1779
ant	-1780
issel	-1781
▁fay	-1782
mer	-1783
▁derece	-1784
▁iler	-1785
kil	-1786
▁yöntem	-1787
▁toprak	-1788
▁ateş	-1789
▁yolu	-1790
can	-1791
lüğ	-1792
lis	-1793
2,	-1794
▁yere	-1795
tiğini	-1796
▁gem	-1797
▁sektör	-1798
▁yorum	-1799
▁yaşa	-1800
▁anda	-1801
şa	-1802
mesini	-1803
▁1.	-1804
▁düşman	-1805
sınız	-1806
▁aleyhissel	-1807
▁çözüm	-1808
▁ikinci	-1809
landı	-1810
▁belli	-1811
▁gerçekten	-1812
▁dışında	-1813
▁ders	-1814
▁senin	-1815
▁ilet	-1816
fer	-1817
▁ortak	-1818
las	-1819
▁eser	-1820
▁gar	-1821
▁yarar	-1822
▁müsl	-1823
▁bat	-1824
▁yerde	-1825
▁yuk	-1826
▁«	-1827
▁unut	-1828
▁tl	-1829
▁yaban	-1830
▁takip	-1831
ternet	-1832
izi	-1833
▁belediye	-1834
lüğü	-1835
▁iy	-1836
▁ap	-1837
sat	-1838
▁şekl	-1839
▁orada	-1840
▁yapar	-1841
▁faaliyet	-1842
000	-1843
itik	-1844
▁kims	-1845
▁zaten	-1846
alarda	-1847
▁silah	-1848
▁aydın	-1849
elerde	-1850
▁oran	-1851
▁böylece	-1852
meyen	-1853
▁almak	-1854
▁yum	-1855
▁halde	-1856
▁teknik	-1857
▁toplantı	-1858
▁veril	-1859
▁boyunca	-1860
ast	-1861
yo	-1862
▁amaç	-1863
mayacak	-1864
esiyle	-1865
rik	-1866
▁kuvvet	-1867
▁organ	-1868
▁götür	-1869
▁teda	-1870
▁taşı	-1871
▁sabah	-1872
▁maç	-1873
ala	-1874
▁x	-1875
▁üzerinden	-1876
▁karşılaş	-1877
▁çeşitli	-1878
▁hayvan	-1879
▁zorunda	-1880
od	-1881
▁söylem	-1882
madı	-1883
▁ele	-1884
▁mus	-1885
▁ara	-1886
alama	-1887
▁müslüman	-1888
rah	-1889
▁sebep	-1890
▁öde	-1891
▁hik	-1892
▁enerj	-1893
▁dolayı	-1894
▁doğr	-1895
▁türlü	-1896
leye	-1897
1,	-1898
▁mahk	-1899
lış	-1900
▁sıra	-1901
▁gerekli	-1902
▁fotoğraf	-1903
▁kab	-1904
▁çocu	-1905
üb	-1906
▁—	-1907
▁##	-1908
kır	-1909
▁fel	-1910
▁mesel	-1911
ısından	-1912
imizin	-1913
▁doğal	-1914
lığını	-1915
ülü	-1916
5,	-1917
▁akıl	-1918
okr	-1919
▁sem	-1920
şte	-1921
▁amer	-1922
▁çif	-1923
▁kalan	-1924
luluk	-1925
▁belediy	-1926
▁24	-1927
luğu	-1928
3,	-1929
gen	-1930
▁olabil	-1931
▁şart	-1932
▁idi	-1933
▁val	-1934
▁elektr	-1935
▁öner	-1936
▁örnek	-1937
▁ettiği	-1938
▁geçmiş	-1939
tiler	-1940
1.	-1941
▁şeyi	-1942
8,	-1943
▁uzman	-1944
▁ıs	-1945
lanmış	-1946
onu	-1947
▁durumda	-1948
fi	-1949
isine	-1950
üst	-1951
▁soy	-1952
düğü	-1953
▁acı	-1954
▁güneş	-1955
▁üniversitesi	-1956
emez	-1957
▁sürdür	-1958
imizi	-1959
ku	-1960
ıyla	-1961
▁ederek	-1962
▁edin	-1963
▁del	-1964
for	-1965
mel	-1966
sak	-1967
luğ	-1968
▁piy	-1969
menin	-1970
dî	-1971
▁soğ	-1972
](	-1973
▁zen	-1974
irler	-1975
▁cih	-1976
▁kuz	-1977
▁hastan	-1978
▁kurulu	-1979
▁sürekli	-1980
▁mark	-1981
▁kelim	-1982
ob	-1983
gun	-1984
7,	-1985
ışık	-1986
▁temsil	-1987
▁insanlar	-1988
ent	-1989
▁hızlı	-1990
▁tanım	-1991
▁amacı	-1992
cer	-1993
▁belg	-1994
▁ha	-1995
▁vaz	-1996
▁sez	-1997
9,	-1998
ima	-1999
unuyor	-2000
▁hesap	-2001
afa	-2002
▁num	-2003
ukuk	-2004
ıyoruz	-2005
yıl	-2006
▁th	-2007
▁parti	-2008
dıkları	-2009
üsü	-2010
ırken	-2011
ira	-2012
▁kapı	-2013
▁satış	-2014
lin	-2015
▁.	-2016
ısıyla	-2017
taş	-2018
bat	-2019
▁>	-2020
▁sahibi	-2021
▁sıcak	-2022
▁iddi	-2023
▁anad	-2024
▁sana	-2025
▁2.	-2026
▁buy	-2027
4,	-2028
layacak	-2029
6,	-2030
▁başına	-2031
uştur	-2032
▁yüzden	-2033
▁for	-2034
unan	-2035
br	-2036
2.	-2037
▁sayf	-2038
▁beyaz	-2039
▁sam	-2040
ekkür	-2041
cut	-2042
dük	-2043
▁ihtiyaç	-2044
kın	-2045
▁gelecek	-2046
▁edecek	-2047
▁yardımcı	-2048
,"	-2049
▁hangi	-2050
ale	-2051
▁nak	-2052
▁geçti	-2053
▁şeyler	-2054
▁şaş	-2055
▁**	-2056
▁uygulan	-2057
▁tart	-2058
▁yukarı	-2059
eder	-2060
▁it	-2061
ılım	-2062
▁beb	-2063
▁2018	-2064
sta	-2065
alarında	-2066
▁bilgiler	-2067
dr	-2068
mesine	-2069
▁yazı	-2070
▁arab	-2071
▁mahal	-2072
isyon	-2073
ga	-2074
▁gerçekleş	-2075
ia	-2076
▁üretim	-2077
bur	-2078
anıyor	-2079
▁canlı	-2080
▁altın	-2081
lıkla	-2082
▁cez	-2083
ılıyor	-2084
▁hukuk	-2085
▁çevir	-2086
eci	-2087
▁istiyor	-2088
▁25	-2089
▁yoktur	-2090
▁güçlü	-2091
▁yönelik	-2092
▁arasındaki	-2093
teki	-2094
fet	-2095
arlar	-2096
▁onlara	-2097
manız	-2098
imize	-2099
▁mağ	-2100
▁ileri	-2101
▁\	-2102
▁may	-2103
inc	-2104
▁yurt	-2105
▁bunların	-2106
▁yoğun	-2107
▁mevcut	-2108
▁nedeniyle	-2109
ğımız	-2110
▁nerede	-2111
▁milli	-2112
elerinin	-2113
▁yatırım	-2114
▁örne	-2115
tay	-2116
▁etmiş	-2117
▁şi	-2118
▁diyor	-2119
▁dağ	-2120
lerdir	-2121
▁halinde	-2122
lerdi	-2123
matik	-2124
ngiliz	-2125
▁edilm	-2126
mir	-2127
▁anadolu	-2128
uyordu	-2129
▁olmaz	-2130
▁derin	-2131
ati	-2132
türk	-2133
▁yabancı	-2134
▁vatandaş	-2135
▁det	-2136
fak	-2137
▁must	-2138
▁akşam	-2139
▁cid	-2140
▁ortam	-2141
inize	-2142
▁yanlış	-2143
▁kayıt	-2144
üncü	-2145
▁demir	-2146
▁min	-2147
her	-2148
▁boğ	-2149
▁çarp	-2150
tiv	-2151
▁ilç	-2152
▁kral	-2153
▁fen	-2154
▁meydana	-2155
▁zarar	-2156
hu	-2157
▁dünyanın	-2158
▁çift	-2159
larım	-2160
▁sig	-2161
lül	-2162
▁verilen	-2163
▁toplam	-2164
doğan	-2165
do	-2166
meli	-2167
▁gru	-2168
▁nes	-2169
▁ilişkin	-2170
▁fet	-2171
▁içine	-2172
▁tu	-2173
eştir	-2174
▁199	-2175
▁sefer	-2176
mekte	-2177
enek	-2178
mey	-2179
alarını	-2180
▁dağı	-2181
say	-2182
▁çat	-2183
hak	-2184
▁uluslar	-2185
▁tartış	-2186
▁kendisi	-2187
laması	-2188
▁kuruluş	-2189
▁net	-2190
▁arz	-2191
▁bayan	-2192
**	-2193
▁malz	-2194
▁karak	-2195
▁...	-2196
▁rak	-2197
taj	-2198
▁başarı	-2199
▁rap	-2200
meleri	-2201
masında	-2202
iğ	-2203
▁isteyen	-2204
imin	-2205
▁\-	-2206
▁fin	-2207
▁bulunduğu	-2208
▁batı	-2209
▁yavaş	-2210
rin	-2211
▁otel	-2212
▁mustafa	-2213
▁pen	-2214
▁sına	-2215
▁hale	-2216
▁arada	-2217
▁özgür	-2218
▁öğretmen	-2219
▁hen	-2220
▁hayır	-2221
layarak	-2222
▁örgüt	-2223
▁pren	-2224
▁str	-2225
▁kamu	-2226
yar	-2227
▁hır	-2228
allah	-2229
▁doktor	-2230
lığın	-2231
ıldığı	-2232
▁tamamen	-2233
▁teşekkür	-2234
▁tık	-2235
10	-2236
▁kuru	-2237
▁şark	-2238
▁kok	-2239
▁yaklaşık	-2240
alara	-2241
miyor	-2242
▁kılı	-2243
▁geliyor	-2244
3.	-2245
▁vide	-2246
▁sayesinde	-2247
eniz	-2248
▁kimse	-2249
▁huz	-2250
▁fer	-2251
-2	-2252
ğım	-2253
▁sırasında	-2254
▁ii	-2255
ana	-2256
anlar	-2257
üyle	-2258
▁kendisini	-2259
▁aleyhisselâm	-2260
bel	-2261
▁güvenlik	-2262
işti	-2263
▁pu	-2264
▁se	-2265
▁insanların	-2266
▁the	-2267
▁sırada	-2268
▁adına	-2269
lamaya	-2270
tesi	-2271
mamış	-2272
▁aday	-2273
mparator	-2274
▁tay	-2275
işah	-2276
▁düşünüyor	-2277
▁bizi	-2278
ısını	-2279
pit	-2280
▁sınav	-2281
▁and	-2282
▁verir	-2283
evi	-2284
▁polis	-2285
diğini	-2286
bay	-2287
▁kişinin	-2288
amak	-2289
lilik	-2290
▁doğu	-2291
▁konuda	-2292
▁önünde	-2293
▁pad	-2294
▁bağım	-2295
▁vermek	-2296
▁izin	-2297
▁yarış	-2298
▁rapor	-2299
kar	-2300
▁çab	-2301
cısı	-2302
iliği	-2303
▁bilgis	-2304
.)	-2305
lığa	-2306
elerine	-2307
▁mehmet	-2308
▁ez	-2309
▁verdiği	-2310
▁dü	-2311
▁yüzyıl	-2312
▁if	-2313
▁öğ	-2314
slam	-2315
▁politik	-2316
▁oğlu	-2317
▁peygamberimiz	-2318
▁yazar	-2319
kanı	-2320
ulmuş	-2321
▁tehlik	-2322
▁etkil	-2323
▁pers	-2324
▁benzer	-2325
▁gür	-2326
▁internet	-2327
▁uluslararası	-2328
▁diş	-2329
▁meş	-2330
▁işaret	-2331
iri	-2332
▁kendine	-2333
▁açısından	-2334
▁sp	-2335
yum	-2336
▁komut	-2337
▁pan	-2338
▁kullanıcı	-2339
ğınız	-2340
▁sistemi	-2341
▁beri	-2342
▁teslim	-2343
▁öd	-2344
▁seni	-2345
▁olacaktır	-2346
▁savun	-2347
ılmıştır	-2348
▁kent	-2349
▁durumu	-2350
▁hz	-2351
▁us	-2352
▁sizi	-2353
▁kaybet	-2354
▁mıs	-2355
▁yoksa	-2356
ısına	-2357
lerce	-2358
mal	-2359
ediler	-2360
▁yana	-2361
▁padişah	-2362
amaya	-2363
▁karşılık	-2364
▁yaptık	-2365
olojik	-2366
▁işi	-2367
▁makin	-2368
asından	-2369
▁bank	-2370
atür	-2371
▁beklen	-2372
▁haline	-2373
▁nis	-2374
▁beden	-2375
▁mutlu	-2376
▁sonucu	-2377
▁resim	-2378
▁ba	-2379
▁müh	-2380
▁anlay	-2381
▁hastalık	-2382
▁mutlak	-2383
▁tip	-2384
üle	-2385
▁ticaret	-2386
düm	-2387
alarının	-2388
▁key	-2389
▁ekip	-2390
isk	-2391
liyor	-2392
▁dek	-2393
▁şeklinde	-2394
▁araştırma	-2395
▁kanun	-2396
▁esas	-2397
▁gay	-2398
▁gitti	-2399
▁rol	-2400
▁def	-2401
▁mot	-2402
▁erdoğan	-2403
sem	-2404
▁cumhurbaş	-2405
geç	-2406
▁değildi	-2407
▁siv	-2408
▁yalnızca	-2409
▁talep	-2410
▁tarihinde	-2411
▁kâ	-2412
talya	-2413
liğini	-2414
▁baktı	-2415
po	-2416
tep	-2417
▁zengin	-2418
▁to	-2419
▁adlı	-2420
▁dakika	-2421
▁merak	-2422
son	-2423
inç	-2424
▁nedenle	-2425
bo	-2426
htm	-2427
îr	-2428
▁açıklama	-2429
ğine	-2430
▁eg	-2431
▁yıldı	-2432
ılmaz	-2433
▁efen	-2434
▁kapat	-2435
▁ayır	-2436
▁cihaz	-2437
lulu	-2438
▁sebeb	-2439
5.	-2440
▁bilgisay	-2441
gar	-2442
▁detay	-2443
▁mesaj	-2444
▁web	-2445
▁not	-2446
haf	-2447
bah	-2448
▁birden	-2449
dığım	-2450
▁yapılacak	-2451
lacak	-2452
ilerek	-2453
urdu	-2454
▁hükümet	-2455
ülen	-2456
▁şüp	-2457
▁dışarı	-2458
▁yürüt	-2459
▁hisset	-2460
iran	-2461
▁sevg	-2462
▁mart	-2463
▁dahil	-2464
▁hayal	-2465
▁başlan	-2466
\.	-2467
7.	-2468
▁dolu	-2469
şı	-2470
6.	-2471
har	-2472
▁tasarım	-2473
▁müşter	-2474
ton	-2475
taki	-2476
▁çer	-2477
▁yoktu	-2478
▁altına	-2479
”,	-2480
▁güc	-2481
▁dolayısıyla	-2482
▁başarılı	-2483
▁duygu	-2484
eyle	-2485
▁insanın	-2486
▁mektu	-2487
▁zih	-2488
▁ho	-2489
atik	-2490
▁emin	-2491
ilerinin	-2492
▁demokr	-2493
▁kum	-2494
▁huzur	-2495
▁21	-2496
ormal	-2497
▁kuzey	-2498
mat	-2499
▁çö	-2500
▁terör	-2501
amız	-2502
▁çiç	-2503
ıştır	-2504
▁kilo	-2505
sk	-2506
▁keş	-2507
▁fut	-2508
▁bahs	-2509
▁sordu	-2510
▁yeş	-2511
ladığı	-2512
ate	-2513
▁ces	-2514
▁söylen	-2515
▁idar	-2516
▁sanki	-2517
▁duvar	-2518
▁henüz	-2519
anlık	-2520
▁ekonomik	-2521
▁28	-2522
9.	-2523
▁yıldır	-2524
▁kasım	-2525
▁aldığı	-2526
▁ettik	-2527
▁olmadığını	-2528
▁kurtar	-2529
▁aşk	-2530
dığımız	-2531
▁aracı	-2532
ılma	-2533
▁sanay	-2534
lanması	-2535
▁dos	-2536
▁yandan	-2537
▁güney	-2538
▁karşısında	-2539
diğinde	-2540
▁prens	-2541
▁başında	-2542
▁tespit	-2543
va	-2544
▁yaptır	-2545
▁aya	-2546
▁olmas	-2547
elerinde	-2548
▁eb	-2549
ünüz	-2550
▁açı	-2551
▁servis	-2552
ina	-2553
esel	-2554
▁oper	-2555
▁fat	-2556
ile	-2557
▁alır	-2558
▁kurtul	-2559
▁olun	-2560
▁cep	-2561
▁önceki	-2562
▁uğ	-2563
▁piyas	-2564
dılar	-2565
▁dam	-2566
4.	-2567
▁sap	-2568
lanır	-2569
anlı	-2570
ğinde	-2571
▁100	-2572
▁hafif	-2573
kim	-2574
mıyor	-2575
zmir	-2576
izik	-2577
▁günümüz	-2578
▁davranış	-2579
▁uygulama	-2580
▁şid	-2581
şehir	-2582
▁tekli	-2583
▁içeri	-2584
ledik	-2585
▁biçimde	-2586
▁müzik	-2587
▁od	-2588
▁bağlantı	-2589
▁kişiler	-2590
▁cil	-2591
▁2/	-2592
▁22	-2593
▁kapsamında	-2594
▁saf	-2595
▁artır	-2596
ele	-2597
▁varsa	-2598
▁birleş	-2599
▁koşul	-2600
▁satın	-2601
ger	-2602
▁be	-2603
▁günlük	-2604
▁işlet	-2605
mamız	-2606
▁temmuz	-2607
amet	-2608
▁evet	-2609
teri	-2610
▁bunları	-2611
▁eylül	-2612
isel	-2613
▁50	-2614
▁bazen	-2615
ene	-2616
▁list	-2617
lâm	-2618
▁aralık	-2619
alarına	-2620
go	-2621
▁kavram	-2622
▁mur	-2623
▁iletişim	-2624
.,	-2625
▁uyan	-2626
yüz	-2627
osu	-2628
▁ocak	-2629
ğe	-2630
altı	-2631
▁şam	-2632
▁mon	-2633
cılık	-2634
ğan	-2635
▁defa	-2636
▁uc	-2637
▁person	-2638
▁sayılı	-2639
▁işte	-2640
▁isten	-2641
../	-2642
liler	-2643
▁tıp	-2644
▁ülkemiz	-2645
vek	-2646
▁kullanılan	-2647
▁psik	-2648
▁konuştu	-2649
40	-2650
](../	-2651
▁cumhuriyet	-2652
elikle	-2653
▁bol	-2654
▁altı	-2655
60	-2656
▁aktar	-2657
▁sorum	-2658
▁3.	-2659
▁çoğu	-2660
▁bahç	-2661
▁mük	-2662
▁bakış	-2663
▁40	-2664
rek	-2665
▁yaşayan	-2666
abilecek	-2667
▁ciddi	-2668
▁ünlü	-2669
▁yıllık	-2670
lit	-2671
▁şer	-2672
▁fayd	-2673
▁sözleş	-2674
dam	-2675
ıyı	-2676
str	-2677
▁ondan	-2678
▁itibaren	-2679
asyonu	-2680
▁prob	-2681
▁end	-2682
▁kullanım	-2683
▁yeri	-2684
▁görüyor	-2685
▁futbol	-2686
▁edilir	-2687
▁yıldız	-2688
duğunu	-2689
enler	-2690
▁kayb	-2691
▁yerleş	-2692
▁edildi	-2693
acağı	-2694
▁birinci	-2695
larınız	-2696
▁inşa	-2697
▁varlık	-2698
▁no	-2699
▁bilgisayar	-2700
▁27	-2701
ital	-2702
▁yılı	-2703
▁zev	-2704
▁belediyesi	-2705
▁olursa	-2706
▁oluşan	-2707
▁2017	-2708
▁yanına	-2709
▁br	-2710
gör	-2711
▁tör	-2712
ârî	-2713
lendi	-2714
esiz	-2715
aket	-2716
nu	-2717
▁cem	-2718
tıyor	-2719
▁tarif	-2720
▁yü	-2721
▁hed	-2722
▁oyuncu	-2723
▁eylem	-2724
▁stan	-2725
▁alıp	-2726
▁uygulam	-2727
▁kısm	-2728
▁23	-2729
▁istiyorum	-2730
mızı	-2731
sp	-2732
oloji	-2733
▁düzey	-2734
▁resmi	-2735
▁seviy	-2736
▁ebu	-2737
qu	-2738
dikleri	-2739
red	-2740
▁olmadığı	-2741
▁soh	-2742
▁felse	-2743
▁ic	-2744
▁birey	-2745
8.	-2746
elerden	-2747
▁şiddet	-2748
▁ekim	-2749
çiler	-2750
▁ahmet	-2751
▁miktar	-2752
▁malzem	-2753
▁muham	-2754
▁şar	-2755
▁ib	-2756
ırı	-2757
yse	-2758
▁laz	-2759
▁duyg	-2760
tey	-2761
▁başvur	-2762
▁had	-2763
▁eksik	-2764
▁normal	-2765
▁olmuştur	-2766
▁aile	-2767
▁gerekiyor	-2768
▁köş	-2769
▁balık	-2770
▁uyar	-2771
▁pet	-2772
emek	-2773
sızlık	-2774
▁tüket	-2775
ite	-2776
ücu	-2777
▁yunan	-2778
▁köp	-2779
▁memnun	-2780
çev	-2781
▁dedim	-2782
▁form	-2783
▁etraf	-2784
atif	-2785
no	-2786
▁mücadele	-2787
▁sert	-2788
▁pas	-2789
▁kural	-2790
lenmiş	-2791
▁beğ	-2792
▁teb	-2793
▁barış	-2794
▁ceza	-2795
▁kitab	-2796
▁yeşil	-2797
▁nüf	-2798
▁birliği	-2799
▁biçim	-2800
▁çocuğ	-2801
▁problem	-2802
ersiz	-2803
ımıza	-2804
▁doldur	-2805
▁süreç	-2806
▁şiir	-2807
▁tesis	-2808
▁bayram	-2809
▁araya	-2810
üme	-2811
▁ülke	-2812
▁hepsi	-2813
▁boyut	-2814
▁basın	-2815
▁video	-2816
▁kaş	-2817
▁sokak	-2818
▁kemal	-2819
işi	-2820
▁hüc	-2821
▁aks	-2822
▁ışık	-2823
▁naz	-2824
▁ge	-2825
▁tec	-2826
▁görmek	-2827
▁sayı	-2828
▁29	-2829
▁anal	-2830
izyon	-2831
▁sıkıntı	-2832
▁26	-2833
▁dök	-2834
ullah	-2835
deniz	-2836
▁görüntü	-2837
▁nokta	-2838
mada	-2839
▁saray	-2840
▁üstün	-2841
hi	-2842
▁eğlen	-2843
▁sayısı	-2844
mu	-2845
▁kış	-2846
▁###	-2847
▁davet	-2848
▁bağır	-2849
▁alınan	-2850
▁mekan	-2851
80	-2852
▁örneğin	-2853
dern	-2854
▁enerji	-2855
one	-2856
omo	-2857
▁önüne	-2858
▁günde	-2859
ümü	-2860
ücü	-2861
▁mayıs	-2862
▁nedir	-2863
▁göl	-2864
▁süt	-2865
▁haziran	-2866
liğin	-2867
lüyor	-2868
dıktan	-2869
▁fırsat	-2870
lamış	-2871
▁sohbet	-2872
▁day	-2873
hay	-2874
fe	-2875
▁far	-2876
▁başvuru	-2877
eğin	-2878
▁ekran	-2879
▁milletvek	-2880
ii	-2881
▁yola	-2882
emi	-2883
lığına	-2884
amı	-2885
▁edip	-2886
memiş	-2887
▁muht	-2888
▁üm	-2889
▁merh	-2890
ğına	-2891
▁hap	-2892
▁gerektiğini	-2893
▁ted	-2894
▁asla	-2895
▁esn	-2896
asıyla	-2897
▁heyec	-2898
▁yeterli	-2899
▁kaldı	-2900
▁arap	-2901
▁tabii	-2902
atürk	-2903
fen	-2904
▁yapıyor	-2905
var	-2906
▁rusya	-2907
▁danış	-2908
lesi	-2909
▁fikir	-2910
▁olmaya	-2911
▁dolaş	-2912
▁gizli	-2913
▁gelmiş	-2914
▁buluş	-2915
▁meg	-2916
dal	-2917
line	-2918
▁mel	-2919
▁ilan	-2920
sü	-2921
ûl	-2922
▁fon	-2923
▁amacıyla	-2924
.2	-2925
▁lim	-2926
▁ten	-2927
ilerini	-2928
▁bula	-2929
layıp	-2930
ılabilir	-2931
▁sonuc	-2932
▁üçüncü	-2933
▁işe	-2934
▁motor	-2935
▁çay	-2936
▁dönemde	-2937
emin	-2938
▁mül	-2939
▁değişiklik	-2940
ekim	-2941
slâm	-2942
yız	-2943
muştur	-2944
ayıf	-2945
kân	-2946
▁neler	-2947
▁ettir	-2948
▁bitir	-2949
ucu	-2950
▁güncel	-2951
▁vâ	-2952
lisi	-2953
▁şüph	-2954
▁yaşlı	-2955
üler	-2956
ova	-2957
abet	-2958
▁vücu	-2959
▁akl	-2960
▁başbak	-2961
▁göç	-2962
▁rad	-2963
▁meclis	-2964
▁mobil	-2965
▁direk	-2966
bilecek	-2967
▁emek	-2968
▁bed	-2969
▁dünyada	-2970
▁etmeye	-2971
mayın	-2972
▁tez	-2973
▁muhammed	-2974
▁yazılı	-2975
uç	-2976
/3	-2977
▁profes	-2978
▁alacak	-2979
▁sim	-2980
▁bebek	-2981
▁öğrenciler	-2982
▁anne	-2983
▁çan	-2984
lenmesi	-2985
▁fi	-2986
▁zayıf	-2987
▁elektrik	-2988
▁sül	-2989
▁sonraki	-2990
▁asıl	-2991
mür	-2992
▁bulunmaktadır	-2993
▁öt	-2994
▁reklam	-2995
▁basit	-2996
âb	-2997
▁sene	-2998
diğimiz	-2999
▁alma	-3000
▁güm	-3001
ısının	-3002
asi	-3003
▁teşkil	-3004
▁dolar	-3005
ımda	-3006
▁tor	-3007
uldu	-3008
sim	-3009
▁soğuk	-3010
▁peş	-3011
▁başlayan	-3012
▁söyley	-3013
▁yansı	-3014
▁çiçek	-3015
kur	-3016
▁bilir	-3017
ât	-3018
▁kanal	-3019
ebilirsiniz	-3020
car	-3021
▁tit	-3022
▁nisan	-3023
▁zey	-3024
▁durumunda	-3025
maktan	-3026
▁deneyim	-3027
▁hac	-3028
▁almış	-3029
xt	-3030
▁düzenlenen	-3031
▁mahkem	-3032
▁fizik	-3033
ho	-3034
▁kart	-3035
▁bakanlığı	-3036
▁ahmed	-3037
cık	-3038
▁müdürlüğü	-3039
▁atatürk	-3040
arken	-3041
▁meslek	-3042
▁böy	-3043
▁dile	-3044
▁katkı	-3045
▁yerleştir	-3046
▁karakter	-3047
▁etkili	-3048
▁modern	-3049
veriş	-3050
ilmiştir	-3051
▁kıl	-3052
▁sezon	-3053
▁oto	-3054
gal	-3055
mur	-3056
▁roman	-3057
▁vazgeç	-3058
▁hâlâ	-3059
uklu	-3060
iyon	-3061
▁eleştir	-3062
▁yeter	-3063
▁ikti	-3064
▁mısır	-3065
▁yapıldı	-3066
▁mutlaka	-3067
▁cinsel	-3068
▁tran	-3069
▁namaz	-3070
▁askeri	-3071
▁düğ	-3072
masından	-3073
azı	-3074
▁kredi	-3075
▁sarı	-3076
imli	-3077
▁ağaç	-3078
ire	-3079
▁hus	-3080
▁eve	-3081
best	-3082
▁düşük	-3083
▁sürec	-3084
▁rast	-3085
sini	-3086
ise	-3087
▁bulundu	-3088
▁siyasi	-3089
▁çerçev	-3090
▁go	-3091
tuk	-3092
▁ni	-3093
sizlik	-3094
ınızı	-3095
▁piş	-3096
▁değerli	-3097
▁numar	-3098
çak	-3099
▁yürüy	-3100
hat	-3101
meniz	-3102
▁ters	-3103
▁türkçe	-3104
▁yetiş	-3105
▁ediyorum	-3106
▁•	-3107
▁müt	-3108
▁giden	-3109
ımızı	-3110
▁kendilerine	-3111
▁medya	-3112
eceğiniz	-3113
âzî	-3114
▁ağr	-3115
ây	-3116
▁koc	-3117
▁ilaç	-3118
▁öne	-3119
▁yapmış	-3120
to	-3121
▁kanı	-3122
▁zam	-3123
▁na	-3124
▁devleti	-3125
liğe	-3126
rafik	-3127
▁gelip	-3128
▁etkinlik	-3129
▁girişim	-3130
etler	-3131
▁gönül	-3132
dev	-3133
▁parça	-3134
mar	-3135
erken	-3136
▁yetk	-3137
▁yapacak	-3138
▁red	-3139
tak	-3140
gisi	-3141
70	-3142
inizin	-3143
lanma	-3144
▁tatlı	-3145
▁poz	-3146
yas	-3147
▁kararı	-3148
▁sonrası	-3149
▁beğen	-3150
▁amerika	-3151
dul	-3152
yen	-3153
muştu	-3154
▁ide	-3155
▁mor	-3156
▁onay	-3157
▁yedi	-3158
▁genellikle	-3159
diğim	-3160
▁yapma	-3161
▁bö	-3162
iyordum	-3163
▁biliyor	-3164
akk	-3165
▁elbet	-3166
▁yanıt	-3167
ladık	-3168
elerle	-3169
▁sip	-3170
▁olduğuna	-3171
▁test	-3172
▁temsilc	-3173
▁lüt	-3174
▁edece	-3175
egor	-3176
▁hin	-3177
tılar	-3178
▁ölçü	-3179
▁diyerek	-3180
lediği	-3181
les	-3182
▁lider	-3183
ıma	-3184
ağa	-3185
yım	-3186
▁kesinlikle	-3187
▁imz	-3188
bey	-3189
gaz	-3190
dat	-3191
▁31	-3192
▁müdürü	-3193
seniz	-3194
▁takdir	-3195
▁yerinde	-3196
▁siyah	-3197
ck	-3198
▁alıyor	-3199
ons	-3200
▁bulunuyor	-3201
onik	-3202
▁şiş	-3203
▁uğraş	-3204
▁’	-3205
▁kırmızı	-3206
cılar	-3207
fat	-3208
gr	-3209
mes	-3210
niyet	-3211
elidir	-3212
edeki	-3213
▁alarak	-3214
▁birisi	-3215
▁ilgilen	-3216
▁hu	-3217
▁fakül	-3218
▁teklif	-3219
▁tedav	-3220
▁sağlıklı	-3221
▁müda	-3222
▁fu	-3223
▁etik	-3224
▁edilmesi	-3225
▁başlat	-3226
▁ederim	-3227
▁tedavi	-3228
▁sö	-3229
▁saygı	-3230
lenme	-3231
tere	-3232
▁haft	-3233
▁dokun	-3234
▁salon	-3235
▁2016	-3236
!"	-3237
ilecek	-3238
▁saldırı	-3239
▁yönetic	-3240
▁tuz	-3241
▁borç	-3242
▁yolc	-3243
▁doğum	-3244
istik	-3245
▁gördüğ	-3246
dığınız	-3247
▁edilmiş	-3248
iyim	-3249
▁nur	-3250
▁personel	-3251
▁bec	-3252
▁kılıç	-3253
▁aray	-3254
▁proje	-3255
etik	-3256
▁serbest	-3257
undaki	-3258
▁mim	-3259
▁fransız	-3260
umsuz	-3261
▁deste	-3262
▁esk	-3263
▁düşür	-3264
▁azal	-3265
ham	-3266
▁gol	-3267
tığını	-3268
▁hizmeti	-3269
pany	-3270
▁şaşır	-3271
acağını	-3272
ner	-3273
html	-3274
▁başta	-3275
▁cumhurbaşkanı	-3276
bal	-3277
siye	-3278
▁hüs	-3279
▁zorun	-3280
▁tır	-3281
▁ödül	-3282
rahim	-3283
▁mün	-3284
▁edeb	-3285
▁zira	-3286
▁buraya	-3287
▁sayıda	-3288
▁kop	-3289
stos	-3290
▁almanya	-3291
12	-3292
▁adres	-3293
stik	-3294
yu	-3295
▁gülüm	-3296
▁sizlere	-3297
▁gösteren	-3298
▁oyunu	-3299
▁adını	-3300
▁chp	-3301
ğinden	-3302
dip	-3303
▁başını	-3304
▁dey	-3305
ahat	-3306
süz	-3307
▁kızı	-3308
▁mill	-3309
iyorlar	-3310
▁çocuklar	-3311
ımızın	-3312
▁megâzî	-3313
▁bakanı	-3314
▁olduğundan	-3315
▁vâkı	-3316
ınıza	-3317
imizde	-3318
▁ağu	-3319
▁kişisel	-3320
▁ayn	-3321
▁ücretsiz	-3322
▁tarz	-3323
▁tahmin	-3324
▁kabil	-3325
▁orman	-3326
▁neredeyse	-3327
▁etme	-3328
▁zevk	-3329
▁gören	-3330
▁öğrenci	-3331
▁başlar	-3332
co	-3333
▁va	-3334
ıza	-3335
ediği	-3336
▁zaf	-3337
▁kaliteli	-3338
▁çağır	-3339
▁yıllar	-3340
urken	-3341
▁198	-3342
▁nakl	-3343
elerinden	-3344
▁olmalı	-3345
acaktır	-3346
usunu	-3347
▁kahr	-3348
▁toplumsal	-3349
▁taz	-3350
▁bahis	-3351
▁programı	-3352
▁ned	-3353
19	-3354
▁korku	-3355
ebilecek	-3356
▁plat	-3357
▁rab	-3358
emen	-3359
▁baskı	-3360
elt	-3361
▁şik	-3362
▁sonrasında	-3363
▁otomo	-3364
eyici	-3365
▁yapılması	-3366
▁sanayi	-3367
▁ortadan	-3368
▁sitesi	-3369
▁süp	-3370
▁sermay	-3371
arım	-3372
alığı	-3373
▁yapılır	-3374
▁yaşında	-3375
lerim	-3376
▁şamp	-3377
▁söylüyor	-3378
▁elinde	-3379
▁kategor	-3380
▁tok	-3381
........	-3382
▁ton	-3383
▁yalan	-3384
▁gelenek	-3385
▁savaşı	-3386
▁üstüne	-3387
▁konum	-3388
ze	-3389
âl	-3390
▁reh	-3391
▁vakit	-3392
umak	-3393
▁(2	-3394
▁bür	-3395
sey	-3396
iliyor	-3397
▁bölümü	-3398
▁doğrudan	-3399
▁alanı	-3400
lenir	-3401
ulması	-3402
▁kadınlar	-3403
▁şarkı	-3404
▁esc	-3405
▁puan	-3406
▁erken	-3407
▁vâkıdî	-3408
▁hanım	-3409
▁katılım	-3410
▁korun	-3411
▁ayar	-3412
▁mektup	-3413
ırlar	-3414
▁uzat	-3415
▁sağlamak	-3416
▁oysa	-3417
▁şehit	-3418
▁ağustos	-3419
▁siyaset	-3420
▁hab	-3421
▁eşit	-3422
▁gide	-3423
▁taşıy	-3424
▁dahi	-3425
▁oldukları	-3426
forman	-3427
▁tarım	-3428
vel	-3429
▁suriye	-3430
cil	-3431
▁trans	-3432
▁kadının	-3433
▁şeyin	-3434
▁evde	-3435
▁döv	-3436
▁tecr	-3437
▁kalp	-3438
▁vermiş	-3439
dikten	-3440
▁sağlar	-3441
▁ilgi	-3442
▁olmuştu	-3443
muyor	-3444
▁diren	-3445
▁kullanıl	-3446
atör	-3447
▁hoc	-3448
▁yahu	-3449
▁bağımsız	-3450
▁yarı	-3451
▁baba	-3452
memek	-3453
text	-3454
▁döndü	-3455
zi	-3456
dun	-3457
▁birer	-3458
▁escort	-3459
▁bununla	-3460
-3	-3461
▁yatak	-3462
▁kısmı	-3463
▁amerik	-3464
▁derne	-3465
▁kendilerini	-3466
iyatı	-3467
▁elbette	-3468
▁performan	-3469
▁lazım	-3470
ildiği	-3471
sur	-3472
▁dışı	-3473
ayla	-3474
▁yüzünden	-3475
ko	-3476
15	-3477
lıklar	-3478
▁koca	-3479
▁alanında	-3480
▁izle	-3481
şi	-3482
▁kör	-3483
gıç	-3484
▁kadro	-3485
cağız	-3486
başı	-3487
▁kahraman	-3488
▁eğitimi	-3489
▁mod	-3490
eyecek	-3491
▁arası	-3492
brahim	-3493
▁aklı	-3494
kenin	-3495
tern	-3496
ata	-3497
▁gücü	-3498
▁ref	-3499
▁kök	-3500
▁nin	-3501
▁birinin	-3502
dek	-3503
lıkları	-3504
▁mühend	-3505
▁çalışmaları	-3506
▁si	-3507
▁uçak	-3508
▁jo	-3509
müştü	-3510
▁aşırı	-3511
▁stand	-3512
▁edebil	-3513
90	-3514
meni	-3515
▁pencer	-3516
▁elb	-3517
▁ulusal	-3518
▁çap	-3519
▁ins	-3520
▁hakkı	-3521
▁nedeni	-3522
sinin	-3523
▁döneminde	-3524
▁hikay	-3525
▁firmalar	-3526
emmel	-3527
▁emir	-3528
rail	-3529
iyan	-3530
▁herkesin	-3531
şu	-3532
imleri	-3533
▁gur	-3534
▁anlamına	-3535
▁şubat	-3536
fk	-3537
▁ağz	-3538
▁karanlık	-3539
▁taşın	-3540
▁gelin	-3541
ult	-3542
▁tap	-3543
▁efendi	-3544
▁operasyon	-3545
emeye	-3546
▁yaparak	-3547
ündeki	-3548
▁çıkış	-3549
▁car	-3550
▁onunla	-3551
▁seçenek	-3552
ngiltere	-3553
▁4.	-3554
▁atı	-3555
▁öğretim	-3556
▁kapalı	-3557
▁dakik	-3558
▁karıştır	-3559
▁madd	-3560
liğine	-3561
▁memur	-3562
▁olmasına	-3563
▁nih	-3564
25	-3565
▁kahv	-3566
iği	-3567
▁görür	-3568
▁fes	-3569
yer	-3570
▁aj	-3571
sına	-3572
▁yapılmış	-3573
▁peki	-3574
▁ince	-3575
▁uzan	-3576
▁antalya	-3577
▁kişilik	-3578
▁küt	-3579
eyman	-3580
▁yetiştir	-3581
ilerine	-3582
▁yayım	-3583
▁abdul	-3584
▁hizmetleri	-3585
▁ayında	-3586
▁yapabil	-3587
▁bölge	-3588
yap	-3589
nam	-3590
▁düştü	-3591
▁cüm	-3592
tp	-3593
evet	-3594
etici	-3595
asa	-3596
▁sona	-3597
ısız	-3598
▁kimi	-3599
▁dosy	-3600
▁ürünleri	-3601
liğinde	-3602
▁yaşanan	-3603
ğıt	-3604
▁devletin	-3605
üstü	-3606
▁dep	-3607
▁vah	-3608
alardan	-3609
▁bilm	-3610
▁göğ	-3611
evizyon	-3612
▁ata	-3613
▁fransa	-3614
zz	-3615
▁olumsuz	-3616
▁lig	-3617
▁anlayış	-3618
düz	-3619
▁kulak	-3620
atej	-3621
▁tv	-3622
▁üzerindeki	-3623
erler	-3624
▁hazırlan	-3625
rim	-3626
▁yönetimi	-3627
yonel	-3628
▁eşy	-3629
▁hasan	-3630
▁şans	-3631
▁tatil	-3632
kel	-3633
▁por	-3634
▁gerektir	-3635
bin	-3636
▁yararlan	-3637
ded	-3638
▁risk	-3639
▁kamer	-3640
▁bursa	-3641
▁gib	-3642
acağız	-3643
▁üyesi	-3644
▁öncelikle	-3645
45	-3646
▁babası	-3647
▁ayrıntı	-3648
inizde	-3649
▁milyar	-3650
madığı	-3651
▁veriyor	-3652
▁mükemmel	-3653
▁belirli	-3654
▁pla	-3655
▁roma	-3656
tis	-3657
▁göm	-3658
▁hızla	-3659
▁büyükşehir	-3660
▁yasak	-3661
▁pop	-3662
▁bilgileri	-3663
▁hala	-3664
brıs	-3665
▁sağlam	-3666
▁alışveriş	-3667
lamaz	-3668
▁adamın	-3669
▁sahn	-3670
▁kitabı	-3671
▁birini	-3672
▁sessiz	-3673
▁lo	-3674
imler	-3675
amış	-3676
rac	-3677
▁verilm	-3678
unç	-3679
▁içi	-3680
▁ışı	-3681
▁müşteri	-3682
▁arama	-3683
ılıp	-3684
▁yumuş	-3685
▁nefes	-3686
▁aylık	-3687
▁zek	-3688
▁terk	-3689
aray	-3690
▁taleb	-3691
▁gazi	-3692
bek	-3693
▁stratej	-3694
▁anlamda	-3695
▁elem	-3696
▁içindeki	-3697
zu	-3698
▁akıllı	-3699
▁toplu	-3700
▁adalet	-3701
▁arttır	-3702
hen	-3703
▁harek	-3704
rol	-3705
artesi	-3706
▁sağlayan	-3707
▁yapmaya	-3708
▁derec	-3709
ulur	-3710
eksiyon	-3711
▁bilinen	-3712
▁2015	-3713
▁ihtiyac	-3714
▁kaçır	-3715
▁nitelik	-3716
▁süleyman	-3717
▁hasta	-3718
▁iyice	-3719
▁tane	-3720
biz	-3721
nan	-3722
▁alanda	-3723
emiş	-3724
▁sayın	-3725
▁tev	-3726
▁etmektedir	-3727
▁bilinç	-3728
tül	-3729
arında	-3730
ımın	-3731
▁yerel	-3732
▁yaygın	-3733
▁tavsiye	-3734
▁paket	-3735
▁görünü	-3736
▁197	-3737
▁aşağıdaki	-3738
▁koru	-3739
▁emniyet	-3740
▁girdi	-3741
▁:)	-3742
▁teknoloji	-3743
sını	-3744
▁kla	-3745
▁köpr	-3746
▁lan	-3747
▁ep	-3748
ud	-3749
▁amel	-3750
▁hol	-3751
hale	-3752
▁hayatı	-3753
▁sakin	-3754
▁)	-3755
▁hayata	-3756
▁yir	-3757
lemeye	-3758
ly	-3759
▁gr	-3760
▁sağlan	-3761
▁milletvekili	-3762
▁new	-3763
▁bon	-3764
▁devrim	-3765
mekten	-3766
▁şef	-3767
.3	-3768
▁yerini	-3769
▁profesyonel	-3770
larınızı	-3771
sas	-3772
▁yada	-3773
23	-3774
dığında	-3775
▁istek	-3776
▁karşılı	-3777
▁organiz	-3778
▁öte	-3779
...”	-3780
▁yiye	-3781
▁dis	-3782
▁kus	-3783
▁fab	-3784
ust	-3785
ıyorlar	-3786
▁çoğun	-3787
edek	-3788
▁otob	-3789
▁esir	-3790
▁civ	-3791
▁üstünde	-3792
tel	-3793
▁buz	-3794
▁ömer	-3795
▁komisyon	-3796
▁eh	-3797
işleri	-3798
▁grubu	-3799
▁lisans	-3800
▁park	-3801
▁hür	-3802
▁verildi	-3803
▁vurgu	-3804
▁olanlar	-3805
tek	-3806
▁öden	-3807
kal	-3808
ndan	-3809
illa	-3810
cağım	-3811
form	-3812
shak	-3813
▁konut	-3814
▁kıbrıs	-3815
laşma	-3816
17	-3817
▁heyecan	-3818
ındır	-3819
▁co	-3820
eral	-3821
▁çor	-3822
▁üye	-3823
▁35	-3824
▁mir	-3825
▁suy	-3826
▁gidip	-3827
▁kürt	-3828
layın	-3829
▁sinir	-3830
▁itir	-3831
▁kere	-3832
▁cad	-3833
▁iddia	-3834
▁adan	-3835
lığının	-3836
işam	-3837
▁rüz	-3838
▁suret	-3839
▁anay	-3840
▁vergi	-3841
lığıyla	-3842
▁me	-3843
öğr	-3844
uyorum	-3845
▁çevre	-3846
▁başbakan	-3847
▁rahatsız	-3848
▁artış	-3849
▁keyif	-3850
▁standart	-3851
▁yıllarda	-3852
mut	-3853
split	-3854
ydi	-3855
alarından	-3856
▁hakik	-3857
şey	-3858
▁yardımcısı	-3859
▁öldürül	-3860
▁donan	-3861
ılış	-3862
etin	-3863
▁sün	-3864
▁cer	-3865
▁şif	-3866
▁kullanarak	-3867
▁ır	-3868
▁giderek	-3869
çin	-3870
tuğ	-3871
▁umut	-3872
▁düşünce	-3873
▁vüc	-3874
▁rum	-3875
▁op	-3876
▁hayatını	-3877
ansı	-3878
▁sus	-3879
▁mühendis	-3880
▁çak	-3881
▁atan	-3882
▁ism	-3883
▁banka	-3884
▁odası	-3885
esindeki	-3886
▁sayfa	-3887
18	-3888
üyordu	-3889
▁hâkim	-3890
imden	-3891
dukları	-3892
▁kazandır	-3893
dit	-3894
mail	-3895
▁dünyaya	-3896
▁hissed	-3897
▁kaybol	-3898
makla	-3899
▁şeker	-3900
urum	-3901
ilerden	-3902
▁oyna	-3903
▁iken	-3904
▁kalma	-3905
antaj	-3906
▁60	-3907
▁otomobil	-3908
▁adr	-3909
▁oğul	-3910
▁niyet	-3911
▁gerekmektedir	-3912
usal	-3913
▁hi	-3914
▁demektir	-3915
cilik	-3916
▁önceden	-3917
▁birbirine	-3918
▁olmadan	-3919
▁tören	-3920
▁imkan	-3921
▁televizyon	-3922
▁birik	-3923
ılabil	-3924
▁ifad	-3925
biliriz	-3926
▁ülkenin	-3927
dıklarını	-3928
▁bunlardan	-3929
▁tutar	-3930
larımızın	-3931
▁konuşma	-3932
▁selam	-3933
▁ust	-3934
▁samsun	-3935
▁katıl	-3936
▁süs	-3937
▁kalın	-3938
adem	-3939
▁sonucunda	-3940
ğinin	-3941
ond	-3942
▁evren	-3943
▁halkın	-3944
▁kalmış	-3945
▁sesi	-3946
▁taşıma	-3947
▁sorunu	-3948
▁2014	-3949
▁etkisi	-3950
sında	-3951
ımızda	-3952
ker	-3953
▁tho	-3954
▁́	-3955
rem	-3956
panya	-3957
99	-3958
ılarak	-3959
ess	-3960
▁yenil	-3961
▁becer	-3962
▁suyu	-3963
▁hit	-3964
▁zafer	-3965
▁kalab	-3966
desi	-3967
▁sü	-3968
▁imkân	-3969
▁odak	-3970
▁eriş	-3971
▁vücut	-3972
▁elini	-3973
ışma	-3974
▁=	-3975
ceği	-3976
▁cilt	-3977
▁arac	-3978
▁mür	-3979
▁etmesi	-3980
lıklı	-3981
▁yağmur	-3982
▁felsef	-3983
▁çı	-3984
ang	-3985
▁sahiptir	-3986
▁port	-3987
ğiz	-3988
▁vez	-3989
▁ölü	-3990
mız	-3991
▁geçerli	-3992
▁iktidar	-3993
▁sorumlu	-3994
▁belirtti	-3995
▁fayda	-3996
▁katıldı	-3997
kon	-3998
▁teor	-3999
▁eur	-4000
▁şa	-4001
▁mesaf	-4002
▁târî	-4003
▁ödeme	-4004
▁sivil	-4005
diye	-4006
▁günlerde	-4007
▁insanları	-4008
▁getiren	-4009
▁şen	-4010
▁belirten	-4011
▁gördü	-4012
▁ney	-4013
▁sine	-4014
tarı	-4015
▁vb	-4016
▁fiyatları	-4017
müştür	-4018
medik	-4019
▁vit	-4020
book	-4021
▁vek	-4022
▁toplan	-4023
acağım	-4024
48	-4025
▁marka	-4026
▁turizm	-4027
▁kavuş	-4028
larımızı	-4029
ete	-4030
▁kıv	-4031
▁ettim	-4032
des	-4033
▁gelince	-4034
▁isimli	-4035
▁olanak	-4036
▁kup	-4037
▁parmak	-4038
gü	-4039
▁doğan	-4040
▁tef	-4041
▁sipar	-4042
▁lütfen	-4043
▁söyler	-4044
▁şampiyon	-4045
▁bekl	-4046
▁olumlu	-4047
üny	-4048
▁sevgi	-4049
▁ettiler	-4050
sev	-4051
▁usul	-4052
▁thomas	-4053
▁bakımından	-4054
onun	-4055
ane	-4056
▁misaf	-4057
▁üs	-4058
malarını	-4059
▁buradan	-4060
▁araba	-4061
nden	-4062
irken	-4063
lerinizi	-4064
▁ediyordu	-4065
▁!	-4066
ayım	-4067
▁efsan	-4068
▁online	-4069
hane	-4070
13	-4071
▁neh	-4072
▁olmasını	-4073
▁diyar	-4074
▁deng	-4075
▁kişilerin	-4076
▁şeyh	-4077
▁finans	-4078
▁işin	-4079
mediği	-4080
▁kulüb	-4081
▁işbir	-4082
▁boğaz	-4083
▁firma	-4084
▁nüfus	-4085
▁okuy	-4086
▁?	-4087
srail	-4088
16	-4089
▁çekti	-4090
▁süper	-4091
diğiniz	-4092
▁ucuz	-4093
▁bet	-4094
larındaki	-4095
▁anah	-4096
kâr	-4097
▁giren	-4098
▁grub	-4099
rika	-4100
spor	-4101
masıyla	-4102
▁çel	-4103
▁olacağını	-4104
▁çelik	-4105
▁derneği	-4106
log	-4107
▁kapan	-4108
▁sırt	-4109
▁köpek	-4110
ag	-4111
▁32	-4112
▁eğil	-4113
▁fakültesi	-4114
ry	-4115
▁açtı	-4116
▁geldiği	-4117
▁başı	-4118
▁metin	-4119
atıcı	-4120
▁detaylı	-4121
layıcı	-4122
▁böyl	-4123
▁harit	-4124
▁bilimsel	-4125
erseniz	-4126
▁açıklam	-4127
▁parçası	-4128
▁gözlem	-4129
eceğiz	-4130
adı	-4131
cusu	-4132
▁istediği	-4133
▁kanıt	-4134
▁uyku	-4135
▁rez	-4136
▁târîh	-4137
▁kel	-4138
▁binlerce	-4139
▁taşıyan	-4140
▁danışman	-4141
▁hişam	-4142
▁deney	-4143
▁işç	-4144
▁muhaf	-4145
▁geçer	-4146
▁ilişki	-4147
eğe	-4148
▁zamanlar	-4149
▁murat	-4150
▁bazıları	-4151
▁akadem	-4152
▁projesi	-4153
▁sonsuz	-4154
43	-4155
▁asya	-4156
▁makam	-4157
abz	-4158
▁durdur	-4159
▁prot	-4160
day	-4161
▁özelliği	-4162
▁komp	-4163
mm	-4164
▁ufak	-4165
▁temin	-4166
▁bende	-4167
şık	-4168
▁yaşama	-4169
▁günümüzde	-4170
▁olduğumuz	-4171
▁ölçüde	-4172
▁yılda	-4173
▁kalb	-4174
▁pil	-4175
ilendir	-4176
▁endiş	-4177
onya	-4178
▁verecek	-4179
▁hesab	-4180
rum	-4181
▁sevin	-4182
▁ediyoruz	-4183
▁kurban	-4184
ilebilir	-4185
▁uygula	-4186
▁sevgil	-4187
▁kons	-4188
▁yapım	-4189
▁olağan	-4190
▁fener	-4191
▁tanr	-4192
leyerek	-4193
▁adamı	-4194
▁topra	-4195
▁neş	-4196
▁gözleri	-4197
▁kalır	-4198
▁özellikleri	-4199
▁attı	-4200
▁abdullah	-4201
▁bom	-4202
▁söylemek	-4203
çer	-4204
▁büt	-4205
▁koruma	-4206
▁enf	-4207
▁sitemiz	-4208
▁büyü	-4209
▁aralarında	-4210
▁çocukların	-4211
▁zamanı	-4212
▁duyar	-4213
▁tren	-4214
▁kamp	-4215
▁tiyat	-4216
▁kaçın	-4217
mesinin	-4218
▁anlama	-4219
▁kendisinin	-4220
etleri	-4221
layabil	-4222
▁alk	-4223
▁1,	-4224
tepe	-4225
ngilizce	-4226
▁gözlerini	-4227
unları	-4228
▁komutan	-4229
▁meml	-4230
meyecek	-4231
▁dini	-4232
▁yerden	-4233
▁toz	-4234
lari	-4235
eceğim	-4236
▁ısı	-4237
▁başlangıç	-4238
▁alb	-4239
▁33	-4240
ciler	-4241
sızın	-4242
▁başlıyor	-4243
▁süren	-4244
▁bulunur	-4245
▁inanç	-4246
▁zamanlarda	-4247
aza	-4248
▁edebiyat	-4249
46	-4250
▁buyur	-4251
▁yo	-4252
lili	-4253
▁harika	-4254
▁çalıştı	-4255
▁işle	-4256
▁gıda	-4257
▁almaya	-4258
aka	-4259
▁halkı	-4260
anda	-4261
▁işler	-4262
▁bez	-4263
▁görünce	-4264
▁istediğiniz	-4265
isiyle	-4266
ros	-4267
▁bozuk	-4268
▁geçiş	-4269
▁sürede	-4270
▁öncesi	-4271
gul	-4272
alim	-4273
▁yakal	-4274
tın	-4275
liy	-4276
isinden	-4277
ph	-4278
▁acaba	-4279
.[	-4280
ys	-4281
ersin	-4282
▁yüce	-4283
▁yarım	-4284
istiyan	-4285
▁ihtim	-4286
▁kendimi	-4287
nik	-4288
▁sıkı	-4289
▁tanın	-4290
▁kayna	-4291
▁geril	-4292
lerimizi	-4293
▁düzenli	-4294
lığında	-4295
alarla	-4296
tıcı	-4297
▁yakalan	-4298
▁platform	-4299
▁dür	-4300
42	-4301
▁36	-4302
▁ı	-4303
abilmek	-4304
leyin	-4305
distan	-4306
47	-4307
ğının	-4308
▁yirmi	-4309
53	-4310
tacak	-4311
▁yel	-4312
▁lin	-4313
▁başkanlığı	-4314
iyer	-4315
▁yaşamak	-4316
▁ettiğini	-4317
▁nesn	-4318
▁bence	-4319
▁5.	-4320
▁hüseyin	-4321
▁bitk	-4322
ogle	-4323
usuna	-4324
//	-4325
▁ob	-4326
▁gittik	-4327
▁sözleri	-4328
▁bahset	-4329
▁yönel	-4330
▁şeye	-4331
▁hunlar	-4332
▁hil	-4333
▁ht	-4334
▁irak	-4335
▁ye	-4336
iki	-4337
▁yolda	-4338
▁arzu	-4339
ılmıştı	-4340
sul	-4341
▁win	-4342
lçe	-4343
▁ilişkiler	-4344
▁sh	-4345
▁dönemi	-4346
▁yı	-4347
fı	-4348
▁hadis	-4349
▁196	-4350
▁akp	-4351
▁açıklamada	-4352
▁pap	-4353
▁vad	-4354
▁kod	-4355
▁erz	-4356
▁üniversite	-4357
uşu	-4358
▁tablo	-4359
▁ur	-4360
mü	-4361
▁tim	-4362
luluğ	-4363
▁tecrüb	-4364
▁üstelik	-4365
▁muk	-4366
▁kutsal	-4367
▁unsur	-4368
th	-4369
▁dip	-4370
▁ürünler	-4371
ınızda	-4372
▁2/1	-4373
cının	-4374
▁önemlidir	-4375
▁ani	-4376
▁insanı	-4377
▁çıkmış	-4378
▁+	-4379
▁yazılım	-4380
▁sebebi	-4381
▁çeki	-4382
▁veri	-4383
▁gösterir	-4384
▁2013	-4385
▁diler	-4386
▁özen	-4387
▁bl	-4388
▁korkunç	-4389
▁sözc	-4390
▁ça	-4391
areti	-4392
▁van	-4393
luluğu	-4394
ation	-4395
▁kimsenin	-4396
kk	-4397
▁getirdi	-4398
▁mit	-4399
▁bug	-4400
▁oraya	-4401
▁oranı	-4402
▁gitmek	-4403
▁sabit	-4404
▁sekiz	-4405
▁süresi	-4406
▁muhal	-4407
▁kısım	-4408
▁sözü	-4409
▁feth	-4410
▁günün	-4411
▁ayrıl	-4412
▁avantaj	-4413
▁tutuk	-4414
▁yarg	-4415
▁hakim	-4416
▁haklı	-4417
▁tedbir	-4418
▁istedik	-4419
▁yarın	-4420
pa	-4421
ura	-4422
tum	-4423
▁ortalama	-4424
▁sunuyor	-4425
▁uyum	-4426
▁seyahat	-4427
▁etmiştir	-4428
▁tehdit	-4429
▁güvenli	-4430
▁tra	-4431
ksiyon	-4432
2018	-4433
▁gelişim	-4434
▁çıkıyor	-4435
zzet	-4436
▁memleket	-4437
▁servisi	-4438
▁hel	-4439
▁ihtiyacı	-4440
▁dalg	-4441
▁denetim	-4442
▁mavi	-4443
▁çıkart	-4444
▁yoluyla	-4445
▁çeken	-4446
inal	-4447
▁kampany	-4448
çek	-4449
▁fatih	-4450
▁ayakk	-4451
▁gördük	-4452
▁tanış	-4453
▁günah	-4454
▁beşik	-4455
itir	-4456
reti	-4457
▁mahallesi	-4458
://	-4459
are	-4460
▁ph	-4461
▁istih	-4462
maktay	-4463
mos	-4464
▁bağış	-4465
▁renkli	-4466
▁yüzü	-4467
▁ayı	-4468
tıkları	-4469
▁zorunlu	-4470
dil	-4471
tion	-4472
▁sahib	-4473
▁akr	-4474
▁değeri	-4475
▁con	-4476
kul	-4477
▁düzenlen	-4478
▁partisi	-4479
lasyon	-4480
▁yah	-4481
▁soruştur	-4482
▁dönüştür	-4483
▁cel	-4484
▁sonuna	-4485
▁parlak	-4486
49	-4487
▁tiyatro	-4488
▁3/	-4489
ledim	-4490
▁aktif	-4491
▁cas	-4492
ore	-4493
▁ri	-4494
▁yıldırım	-4495
bahçe	-4496
▁cuma	-4497
▁tarihli	-4498
▁jan	-4499
▁çocuğun	-4500
leyici	-4501
▁sorgu	-4502
.000	-4503
▁delik	-4504
▁demiş	-4505
▁evlen	-4506
and	-4507
▁dağıt	-4508
ft	-4509
▁maden	-4510
▁uğra	-4511
▁&	-4512
▁kaynağı	-4513
▁düzenlem	-4514
▁otobüs	-4515
▁olduklarını	-4516
düğünü	-4517
▁sik	-4518
▁hediye	-4519
ann	-4520
-0	-4521
▁hd	-4522
▁mimar	-4523
eliği	-4524
▁gümüş	-4525
▁kadınların	-4526
▁seks	-4527
diy	-4528
▁olamaz	-4529
memiz	-4530
▁faiz	-4531
▁yaralan	-4532
yle	-4533
▁araz	-4534
▁hücr	-4535
▁istik	-4536
▁1/	-4537
▁analiz	-4538
▁alg	-4539
▁google	-4540
▁mezar	-4541
▁fonksiyon	-4542
▁inc	-4543
▁yılın	-4544
âye	-4545
▁egemen	-4546
▁başken	-4547
▁benden	-4548
▁doğrult	-4549
▁he	-4550
▁sağlayacak	-4551
andan	-4552
▁geçtiğimiz	-4553
▁yiyecek	-4554
▁içerik	-4555
dular	-4556
nak	-4557
▁yürür	-4558
▁ederken	-4559
▁çalışıyor	-4560
▁şeri	-4561
▁savunma	-4562
▁dük	-4563
liş	-4564
nün	-4565
▁km	-4566
▁3/1	-4567
iyiz	-4568
orta	-4569
▁ilginç	-4570
▁değişim	-4571
▁eline	-4572
▁metre	-4573
has	-4574
ron	-4575
▁yaşındaki	-4576
▁açıkla	-4577
▁şük	-4578
▁olası	-4579
▁çekil	-4580
fo	-4581
int	-4582
▁kıya	-4583
liğinin	-4584
▁tıpkı	-4585
amın	-4586
vik	-4587
▁duruma	-4588
▁oradan	-4589
▁iyil	-4590
▁mantık	-4591
▁düşünüyorum	-4592
▁efend	-4593
zat	-4594
mo	-4595
ray	-4596
▁konak	-4597
▁şub	-4598
rat	-4599
▁dedik	-4600
▁kullanımı	-4601
tematik	-4602
▁festiv	-4603
hayır	-4604
▁dizi	-4605
▁2012	-4606
▁kaydet	-4607
▁birleştir	-4608
▁sipariş	-4609
▁trabz	-4610
▁ağrı	-4611
▁şehr	-4612
köy	-4613
▁açıkladı	-4614
▁birbirinden	-4615
▁başlamış	-4616
▁bizans	-4617
▁biy	-4618
▁ülkede	-4619
▁haberleri	-4620
▁nihayet	-4621
adet	-4622
▁sanırım	-4623
yeni	-4624
▁öfk	-4625
▁görülen	-4626
11	-4627
doğu	-4628
▁yukarıda	-4629
▁45	-4630
▁edilmiştir	-4631
▁boyu	-4632
▁okun	-4633
▁yönlendir	-4634
▁zamanında	-4635
▁lir	-4636
▁söyleyen	-4637
▁kapas	-4638
▁hâl	-4639
▁bölgede	-4640
▁geb	-4641
98	-4642
▁yör	-4643
aberî	-4644
ceğini	-4645
dağ	-4646
▁yargı	-4647
▁yetkil	-4648
22	-4649
4)	-4650
▁sk	-4651
fik	-4652
▁yaşadığı	-4653
▁düşünür	-4654
so	-4655
▁isyan	-4656
▁mat	-4657
rü	-4658
yaz	-4659
▁80	-4660
...]	-4661
ilmektedir	-4662
▁belirtilen	-4663
▁gördüm	-4664
▁ant	-4665
▁vol	-4666
▁tad	-4667
▁konfer	-4668
▁sorumluluk	-4669
▁trafik	-4670
▁kurulan	-4671
▁otomatik	-4672
▁paris	-4673
▁selç	-4674
▁imza	-4675
▁hediy	-4676
embe	-4677
duğum	-4678
bür	-4679
▁site	-4680
jen	-4681
▁birim	-4682
▁hazırlık	-4683
▁etki	-4684
▁oğl	-4685
▁gene	-4686
▁anlamı	-4687
▁lira	-4688
▁yerli	-4689
▁içinden	-4690
▁sağla	-4691
▁açıdan	-4692
lıdır	-4693
▁vermeye	-4694
▁bölgesinde	-4695
lılar	-4696
dy	-4697
▁misafir	-4698
▁ismi	-4699
▁boya	-4700
▁mutfak	-4701
iter	-4702
ws	-4703
▁yatır	-4704
▁sunu	-4705
ilmez	-4706
vey	-4707
uf	-4708
▁klasik	-4709
▁rest	-4710
▁70	-4711
▁avuk	-4712
uc	-4713
▁nam	-4714
▁coğraf	-4715
ub	-4716
▁edebilir	-4717
▁kayıp	-4718
▁anti	-4719
dün	-4720
▁mesela	-4721
▁kaymak	-4722
▁bulut	-4723
▁tanıt	-4724
▁ras	-4725
▁kuma	-4726
▁kişiye	-4727
▁yaparken	-4728
ks	-4729
▁husus	-4730
▁insanlara	-4731
▁garip	-4732
▁azından	-4733
▁güzellik	-4734
▁takdirde	-4735
▁geldiğini	-4736
▁yaptıkları	-4737
teşem	-4738
▁cema	-4739
▁önlem	-4740
▁kov	-4741
▁olmalıdır	-4742
seri	-4743
tanın	-4744
▁500	-4745
▁büny	-4746
duğumuz	-4747
▁zeytin	-4748
ges	-4749
▁ürünü	-4750
yacak	-4751
▁elç	-4752
bas	-4753
▁yolunda	-4754
▁bilen	-4755
▁imparator	-4756
▁eğlenc	-4757
▁hükümdar	-4758
▁ordusu	-4759
kırı	-4760
▁ven	-4761
kir	-4762
iklet	-4763
racat	-4764
▁aşağıda	-4765
▁düşen	-4766
sup	-4767
▁amerikan	-4768
dığına	-4769
▁1/1	-4770
ard	-4771
aseb	-4772
▁işçi	-4773
ýn	-4774
▁kardeşi	-4775
▁duyur	-4776
▁öp	-4777
iber	-4778
▁güvenilir	-4779
▁rece	-4780
▁kullanılır	-4781
▁kapital	-4782
▁lok	-4783
▁alına	-4784
▁gidiyor	-4785
ıldığında	-4786
27	-4787
▁ec	-4788
▁yaşay	-4789
▁süreci	-4790
▁harekete	-4791
▁duran	-4792
▁görmüş	-4793
.»	-4794
▁bulundur	-4795
▁yılmaz	-4796
alandır	-4797
▁çıkıp	-4798
▁şeyleri	-4799
▁elektronik	-4800
▁buyurdu	-4801
tadır	-4802
lardaki	-4803
▁doğa	-4804
▁cesaret	-4805
ıldığını	-4806
▁yapabilir	-4807
tez	-4808
▁jap	-4809
▁nem	-4810
▁sıv	-4811
ırıl	-4812
leriniz	-4813
yip	-4814
▁maddi	-4815
▁kenar	-4816
▁dudak	-4817
▁belirterek	-4818
▁muhtem	-4819
▁bı	-4820
usuz	-4821
▁yürüyüş	-4822
▁uğur	-4823
▁taht	-4824
ula	-4825
▁sevgili	-4826
▁taberî	-4827
yaş	-4828
▁omuz	-4829
▁derecede	-4830
▁başlı	-4831
▁şık	-4832
diven	-4833
isin	-4834
▁içeren	-4835
▁feder	-4836
▁bulunma	-4837
uydu	-4838
▁ticari	-4839
▁mülk	-4840
▁diyen	-4841
▁mehmed	-4842
▁öngör	-4843
▁konya	-4844
▁fık	-4845
▁kilis	-4846
ebî	-4847
▁müşteriler	-4848
▁beşiktaş	-4849
▁şö	-4850
▁pazarlama	-4851
▁etkilen	-4852
▁37	-4853
▁alım	-4854
▁pozisyon	-4855
▁tutan	-4856
▁görevi	-4857
anet	-4858
▁kriz	-4859
▁acil	-4860
▁aran	-4861
çu	-4862
▁dediler	-4863
emesi	-4864
▁alay	-4865
ps	-4866
▁muhteşem	-4867
▁2,	-4868
masın	-4869
ınar	-4870
▁dikkate	-4871
▁görsel	-4872
▁benzeri	-4873
yalı	-4874
▁hanbel	-4875
▁söyleye	-4876
ung	-4877
lıktan	-4878
bb	-4879
atas	-4880
lor	-4881
▁yitir	-4882
lerindeki	-4883
▁zihin	-4884
öğretim	-4885
▁sistemleri	-4886
▁gençlik	-4887
▁karma	-4888
▁onur	-4889
ij	-4890
bor	-4891
26	-4892
▁çök	-4893
▁toplumun	-4894
▁anı	-4895
▁işit	-4896
▁yumuşak	-4897
▁bekliyor	-4898
▁hassas	-4899
▁müst	-4900
▁utan	-4901
▁galib	-4902
▁merhaba	-4903
▁katılan	-4904
▁altern	-4905
leyip	-4906
ayacak	-4907
▁taban	-4908
▁adana	-4909
▁yürü	-4910
asındaki	-4911
▁niş	-4912
▁adeta	-4913
▁manz	-4914
emedi	-4915
▁arkadaşlar	-4916
▁anlattı	-4917
▁elinden	-4918
▁ahlak	-4919
sv	-4920
▁modelleri	-4921
▁açılan	-4922
lerken	-4923
olog	-4924
lanıyor	-4925
lanmıştır	-4926
▁[...]	-4927
▁nik	-4928
▁belirlen	-4929
▁araştırmalar	-4930
▁transfer	-4931
▁”	-4932
▁dua	-4933
▁bunlara	-4934
▁uzaklaş	-4935
--	-4936
▁pa	-4937
▁dili	-4938
▁emr	-4939
▁doğrultusunda	-4940
▁bölgesi	-4941
▁maliyet	-4942
ülebilir	-4943
▁cumhuriyeti	-4944
▁geriye	-4945
▁sof	-4946
okul	-4947
▁bugüne	-4948
▁düşünül	-4949
▁metal	-4950
▁kanunu	-4951
▁sanatçı	-4952
cisi	-4953
ağın	-4954
▁arasına	-4955
▁âlem	-4956
▁işgal	-4957
usuf	-4958
▁kızıl	-4959
gesi	-4960
müyor	-4961
▁kesim	-4962
▁teşvik	-4963
▁maz	-4964
▁şunu	-4965
▁tepki	-4966
▁sir	-4967
▁beyin	-4968
▁ulaştır	-4969
▁sonuçları	-4970
▁çalıştır	-4971
cebook	-4972
▁itibariyle	-4973
▁elbis	-4974
):	-4975
▁şikayet	-4976
▁genelde	-4977
▁mutluluk	-4978
illi	-4979
▁büyüm	-4980
▁kalabalık	-4981
imizden	-4982
▁cm	-4983
üye	-4984
▁uzay	-4985
▁konuk	-4986
▁riv	-4987
▁işlemi	-4988
▁rabb	-4989
▁herkese	-4990
▁oyunları	-4991
▁yolcu	-4992
▁alabilirsiniz	-4993
ie	-4994
▁onlardan	-4995
▁yerlerde	-4996
▁performans	-4997
▁zir	-4998
▁yaklaşım	-4999
▁titr	-5000
lal	-5001
▁takımı	-5002
▁sesle	-5003
▁alternatif	-5004
▁konser	-5005
▁buh	-5006
▁önümüz	-5007
▁yasal	-5008
imet	-5009
sit	-5010
▁reis	-5011
▁tahta	-5012
▁gerektiği	-5013
▁dekor	-5014
▁yüzey	-5015
▁geçici	-5016
▁bulmak	-5017
▁aldım	-5018
▁farkında	-5019
▁hakları	-5020
atın	-5021
▁ödem	-5022
▁tavır	-5023
▁kursu	-5024
",	-5025
▁olsay	-5026
▁38	-5027
▁etmişti	-5028
▁ideal	-5029
▁ramaz	-5030
ysa	-5031
▁sadr	-5032
ilerle	-5033
▁hali	-5034
mamak	-5035
▁özgü	-5036
▁rakam	-5037
▁moda	-5038
▁vası	-5039
pe	-5040
▁çocukları	-5041
âyet	-5042
▁ex	-5043
▁olurdu	-5044
biy	-5045
led	-5046
▁oynan	-5047
▁cami	-5048
mede	-5049
▁evr	-5050
larca	-5051
▁fiyatı	-5052
28	-5053
▁2/2	-5054
uyucu	-5055
oyu	-5056
▁sizler	-5057
▁recep	-5058
▁denet	-5059
▁eklen	-5060
manı	-5061
▁çocuğu	-5062
▁filmi	-5063
uluğ	-5064
▁geleneksel	-5065
ûlullah	-5066
▁okuma	-5067
▁ağız	-5068
▁dönüp	-5069
▁hoca	-5070
▁mezun	-5071
▁birine	-5072
▁varol	-5073
ılmasını	-5074
▁hekim	-5075
▁kimlik	-5076
▁ikisi	-5077
▁karşılaştır	-5078
▁adlandır	-5079
▁kolayca	-5080
▁hazırlanan	-5081
▁çerçevesinde	-5082
▁evi	-5083
eğini	-5084
eyerek	-5085
▁kültürel	-5086
▁tayyip	-5087
▁bis	-5088
halde	-5089
azam	-5090
▁ülkemizde	-5091
▁darbe	-5092
aat	-5093
▁taşım	-5094
▁türkler	-5095
-5	-5096
.0	-5097
▁lu	-5098
▁sözler	-5099
41	-5100
▁eşi	-5101
▁şeref	-5102
▁fabrik	-5103
▁anahtar	-5104
▁harf	-5105
▁görebil	-5106
▁çatış	-5107
▁sıf	-5108
▁noktada	-5109
▁çam	-5110
▁1/2	-5111
▁fiziksel	-5112
▁darb	-5113
cam	-5114
▁alev	-5115
▁mic	-5116
▁almaktadır	-5117
▁coş	-5118
otel	-5119
leşme	-5120
▁kelime	-5121
▁nö	-5122
tuğu	-5123
▁arasından	-5124
▁sermaye	-5125
▁bastır	-5126
▁kurumsal	-5127
▁düzelt	-5128
için	-5129
▁90	-5130
▁iii	-5131
▁zinc	-5132
▁kuy	-5133
▁işleri	-5134
▁kırk	-5135
▁gemi	-5136
▁çabuk	-5137
yid	-5138
▁yaprak	-5139
▁sürü	-5140
▁olmayacak	-5141
▁evden	-5142
▁bask	-5143
▁olmadı	-5144
▁hastalı	-5145
▁dokuz	-5146
''	-5147
▁üyeleri	-5148
▁amac	-5149
ruk	-5150
mekle	-5151
▁bakalım	-5152
▁bıraktı	-5153
▁açıkça	-5154
▁sön	-5155
▁alındı	-5156
▁yusuf	-5157
▁hayran	-5158
sine	-5159
tah	-5160
▁nefret	-5161
ord	-5162
▁gerekti	-5163
▁cennet	-5164
▁tepk	-5165
▁som	-5166
▁alınması	-5167
▁organizasyon	-5168
sy	-5169
kâ	-5170
▁hapis	-5171
▁rü	-5172
▁bahsed	-5173
cin	-5174
▁»	-5175
▁biliyorum	-5176
▁kıyafet	-5177
mesiyle	-5178
▁gereği	-5179
ceğim	-5180
▁izlen	-5181
▁kalem	-5182
▁çalışması	-5183
tülü	-5184
▁kli	-5185
95	-5186
diniz	-5187
tüm	-5188
▁taraftan	-5189
▁temizlik	-5190
▁azalt	-5191
▁deli	-5192
.5	-5193
97	-5194
▁kurs	-5195
çesi	-5196
▁ilçesinde	-5197
▁yuvar	-5198
▁bankası	-5199
atasaray	-5200
▁ayakkabı	-5201
▁ilav	-5202
▁özgürlük	-5203
▁vs	-5204
melidir	-5205
imle	-5206
keti	-5207
urlar	-5208
▁ceph	-5209
âlâ	-5210
▁kıymet	-5211
-6	-5212
deri	-5213
pat	-5214
▁kilomet	-5215
elli	-5216
▁verilir	-5217
▁takv	-5218
▁daire	-5219
smail	-5220
▁gösterdi	-5221
▁hikây	-5222
▁endü	-5223
▁sever	-5224
▁hindistan	-5225
▁sığın	-5226
yken	-5227
35	-5228
isiniz	-5229
▁düşündü	-5230
▁durumlarda	-5231
ilip	-5232
cağına	-5233
▁sabır	-5234
▁olmaktan	-5235
▁yorgun	-5236
▁maaş	-5237
▁kumaş	-5238
abiliyor	-5239
larımıza	-5240
dığından	-5241
ona	-5242
▁pişir	-5243
▁şehrin	-5244
▁vic	-5245
▁istif	-5246
▁benimle	-5247
▁nez	-5248
hn	-5249
▁mali	-5250
▁gayet	-5251
ino	-5252
ğından	-5253
▁kapasit	-5254
▁başlamıştı	-5255
▁gazete	-5256
▁bacak	-5257
▁çizg	-5258
ıf	-5259
ınma	-5260
▁ilah	-5261
▁gündem	-5262
.’	-5263
▁dans	-5264
▁yetenek	-5265
▁birinc	-5266
▁facebook	-5267
▁rahmet	-5268
âil	-5269
▁sız	-5270
tab	-5271
▁derken	-5272
▁tw	-5273
▁ris	-5274
ılmaktadır	-5275
▁vererek	-5276
▁ekib	-5277
▁bk	-5278
rî	-5279
▁yapısı	-5280
▁2011	-5281
▁beklem	-5282
▁pratik	-5283
ılmasına	-5284
▁kullanmak	-5285
▁bireysel	-5286
▁sef	-5287
▁sendik	-5288
▁katı	-5289
ınızın	-5290
lerimi	-5291
▁karşıya	-5292
▁rej	-5293
▁depo	-5294
stit	-5295
▁kırık	-5296
▁çağr	-5297
▁ekmek	-5298
▁öv	-5299
▁vir	-5300
▁evlilik	-5301
▁bahar	-5302
pt	-5303
▁bakın	-5304
▁ordus	-5305
▁olunca	-5306
▁pah	-5307
diklerini	-5308
▁özet	-5309
ıklı	-5310
gaç	-5311
▁matematik	-5312
▁mensup	-5313
▁gösteriyor	-5314
▁tir	-5315
▁havuz	-5316
▁tehlikeli	-5317
36	-5318
lukla	-5319
▁açılış	-5320
▁yapımı	-5321
▁ağa	-5322
nternet	-5323
▁boyun	-5324
▁restor	-5325
▁hayatta	-5326
▁gözden	-5327
▁olmaktadır	-5328
▁görünüyor	-5329
▁hor	-5330
▁yur	-5331
▁derg	-5332
işehir	-5333
ai	-5334
▁yeryüz	-5335
▁etmem	-5336
melerini	-5337
sar	-5338
▁yangın	-5339
maması	-5340
▁hü	-5341
▁gördüğü	-5342
▁olduğum	-5343
▁bizzat	-5344
▁gelmişti	-5345
21	-5346
lerimizin	-5347
▁gürül	-5348
ladım	-5349
▁görünüm	-5350
3)	-5351
▁yeten	-5352
▁kusur	-5353
giz	-5354
▁ulu	-5355
▁doğrusu	-5356
▁olayı	-5357
▁	-5358
▁inanıyor	-5359
▁evin	-5360
▁nev	-5361
asız	-5362
▁tro	-5363
▁korumak	-5364
▁faydalan	-5365
▁ramazan	-5366
▁sevk	-5367
▁evvel	-5368
gre	-5369
yada	-5370
lıkta	-5371
▁lezzet	-5372
▁fenerbahçe	-5373
▁''	-5374
uyoruz	-5375
▁karşılan	-5376
jital	-5377
▁vel	-5378
git	-5379
vin	-5380
medim	-5381
lon	-5382
▁şair	-5383
▁gurur	-5384
▁yakından	-5385
larımı	-5386
denin	-5387
▁arkasında	-5388
▁pir	-5389
▁incelen	-5390
inler	-5391
▁faktör	-5392
96	-5393
▁gündüz	-5394
▁aziz	-5395
▁iv	-5396
▁http	-5397
diğine	-5398
şe	-5399
▁gülüms	-5400
▁ekonomi	-5401
his	-5402
▁daima	-5403
▁serg	-5404
▁gecik	-5405
▁kula	-5406
▁yazık	-5407
▁kanser	-5408
▁örgütü	-5409
ordin	-5410
▁yolculuk	-5411
▁halı	-5412
▁galatasaray	-5413
istin	-5414
▁rekabet	-5415
usunun	-5416
▁falan	-5417
▁olaylar	-5418
▁desteği	-5419
38	-5420
▁ertesi	-5421
▁sağlığı	-5422
▁ediliyor	-5423
▁bağlan	-5424
▁popüler	-5425
▁etmez	-5426
adaki	-5427
▁şeyden	-5428
▁üretic	-5429
bon	-5430
anıp	-5431
▁yenilik	-5432
▁herhalde	-5433
ilmesini	-5434
▁annesi	-5435
ris	-5436
▁karab	-5437
▁ofis	-5438
leyecek	-5439
▁getirmek	-5440
âde	-5441
üldü	-5442
▁yayınları	-5443
▁haberi	-5444
▁sürük	-5445
▁vali	-5446
▁kalite	-5447
▁mağaz	-5448
▁dilek	-5449
ary	-5450
▁rakip	-5451
hp	-5452
▁pkk	-5453
▁denk	-5454
ıydı	-5455
▁gibiydi	-5456
▁denilen	-5457
▁deri	-5458
liliği	-5459
türkiye	-5460
çeri	-5461
▁ayağa	-5462
▁sağlaya	-5463
▁beyan	-5464
▁uygulaması	-5465
▁cok	-5466
▁fazlası	-5467
▁öğrencilerin	-5468
▁ameliyat	-5469
▁edilecek	-5470
▁blog	-5471
▁çıl	-5472
▁uyarı	-5473
▁değin	-5474
emeyen	-5475
▁yürüm	-5476
▁yaşar	-5477
▁biridir	-5478
▁uyandır	-5479
▁alışkan	-5480
▁sığ	-5481
ple	-5482
▁sonradan	-5483
▁rüzg	-5484
▁aykırı	-5485
▁netic	-5486
malarına	-5487
mesinde	-5488
ğimi	-5489
▁doğur	-5490
ıb	-5491
▁koltuk	-5492
teydi	-5493
▁aşa	-5494
▁günler	-5495
▁aleyhisselâmın	-5496
▁düğün	-5497
slan	-5498
iner	-5499
ori	-5500
▁6.	-5501
▁çığ	-5502
▁hıristiyan	-5503
▁kurumu	-5504
▁defter	-5505
▁koç	-5506
▁cumhurbaşkan	-5507
▁antr	-5508
▁abdül	-5509
arya	-5510
▁polit	-5511
▁yaşat	-5512
▁nakliyat	-5513
▁ış	-5514
▁hatt	-5515
▁sergil	-5516
{{	-5517
▁milliyet	-5518
▁tayin	-5519
▁karadeniz	-5520
▁halka	-5521
tansiy	-5522
oto	-5523
yasal	-5524
▁söyledik	-5525
şek	-5526
▁saha	-5527
▁olmayı	-5528
▁hele	-5529
▁rehber	-5530
manızı	-5531
▁depr	-5532
▁köylü	-5533
▁kongr	-5534
▁bül	-5535
▁iman	-5536
:00	-5537
▁komşu	-5538
▁sözcük	-5539
▁yolunu	-5540
▁cenaz	-5541
▁aktiv	-5542
▁ceb	-5543
!’	-5544
▁oldum	-5545
▁öm	-5546
▁aracılığıyla	-5547
esef	-5548
▁arş	-5549
▁hata	-5550
▁koz	-5551
▁çarpış	-5552
val	-5553
▁vas	-5554
▁dijital	-5555
▁güçlendir	-5556
▁deh	-5557
▁2010	-5558
▁hayatın	-5559
{{{	-5560
▁faydalı	-5561
▁selim	-5562
▁avukat	-5563
▁malat	-5564
▁haş	-5565
▁taraftar	-5566
eddin	-5567
▁potansiy	-5568
▁kilit	-5569
▁doy	-5570
▁iptal	-5571
▁noktası	-5572
▁sağlıyor	-5573
▁karşın	-5574
▁siyasal	-5575
▁yerler	-5576
şet	-5577
aydı	-5578
▁lam	-5579
▁kanat	-5580
şallah	-5581
ese	-5582
▁akın	-5583
▁evine	-5584
tıktan	-5585
▁ru	-5586
kesi	-5587
isa	-5588
lemiş	-5589
▁ra	-5590
▁com	-5591
”.	-5592
▁şaşkın	-5593
▁bilgisi	-5594
allı	-5595
▁yenilen	-5596
▁değilim	-5597
rag	-5598
ilerde	-5599
▁çıkacak	-5600
▁irade	-5601
▁kemik	-5602
amik	-5603
▁duruyor	-5604
▁verg	-5605
▁kralı	-5606
▁mahall	-5607
sün	-5608
dınız	-5609
unuzu	-5610
▁esnaf	-5611
▁bayrak	-5612
▁gayret	-5613
ng	-5614
ack	-5615
▁bulan	-5616
44	-5617
▁hip	-5618
▁tanıtım	-5619
▁kadını	-5620
▁öldü	-5621
acağınız	-5622
▁len	-5623
ife	-5624
▁ümit	-5625
▁çıkardı	-5626
▁olacağı	-5627
▁buldu	-5628
▁göğüs	-5629
▁fe	-5630
tikten	-5631
▁şak	-5632
▁sigort	-5633
▁erkekler	-5634
▁tuhaf	-5635
veren	-5636
▁yunanistan	-5637
▁post	-5638
▁bid	-5639
▁gazetec	-5640
▁edebilirsiniz	-5641
▁gev	-5642
▁küresel	-5643
▁suretiyle	-5644
▁sahil	-5645
▁(1)	-5646
sör	-5647
ûm	-5648
▁kağıt	-5649
▁kendileri	-5650
▁bilmiyorum	-5651
▁edilebilir	-5652
▁bilgilendir	-5653
▁öbür	-5654
▁nec	-5655
leyic	-5656
▁belgesi	-5657
▁est	-5658
▁bulunu	-5659
▁seyir	-5660
mesinden	-5661
▁hisse	-5662
kas	-5663
▁tutul	-5664
▁gelişmeler	-5665
▁merdiven	-5666
▁işlev	-5667
▁bölün	-5668
▁cinayet	-5669
ebi	-5670
▁kayded	-5671
▁kızın	-5672
▁önde	-5673
▁baştan	-5674
▁itiraz	-5675
los	-5676
▁yetkili	-5677
▁kaptan	-5678
▁bulama	-5679
▁işlemleri	-5680
takım	-5681
▁refer	-5682
▁dikkatli	-5683
▁disip	-5684
sav	-5685
pg	-5686
anti	-5687
▁bedel	-5688
37	-5689
▁inşaat	-5690
ograf	-5691
▁demokratik	-5692
▁şube	-5693
▁ayakta	-5694
▁sandal	-5695
▁plak	-5696
▁radyo	-5697
▁edildiği	-5698
elerek	-5699
▁sigara	-5700
ere	-5701
▁cins	-5702
▁hareketi	-5703
ısınız	-5704
▁![	-5705
tifak	-5706
▁akdeniz	-5707
▁ast	-5708
▁euro	-5709
▁babasının	-5710
▁duruş	-5711
▁kıyı	-5712
şlet	-5713
▁öteki	-5714
akkale	-5715
bakır	-5716
anları	-5717
▁alabil	-5718
▁amaçlı	-5719
▁şehri	-5720
▁veli	-5721
▁çağrı	-5722
▁mecbur	-5723
luğun	-5724
▁nitekim	-5725
▁melek	-5726
▁kahvaltı	-5727
▁yu	-5728
anız	-5729
▁vücud	-5730
▁devir	-5731
▁makal	-5732
▁ze	-5733
▁mevzu	-5734
▁denir	-5735
▁duygusal	-5736
▁çalışır	-5737
▁esnasında	-5738
▁karışık	-5739
ayıp	-5740
▁yumur	-5741
▁48	-5742
▁ihtimal	-5743
▁anlaya	-5744
▁geldiğinde	-5745
pek	-5746
▁mikro	-5747
▁verici	-5748
14	-5749
lüğe	-5750
▁antik	-5751
▁satı	-5752
▁verdim	-5753
▁konuşan	-5754
eleriyle	-5755
▁kullandı	-5756
▁kast	-5757
liydi	-5758
▁güne	-5759
▁yedek	-5760
ünce	-5761
iyetini	-5762
▁temas	-5763
not	-5764
▁hastanesi	-5765
▁karşılıklı	-5766
▁topluluk	-5767
▁cemaat	-5768
▁adıyla	-5769
yim	-5770
▁önemi	-5771
▁modeli	-5772
▁lond	-5773
▁kütüp	-5774
▁ısrar	-5775
▁görünen	-5776
▁kuşk	-5777
izmin	-5778
24	-5779
ısal	-5780
images	-5781
▁rengi	-5782
▁sürece	-5783
▁seyyid	-5784
▁kuşat	-5785
▁kıp	-5786
▁göze	-5787
▁zehir	-5788
39	-5789
lus	-5790
▁meyv	-5791
▁dernek	-5792
▁hepsini	-5793
▁insana	-5794
▁vitam	-5795
▁onlarla	-5796
▁gözük	-5797
▁dönüşüm	-5798
▁enstit	-5799
▁bağımlı	-5800
▁qu	-5801
▁türü	-5802
▁ettikleri	-5803
▁300	-5804
ity	-5805
▁kitl	-5806
▁meden	-5807
▁zul	-5808
▁nereye	-5809
▁tanık	-5810
eceğimiz	-5811
▁hur	-5812
▁uçuş	-5813
▁mümkündür	-5814
/0	-5815
▁gelişmiş	-5816
ülür	-5817
▁şirketi	-5818
▁konuyu	-5819
▁sebebiyle	-5820
kun	-5821
amıyor	-5822
landığı	-5823
▁hakan	-5824
▁aslan	-5825
▁iade	-5826
maktır	-5827
▁silahlı	-5828
ex	-5829
▁rüy	-5830
▁teker	-5831
▁sembol	-5832
▁günden	-5833
▁ebû	-5834
▁mini	-5835
57	-5836
▁hatırlat	-5837
ock	-5838
▁ibaret	-5839
▁sakın	-5840
esin	-5841
▁görülür	-5842
erv	-5843
▁kaya	-5844
dows	-5845
▁malzeme	-5846
▁kesîr	-5847
▁birbirlerine	-5848
▁tutum	-5849
▁kıyas	-5850
▁eskiden	-5851
lilerin	-5852
▁ilave	-5853
▁jandar	-5854
▁mekke	-5855
▁görüşmeler	-5856
▁kahve	-5857
rın	-5858
▁otuz	-5859
▁sınırlı	-5860
▁je	-5861
▁yükselt	-5862
▁vi	-5863
▁maddesi	-5864
ûr	-5865
▁getirdiği	-5866
▁kanunun	-5867
!..	-5868
▁olmasa	-5869
▁hayırlı	-5870
▁leh	-5871
▁geliyordu	-5872
▁imal	-5873
▁tabak	-5874
▁neyse	-5875
▁olmakla	-5876
▁zemin	-5877
▁gözalt	-5878
▁pis	-5879
inda	-5880
tip	-5881
gs	-5882
▁hayli	-5883
▁yapıp	-5884
madım	-5885
mparatorluğu	-5886
▁ortada	-5887
▁mahmut	-5888
▁anlatan	-5889
▁eşya	-5890
▁gönderdi	-5891
▁firmamız	-5892
▁sorunları	-5893
▁müdahale	-5894
▁afrika	-5895
rama	-5896
▁planı	-5897
▁niçin	-5898
▁gidecek	-5899
okulu	-5900
▁ran	-5901
eydi	-5902
▁dava	-5903
bert	-5904
▁haberler	-5905
▁petrol	-5906
▁diyet	-5907
▁kullanan	-5908
▁yurtdı	-5909
demir	-5910
▁sigorta	-5911
▁vermektedir	-5912
▁göstermek	-5913
▁birtakım	-5914
iret	-5915
▁rob	-5916
▁bileş	-5917
▁miktarda	-5918
.00	-5919
caya	-5920
▁yaptığımız	-5921
▁koyu	-5922
▁ihracat	-5923
emem	-5924
▁olmaları	-5925
▁mahkeme	-5926
ıyordum	-5927
▁sekret	-5928
▁aydınlat	-5929
zan	-5930
▁kader	-5931
utu	-5932
▁kararlı	-5933
▁gu	-5934
larken	-5935
▁pak	-5936
▁pal	-5937
▁yüzünü	-5938
▁budur	-5939
▁bina	-5940
▁çekin	-5941
▁şunları	-5942
▁vezir	-5943
eceğine	-5944
▁psikolojik	-5945
▁dünyayı	-5946
tük	-5947
▁olgun	-5948
▁çevresinde	-5949
lıyordu	-5950
kaya	-5951
▁tarihleri	-5952
eyn	-5953
▁değerlendirme	-5954
ülmesi	-5955
▁dayalı	-5956
âd	-5957
▁yasa	-5958
▁güvenliği	-5959
▁kaçak	-5960
ediğini	-5961
▁cumartesi	-5962
▁yöntemi	-5963
ruf	-5964
gah	-5965
▁sonuçlar	-5966
▁yaptım	-5967
▁olduğunuz	-5968
▁alınır	-5969
eğine	-5970
▁aksine	-5971
▁ulaşabilirsiniz	-5972
▁dum	-5973
suzluk	-5974
ozof	-5975
ığı	-5976
▁nat	-5977
îm	-5978
▁kiralama	-5979
▁meclisi	-5980
▁bilgiye	-5981
▁verilmesi	-5982
▁koordin	-5983
▁yapıla	-5984
▁verme	-5985
ibe	-5986
▁ederler	-5987
▁yoksul	-5988
▁bizler	-5989
▁ikin	-5990
lığından	-5991
▁artan	-5992
▁andro	-5993
uncu	-5994
▁istiyoruz	-5995
ûn	-5996
▁egz	-5997
▁evinde	-5998
................	-5999
iyorsunuz	-6000
▁yüzüne	-6001
▁istiyordu	-6002
▁kimyasal	-6003
wn	-6004
tic	-6005
▁mac	-6006
▁işbirliği	-6007
▁zamanla	-6008
▁bölümünde	-6009
▁anayasa	-6010
▁sta	-6011
▁incelem	-6012
▁gitmiş	-6013
lıyorum	-6014
▁kartı	-6015
▁sıradan	-6016
▁lak	-6017
▁algı	-6018
▁ortamda	-6019
▁musun	-6020
sının	-6021
▁hakkındaki	-6022
▁zihn	-6023
gâh	-6024
▁çekici	-6025
üyü	-6026
▁sinema	-6027
▁okulu	-6028
▁yetersiz	-6029
▁çanakkale	-6030
▁39	-6031
ilmişti	-6032
▁civarında	-6033
osk	-6034
▁bulgar	-6035
▁;	-6036
▁34	-6037
▁gerekse	-6038
▁çil	-6039
▁okur	-6040
gat	-6041
mus	-6042
▁2008	-6043
].	-6044
şim	-6045
▁şahıs	-6046
▁olduğunda	-6047
▁yahut	-6048
▁telefonu	-6049
▁yazdığı	-6050
▁başlayacak	-6051
sh	-6052
isiz	-6053
▁turk	-6054
▁göv	-6055
dıkça	-6056
▁rivayet	-6057
▁gelmesi	-6058
▁nesil	-6059
▁albüm	-6060
▁toh	-6061
▁süz	-6062
otik	-6063
▁yapabilirsiniz	-6064
▁çav	-6065
▁vefat	-6066
▁tüketic	-6067
▁saniye	-6068
▁arkasından	-6069
0,	-6070
▁olağanüstü	-6071
▁ortasında	-6072
▁oluşturan	-6073
▁hacı	-6074
29	-6075
▁kalıcı	-6076
▁alak	-6077
▁za	-6078
mayıp	-6079
mit	-6080
▁mâ	-6081
.'	-6082
▁çey	-6083
ebilmek	-6084
-4	-6085
▁halen	-6086
▁yönünde	-6087
land	-6088
▁kib	-6089
▁açıldı	-6090
2)	-6091
▁anlatır	-6092
75	-6093
irim	-6094
▁paylaşım	-6095
▁cerrah	-6096
..."	-6097
▁demokrasi	-6098
teyiz	-6099
nü	-6100
▁ca	-6101
▁politika	-6102
unus	-6103
▁koku	-6104
fed	-6105
cıların	-6106
▁babam	-6107
▁köyü	-6108
▁futbolcu	-6109
▁eli	-6110
▁yaratıcı	-6111
▁tipi	-6112
▁kuvvetli	-6113
▁önümüzdeki	-6114
▁yemin	-6115
▁kazanç	-6116
▁isterseniz	-6117
▁usta	-6118
▁zah	-6119
▁yaptığını	-6120
▁kulüp	-6121
▁tanesi	-6122
▁mhp	-6123
▁mol	-6124
▁çadır	-6125
▁delâil	-6126
ich	-6127
▁banyo	-6128
▁muay	-6129
▁istediğini	-6130
▁ti	-6131
▁kuran	-6132
melik	-6133
▁talima	-6134
▁kendisinden	-6135
âzım	-6136
▁altyap	-6137
▁istiyorsanız	-6138
duktan	-6139
▁kullandığı	-6140
▁anlamak	-6141
sinde	-6142
▁general	-6143
kem	-6144
kit	-6145
▁üstü	-6146
▁düzeyde	-6147
▁diyarbakır	-6148
▁ninni	-6149
▁anında	-6150
▁ülkeler	-6151
▁meyve	-6152
henn	-6153
hid	-6154
▁zirv	-6155
lemesi	-6156
▁cüml	-6157
▁varmış	-6158
▁bozul	-6159
şap	-6160
elendir	-6161
▁çuk	-6162
▁pam	-6163
▁kolaylaştır	-6164
▁yüküm	-6165
▁masa	-6166
liye	-6167
▁gazetesi	-6168
▁maruz	-6169
▁stat	-6170
▁arkadaşı	-6171
▁edilmektedir	-6172
▁mevcuttur	-6173
▁tâ	-6174
▁üretimi	-6175
▁trabzon	-6176
yak	-6177
▁seviş	-6178
▁başarısız	-6179
▁bulunması	-6180
▁sorunun	-6181
▁konularda	-6182
▁kalıp	-6183
▁edici	-6184
▁ithal	-6185
▁şeytan	-6186
▁hazret	-6187
memesi	-6188
▁zeh	-6189
▁salı	-6190
▁filozof	-6191
▁biliyordu	-6192
▁sivas	-6193
▁idare	-6194
rük	-6195
▁ege	-6196
▁resûlullah	-6197
▁kü	-6198
note	-6199
▁emekli	-6200
satı	-6201
▁gerekç	-6202
alesef	-6203
▁atilla	-6204
▁görünüş	-6205
▁çır	-6206
▁edir	-6207
▁erzurum	-6208
▁gelmiştir	-6209
▁imkanı	-6210
▁muhab	-6211
▁barındır	-6212
56	-6213
▁duru	-6214
cev	-6215
▁direktör	-6216
vanı	-6217
▁okum	-6218
▁final	-6219
▁windows	-6220
▁müşrik	-6221
▁kısaca	-6222
▁7.	-6223
îh	-6224
▁sch	-6225
ill	-6226
33	-6227
darı	-6228
▁kısmını	-6229
▁burası	-6230
▁kapıyı	-6231
▁fuar	-6232
ğeri	-6233
▁hunların	-6234
▁kurtuluş	-6235
1)	-6236
nsanlar	-6237
▁cevabı	-6238
▁öyl	-6239
▁medine	-6240
▁sertif	-6241
▁girer	-6242
ste	-6243
▁dışişleri	-6244
▁kalacak	-6245
▁etrafında	-6246
ustur	-6247
▁gücünü	-6248
▁ci	-6249
▁tuv	-6250
▁seyret	-6251
▁dörd	-6252
▁müsa	-6253
imini	-6254
paşa	-6255
kah	-6256
▁bugünkü	-6257
▁sayede	-6258
landa	-6259
▁küf	-6260
▁bakar	-6261
▁tasarımı	-6262
▁kullanma	-6263
▁hikmet	-6264
▁yapıldığı	-6265
▁kavg	-6266
▁acel	-6267
ağını	-6268
▁aşkın	-6269
▁yayınlanan	-6270
▁önder	-6271
▁birinde	-6272
kap	-6273
▁diplo	-6274
mediğini	-6275
▁geride	-6276
▁bulur	-6277
▁yıllardır	-6278
▁hakikat	-6279
▁havalim	-6280
▁hic	-6281
▁açma	-6282
▁alınacak	-6283
▁güler	-6284
▁kumandan	-6285
▁fan	-6286
▁gözaltına	-6287
▁yaşıyor	-6288
▁uyu	-6289
paz	-6290
sis	-6291
ırdı	-6292
▁sov	-6293
▁seven	-6294
▁kısı	-6295
▁durdu	-6296
▁yılından	-6297
unlar	-6298
yaj	-6299
▁malatya	-6300
▁diyorum	-6301
▁hastalığı	-6302
▁bro	-6303
▁eskişehir	-6304
mis	-6305
▁yüzlerce	-6306
▁bilge	-6307
ilmesine	-6308
masyon	-6309
▁keskin	-6310
duğunuz	-6311
▁zorluk	-6312
▁anım	-6313
▁döner	-6314
▁sadrazam	-6315
▁gölg	-6316
▁ilçe	-6317
kür	-6318
alılar	-6319
▁ziyade	-6320
▁tabgaç	-6321
▁aksi	-6322
▁sürücü	-6323
▁gı	-6324
nel	-6325
▁altındaki	-6326
▁47	-6327
iyye	-6328
▁beyler	-6329
▁ulaşım	-6330
lanarak	-6331
▁çiğ	-6332
▁kendinizi	-6333
▁mahkemesi	-6334
▁sıvı	-6335
ülmüş	-6336
erk	-6337
▁boyn	-6338
âk	-6339
▁geldik	-6340
▁adayı	-6341
▁sevinç	-6342
▁tarafı	-6343
▁kutu	-6344
bilirim	-6345
düler	-6346
▁yumurta	-6347
luğa	-6348
▁ırk	-6349
ilerinden	-6350
▁kaza	-6351
▁kendime	-6352
▁gözler	-6353
lerimize	-6354
în	-6355
▁seçen	-6356
▁komutanı	-6357
▁yolları	-6358
▁müdürlüğ	-6359
▁bulunduğunu	-6360
▁karşısına	-6361
▁fas	-6362
▁getirir	-6363
▁canlandır	-6364
▁lek	-6365
▁girmiş	-6366
▁etmeyi	-6367
▁gezeg	-6368
▁kötül	-6369
fil	-6370
▁lük	-6371
▁oluyordu	-6372
▁konus	-6373
▁oranında	-6374
ıplak	-6375
▁sebeple	-6376
▁tasarruf	-6377
▁yılları	-6378
▁anlatı	-6379
▁olsaydı	-6380
▁bilet	-6381
▁anlatıyor	-6382
▁şüphesiz	-6383
▁suyun	-6384
ji	-6385
▁resm	-6386
istler	-6387
▁damar	-6388
▁ayet	-6389
▁öğrenmek	-6390
ımdan	-6391
▁bkz	-6392
▁sömür	-6393
▁ww	-6394
antep	-6395
55	-6396
riyet	-6397
▁varsay	-6398
▁zamana	-6399
iti	-6400
çisi	-6401
▁çıktığı	-6402
▁günleri	-6403
▁yeterince	-6404
▁siteleri	-6405
▁gündeme	-6406
türü	-6407
▁alıcı	-6408
▁yüzyılda	-6409
▁keyifli	-6410
▁ailen	-6411
▁subay	-6412
ebek	-6413
▁yiy	-6414
▁gelerek	-6415
▁tey	-6416
▁çik	-6417
uki	-6418
▁ahşap	-6419
▁karan	-6420
▁çağdaş	-6421
▁ömür	-6422
pi	-6423
▁şekli	-6424
maların	-6425
▁maalesef	-6426
▁valisi	-6427
uluyor	-6428
▁sunan	-6429
▁şimdiye	-6430
iyel	-6431
▁uydur	-6432
bab	-6433
büs	-6434
▁mesle	-6435
emizde	-6436
▁olmaması	-6437
▁dola	-6438
▁kafa	-6439
▁nereden	-6440
▁delil	-6441
meyin	-6442
▁kopar	-6443
▁nar	-6444
tes	-6445
alarıyla	-6446
▁denize	-6447
ahh	-6448
▁yapın	-6449
▁pazartesi	-6450
peryal	-6451
▁dolan	-6452
ök	-6453
▁hemş	-6454
hone	-6455
▁bidâye	-6456
▁doç	-6457
amadı	-6458
▁gelişme	-6459
▁durak	-6460
▁durumun	-6461
▁anlar	-6462
▁yab	-6463
▁tarafında	-6464
▁farkı	-6465
▁duyduğu	-6466
▁elli	-6467
▁etiketler	-6468
▁sâ	-6469
▁görevlendir	-6470
zam	-6471
▁log	-6472
menizi	-6473
▁sovyet	-6474
▁yerleri	-6475
▁york	-6476
▁kişiyi	-6477
▁set	-6478
▁silin	-6479
▁kimin	-6480
▁esîr	-6481
▁laf	-6482
▁hükümeti	-6483
▁gibidir	-6484
▁android	-6485
sından	-6486
▁kapak	-6487
ildiğini	-6488
▁gökyüz	-6489
▁lisesi	-6490
▁öncelik	-6491
onlar	-6492
likleri	-6493
spanya	-6494
tl	-6495
luğunu	-6496
▁kuvvetleri	-6497
▁uygar	-6498
top	-6499
▁kısıt	-6500
üzel	-6501
mıştım	-6502
tikleri	-6503
▁anlaşma	-6504
▁john	-6505
▁başladılar	-6506
▁bizden	-6507
▁uyumlu	-6508
▁niye	-6509
işle	-6510
▁kiralık	-6511
▁kurtu	-6512
▁sözünü	-6513
▁sayılır	-6514
▁bulaş	-6515
▁genişlet	-6516
▁görecek	-6517
▁ölen	-6518
▁alanları	-6519
▁dönemin	-6520
▁tarafa	-6521
mıyorum	-6522
▁çekir	-6523
▁sis	-6524
▁cehenn	-6525
▁göstermektedir	-6526
▁ailesi	-6527
▁tom	-6528
▁zav	-6529
▁fikr	-6530
▁alanlar	-6531
▁müf	-6532
▁annem	-6533
▁razı	-6534
▁yuv	-6535
▁köl	-6536
▁devamlı	-6537
▁heykel	-6538
▁gösterdiği	-6539
▁olmanın	-6540
lup	-6541
itter	-6542
rip	-6543
▁alması	-6544
▁mevsim	-6545
▁makyaj	-6546
ano	-6547
▁alkol	-6548
yabil	-6549
hakî	-6550
▁aşama	-6551
▁istan	-6552
-201	-6553
▁çevres	-6554
abileceği	-6555
isyen	-6556
▁bomb	-6557
▁âyet	-6558
▁alınarak	-6559
▁oğlum	-6560
▁garanti	-6561
▁mersin	-6562
anların	-6563
▁anlayışı	-6564
▁zincir	-6565
▁buğ	-6566
yiz	-6567
fir	-6568
▁1/3	-6569
amızda	-6570
▁gerçeği	-6571
▁şiddetli	-6572
▁olanı	-6573
▁söylemiş	-6574
▁harca	-6575
lanacak	-6576
▁tac	-6577
▁fo	-6578
▁muhalef	-6579
▁londra	-6580
▁misin	-6581
▁mete	-6582
▁meşhur	-6583
▁hid	-6584
▁istis	-6585
▁özür	-6586
▁müd	-6587
▁yapması	-6588
▁beyhakî	-6589
▁alçak	-6590
▁sıfır	-6591
▁jandarma	-6592
▁edirne	-6593
▁konferans	-6594
ılmaya	-6595
▁dert	-6596
▁bekleyen	-6597
▁süreli	-6598
▁şahin	-6599
▁görünür	-6600
▁korkut	-6601
▁sahne	-6602
talyan	-6603
▁beslenme	-6604
▁verimli	-6605
iyorlardı	-6606
▁besin	-6607
▁şem	-6608
▁makine	-6609
▁tarihsel	-6610
oğol	-6611
melerin	-6612
▁2000	-6613
:)	-6614
▁yüzyılın	-6615
▁rezerv	-6616
sc	-6617
dîn	-6618
▁8.	-6619
▁bünyesinde	-6620
▁iğ	-6621
▁zer	-6622
▁müslim	-6623
amayan	-6624
▁dediği	-6625
amam	-6626
▁yoluna	-6627
nşa	-6628
▁dürüst	-6629
▁46	-6630
▁raporu	-6631
▁www	-6632
▁yönde	-6633
▁kred	-6634
▁vakıf	-6635
daha	-6636
ilebil	-6637
▁kulübü	-6638
▁başladım	-6639
▁43	-6640
▁sayg	-6641
▁ligi	-6642
▁çalışmak	-6643
▁erdem	-6644
▁tb	-6645
rom	-6646
▁cal	-6647
mad	-6648
▁unutul	-6649
▁kimseye	-6650
▁seri	-6651
▁salonu	-6652
▁varlığı	-6653
▁kurmak	-6654
▁macer	-6655
sizin	-6656
▁vesil	-6657
▁kargo	-6658
eğer	-6659
▁ens	-6660
▁çant	-6661
▁gelmez	-6662
▁yahudi	-6663
nci	-6664
▁ulaşmak	-6665
▁ov	-6666
▁şe	-6667
ell	-6668
▁komün	-6669
_0	-6670
idi	-6671
▁rüzgâr	-6672
▁vakfı	-6673
▁koyun	-6674
▁akrab	-6675
▁eseri	-6676
▁canım	-6677
leki	-6678
▁kaydetti	-6679
▁girip	-6680
hiş	-6681
ırda	-6682
azi	-6683
▁akış	-6684
▁link	-6685
▁tüketim	-6686
▁tedavisi	-6687
nas	-6688
▁bitki	-6689
▁cis	-6690
cılığı	-6691
▁istanbul	-6692
bahar	-6693
elle	-6694
▁tarzı	-6695
▁masraf	-6696
▁birşey	-6697
▁kaymakam	-6698
▁heyet	-6699
▁adamları	-6700
▁bırakıp	-6701
▁ehl	-6702
▁sizden	-6703
ılmak	-6704
▁tüy	-6705
▁tuş	-6706
▁gönl	-6707
▁dor	-6708
eyip	-6709
▁bisiklet	-6710
▁kurş	-6711
▁dalı	-6712
▁dördüncü	-6713
leyse	-6714
▁cezası	-6715
▁niteli	-6716
▁buhârî	-6717
▁makinesi	-6718
avv	-6719
▁yerlere	-6720
lg	-6721
benim	-6722
▁efendim	-6723
▁ekipleri	-6724
lerdeki	-6725
▁keyf	-6726
▁sözleşme	-6727
▁erişim	-6728
▁hariç	-6729
▁zik	-6730
▁numaralı	-6731
▁seyr	-6732
▁musunuz	-6733
masız	-6734
▁merkezinde	-6735
▁kitabın	-6736
▁hakkını	-6737
▁kocaman	-6738
▁nöbet	-6739
▁maçı	-6740
▁kaldığı	-6741
▁mater	-6742
▁başlıklı	-6743
ong	-6744
memişti	-6745
▁millî	-6746
▁kağan	-6747
ille	-6748
▁ekibi	-6749
▁kale	-6750
▁öncesinde	-6751
▁0,	-6752
▁hazin	-6753
▁perş	-6754
▁çizgi	-6755
▁cevab	-6756
▁selçuklu	-6757
▁örneği	-6758
▁tüf	-6759
opa	-6760
foot	-6761
▁kalktı	-6762
▁gözet	-6763
▁genelinde	-6764
ww	-6765
▁gelmektedir	-6766
▁prote	-6767
▁disiplin	-6768
▁sanıyor	-6769
?»	-6770
▁oğuz	-6771
▁ga	-6772
▁ürünün	-6773
▁gereksin	-6774
▁2009	-6775
▁vicdan	-6776
▁fetö	-6777
▁indirim	-6778
▁gözü	-6779
▁belirlenen	-6780
▁ötürü	-6781
▁geçip	-6782
ceğiz	-6783
▁sorunlar	-6784
▁altını	-6785
▁geçiyor	-6786
58	-6787
▁iphone	-6788
gini	-6789
▁kek	-6790
▁hatırla	-6791
▁sorular	-6792
▁türklerin	-6793
▁anladı	-6794
▁düşünceler	-6795
▁cezalandır	-6796
▁diğeri	-6797
▁kazanan	-6798
▁başladık	-6799
▁seviye	-6800
duğunda	-6801
ts	-6802
▁zamanın	-6803
▁·	-6804
▁44	-6805
▁150	-6806
ağına	-6807
amayacak	-6808
▁açan	-6809
▁muhar	-6810
▁sunulan	-6811
▁yoldan	-6812
itesi	-6813
▁yağı	-6814
▁ederiz	-6815
yani	-6816
uzu	-6817
âv	-6818
▁dib	-6819
▁müte	-6820
▁yönetmeli	-6821
eter	-6822
5)	-6823
▁misiniz	-6824
▁deprem	-6825
udi	-6826
▁geçirdi	-6827
yat	-6828
▁devamı	-6829
▁süredir	-6830
▁kalmıştı	-6831
▁gülen	-6832
▁müdahal	-6833
▁eliyle	-6834
ick	-6835
▁düzgün	-6836
▁işini	-6837
▁ita	-6838
▁3,	-6839
abiliriz	-6840
▁yürek	-6841
▁ilişkileri	-6842
▁başa	-6843
▁uyk	-6844
▁otor	-6845
▁kayseri	-6846
▁kalmak	-6847
▁verim	-6848
hep	-6849
▁anlamında	-6850
▁diyal	-6851
ılda	-6852
hem	-6853
▁bıçak	-6854
▁yansıt	-6855
▁savaşa	-6856
▁dosya	-6857
şleri	-6858
▁zem	-6859
▁murad	-6860
▁olayları	-6861
mec	-6862
▁yönetmen	-6863
▁gümrük	-6864
▁ayrıntılı	-6865
▁olabilecek	-6866
▁eğlenceli	-6867
alay	-6868
▁bodr	-6869
▁epey	-6870
▁milletvekil	-6871
▁avustur	-6872
▁mevki	-6873
▁zorlu	-6874
▁arkadaşları	-6875
▁kullanılması	-6876
▁karn	-6877
▁arşiv	-6878
footnote	-6879
▁caz	-6880
▁kültürü	-6881
▁uzmanı	-6882
▁sc	-6883
yâ	-6884
▁köken	-6885
▁labor	-6886
▁birleşik	-6887
▁kamyon	-6888
▁ittifak	-6889
▁çarşam	-6890
▁ölümü	-6891
▁oruç	-6892
▁kaps	-6893
▁etken	-6894
▁arslan	-6895
▁aldır	-6896
▁çalışmaya	-6897
▁emperyal	-6898
▁mahalle	-6899
▁medeniyet	-6900
▁materyal	-6901
▁ikna	-6902
▁toplantısı	-6903
▁tamir	-6904
▁taze	-6905
iya	-6906
mışlar	-6907
▁başından	-6908
eyş	-6909
▁almıştır	-6910
▁moğol	-6911
▁çekim	-6912
▁ermeni	-6913
▁yerinden	-6914
▁apple	-6915
▁bakarak	-6916
juv	-6917
▁rö	-6918
▁raf	-6919
▁42	-6920
▁saati	-6921
▁bonus	-6922
▁çeliş	-6923
▁endüstr	-6924
▁dışına	-6925
▁sınırları	-6926
▁teşekkürler	-6927
▁muhtemelen	-6928
▁döş	-6929
iyo	-6930
▁atık	-6931
▁çaba	-6932
ress	-6933
▁belge	-6934
umun	-6935
▁geliştirme	-6936
▁bildirdi	-6937
dön	-6938
▁giderken	-6939
▁uygulamaları	-6940
▁hom	-6941
▁şap	-6942
▁mesleki	-6943
▁bütç	-6944
78	-6945
▁çekmek	-6946
▁koydu	-6947
âmil	-6948
▁bağlam	-6949
▁kaydı	-6950
▁orhan	-6951
▁kötülük	-6952
▁karmaşık	-6953
▁fikri	-6954
▁ulaştı	-6955
ıyorlardı	-6956
▁bekir	-6957
atistik	-6958
▁olayın	-6959
▁mekaniz	-6960
▁büyüy	-6961
▁gan	-6962
▁bulabilirsiniz	-6963
uar	-6964
atçı	-6965
beri	-6966
lâh	-6967
▁şarap	-6968
▁görüyoruz	-6969
anıyordu	-6970
▁firması	-6971
▁çavuş	-6972
▁yapmayı	-6973
ısındaki	-6974
www	-6975
▁dakikada	-6976
▁tıkan	-6977
▁uzaklaştır	-6978
▁adresi	-6979
letişim	-6980
▁taşımak	-6981
▁kapısı	-6982
▁perşembe	-6983
▁hani	-6984
buki	-6985
▁uyuştur	-6986
▁meşgul	-6987
▁bodrum	-6988
▁yavru	-6989
▁bekledi	-6990
200	-6991
likler	-6992
▁hasar	-6993
▁varlığını	-6994
▁kaynakları	-6995
▁üzün	-6996
barı	-6997
▁tavsiy	-6998
▁amir	-6999
▁istedim	-7000
▁kariyer	-7001
▁isterim	-7002
salar	-7003
/201	-7004
cik	-7005
▁rica	-7006
%20	-7007
▁ellerini	-7008
ump	-7009
▁keşfet	-7010
▁pi	-7011
▁tarihte	-7012
▁garant	-7013
▁panel	-7014
▁olmazsa	-7015
▁bizimle	-7016
▁kıt	-7017
▁bilinc	-7018
▁edilerek	-7019
gut	-7020
▁muam	-7021
▁zeki	-7022
▁lideri	-7023
▁sektöründe	-7024
▁sec	-7025
▁gerçekleşen	-7026
bütün	-7027
▁kaybetti	-7028
tiy	-7029
arik	-7030
▁akademik	-7031
aladı	-7032
ref	-7033
▁metr	-7034
ndeki	-7035
▁buradaki	-7036
▁fıs	-7037
▁öykü	-7038
▁gaziantep	-7039
▁yaralı	-7040
likten	-7041
göz	-7042
▁190	-7043
▁olgu	-7044
▁inti	-7045
▁köprü	-7046
vat	-7047
▁çarşamba	-7048
emeyecek	-7049
▁hitap	-7050
▁fit	-7051
▁akla	-7052
▁kasab	-7053
▁bilmek	-7054
maktaydı	-7055
▁icra	-7056
▁istemez	-7057
76	-7058
▁55	-7059
▁bos	-7060
▁denen	-7061
akat	-7062
▁bayramı	-7063
▁filistin	-7064
▁sizleri	-7065
▁oluşur	-7066
▁belirgin	-7067
▁söylediği	-7068
▁savaşın	-7069
▁başladığı	-7070
▁ayrım	-7071
miz	-7072
▁bağırdı	-7073
▁derhal	-7074
ülecek	-7075
lamadan	-7076
▁geçerek	-7077
▁antren	-7078
içi	-7079
sus	-7080
▁muc	-7081
▁tamamlan	-7082
▁laborat	-7083
▁organize	-7084
▁şirketin	-7085
▁soluk	-7086
yol	-7087
▁stres	-7088
-10	-7089
ull	-7090
▁pahalı	-7091
▁potansiyel	-7092
-8	-7093
▁oyunun	-7094
▁felsefe	-7095
ds	-7096
▁beslen	-7097
okol	-7098
abilen	-7099
miyordu	-7100
▁oyunlar	-7101
ates	-7102
pro	-7103
oda	-7104
örü	-7105
tılı	-7106
alel	-7107
▁sisteminin	-7108
bit	-7109
▁ayda	-7110
▁oturan	-7111
▁işken	-7112
▁boşal	-7113
▁arayan	-7114
▁perde	-7115
nce	-7116
▁açıklaması	-7117
▁olacaktı	-7118
veya	-7119
▁yılının	-7120
▁teşkilat	-7121
▁fırsatı	-7122
▁sıç	-7123
▁tırman	-7124
▁büyüme	-7125
▁col	-7126
▁keç	-7127
abilirler	-7128
▁iyilik	-7129
evî	-7130
png	-7131
til	-7132
burg	-7133
▁çalışmalarını	-7134
▁4/	-7135
ikat	-7136
▁müthiş	-7137
▁halkının	-7138
32	-7139
▁kadına	-7140
▁çür	-7141
▁sağladı	-7142
▁fakir	-7143
çuk	-7144
▁fed	-7145
▁gönüllü	-7146
▁uygulanan	-7147
▁duv	-7148
▁görevli	-7149
ükle	-7150
▁hizmetler	-7151
▁suçlu	-7152
▁değilse	-7153
▁manevi	-7154
▁uzaktan	-7155
▁bakımdan	-7156
▁açığa	-7157
▁diledi	-7158
.10	-7159
▁ibadet	-7160
▁karşımıza	-7161
▁sözcü	-7162
▁boşluk	-7163
▁tun	-7164
zade	-7165
▁ima	-7166
▁çoktan	-7167
▁şimdiden	-7168
mıyordu	-7169
▁tersine	-7170
▁düzenleme	-7171
iğit	-7172
]](../	-7173
▁plastik	-7174
▁çıplak	-7175
▁çukur	-7176
▁çıkması	-7177
▁soruşturma	-7178
hoş	-7179
▁geçirmek	-7180
▁harp	-7181
▁my	-7182
mp	-7183
▁41	-7184
▁malzemeleri	-7185
▁çinli	-7186
▁konuya	-7187
▁karşılığında	-7188
▁kazandı	-7189
▁sesini	-7190
▁400	-7191
▁bitti	-7192
▁tazmin	-7193
▁olduğunun	-7194
▁gerekirse	-7195
▁sünnet	-7196
▁vasıt	-7197
▁anlamlı	-7198
▁cah	-7199
▁evrensel	-7200
idor	-7201
▁karay	-7202
▁zorla	-7203
▁hepimiz	-7204
▁sadık	-7205
▁konfor	-7206
▁burun	-7207
▁sonuçta	-7208
▁sahîh	-7209
larsa	-7210
▁robot	-7211
31	-7212
▁gençler	-7213
▁bizde	-7214
▁pe	-7215
▁lit	-7216
▁muz	-7217
▁atöl	-7218
liğiyle	-7219
şak	-7220
dağı	-7221
▁topar	-7222
▁yut	-7223
irli	-7224
▁ram	-7225
isindeki	-7226
▁uk	-7227
▁teâlâ	-7228
▁turn	-7229
▁şartı	-7230
▁duruyordu	-7231
kender	-7232
▁dünyası	-7233
▁düşüş	-7234
▁yapış	-7235
▁üstlen	-7236
▁numarası	-7237
▁diyordu	-7238
▁yemeği	-7239
▁mm	-7240
▁uzanan	-7241
▁oldular	-7242
▁verilecek	-7243
araj	-7244
▁okumak	-7245
▁senden	-7246
▁kilometre	-7247
▁halil	-7248
▁gürültü	-7249
▁oluşum	-7250
▁sürpr	-7251
▁arif	-7252
▁aptal	-7253
liğinden	-7254
lüğünü	-7255
▁kalkış	-7256
▁basket	-7257
▁reddet	-7258
▁beklent	-7259
▁çıkarak	-7260
▁tarifi	-7261
org	-7262
dini	-7263
▁ermen	-7264
▁döndür	-7265
▁salladı	-7266
▁şartları	-7267
▁miktarı	-7268
▁lay	-7269
▁intik	-7270
mil	-7271
▁gergin	-7272
▁kâğıt	-7273
▁kütüphan	-7274
▁beklenen	-7275
▁alınmış	-7276
▁öylesine	-7277
▁bakır	-7278
▁yararlı	-7279
▁çir	-7280
▁ört	-7281
▁itaat	-7282
▁alet	-7283
▁akım	-7284
▁ücreti	-7285
▁soruları	-7286
▁değişen	-7287
▁yolun	-7288
labilir	-7289
▁çıkma	-7290
diğinden	-7291
▁ai	-7292
ciğer	-7293
diren	-7294
yorum	-7295
▁öğle	-7296
▁yoksun	-7297
▁meb	-7298
ümde	-7299
▁kodu	-7300
▁hev	-7301
▁gerçi	-7302
▁mağdur	-7303
▁örgütün	-7304
▁komisyonu	-7305
▁tbmm	-7306
▁vil	-7307
▁havada	-7308
▁karşılığı	-7309
▁gidece	-7310
▁pozit	-7311
▁tuttu	-7312
▁karın	-7313
zin	-7314
34	-7315
▁gelişen	-7316
▁sahte	-7317
▁biliyoruz	-7318
tıp	-7319
don	-7320
sever	-7321
▁sanal	-7322
▁burjuv	-7323
▁yardımıyla	-7324
unuza	-7325
▁bizlere	-7326
▁yardımı	-7327
▁tüc	-7328
▁lat	-7329
▁iyileştir	-7330
graf	-7331
fan	-7332
lediler	-7333
▁imzalan	-7334
▁hissetti	-7335
▁bilmiyor	-7336
▁protokol	-7337
kay	-7338
▁kendinden	-7339
▁düzeni	-7340
▁emret	-7341
▁şahit	-7342
sâ	-7343
▁duyarlı	-7344
▁yapmanız	-7345
▁kaçınılmaz	-7346
▁kamera	-7347
▁bölgeye	-7348
iliğinden	-7349
ding	-7350
▁eleman	-7351
▁dünyadaki	-7352
▁masaj	-7353
▁tuvalet	-7354
▁rahatlıkla	-7355
▁rektör	-7356
▁kitapları	-7357
▁twitter	-7358
▁festival	-7359
▁görevini	-7360
▁belirsiz	-7361
▁verilmiştir	-7362
▁dinlen	-7363
▁gözyaş	-7364
▁anayas	-7365
▁hafız	-7366
dis	-7367
▁bulunuyordu	-7368
▁bulunmak	-7369
▁gam	-7370
▁olayların	-7371
esidir	-7372
▁geleceğ	-7373
▁hek	-7374
▁verip	-7375
▁blok	-7376
▁başkent	-7377
▁giyim	-7378
▁zararlı	-7379
▁çekiyor	-7380
▁çöp	-7381
▁hürriyet	-7382
▁bileti	-7383
▁ajans	-7384
▁tü	-7385
▁satır	-7386
▁..	-7387
▁araçları	-7388
▁büyüt	-7389
▁müslümanlar	-7390
▁istihdam	-7391
▁kin	-7392
gül	-7393
▁kurulmuş	-7394
▁rev	-7395
bunu	-7396
▁yarattığı	-7397
▁somut	-7398
▁ikram	-7399
▁milletin	-7400
▁oyunc	-7401
▁yiğit	-7402
çilik	-7403
tas	-7404
laşması	-7405
ğla	-7406
▁şifr	-7407
ılıyordu	-7408
▁ürünlerin	-7409
▁öğrencileri	-7410
bank	-7411
▁çatı	-7412
▁haykır	-7413
▁yönetmelik	-7414
▁dergisi	-7415
▁çocuklara	-7416
oper	-7417
▁venedik	-7418
▁gram	-7419
▁tutun	-7420
7)	-7421
▁görünt	-7422
▁kutlu	-7423
▁q	-7424
▁döviz	-7425
▁apart	-7426
▁açar	-7427
6)	-7428
▁kaba	-7429
▁beda	-7430
▁dayanıklı	-7431
mışlardı	-7432
değer	-7433
▁sporcu	-7434
ende	-7435
dilik	-7436
▁kocaeli	-7437
▁musa	-7438
▁suya	-7439
▁sürecinde	-7440
ork	-7441
▁seviyorum	-7442
▁koridor	-7443
ersiniz	-7444
▁parlam	-7445
▁düşündüğ	-7446
▁kore	-7447
▁dondur	-7448
▁hayret	-7449
▁altından	-7450
▁kadı	-7451
emiyor	-7452
▁kureyş	-7453
▁parma	-7454
▁miras	-7455
kiler	-7456
▁peyn	-7457
▁dışındaki	-7458
▁rüzgar	-7459
malısınız	-7460
oter	-7461
▁hayred	-7462
▁yukarıdaki	-7463
▁klima	-7464
▁sistemin	-7465
9)	-7466
zaman	-7467
▁çinliler	-7468
tre	-7469
▁hang	-7470
▁içten	-7471
çilerin	-7472
▁çekip	-7473
▁bardak	-7474
masi	-7475
▁grafik	-7476
▁temsilcisi	-7477
▁kayde	-7478
▁ric	-7479
▁kâr	-7480
▁finansal	-7481
▁böylelikle	-7482
__	-7483
lamıştı	-7484
▁9.	-7485
▁yavuz	-7486
▁hastalıkları	-7487
▁boru	-7488
▁gidiş	-7489
▁montaj	-7490
▁çıkmak	-7491
das	-7492
▁bük	-7493
▁ettiğimiz	-7494
▁vakt	-7495
ğünü	-7496
▁horm	-7497
şlem	-7498
▁oranda	-7499
madığını	-7500
mayacağını	-7501
▁lise	-7502
▁4/1	-7503
indan	-7504
yn	-7505
dunuz	-7506
soy	-7507
▁kızar	-7508
▁zavallı	-7509
▁görme	-7510
▁doktora	-7511
▁izlemek	-7512
▁tatmin	-7513
▁kud	-7514
▁dostluk	-7515
▁dinin	-7516
▁çırp	-7517
▁konular	-7518
▁farklılık	-7519
▁nice	-7520
ılığı	-7521
▁yanıl	-7522
▁ilim	-7523
▁donanım	-7524
ester	-7525
▁lüks	-7526
▁sürdü	-7527
ulmuştur	-7528
68	-7529
▁liman	-7530
▁tohum	-7531
▁almıştı	-7532
lanabilir	-7533
▁müddet	-7534
▁kuram	-7535
▁sizinle	-7536
▁gittim	-7537
arş	-7538
▁odasına	-7539
▁çıkarmak	-7540
und	-7541
akkak	-7542
▁alanlarda	-7543
▁haftada	-7544
▁olmasın	-7545
▁tutmak	-7546
uyan	-7547
biye	-7548
sm	-7549
skender	-7550
iyete	-7551
▁ergen	-7552
▁verebilir	-7553
büy	-7554
iliğin	-7555
▁caddesi	-7556
▁denli	-7557
▁demişti	-7558
düs	-7559
▁ag	-7560
▁kıla	-7561
▁arist	-7562
▁olmuyor	-7563
▁imam	-7564
▁görmez	-7565
enk	-7566
▁eşlik	-7567
▁arma	-7568
▁katil	-7569
▁güçlük	-7570
▁yumurt	-7571
▁düşmüş	-7572
▁mosk	-7573
▁macar	-7574
▁sic	-7575
▁rom	-7576
▁görülmektedir	-7577
▁1-	-7578
▁edenler	-7579
▁albay	-7580
sî	-7581
▁bü	-7582
▁alana	-7583
▁kerim	-7584
▁filmin	-7585
▁hükm	-7586
çın	-7587
▁tamamı	-7588
▁lev	-7589
▁müzak	-7590
▁eğlence	-7591
▁yabgu	-7592
▁süreçte	-7593
▁seçimi	-7594
▁düşer	-7595
▁muhafaza	-7596
▁verilmiş	-7597
▁muaz	-7598
▁salih	-7599
▁koleksiyon	-7600
▁yapılıyor	-7601
▁hesabı	-7602
ektif	-7603
▁üzül	-7604
▁endek	-7605
▁ağırlık	-7606
▁çoğunlukla	-7607
▁şok	-7608
▁tablet	-7609
▁vade	-7610
▁we	-7611
▁karısı	-7612
▁om	-7613
▁kullanılabilir	-7614
▁estetik	-7615
▁özlem	-7616
▁yakış	-7617
▁yetişkin	-7618
100	-7619
▁miydi	-7620
▁digit	-7621
lç	-7622
▁paralel	-7623
▁mide	-7624
▁barbar	-7625
▁geçmek	-7626
▁gerekiyordu	-7627
likte	-7628
▁dairesi	-7629
ört	-7630
▁10.	-7631
▁sep	-7632
▁uyuşturucu	-7633
cal	-7634
iyetle	-7635
▁forum	-7636
▁kontrolü	-7637
kül	-7638
▁topu	-7639
▁âdet	-7640
▁trak	-7641
▁göst	-7642
▁etiket	-7643
kö	-7644
▁sürüyor	-7645
▁ışığı	-7646
▁pişman	-7647
▁3/2	-7648
▁karbon	-7649
rad	-7650
tarih	-7651
▁arkadaşım	-7652
▁aklına	-7653
▁üretilen	-7654
▁demokras	-7655
▁payı	-7656
bana	-7657
▁olduğumu	-7658
▁gittikçe	-7659
▁olanların	-7660
lım	-7661
▁zeus	-7662
▁elbise	-7663
▁muhaseb	-7664
▁pant	-7665
oft	-7666
▁uf	-7667
▁balkan	-7668
nşaat	-7669
▁samimi	-7670
esto	-7671
▁rız	-7672
▁şanlı	-7673
▁2007	-7674
stagram	-7675
▁ödülü	-7676
▁tebrik	-7677
▁bölümde	-7678
cuk	-7679
▁gerçekte	-7680
▁hamil	-7681
▁traf	-7682
diğin	-7683
sir	-7684
▁sunum	-7685
▁ağac	-7686
ılımı	-7687
▁oyuncak	-7688
▁katli	-7689
▁dönen	-7690
şır	-7691
▁avusturya	-7692
ecik	-7693
▁gönderilen	-7694
▁uygulamalar	-7695
▁değişikliği	-7696
▁şikâyet	-7697
▁yarısı	-7698
▁kampanya	-7699
ılırken	-7700
akal	-7701
▁vermesi	-7702
▁yerin	-7703
▁herkesi	-7704
65	-7705
▁uydu	-7706
▁eyalet	-7707
sağ	-7708
▁girmek	-7709
▁sürpriz	-7710
▁ifadelerini	-7711
▁120	-7712
▁masal	-7713
▁duygusu	-7714
▁ağab	-7715
▁yapılmıştır	-7716
▁üyelik	-7717
▁yükselen	-7718
lamaları	-7719
▁play	-7720
umuzun	-7721
lamalar	-7722
▁belirtildi	-7723
ilmeye	-7724
▁star	-7725
▁ord	-7726
▁hadi	-7727
▁tartışma	-7728
▁başlıca	-7729
danın	-7730
▁işık	-7731
tıklarını	-7732
▁firmaları	-7733
▁dâh	-7734
▁hüz	-7735
▁zekâ	-7736
▁divan	-7737
▁sakarya	-7738
▁emre	-7739
unuzun	-7740
▁hotel	-7741
melerine	-7742
▁önemlisi	-7743
▁yanından	-7744
▁haksız	-7745
umuzu	-7746
lanmaktadır	-7747
▁versiyon	-7748
miyorum	-7749
▁askerî	-7750
gulan	-7751
▁atom	-7752
▁kesi	-7753
ğinizi	-7754
▁aldık	-7755
▁rahatsızlık	-7756
▁porno	-7757
hiç	-7758
uyorlar	-7759
▁yaşamış	-7760
▁hayatına	-7761
▁hayatında	-7762
▁bayra	-7763
▁vermişti	-7764
▁kuşkusuz	-7765
▁medyum	-7766
▁yaptığım	-7767
▁bölgenin	-7768
▁padişahın	-7769
▁biçimi	-7770
inip	-7771
▁söyle	-7772
▁kanaat	-7773
▁sadak	-7774
▁bahçe	-7775
şah	-7776
▁çim	-7777
▁aynen	-7778
▁orij	-7779
▁örtü	-7780
▁liste	-7781
alya	-7782
▁kitaplar	-7783
rit	-7784
▁kedi	-7785
balaj	-7786
fez	-7787
▁kullanı	-7788
tti	-7789
▁char	-7790
▁başlaya	-7791
ağında	-7792
▁itiraf	-7793
▁metrek	-7794
▁kazanmak	-7795
▁müj	-7796
▁sıfat	-7797
ice	-7798
eğinin	-7799
dedi	-7800
▁arkasına	-7801
▁geleceği	-7802
▁büyükel	-7803
▁terap	-7804
▁saatte	-7805
larınızın	-7806
▁olabilirsiniz	-7807
sten	-7808
▁muhakkak	-7809
▁aman	-7810
lahi	-7811
▁tedarik	-7812
▁gayrim	-7813
we	-7814
ment	-7815
▁adama	-7816
▁solu	-7817
imizle	-7818
▁camii	-7819
▁tüken	-7820
▁azer	-7821
▁etkileri	-7822
▁krem	-7823
▁şeylerin	-7824
larınıza	-7825
ebiliyor	-7826
▁seçenekleri	-7827
▁işyer	-7828
özel	-7829
▁mum	-7830
▁destan	-7831
▁beklemek	-7832
▁ekledi	-7833
kam	-7834
▁sunduğu	-7835
▁soylu	-7836
▁çalıştığı	-7837
▁esen	-7838
▁tahsil	-7839
▁yıllarında	-7840
▁açıp	-7841
-7	-7842
▁bilem	-7843
▁kaplı	-7844
▁diğerleri	-7845
▁düzel	-7846
ısın	-7847
▁bulabil	-7848
elif	-7849
▁aşık	-7850
mara	-7851
▁kamuoy	-7852
▁giys	-7853
▁kalıyor	-7854
bire	-7855
▁kep	-7856
ünc	-7857
▁görünüyordu	-7858
▁fı	-7859
▁zır	-7860
tığımız	-7861
▁kalmadı	-7862
▁katkıda	-7863
▁çama	-7864
▁türkmen	-7865
▁haned	-7866
itler	-7867
▁yır	-7868
itasyon	-7869
malıyız	-7870
▁alanına	-7871
▁dikkatle	-7872
▁yüklen	-7873
▁doku	-7874
▁engelli	-7875
ebe	-7876
▁zehebî	-7877
nâ	-7878
▁çirkin	-7879
▁lâ	-7880
▁mütte	-7881
beyaz	-7882
▁eklem	-7883
ersen	-7884
▁sınıfı	-7885
▁kartal	-7886
▁tasavv	-7887
▁ente	-7888
▁durumuna	-7889
▁sertifik	-7890
▁olmasından	-7891
▁ispat	-7892
▁başlamıştır	-7893
▁gezi	-7894
▁şüphe	-7895
▁akses	-7896
ğınızda	-7897
▁hakaret	-7898
▁alırken	-7899
▁bakımı	-7900
▁zamandır	-7901
▁berek	-7902
▁vizyon	-7903
devlet	-7904
▁kıskan	-7905
▁adamlar	-7906
lileri	-7907
▁ayrıldı	-7908
▁gecesi	-7909
▁astr	-7910
bağ	-7911
göl	-7912
rut	-7913
▁istediğim	-7914
▁saatlerinde	-7915
▁aracın	-7916
▁niz	-7917
▁pom	-7918
▁felaket	-7919
lası	-7920
▁ambalaj	-7921
▁görmeye	-7922
▁<	-7923
▁put	-7924
▁ötesinde	-7925
uluğu	-7926
▁randev	-7927
çileri	-7928
söz	-7929
yük	-7930
▁inanılmaz	-7931
▁iyileş	-7932
▁rüya	-7933
çağ	-7934
▁edeceğiz	-7935
▁üzeri	-7936
▁projeler	-7937
▁savaşçı	-7938
▁minik	-7939
▁izledi	-7940
▁faaliyetleri	-7941
urî	-7942
malara	-7943
▁atmos	-7944
88	-7945
the	-7946
▁tehlike	-7947
tam	-7948
▁tarafta	-7949
▁devrimci	-7950
▁koruyucu	-7951
tiş	-7952
niz	-7953
▁kalkınma	-7954
▁artı	-7955
lülük	-7956
▁boşan	-7957
▁sizlerle	-7958
▁tarihinden	-7959
ânî	-7960
▁egzersiz	-7961
▁özgün	-7962
▁kuşku	-7963
▁devletleri	-7964
ılırsa	-7965
▁öğrenme	-7966
▁pamuk	-7967
▁hakem	-7968
▁yang	-7969
▁anlatım	-7970
▁veriler	-7971
pet	-7972
▁sesleri	-7973
▁parayı	-7974
▁atak	-7975
▁ömr	-7976
▁surat	-7977
▁verdiler	-7978
▁stratejik	-7979
▁söyledim	-7980
▁plana	-7981
oks	-7982
▁öğüt	-7983
ach	-7984
▁anılan	-7985
ilmek	-7986
▁katıldığı	-7987
▁abdur	-7988
▁bulma	-7989
▁obj	-7990
▁mesele	-7991
#_	-7992
tc	-7993
ýr	-7994
▁benî	-7995
ruz	-7996
▁denem	-7997
▁muv	-7998
▁görüşme	-7999
▁bran	-8000
▁fatur	-8001
▁elindeki	-8002
▁yazılmış	-8003
sviç	-8004
▁konuyla	-8005
baycan	-8006
▁sih	-8007
▁tıb	-8008
▁eşsiz	-8009
▁noktaya	-8010
raz	-8011
▁idam	-8012
▁enfeksiyon	-8013
▁enstitüsü	-8014
sos	-8015
▁ruhu	-8016
dırıcı	-8017
▁sancak	-8018
▁inceleme	-8019
▁kolaylıkla	-8020
▁kazak	-8021
▁bedava	-8022
▁kokusu	-8023
ml	-8024
▁zap	-8025
adi	-8026
▁eti	-8027
▁kızlar	-8028
▁asan	-8029
▁kurşun	-8030
▁dedek	-8031
▁sahipleri	-8032
▁mekân	-8033
▁düşünmek	-8034
▁arda	-8035
mt	-8036
▁market	-8037
gir	-8038
▁kimseler	-8039
izmi	-8040
▁cor	-8041
ecekti	-8042
▁yazıyor	-8043
59	-8044
▁etkileş	-8045
▁fıkr	-8046
▁olmasının	-8047
leyebilirsiniz	-8048
▁umarım	-8049
▁programları	-8050
▁py	-8051
mik	-8052
▁yönetici	-8053
lil	-8054
usun	-8055
▁alabilir	-8056
ilmelidir	-8057
▁kısmında	-8058
dükten	-8059
▁etmekte	-8060
▁aldıkları	-8061
▁dönemlerde	-8062
▁mırıl	-8063
▁oturdu	-8064
▁istenen	-8065
▁bozukluk	-8066
▁ikiye	-8067
ladılar	-8068
▁olanları	-8069
ff	-8070
▁etmeden	-8071
▁sinan	-8072
▁elçi	-8073
▁mühim	-8074
▁birdenbire	-8075
▁unutmayın	-8076
▁kapının	-8077
▁beyn	-8078
▁rady	-8079
▁reform	-8080
▁kalkıp	-8081
masıdır	-8082
lamayı	-8083
ftn	-8084
▁yazdı	-8085
mamıştı	-8086
ses	-8087
amıyorum	-8088
▁terörist	-8089
▁moskova	-8090
▁talimat	-8091
▁izleyen	-8092
▁hücum	-8093
▁saltan	-8094
▁vakti	-8095
▁sunul	-8096
▁konuları	-8097
▁sm	-8098
2’	-8099
leyebil	-8100
▁yapılmaktadır	-8101
▁harc	-8102
▁ülkemizin	-8103
▁hr	-8104
▁trump	-8105
▁alp	-8106
▁valide	-8107
name	-8108
▁ailenin	-8109
▁değerleri	-8110
▁oğlan	-8111
liyordu	-8112
ağının	-8113
mazlar	-8114
▁bilgilere	-8115
▁emlak	-8116
▁tün	-8117
▁250	-8118
ımızdan	-8119
▁stok	-8120
▁çetin	-8121
▁saatleri	-8122
▁sarayı	-8123
posta	-8124
▁frank	-8125
çağı	-8126
▁yazarı	-8127
▁yazın	-8128
▁olabileceğini	-8129
▁kişilere	-8130
▁aldığını	-8131
şin	-8132
▁isteği	-8133
▁farkına	-8134
▁aşağıya	-8135
▁kg	-8136
▁ismini	-8137
▁ilişkisi	-8138
▁vazif	-8139
▁yakında	-8140
▁yapay	-8141
▁midir	-8142
emizin	-8143
▁verin	-8144
urk	-8145
▁parçalan	-8146
▁satışa	-8147
▁sordum	-8148
▁kurut	-8149
ああ	-8150
atlar	-8151
▁yurtdış	-8152
▁yaratı	-8153
▁enflasyon	-8154
▁göğs	-8155
▁bud	-8156
▁karaman	-8157
set	-8158
▁dağıtım	-8159
▁ülkelerin	-8160
▁gününde	-8161
▁oturup	-8162
yası	-8163
▁yaşamın	-8164
▁kılav	-8165
▁).	-8166
▁cengiz	-8167
▁değişken	-8168
şimdi	-8169
mini	-8170
▁çalışırken	-8171
hab	-8172
▁itibarı	-8173
▁nakliye	-8174
▁öyleyse	-8175
▁aktivit	-8176
▁kemer	-8177
düğünde	-8178
▁hatun	-8179
▁sinyal	-8180
▁ifadesi	-8181
▁haç	-8182
▁organik	-8183
▁kâmil	-8184
ont	-8185
▁olmasıdır	-8186
ladığımız	-8187
cıları	-8188
▁gor	-8189
▁dalga	-8190
▁peşinde	-8191
▁tavuk	-8192
▁dekorasyon	-8193
düş	-8194
laşmış	-8195
dv	-8196
▁servet	-8197
ami	-8198
▁sınavı	-8199
ayın	-8200
inizden	-8201
▁dersi	-8202
▁rot	-8203
▁aniden	-8204
▁ihmal	-8205
▁sözlerini	-8206
▁kaldırdı	-8207
▁kurdu	-8208
gelen	-8209
üydü	-8210
▁şof	-8211
▁aylarında	-8212
▁mail	-8213
▁hayatının	-8214
böl	-8215
▁düşündüm	-8216
▁geldim	-8217
▁anlamıyla	-8218
zen	-8219
▁kucak	-8220
işe	-8221
▁yazma	-8222
▁işten	-8223
▁hamur	-8224
▁yazan	-8225
▁kapsamlı	-8226
▁sayılan	-8227
▁listesi	-8228
▁kandır	-8229
▁dizisi	-8230
▁ste	-8231
▁terim	-8232
▁fre	-8233
▁senar	-8234
▁yeğ	-8235
eyiz	-8236
▁etsin	-8237
▁bm	-8238
▁kudret	-8239
lidir	-8240
▁bulacak	-8241
▁belâz	-8242
▁kade	-8243
▁müslümanların	-8244
▁bakanlık	-8245
▁gizem	-8246
çılık	-8247
▁yapıyoruz	-8248
▁etmedi	-8249
onsor	-8250
gazi	-8251
cağınız	-8252
dığın	-8253
▁irti	-8254
▁turgut	-8255
▁devreye	-8256
▁okula	-8257
▁noktasında	-8258
▁eşliğinde	-8259
▁sy	-8260
▁inanc	-8261
▁özellikler	-8262
▁korunması	-8263
▁prim	-8264
maktadırlar	-8265
5’	-8266
▁aradan	-8267
naz	-8268
▁kef	-8269
▁hocam	-8270
▁bildiği	-8271
▁deyişle	-8272
▁gelmek	-8273
alarca	-8274
▁çen	-8275
▁oluşturduğu	-8276
▁yıla	-8277
▁timur	-8278
▁başlık	-8279
▁full	-8280
ndir	-8281
▁istasyon	-8282
▁münaseb	-8283
▁düşünen	-8284
▁nişan	-8285
▁teşeb	-8286
tro	-8287
▁hattı	-8288
▁âlim	-8289
▁şehirde	-8290
▁icin	-8291
▁bakmak	-8292
▁düzenlediği	-8293
▁parçaları	-8294
▁prenses	-8295
▁yılına	-8296
▁gran	-8297
▁kayıtlı	-8298
▁orijinal	-8299
▁edecektir	-8300
▁ülkelerde	-8301
açık	-8302
▁fal	-8303
▁kısac	-8304
▁yalı	-8305
cilerin	-8306
67	-8307
▁farkın	-8308
▁kurucu	-8309
▁yapılabilir	-8310
▁festivali	-8311
▁ked	-8312
▁galiba	-8313
▁sıcaklık	-8314
mesin	-8315
▁öğrencilere	-8316
▁slo	-8317
pp	-8318
malarının	-8319
▁bırakın	-8320
had	-8321
▁fig	-8322
!»	-8323
▁yöntemleri	-8324
▁profil	-8325
panyol	-8326
▁verdik	-8327
▁belâzurî	-8328
▁konusundaki	-8329
▁sars	-8330
▁bağlıdır	-8331
▁uygulamaya	-8332
bî	-8333
▁alama	-8334
▁zorundadır	-8335
gn	-8336
ladıkları	-8337
▁tarihine	-8338
▁ediyorlar	-8339
▁derler	-8340
▁duyul	-8341
▁sırf	-8342
taç	-8343
▁rahip	-8344
iğe	-8345
▁japon	-8346
▁rüş	-8347
▁ihtiyar	-8348
▁atıyor	-8349
▁sark	-8350
büyük	-8351
▁özal	-8352
▁2-	-8353
▁eserleri	-8354
▁savaşta	-8355
▁geçmişte	-8356
▁bası	-8357
▁şerif	-8358
▁cesur	-8359
▁getirildi	-8360
▁turnuv	-8361
▁arapça	-8362
▁meşru	-8363
▁birincisi	-8364
iyetin	-8365
▁yetki	-8366
▁58	-8367
▁evrak	-8368
▁basketbol	-8369
▁tescil	-8370
▁etek	-8371
haz	-8372
unacak	-8373
▁rit	-8374
▁insanlık	-8375
▁eğilim	-8376
▁ket	-8377
▁cüz	-8378
▁lik	-8379
▁ilgisi	-8380
▁--	-8381
opol	-8382
▁gösteri	-8383
olik	-8384
▁sayısının	-8385
▁getirmiş	-8386
▁gerçekleşti	-8387
ûmet	-8388
kurmay	-8389
▁milyonlarca	-8390
▁görüldüğü	-8391
▁yapılabil	-8392
▁başkenti	-8393
▁japonya	-8394
▁yanındaki	-8395
▁federasyonu	-8396
▁manzar	-8397
▁santr	-8398
▁yara	-8399
lav	-8400
▁çelebi	-8401
▁elden	-8402
▁küp	-8403
▁azerbaycan	-8404
▁seksi	-8405
neden	-8406
▁desen	-8407
▁hayreddîn	-8408
▁kanlı	-8409
▁testi	-8410
▁iklim	-8411
abilmesi	-8412
▁yaşamı	-8413
▁katk	-8414
▁düşmanı	-8415
çinde	-8416
▁kabar	-8417
▁hafifçe	-8418
▁öf	-8419
▁numara	-8420
▁sponsor	-8421
▁kaleme	-8422
▁mahkûm	-8423
▁arı	-8424
▁geçtiği	-8425
▁kendisiyle	-8426
omet	-8427
▁vadeli	-8428
▁toplanan	-8429
▁sektörü	-8430
▁plaj	-8431
▁dostu	-8432
▁isteyenler	-8433
▁vergisi	-8434
▁doğuş	-8435
▁pantol	-8436
▁tıbbi	-8437
▁tarafına	-8438
yurt	-8439
▁sesli	-8440
▁by	-8441
▁ök	-8442
▁kullanıcılar	-8443
▁burn	-8444
▁geldiler	-8445
▁nazar	-8446
▁aklıma	-8447
▁dinlem	-8448
▁kadir	-8449
▁rıza	-8450
▁rolü	-8451
▁aldılar	-8452
ebileceği	-8453
▁kupası	-8454
▁kardeşim	-8455
▁şartlar	-8456
▁pilot	-8457
▁yücel	-8458
mül	-8459
nsanların	-8460
▁muhalefet	-8461
▁zamanki	-8462
▁getirilen	-8463
▁sevdiği	-8464
oni	-8465
▁bakıyor	-8466
▁vekil	-8467
▁ortadoğu	-8468
▁manisa	-8469
▁dışarıda	-8470
▁havalimanı	-8471
▁kaybı	-8472
▁cümle	-8473
▁sunmaktadır	-8474
▁teknolojik	-8475
▁başkalarının	-8476
▁seninle	-8477
▁gereksiz	-8478
▁kadınları	-8479
▁konuşmaya	-8480
▁savcı	-8481
▁getiriyor	-8482
▁kendimizi	-8483
ash	-8484
oğul	-8485
▁meydanı	-8486
▁üyeler	-8487
▁ülkeye	-8488
▁görüp	-8489
▁tanrının	-8490
▁iktis	-8491
▁oğulları	-8492
tüel	-8493
▁teklifi	-8494
▁mesci	-8495
▁kırım	-8496
vir	-8497
▁çaresiz	-8498
ülasyon	-8499
labil	-8500
▁sust	-8501
▁kendiliğinden	-8502
▁bütçe	-8503
▁aklım	-8504
▁bilmez	-8505
▁kısmen	-8506
larımın	-8507
▁diyecek	-8508
]](	-8509
▁canav	-8510
hey	-8511
▁beklet	-8512
▁yaratık	-8513
▁odaya	-8514
▁yıkama	-8515
▁yaratan	-8516
▁kaşığı	-8517
▁kapitalist	-8518
▁au	-8519
başka	-8520
▁vermeden	-8521
▁durumunu	-8522
resyon	-8523
rez	-8524
▁zan	-8525
▁merkezine	-8526
aklı	-8527
▁bulmuş	-8528
▁edemez	-8529
▁kurduğu	-8530
aa	-8531
übe	-8532
uzun	-8533
▁bilinmeyen	-8534
oli	-8535
çası	-8536
▁taahh	-8537
▁uyuş	-8538
▁sayfada	-8539
gur	-8540
▁asit	-8541
▁ucu	-8542
▁semp	-8543
ğiyle	-8544
▁önlemek	-8545
▁ihal	-8546
gor	-8547
▁konseyi	-8548
gari	-8549
esince	-8550
▁vatandaşlar	-8551
ebilen	-8552
▁hoşlan	-8553
▁pozitif	-8554
▁toplantıda	-8555
▁dayanan	-8556
▁yil	-8557
▁şur	-8558
);	-8559
▁müzesi	-8560
ınan	-8561
▁türkç	-8562
▁sade	-8563
▁katılımı	-8564
▁almayı	-8565
▁merhamet	-8566
▁nükle	-8567
{{{1	-8568
▁küm	-8569
▁bilinçli	-8570
▁herşey	-8571
abak	-8572
aşı	-8573
▁ilanı	-8574
▁sağlanması	-8575
-19	-8576
ikal	-8577
▁körfez	-8578
▁tebliğ	-8579
ral	-8580
▁buhar	-8581
▁içe	-8582
▁çıkarıp	-8583
▁dünyasında	-8584
daroğlu	-8585
mışlardır	-8586
▁sakat	-8587
▁(2)	-8588
▁11.	-8589
▁denizli	-8590
▁sınırsız	-8591
▁dinamik	-8592
▁açıl	-8593
cum	-8594
raç	-8595
berg	-8596
▁kaygı	-8597
laç	-8598
▁yapacağı	-8599
?’	-8600
pir	-8601
▁taşır	-8602
▁kaybeden	-8603
▁delikanlı	-8604
▁bahçeli	-8605
▁sizde	-8606
▁erkeklerin	-8607
▁ısıt	-8608
gâ	-8609
▁yuvarlak	-8610
▁anlatmak	-8611
▁alem	-8612
▁sistemini	-8613
▁serin	-8614
çısı	-8615
▁ardı	-8616
▁işletme	-8617
▁sürer	-8618
cav	-8619
ladığını	-8620
▁kavim	-8621
▁göçmen	-8622
▁bakıyordu	-8623
dro	-8624
▁(19	-8625
▁semt	-8626
▁yıldan	-8627
4’	-8628
▁şimdilik	-8629
▁içecek	-8630
▁bulup	-8631
asın	-8632
ınıyor	-8633
1’	-8634
iyse	-8635
sor	-8636
▁çöl	-8637
▁böcek	-8638
▁bunda	-8639
esir	-8640
▁hayvanlar	-8641
▁üni	-8642
66	-8643
▁vermez	-8644
ilirken	-8645
▁değişiklikler	-8646
▁şansı	-8647
▁meselesi	-8648
▁uyarınca	-8649
▁layık	-8650
▁idari	-8651
▁geçmeden	-8652
dinde	-8653
ürler	-8654
▁çıkmıştı	-8655
▁gösterilen	-8656
ney	-8657
▁paş	-8658
▁piyasa	-8659
iğin	-8660
ezid	-8661
▁deyip	-8662
edd	-8663
▁hint	-8664
▁dâhil	-8665
▁genelkurmay	-8666
▁milletler	-8667
▁tüp	-8668
▁fah	-8669
ılışı	-8670
ayarak	-8671
...)	-8672
▁satılık	-8673
▁yetin	-8674
▁birbirini	-8675
▁ihan	-8676
▁soğut	-8677
▁bağdat	-8678
▁etkiler	-8679
▁haftalık	-8680
âf	-8681
enkul	-8682
▁sıkıştır	-8683
▁kaybed	-8684
▁zihinsel	-8685
▁görem	-8686
▁seslen	-8687
▁posta	-8688
sür	-8689
ndaki	-8690
▁asansör	-8691
arda	-8692
▁caf	-8693
unt	-8694
▁projenin	-8695
▁yaşamını	-8696
▁samsung	-8697
▁çalışmalarına	-8698
▁sıralarda	-8699
▁kraliç	-8700
▁formu	-8701
▁biber	-8702
lgili	-8703
▁sistemine	-8704
delik	-8705
▁isimler	-8706
abileceğiniz	-8707
▁girdiği	-8708
▁tüketici	-8709
▁koşulları	-8710
▁hastane	-8711
▁baktım	-8712
▁ettiğiniz	-8713
▁maçında	-8714
▁sn	-8715
▁kalitesi	-8716
sana	-8717
▁çapında	-8718
▁hukuki	-8719
eyebilirsiniz	-8720
▁emri	-8721
▁mih	-8722
▁4,	-8723
▁kongre	-8724
▁şev	-8725
tüğü	-8726
lerinize	-8727
mektir	-8728
baz	-8729
jan	-8730
▁istemiş	-8731
▁odada	-8732
▁başkanlık	-8733
▁maliye	-8734
▁yerleşim	-8735
▁tik	-8736
▁şan	-8737
▁maddeler	-8738
▁ekipman	-8739
▁kaynaklanan	-8740
▁hollanda	-8741
▁masum	-8742
▁resmen	-8743
▁satışı	-8744
▁bam	-8745
▁protein	-8746
▁49	-8747
▁galip	-8748
▁burs	-8749
▁nor	-8750
luğunda	-8751
▁giyin	-8752
▁türden	-8753
▁vermiştir	-8754
▁hazırlanmış	-8755
▁uğrat	-8756
spanyol	-8757
odu	-8758
▁baskın	-8759
▁marmara	-8760
sım	-8761
manıza	-8762
sviçre	-8763
▁####	-8764
▁yakıt	-8765
▁hükümetin	-8766
▁yönelt	-8767
▁açıklan	-8768
▁danışmanlık	-8769
▁flor	-8770
▁işine	-8771
▁yayımlanan	-8772
▁varoluş	-8773
▁okyan	-8774
▁zann	-8775
▁hum	-8776
uan	-8777
peki	-8778
▁sanık	-8779
enlerin	-8780
▁kavga	-8781
▁yazılan	-8782
edin	-8783
gerçek	-8784
▁kalmaz	-8785
▁eşyalar	-8786
▁istemiyorum	-8787
kiralama	-8788
▁yalvar	-8789
▁mağlup	-8790
▁abbas	-8791
▁hareketleri	-8792
ilya	-8793
tıkça	-8794
▁mc	-8795
▁içerir	-8796
▁gülümsem	-8797
▁hepsinin	-8798
je	-8799
▁ötek	-8800
▁kenara	-8801
ure	-8802
▁köle	-8803
▁bla	-8804
▁yapıştır	-8805
▁öyk	-8806
▁iri	-8807
lıyoruz	-8808
tiğimiz	-8809
▁buldum	-8810
▁izlem	-8811
bı	-8812
▁yavaşça	-8813
osman	-8814
▁çılgın	-8815
▁aldat	-8816
▁teknolojisi	-8817
▁hazine	-8818
▁iletişime	-8819
▁oluşturur	-8820
▁tarihinin	-8821
▁imkânsız	-8822
nes	-8823
▁adında	-8824
▁onda	-8825
▁halbuki	-8826
emektedir	-8827
▁uygur	-8828
teb	-8829
▁indi	-8830
▁politikası	-8831
▁mırıldan	-8832
▁2006	-8833
▁basamak	-8834
▁bilmeyen	-8835
▁konuşmak	-8836
▁erkeğin	-8837
▁protesto	-8838
▁düşünerek	-8839
▁gelebilir	-8840
tra	-8841
▁bölgesel	-8842
▁yığın	-8843
eğinde	-8844
▁haram	-8845
▁mr	-8846
yanın	-8847
▁nu	-8848
▁başlay	-8849
▁evleri	-8850
hai	-8851
▁resimleri	-8852
▁şarj	-8853
nî	-8854
ışın	-8855
▁misyon	-8856
▁hükûmet	-8857
▁ilahi	-8858
▁göreve	-8859
▁ruhsal	-8860
▁çeker	-8861
▁mıdır	-8862
▁reç	-8863
lop	-8864
▁oturma	-8865
▁acele	-8866
▁alek	-8867
use	-8868
▁lâzım	-8869
▁adil	-8870
▁işlen	-8871
▁ayrılan	-8872
▁görülüyor	-8873
▁tarihin	-8874
▁haric	-8875
▁dehşet	-8876
52	-8877
▁kolları	-8878
▁sandaly	-8879
▁yolculuğ	-8880
önü	-8881
alarak	-8882
▁sindir	-8883
▁ihtil	-8884
▁geçtik	-8885
tün	-8886
▁zırh	-8887
▁lü	-8888
▁mö	-8889
▁hızlandır	-8890
ela	-8891
iyesi	-8892
▁haberdar	-8893
▁titiz	-8894
▁âşık	-8895
ington	-8896
▁eng	-8897
!)	-8898
77	-8899
liyoruz	-8900
▁kullanılarak	-8901
stil	-8902
▁amc	-8903
▁işlemler	-8904
▁bedeli	-8905
▁yargılan	-8906
▁taşıyor	-8907
▁kestir	-8908
▁yağlı	-8909
▁gönderildi	-8910
▁çoğal	-8911
▁ölçüm	-8912
▁kayg	-8913
▁peter	-8914
▁gönderdiği	-8915
▁turist	-8916
▁mobilya	-8917
lâk	-8918
▁açtığı	-8919
▁eminim	-8920
▁kiral	-8921
▁rekor	-8922
▁instagram	-8923
▁edit	-8924
▁medres	-8925
▁gazeteci	-8926
▁buğday	-8927
▁hedefi	-8928
▁beton	-8929
▁kavramı	-8930
▁dökül	-8931
▁rezervasyon	-8932
larıdır	-8933
▁adli	-8934
▁açmak	-8935
▁boşalt	-8936
▁aram	-8937
▁tarihe	-8938
▁evlat	-8939
lub	-8940
▁kurumlar	-8941
▁sitesinde	-8942
▁söylenen	-8943
▁mühendisliği	-8944
▁devamını	-8945
▁havaya	-8946
▁manas	-8947
▁gri	-8948
▁atılan	-8949
▁atöly	-8950
▁bakıldığında	-8951
▁tokat	-8952
▁müttefik	-8953
▁hdp	-8954
▁oluşturmak	-8955
▁üretici	-8956
▁yüzünde	-8957
mayacağı	-8958
▁parlament	-8959
▁mektubu	-8960
olar	-8961
mişler	-8962
dere	-8963
▁gereklidir	-8964
iyeli	-8965
▁geçirdiği	-8966
▁4/2	-8967
▁çamaşır	-8968
▁kuşak	-8969
▁ettiğim	-8970
▁askerler	-8971
etice	-8972
▁atış	-8973
ani	-8974
▁istedikleri	-8975
82	-8976
▁sıkış	-8977
▁cehennem	-8978
linik	-8979
▁neticesinde	-8980
▁cenaze	-8981
▁aldığım	-8982
▁yahudiler	-8983
▁amr	-8984
▁amaçla	-8985
▁muhtar	-8986
▁esnek	-8987
▁berlin	-8988
ned	-8989
▁huy	-8990
▁dilim	-8991
adüf	-8992
▁metaf	-8993
▁bülent	-8994
▁arıyor	-8995
▁yürürlüğe	-8996
smet	-8997
▁güçleri	-8998
umuza	-8999
)’	-9000
lamanın	-9001
▁lastik	-9002
▁tutup	-9003
dığımı	-9004
▁verdikleri	-9005
oğu	-9006
▁istatistik	-9007
▁talih	-9008
▁kavuştur	-9009
▁menfa	-9010
▁yürüdü	-9011
▁ödey	-9012
htiy	-9013
▁bilimler	-9014
▁vahşi	-9015
▁güneşin	-9016
▁nükleer	-9017
dıköy	-9018
▁görüyorum	-9019
senin	-9020
▁atar	-9021
▁ensâb	-9022
▁isimleri	-9023
▁bekleniyor	-9024
▁bilmem	-9025
▁amerikalı	-9026
▁gayrimenkul	-9027
▁alımı	-9028
lusu	-9029
▁edilemez	-9030
▁sizlerin	-9031
sah	-9032
▁andır	-9033
▁kömür	-9034
▁seçilen	-9035
▁söyleyerek	-9036
▁kusursuz	-9037
enizi	-9038
yolu	-9039
▁selçuk	-9040
irdi	-9041
▁karşıt	-9042
▁doğdu	-9043
▁olurlar	-9044
▁kurma	-9045
▁şubesi	-9046
izz	-9047
▁malzemeler	-9048
▁bizleri	-9049
▁ikili	-9050
▁duyulan	-9051
▁olmay	-9052
memektedir	-9053
▁bölümünü	-9054
▁çıkmaz	-9055
abileceğini	-9056
▁air	-9057
▁gelmeye	-9058
▁olas	-9059
▁tank	-9060
▁lamb	-9061
▁başlarında	-9062
▁gelişimi	-9063
▁toptan	-9064
ılacağı	-9065
ril	-9066
▁gebelik	-9067
▁dediğimiz	-9068
▁2019	-9069
▁geçerken	-9070
▁kendinize	-9071
▁kalkan	-9072
▁fiil	-9073
▁fırın	-9074
▁günümüze	-9075
▁istikrar	-9076
lüt	-9077
▁atmosfer	-9078
▁önündeki	-9079
▁gecenin	-9080
▁tırnak	-9081
▁vazgeçilmez	-9082
▁vaj	-9083
▁hastanın	-9084
▁lar	-9085
▁kuralları	-9086
▁göstererek	-9087
kânı	-9088
▁nehir	-9089
▁istemek	-9090
▁afyon	-9091
▁devletler	-9092
▁yıkan	-9093
au	-9094
olojisi	-9095
jpg	-9096
leşmiş	-9097
▁katılımcı	-9098
▁direkt	-9099
▁inşallah	-9100
▁fazlasıyla	-9101
itt	-9102
▁mesajı	-9103
memiştir	-9104
▁toprağa	-9105
▁vekili	-9106
▁taksit	-9107
▁artar	-9108
▁limon	-9109
▁referans	-9110
utube	-9111
▁tutk	-9112
▁kurulum	-9113
▁sayısız	-9114
▁sıy	-9115
▁sunar	-9116
▁sarhoş	-9117
▁xvi	-9118
▁$	-9119
▁ağzı	-9120
▁dönük	-9121
▁dönüyor	-9122
▁metro	-9123
▁bilimleri	-9124
▁dışarıdan	-9125
nav	-9126
▁izni	-9127
▁paten	-9128
▁fena	-9129
▁başlığı	-9130
▁kullanır	-9131
▁beraberinde	-9132
▁verdiğini	-9133
▁şehzade	-9134
▁yollar	-9135
▁benzeyen	-9136
▁tencer	-9137
54	-9138
âne	-9139
▁sözleşmesi	-9140
▁kimseyi	-9141
▁toplantısında	-9142
▁avuç	-9143
▁yazısı	-9144
▁attığı	-9145
izasyon	-9146
▁bayanlar	-9147
▁yazıcı	-9148
▁hareketle	-9149
çılar	-9150
▁benzet	-9151
▁değişimi	-9152
8)	-9153
iver	-9154
▁yazdır	-9155
urfa	-9156
▁çalışıyordu	-9157
▁kudüs	-9158
▁bereket	-9159
▁şirketleri	-9160
çık	-9161
▁bilgilerin	-9162
▁yed	-9163
▁engin	-9164
▁ayrıc	-9165
▁efendimiz	-9166
▁soya	-9167
▁komik	-9168
▁digiturk	-9169
▁kullanmaya	-9170
▁farkınd	-9171
emize	-9172
ücük	-9173
▁rejim	-9174
▁netice	-9175
ulacak	-9176
▁arayış	-9177
▁karg	-9178
▁maddenin	-9179
▁gun	-9180
olos	-9181
ulus	-9182
▁aldığımız	-9183
▁anlatmaya	-9184
abilmektedir	-9185
duklarını	-9186
▁geçecek	-9187
▁piyasaya	-9188
lanıp	-9189
seni	-9190
▁arg	-9191
▁ilçesi	-9192
▁başlangıçta	-9193
▁casino	-9194
▁girecek	-9195
▁vuruş	-9196
diki	-9197
▁seçkin	-9198
▁iştir	-9199
▁çekerek	-9200
▁sözlü	-9201
▁alakalı	-9202
▁tahsis	-9203
51	-9204
▁redded	-9205
▁cadde	-9206
▁cat	-9207
▁anket	-9208
ğımızda	-9209
▁müziği	-9210
ian	-9211
▁halif	-9212
▁içini	-9213
▁siyen	-9214
mayacaktır	-9215
fmt	-9216
▁ilerleyen	-9217
anızı	-9218
▁yaşamaya	-9219
▁vd	-9220
▁kahkah	-9221
▁maçta	-9222
rib	-9223
▁tesadüf	-9224
▁oynamak	-9225
miştim	-9226
beral	-9227
ildiğinde	-9228
▁randevu	-9229
▁hırsız	-9230
▁hain	-9231
▁araçlar	-9232
▁kadarıyla	-9233
▁okuyucu	-9234
▁gittiği	-9235
▁arabistan	-9236
▁donat	-9237
mun	-9238
ny	-9239
▁oynayan	-9240
▁böylesine	-9241
▁kriter	-9242
▁kağı	-9243
▁unvan	-9244
▁yağış	-9245
▁ordusunun	-9246
▁mıydı	-9247
▁durumlar	-9248
▁cemal	-9249
▁bakanlar	-9250
▁herş	-9251
acaktı	-9252
leden	-9253
▁zeytinya	-9254
▁kolu	-9255
▁katal	-9256
▁kongresi	-9257
▁tavan	-9258
▁lav	-9259
▁buçuk	-9260
▁kablo	-9261
▁kelimeler	-9262
▁ilerlem	-9263
io	-9264
ılabilecek	-9265
▁filmleri	-9266
▁durup	-9267
yaspor	-9268
▁beklentiler	-9269
▁çözümü	-9270
hassa	-9271
▁otop	-9272
▁çeyrek	-9273
▁5/	-9274
endi	-9275
▁görüşü	-9276
▁umur	-9277
lamıştır	-9278
.(	-9279
▁yürütülen	-9280
▁çet	-9281
▁ürk	-9282
▁görüntül	-9283
▁yarışma	-9284
▁durmadan	-9285
▁avcı	-9286
▁geçin	-9287
▁takdim	-9288
▁duş	-9289
barat	-9290
▁sunucu	-9291
baba	-9292
ith	-9293
▁dikkatini	-9294
▁pel	-9295
▁konaklama	-9296
▁19.	-9297
▁sarf	-9298
ilecektir	-9299
lıkların	-9300
▁hususunda	-9301
87	-9302
▁geleni	-9303
▁olabilirdi	-9304
iii	-9305
ıltı	-9306
▁kafasını	-9307
▁sözlerine	-9308
▁değerler	-9309
nsanın	-9310
▁ülkeleri	-9311
▁biriydi	-9312
ilerinde	-9313
larımızla	-9314
▁sosyalist	-9315
yeri	-9316
▁tüccar	-9317
ena	-9318
▁ziraat	-9319
▁üskü	-9320
▁denizi	-9321
▁maddesinin	-9322
▁evli	-9323
▁üzüntü	-9324
▁deneme	-9325
▁muhtemel	-9326
lendirme	-9327
▁sürüm	-9328
▁emanet	-9329
▁nimet	-9330
▁gelecekte	-9331
86	-9332
▁aşam	-9333
▁arttı	-9334
▁fev	-9335
▁maksim	-9336
▁toplumu	-9337
▁lanet	-9338
▁geçiren	-9339
▁olmalıydı	-9340
▁bürokr	-9341
▁çoban	-9342
vari	-9343
▁grubun	-9344
▁tutuklu	-9345
lini	-9346
▁kritik	-9347
▁rey	-9348
▁etmesini	-9349
▁tadını	-9350
ax	-9351
▁akar	-9352
▁husu	-9353
▁asgari	-9354
▁ileride	-9355
▁elleri	-9356
ülük	-9357
lasman	-9358
şir	-9359
-20	-9360
eceğin	-9361
▁örgü	-9362
▁serp	-9363
eğim	-9364
▁kılıçdaroğlu	-9365
▁temizliği	-9366
▁deyim	-9367
▁profesör	-9368
▁kitapta	-9369
opagan	-9370
▁mutf	-9371
▁atarak	-9372
▁heyeti	-9373
▁fın	-9374
▁yükseldi	-9375
▁çıkarı	-9376
ayi	-9377
cen	-9378
ülerek	-9379
▁başlayarak	-9380
▁altyapı	-9381
▁işlerini	-9382
▁düşüncesi	-9383
bun	-9384
▁okuyan	-9385
▁kavray	-9386
espor	-9387
mece	-9388
▁tetik	-9389
▁kalesi	-9390
▁işletim	-9391
cavüz	-9392
▁yeniçeri	-9393
▁kurtulmak	-9394
▁aramak	-9395
lanmaya	-9396
rosoft	-9397
89	-9398
▁sandık	-9399
▁ortamı	-9400
▁çıkmıştır	-9401
▁konf	-9402
▁uşak	-9403
emizi	-9404
▁kullanıyor	-9405
stra	-9406
▁promos	-9407
▁oksi	-9408
▁sağlamaktadır	-9409
pol	-9410
▁tol	-9411
şen	-9412
▁ölmüş	-9413
lenin	-9414
▁yıllarca	-9415
▁haliyle	-9416
▁yapıt	-9417
rım	-9418
▁parkı	-9419
▁sürüc	-9420
dig	-9421
▁kurucusu	-9422
▁merkezleri	-9423
▁inci	-9424
muh	-9425
▁projeleri	-9426
▁aşı	-9427
layınız	-9428
▁masanın	-9429
▁odasında	-9430
▁1000	-9431
▁kısacası	-9432
▁şirketler	-9433
▁ty	-9434
▁sekreter	-9435
▁verilmektedir	-9436
▁öncü	-9437
isti	-9438
ld	-9439
▁gre	-9440
▁yi	-9441
▁damla	-9442
▁baya	-9443
▁nerde	-9444
▁kilise	-9445
kent	-9446
▁nüfuz	-9447
▁dikkati	-9448
▁talebi	-9449
▁12.	-9450
▁boyutu	-9451
▁bilgiyi	-9452
▁birimi	-9453
▁dükkan	-9454
enni	-9455
▁bırakmak	-9456
ekler	-9457
lüğüne	-9458
▁kıymetli	-9459
ğımı	-9460
▁dedektif	-9461
▁bildirildi	-9462
ebir	-9463
▁gözle	-9464
▁yaptığınız	-9465
laki	-9466
▁etmel	-9467
▁dilerim	-9468
▁harem	-9469
▁hizmete	-9470
ıra	-9471
▁ilham	-9472
▁max	-9473
▁önemini	-9474
▁stil	-9475
▁amatör	-9476
▁bulundukları	-9477
▁istifa	-9478
▁liu	-9479
îd	-9480
▁alanlarında	-9481
▁glo	-9482
▁baraj	-9483
_00	-9484
▁insanlarla	-9485
izme	-9486
çü	-9487
bk	-9488
▁nehri	-9489
▁halebî	-9490
▁gülümsedi	-9491
wer	-9492
▁içeriği	-9493
▁cezaev	-9494
▁kadıköy	-9495
▁topa	-9496
▁duman	-9497
lana	-9498
▁kapıya	-9499
3’	-9500
bugün	-9501
▁bulunmayan	-9502
▁neye	-9503
doğru	-9504
▁propagan	-9505
▁tarihten	-9506
▁bulunmuş	-9507
▁yanaş	-9508
ysse	-9509
▁intihar	-9510
veni	-9511
▁sök	-9512
▁askerleri	-9513
▁doğrul	-9514
▁oynanan	-9515
▁arız	-9516
▁mav	-9517
▁koltuğ	-9518
ug	-9519
▁belgeler	-9520
ski	-9521
._	-9522
▁dinle	-9523
çal	-9524
▁yazmak	-9525
▁odaları	-9526
luğunun	-9527
iyorsun	-9528
▁amas	-9529
▁2004	-9530
ish	-9531
▁saçma	-9532
layı	-9533
▁vermedi	-9534
iliğe	-9535
çocuk	-9536
▁çare	-9537
▁aşamasında	-9538
▁gelsin	-9539
▁örnekleri	-9540
ras	-9541
ğımda	-9542
inizle	-9543
▁deyince	-9544
▁yaptılar	-9545
▁elma	-9546
gk	-9547
▁dünyasının	-9548
▁soyut	-9549
85	-9550
▁derv	-9551
▁çıkardığı	-9552
▁hün	-9553
▁dostum	-9554
▁sağladığı	-9555
▁muhalif	-9556
79	-9557
acağımız	-9558
▁sözde	-9559
▁ayırt	-9560
▁sessizlik	-9561
▁planda	-9562
▁sisteme	-9563
▁skor	-9564
▁inf	-9565
▁pul	-9566
▁600	-9567
irt	-9568
dola	-9569
▁davası	-9570
ömer	-9571
beş	-9572
▁sessizce	-9573
▁tümüyle	-9574
▁müraca	-9575
lý	-9576
▁konuşuyor	-9577
lıların	-9578
▁yüklü	-9579
▁harcam	-9580
▁bozkır	-9581
▁tanıma	-9582
▁kaldırıp	-9583
oth	-9584
▁edelim	-9585
arka	-9586
▁aittir	-9587
▁imar	-9588
▁nap	-9589
▁poli	-9590
▁şehre	-9591
▁ajansı	-9592
▁biten	-9593
▁hissettir	-9594
mişlerdi	-9595
▁görüldü	-9596
▁olabileceği	-9597
▁idiler	-9598
▁frag	-9599
▁kars	-9600
▁ın	-9601
tiz	-9602
▁buluştur	-9603
▁180	-9604
ladıktan	-9605
!!	-9606
▁pür	-9607
▁sevimli	-9608
▁tecavüz	-9609
ileriyle	-9610
buğ	-9611
▁ailesinin	-9612
▁suresi	-9613
▁kategorisinde	-9614
▁namazı	-9615
▁partner	-9616
▁wal	-9617
▁turan	-9618
▁seviyede	-9619
▁oynadığı	-9620
▁olurken	-9621
▁arazi	-9622
▁ilti	-9623
▁lezzetli	-9624
layabilirsiniz	-9625
dor	-9626
▁platformu	-9627
▁kalması	-9628
▁inanıyorum	-9629
▁yılların	-9630
▁masaya	-9631
▁halini	-9632
▁okumaya	-9633
▁bag	-9634
▁vize	-9635
▁durur	-9636
ette	-9637
dirler	-9638
▁inkâr	-9639
ılacaktır	-9640
leştirme	-9641
▁bırakarak	-9642
zir	-9643
.4	-9644
▁sex	-9645
ardı	-9646
▁kuruş	-9647
▁tamamladı	-9648
▁ihlal	-9649
▁işçiler	-9650
▁pırıl	-9651
▁çalışarak	-9652
▁olursak	-9653
▁bolu	-9654
kisi	-9655
▁rumeli	-9656
▁ordunun	-9657
▁hormon	-9658
▁kentin	-9659
ğrul	-9660
▁marx	-9661
▁hızı	-9662
iyetine	-9663
▁ukray	-9664
bilim	-9665
61	-9666
▁75	-9667
▁etkisini	-9668
▁düzenlendi	-9669
▁manastır	-9670
▁taahhüt	-9671
▁anlata	-9672
▁kime	-9673
landığını	-9674
▁hareketli	-9675
yok	-9676
▁yıp	-9677
ebilmesi	-9678
sed	-9679
beni	-9680
▁evrim	-9681
▁öğrenim	-9682
▁atmak	-9683
▁yoldaş	-9684
▁dub	-9685
ço	-9686
▁bilhassa	-9687
▁filan	-9688
▁promosyon	-9689
▁ke	-9690
▁akan	-9691
▁led	-9692
mamı	-9693
▁toplumda	-9694
▁kafkas	-9695
▁öğrencisi	-9696
▁kazı	-9697
▁hüzün	-9698
▁geçmesi	-9699
▁eri	-9700
▁oğlunun	-9701
▁@	-9702
▁odanın	-9703
▁sad	-9704
▁prog	-9705
▁kaynaklar	-9706
▁aksesuar	-9707
▁etmeleri	-9708
▁annesinin	-9709
▁ihtiyaçlarını	-9710
▁korkusu	-9711
▁konuşmalar	-9712
▁başarılar	-9713
▁gördüğümüz	-9714
▁başak	-9715
▁çözül	-9716
▁bekliyoruz	-9717
alarındaki	-9718
▁hangisi	-9719
▁kalbi	-9720
▁batılı	-9721
ınak	-9722
▁ebev	-9723
▁içerisine	-9724
▁🙂	-9725
layabilir	-9726
▁odaklı	-9727
▁domat	-9728
▁kurtarmak	-9729
▁bilişim	-9730
▁staj	-9731
▁olursunuz	-9732
win	-9733
cım	-9734
sık	-9735
▁fazlasını	-9736
mişlerdir	-9737
ifor	-9738
▁seçeneği	-9739
▁ulaşan	-9740
üsünü	-9741
▁kişiden	-9742
▁yâ	-9743
▁derdi	-9744
▁disk	-9745
▁söndür	-9746
▁tıkanık	-9747
▁geliştirmek	-9748
ılmalıdır	-9749
▁şaf	-9750
▁diyanet	-9751
▁alışkanlık	-9752
▁balıkesir	-9753
▁odysse	-9754
▁yapılandır	-9755
▁devre	-9756
by	-9757
▁basınç	-9758
▁alkış	-9759
▁biçiminde	-9760
▁krizi	-9761
▁adası	-9762
▁1980	-9763
▁töreni	-9764
▁etkisiyle	-9765
hil	-9766
▁atıldı	-9767
▁2005	-9768
▁özelliklerini	-9769
bunun	-9770
▁kızgın	-9771
▁balkon	-9772
▁gördüğüm	-9773
▁kadınlara	-9774
▁boylu	-9775
▁forma	-9776
▁yönünden	-9777
▁edildiğini	-9778
▁real	-9779
▁pembe	-9780
▁verileri	-9781
▁çocukluk	-9782
▁fren	-9783
ift	-9784
▁askerlik	-9785
▁buton	-9786
▁yaralandı	-9787
▁temsilcileri	-9788
eddüt	-9789
▁teknolojileri	-9790
▁yönden	-9791
▁çalışıyoruz	-9792
▁kıyasla	-9793
▁fabrika	-9794
▁mühendislik	-9795
cın	-9796
▁uğruna	-9797
▁burcu	-9798
▁keşke	-9799
idin	-9800
▁vurdu	-9801
▁keşif	-9802
▁çamur	-9803
▁miz	-9804
▁sitemizde	-9805
▁kaşık	-9806
▁teşkilatı	-9807
▁umu	-9808
▁ihale	-9809
▁kuruluşu	-9810
▁kitle	-9811
akâr	-9812
▁problemi	-9813
▁paylaşmak	-9814
▁öztürk	-9815
▁tabir	-9816
amanın	-9817
▁teşebbüs	-9818
▁viy	-9819
▁onar	-9820
▁dergi	-9821
▁işareti	-9822
▁etmekten	-9823
yü	-9824
▁faydası	-9825
▁kurulması	-9826
▁rasûl	-9827
nis	-9828
▁hissede	-9829
▁medi	-9830
▁iyisi	-9831
▁toplamda	-9832
▁başarıyla	-9833
ordu	-9834
▁giydir	-9835
▁seminer	-9836
▁şoför	-9837
▁cerrahi	-9838
▁büyüsü	-9839
▁onlarca	-9840
▁yavrum	-9841
▁kana	-9842
▁bakıp	-9843
▁böbr	-9844
▁sebze	-9845
▁dönmüş	-9846
▁diyorlar	-9847
▁riski	-9848
ius	-9849
▁dövüş	-9850
▁görevleri	-9851
▁muazzam	-9852
▁oyuna	-9853
tv	-9854
▁koyup	-9855
▁eren	-9856
▁geleceğini	-9857
inceye	-9858
amıyordu	-9859
▁verdiğimiz	-9860
▁gördüğünüz	-9861
▁ümmet	-9862
▁çocuğa	-9863
▁dönemine	-9864
▁ekme	-9865
▁hukuku	-9866
▁yapmıştır	-9867
▁oyunda	-9868
▁düzenlenecek	-9869
▁değerini	-9870
▁sıklıkla	-9871
nut	-9872
▁ağzından	-9873
▁bilginin	-9874
▁yorumlar	-9875
▁onarım	-9876
▁oturum	-9877
▁kurmuş	-9878
ns	-9879
▁ender	-9880
leyebilir	-9881
▁loj	-9882
gon	-9883
▁ölür	-9884
▁çatışma	-9885
▁geor	-9886
▁çıkmaya	-9887
luğuna	-9888
gay	-9889
▁hâr	-9890
kti	-9891
▁20.	-9892
69	-9893
▁miyim	-9894
▁çeşitleri	-9895
▁çekiş	-9896
osunu	-9897
▁arke	-9898
▁itibarıyla	-9899
▁dede	-9900
▁patates	-9901
▁oluşu	-9902
▁şeydir	-9903
▁suudi	-9904
▁yeniçer	-9905
▁mân	-9906
▁tâbi	-9907
portaj	-9908
▁yaptıklarını	-9909
▁65	-9910
▁maksa	-9911
▁köt	-9912
lerse	-9913
▁içindir	-9914
tun	-9915
▁reg	-9916
▁asır	-9917
▁toplama	-9918
▁konulu	-9919
▁üyelerinin	-9920
▁komünist	-9921
▁sofr	-9922
▁buda	-9923
dos	-9924
▁youtube	-9925
▁sayısını	-9926
▁depresyon	-9927
edikleri	-9928
▁personeli	-9929
▁tereddüt	-9930
▁3-	-9931
▁zamandan	-9932
▁hastaneye	-9933
sveç	-9934
dışı	-9935
▁saçları	-9936
adam	-9937
▁kimya	-9938
vent	-9939
▁saptan	-9940
itan	-9941
ülebil	-9942
▁vasıtasıyla	-9943
’’	-9944
kol	-9945
ırsa	-9946
▁ülkeyi	-9947
▁etmeniz	-9948
▁firmanın	-9949
âlet	-9950
▁fiyatlar	-9951
▁kâfir	-9952
▁muğla	-9953
▁anlatılan	-9954
▁menfaat	-9955
▁kelimesi	-9956
nasıl	-9957
ünç	-9958
▁mağar	-9959
▁gezin	-9960
▁rüt	-9961
▁başardı	-9962
▁kızım	-9963
▁kurumları	-9964
▁dişi	-9965
▁girerek	-9966
▁yatan	-9967
▁konunun	-9968
',	-9969
▁ikamet	-9970
▁öğrenildi	-9971
aydın	-9972
▁tuğ	-9973
▁vatandaşların	-9974
▁geceleri	-9975
▁umum	-9976
eğiyle	-9977
ularak	-9978
▁alf	-9979
▁etkileyen	-9980
▁5,	-9981
ınıp	-9982
▁istenilen	-9983
lenerek	-9984
▁ayın	-9985
▁esin	-9986
▁derinlik	-9987
imp	-9988
batı	-9989
▁jam	-9990
▁bürün	-9991
▁telek	-9992
,»	-9993
▁çevirdi	-9994
▁dayanarak	-9995
kız	-9996
▁deneyimi	-9997
▁kazanmış	-9998
cy	-9999
▁bölgedeki	-10000
▁mükelle	-10001
▁köşe	-10002
ıh	-10003
▁izah	-10004
mud	-10005
▁ellerinde	-10006
▁dolap	-10007
▁firmaların	-10008
tına	-10009
▁şüpheli	-10010
▁3/3	-10011
▁tazminat	-10012
▁serisi	-10013
▁oturmuş	-10014
▁söylemişti	-10015
▁ray	-10016
▁prensip	-10017
▁koya	-10018
▁kaldım	-10019
▁pik	-10020
usundan	-10021
▁dul	-10022
▁nefis	-10023
▁gerektiren	-10024
▁öle	-10025
▁ster	-10026
▁diyelim	-10027
▁şiirleri	-10028
tınız	-10029
▁getirerek	-10030
▁restoran	-10031
▁devletinin	-10032
▁değiştirmek	-10033
▁yazmış	-10034
▁yunus	-10035
iyorsa	-10036
▁cevabını	-10037
▁diliyorum	-10038
▁torb	-10039
▁depolama	-10040
▁yapmaktadır	-10041
▁ley	-10042
▁röportaj	-10043
hisar	-10044
siyle	-10045
▁tao	-10046
▁olacağız	-10047
▁140	-10048
??	-10049
ekte	-10050
[[	-10051
▁planlama	-10052
▁nic	-10053
▁mekanik	-10054
cesi	-10055
▁tet	-10056
▁gas	-10057
▁çekildi	-10058
▁kararını	-10059
▁çoğunluğu	-10060
▁dim	-10061
▁dönerek	-10062
ûd	-10063
▁abon	-10064
amda	-10065
ğün	-10066
▁mid	-10067
▁edi	-10068
▁aslı	-10069
mazlık	-10070
▁diyarbek	-10071
▁başlamak	-10072
▁çıkarken	-10073
▁pantolon	-10074
ayn	-10075
▁sergilen	-10076
▁seh	-10077
▁devlete	-10078
▁duyan	-10079
▁ceket	-10080
▁milleti	-10081
▁sosy	-10082
mazdı	-10083
▁sola	-10084
▁acımasız	-10085
▁fakült	-10086
▁tatar	-10087
▁koymak	-10088
▁viz	-10089
acağına	-10090
vert	-10091
▁imkânı	-10092
▁yapıldığını	-10093
▁cey	-10094
▁ihraç	-10095
larımızdan	-10096
▁saldırgan	-10097
istiy	-10098
▁süf	-10099
ebiliriz	-10100
▁malik	-10101
▁vitamin	-10102
▁üste	-10103
ebileceğini	-10104
cunun	-10105
▁kombin	-10106
▁elveriş	-10107
▁sorunsuz	-10108
▁vaziyet	-10109
mah	-10110
omen	-10111
▁belirtmek	-10112
▁malı	-10113
▁mevzuat	-10114
▁maksimum	-10115
▁gerekçesiyle	-10116
▁mesafe	-10117
▁peynir	-10118
▁bekler	-10119
▁microsoft	-10120
▁tecrübe	-10121
▁dolarlık	-10122
▁uzakta	-10123
dok	-10124
▁böylesi	-10125
▁kendilerinin	-10126
▁bilinmektedir	-10127
hiz	-10128
▁domates	-10129
▁senaryo	-10130
▁hop	-10131
▁bardağı	-10132
▁okut	-10133
kend	-10134
▁bölgelerde	-10135
▁irtibat	-10136
nc	-10137
▁birlikt	-10138
▁izleyic	-10139
▁kararlar	-10140
▁üzüm	-10141
▁okulda	-10142
press	-10143
▁patron	-10144
▁kâh	-10145
▁zulüm	-10146
lüyordu	-10147
▁ettiklerini	-10148
▁kenti	-10149
cağından	-10150
▁birbirleriyle	-10151
▁neg	-10152
▁neyi	-10153
▁çözümler	-10154
▁dayanışma	-10155
ux	-10156
▁oluşturulan	-10157
▁nil	-10158
▁ateşli	-10159
▁etnik	-10160
▁refah	-10161
▁parçalar	-10162
ersem	-10163
▁referan	-10164
madılar	-10165
▁kalıntı	-10166
▁anlaşması	-10167
▁elektrikli	-10168
▁isabet	-10169
kırım	-10170
▁virüs	-10171
▁hücre	-10172
▁yelken	-10173
deler	-10174
▁ağırlıklı	-10175
tiniz	-10176
▁dersleri	-10177
▁cap	-10178
▁muhtaç	-10179
▁ihtiyaçları	-10180
▁muayene	-10181
▁seo	-10182
▁yaşadıkları	-10183
▁halife	-10184
▁durumdan	-10185
▁öğretmenler	-10186
▁gövde	-10187
▁katılmak	-10188
hel	-10189
▁sağa	-10190
▁şanlıurfa	-10191
çişleri	-10192
▁başkası	-10193
▁birbirlerini	-10194
▁vallahi	-10195
▁tuna	-10196
şan	-10197
▁kaplama	-10198
▁partinin	-10199
ansiyon	-10200
64	-10201
▁istediğimiz	-10202
▁peşinden	-10203
▁bulgaristan	-10204
▁öfke	-10205
▁kılan	-10206
▁ret	-10207
eyebilir	-10208
alığın	-10209
dığının	-10210
tuğunu	-10211
▁yapılarak	-10212
▁ölümünden	-10213
▁muvaf	-10214
▁sanatı	-10215
▁doğalgaz	-10216
abi	-10217
▁trav	-10218
▁sevilen	-10219
▁defalarca	-10220
yem	-10221
▁bekliyorum	-10222
▁yep	-10223
▁ihanet	-10224
▁laboratuvar	-10225
▁klinik	-10226
▁alâ	-10227
▁wu	-10228
ümüzü	-10229
▁saman	-10230
▁tutarak	-10231
▁ayrılmış	-10232
}](../	-10233
birliği	-10234
▁görevlisi	-10235
".	-10236
▁bunca	-10237
kom	-10238
▁mücadelesi	-10239
melisiniz	-10240
ily	-10241
lilere	-10242
▁gruplar	-10243
▁süresince	-10244
2017	-10245
▁sorumluluğ	-10246
▁katlı	-10247
▁sevdiğim	-10248
▁kis	-10249
onspor	-10250
▁ihtimali	-10251
▁ölümsüz	-10252
▁2003	-10253
▁çektiği	-10254
▁ağacı	-10255
▁halkla	-10256
▁trt	-10257
irse	-10258
▁açıklamaya	-10259
▁fuarı	-10260
▁abi	-10261
▁konse	-10262
▁sho	-10263
▁ceviz	-10264
▁düşünün	-10265
▁yetkin	-10266
pınar	-10267
▁şudur	-10268
dalar	-10269
▁jack	-10270
▁türkü	-10271
▁şimdiki	-10272
▁asil	-10273
▁çarş	-10274
▁mp	-10275
▁yama	-10276
ive	-10277
▁yurttaş	-10278
âma	-10279
▁reş	-10280
▁tadı	-10281
▁`	-10282
▁laik	-10283
▁ortamında	-10284
▁hikaye	-10285
ect	-10286
▁derviş	-10287
▁önünden	-10288
▁yönlü	-10289
▁yapacağını	-10290
▁veda	-10291
▁veriyordu	-10292
▁lt	-10293
▁zarf	-10294
▁büyüklük	-10295
▁53	-10296
▁ışın	-10297
lanmıştı	-10298
▁sop	-10299
▁mutluluğ	-10300
▁şimşek	-10301
▁aşkı	-10302
▁duvara	-10303
▁şaşırtıcı	-10304
▁takımın	-10305
▁mantıklı	-10306
▁birleşmiş	-10307
▁dönüm	-10308
▁cahil	-10309
▁çıkaran	-10310
ling	-10311
belki	-10312
▁mesut	-10313
▁yolla	-10314
▁medyada	-10315
▁chat	-10316
▁ipek	-10317
larımızda	-10318
▁ayşe	-10319
laşan	-10320
▁meme	-10321
▁kaynaklı	-10322
▁ayının	-10323
▁anladım	-10324
sinden	-10325
▁idrar	-10326
▁kapıdan	-10327
▁başlandı	-10328
▁vesile	-10329
▁tanınan	-10330
▁düşünüyordu	-10331
fin	-10332
92	-10333
▁oynay	-10334
▁anna	-10335
▁rüyada	-10336
▁mermer	-10337
▁hazretleri	-10338
▁bulduğu	-10339
▁tabiat	-10340
▁analizi	-10341
lçesi	-10342
▁anlaşılan	-10343
▁müzaker	-10344
▁tekstil	-10345
▁içki	-10346
▁işkence	-10347
▁yaşına	-10348
▁üreten	-10349
▁olmaksızın	-10350
▁radikal	-10351
▁yapacağız	-10352
▁kuruluşları	-10353
▁resul	-10354
94	-10355
▁sunmak	-10356
▁oz	-10357
▁hy	-10358
▁moral	-10359
▁belgeleri	-10360
▁deplasman	-10361
▁1990	-10362
▁paul	-10363
▁apol	-10364
oterap	-10365
ğren	-10366
▁jen	-10367
-15	-10368
▁zür	-10369
iliğini	-10370
▁kalmıştır	-10371
lının	-10372
▁endişe	-10373
▁hastalar	-10374
▁geçerlidir	-10375
afet	-10376
▁kişileri	-10377
▁önceleri	-10378
▁zat	-10379
▁omz	-10380
▁dinî	-10381
ix	-10382
▁13.	-10383
▁etkinliği	-10384
▁tc	-10385
▁solun	-10386
▁konul	-10387
▁anlaşılır	-10388
ınızdan	-10389
’,	-10390
▁sük	-10391
▁motoru	-10392
mon	-10393
▁satıcı	-10394
▁mantar	-10395
cell	-10396
▁pres	-10397
▁domuz	-10398
▁kararlaştır	-10399
▁borçlu	-10400
▁beşinci	-10401
▁çıkarma	-10402
▁keşfed	-10403
▁büro	-10404
▁oynat	-10405
▁yakışık	-10406
▁bölgeler	-10407
▁görebilirsiniz	-10408
-30	-10409
▁eğr	-10410
▁dönmek	-10411
▁şeklindeki	-10412
▁almadan	-10413
▁demokrat	-10414
▁açıklandı	-10415
çünkü	-10416
çinin	-10417
▁gölü	-10418
▁nın	-10419
▁odalar	-10420
▁kılın	-10421
▁komş	-10422
▁gitmeye	-10423
▁olmadığına	-10424
▁verirken	-10425
▁kumanda	-10426
▁sib	-10427
▁telgraf	-10428
▁böbrek	-10429
▁topluma	-10430
▁buzdola	-10431
▁ağzına	-10432
▁değiliz	-10433
ucak	-10434
osiklet	-10435
▁istemiyor	-10436
▁casus	-10437
▁direktörü	-10438
▁götürdü	-10439
▁çekilen	-10440
▁yin	-10441
▁sürdürdü	-10442
▁ağrısı	-10443
▁soruyu	-10444
▁edilmelidir	-10445
iriz	-10446
▁2002	-10447
umuzda	-10448
▁kanalı	-10449
▁patent	-10450
▁yapıyorum	-10451
▁korum	-10452
leniyor	-10453
sıyla	-10454
bizim	-10455
▁hesaba	-10456
▁eserler	-10457
dırlar	-10458
cını	-10459
▁hayvanların	-10460
masa	-10461
▁karı	-10462
navut	-10463
kor	-10464
▁reng	-10465
▁yükleme	-10466
ulmuştu	-10467
idir	-10468
▁hazırladığı	-10469
▁sergi	-10470
▁xx	-10471
ikler	-10472
▁müracaat	-10473
ss	-10474
▁ülkesi	-10475
▁tıklayın	-10476
rahman	-10477
▁bulgu	-10478
▁komutanlığı	-10479
▁krist	-10480
▁isminin	-10481
stri	-10482
▁sorunların	-10483
leşen	-10484
▁şiddetle	-10485
▁direniş	-10486
▁zamanlı	-10487
71	-10488
▁azın	-10489
▁zorlan	-10490
▁ا	-10491
▁süm	-10492
▁kıyamet	-10493
dünya	-10494
▁parası	-10495
iliyordu	-10496
▁çıktığını	-10497
▁figür	-10498
▁tütün	-10499
my	-10500
▁zon	-10501
emiştir	-10502
▁hamam	-10503
▁ayağı	-10504
▁rep	-10505
▁gezegen	-10506
eski	-10507
▁kk	-10508
sınıf	-10509
▁nazik	-10510
▁propaganda	-10511
▁atın	-10512
ağından	-10513
lunun	-10514
▁sag	-10515
▁sözlük	-10516
▁21.	-10517
lî	-10518
▁devrimi	-10519
▁limit	-10520
▁canı	-10521
▁yetmez	-10522
▁ahlaki	-10523
▁minim	-10524
63	-10525
▁dersin	-10526
▁angel	-10527
▁wor	-10528
index	-10529
▁maddeleri	-10530
▁52	-10531
▁vaat	-10532
▁nolu	-10533
▁sonbahar	-10534
barek	-10535
▁wil	-10536
▁yaşta	-10537
.[[	-10538
▁açılması	-10539
▁blu	-10540
▁adnan	-10541
▁samim	-10542
mamıştır	-10543
cinin	-10544
▁duydum	-10545
▁haklarını	-10546
kitap	-10547
▁bütünüyle	-10548
ever	-10549
▁ettikten	-10550
▁püs	-10551
▁troya	-10552
▁ebeveyn	-10553
▁cihazı	-10554
▁dog	-10555
mektedirler	-10556
culuk	-10557
▁topluluğu	-10558
▁resmî	-10559
▁genetik	-10560
▁ukrayna	-10561
▁saygın	-10562
▁anlamsız	-10563
▁ederse	-10564
▁pasap	-10565
▁uygulanması	-10566
siyet	-10567
yaman	-10568
▁entel	-10569
▁pc	-10570
ledikleri	-10571
▁erdi	-10572
▁rehberi	-10573
▁zarif	-10574
▁sorar	-10575
▁dışarıya	-10576
▁meraklı	-10577
rab	-10578
▁birde	-10579
▁hediyeler	-10580
▁okuya	-10581
▁tesir	-10582
▁https	-10583
▁vermeyi	-10584
▁faş	-10585
▁hepimizin	-10586
▁fav	-10587
▁adem	-10588
▁şuan	-10589
▁mülte	-10590
▁kendim	-10591
▁tezgah	-10592
▁versin	-10593
tiğim	-10594
▁öğrencinin	-10595
▁apartman	-10596
▁sektörünün	-10597
cem	-10598
üsünde	-10599
▁aydınlık	-10600
▁hatay	-10601
▁çalışmaların	-10602
tının	-10603
▁oturt	-10604
▁sürdürüyor	-10605
▁müfet	-10606
▁yazılar	-10607
▁avu	-10608
▁sayıları	-10609
73	-10610
ünüzü	-10611
▁kira	-10612
▁sürdürülebilir	-10613
▁aldığınız	-10614
▁ky	-10615
▁yaklaştı	-10616
azığ	-10617
▁deneyimli	-10618
▁muhafız	-10619
ght	-10620
bre	-10621
ibet	-10622
▁farz	-10623
▁sahipliği	-10624
usa	-10625
▁gemisi	-10626
▁sevdik	-10627
▁fındık	-10628
▁oradaki	-10629
▁motosiklet	-10630
93	-10631
▁fırtın	-10632
▁başsav	-10633
▁feda	-10634
▁hissi	-10635
▁gündür	-10636
▁trabzonspor	-10637
şletme	-10638
▁unutma	-10639
▁adlandırılan	-10640
▁etmeyen	-10641
işik	-10642
▁format	-10643
▁çığlık	-10644
▁zahmet	-10645
operatif	-10646
▁muhabbet	-10647
▁kılavuz	-10648
▁zab	-10649
▁duyu	-10650
▁tatb	-10651
aban	-10652
▁arkadaşlık	-10653
▁salt	-10654
▁edebilecek	-10655
▁binanın	-10656
▁yöneticileri	-10657
insan	-10658
▁atlı	-10659
▁ilke	-10660
▁kaçan	-10661
ranı	-10662
▁gerçeklik	-10663
▁edilmişti	-10664
▁ayna	-10665
▁fırat	-10666
acaksınız	-10667
▁getirilmesi	-10668
oyun	-10669
ünür	-10670
▁işletmeler	-10671
▁bilindiği	-10672
vil	-10673
▁holding	-10674
ydu	-10675
ğimde	-10676
▁şeylere	-10677
▁türb	-10678
▁yaratmak	-10679
▁gençlerin	-10680
▁geleceğe	-10681
▁şöy	-10682
▁açılmış	-10683
▁pasta	-10684
▁paramet	-10685
eğince	-10686
▁gözlerinin	-10687
▁söylenebilir	-10688
mine	-10689
▁nadir	-10690
▁kısmının	-10691
ýþ	-10692
tezi	-10693
hr	-10694
▁olanlara	-10695
ald	-10696
▁jean	-10697
62	-10698
▁ederdi	-10699
df	-10700
▁eksiksiz	-10701
akar	-10702
▁salonunda	-10703
▁boşa	-10704
▁helik	-10705
▁bırakır	-10706
▁kullanıcıların	-10707
http	-10708
▁telaf	-10709
▁saatlik	-10710
▁sub	-10711
uğ	-10712
▁mars	-10713
▁global	-10714
▁burak	-10715
▁sahibinin	-10716
▁çalıştım	-10717
▁kombi	-10718
▁yöneticisi	-10719
ood	-10720
ita	-10721
▁muhat	-10722
▁duyguları	-10723
▁saltanat	-10724
ou	-10725
tive	-10726
▁yoz	-10727
▁şehirler	-10728
âtı	-10729
▁birç	-10730
▁cephe	-10731
abilirdi	-10732
▁çiğn	-10733
▁getirecek	-10734
ayıcı	-10735
çının	-10736
▁bilgin	-10737
▁edebiyatı	-10738
gg	-10739
▁santral	-10740
▁atıp	-10741
oid	-10742
dara	-10743
▁herif	-10744
▁kuruldu	-10745
▁üsküdar	-10746
▁nelerdir	-10747
▁gücünün	-10748
▁tarafın	-10749
▁anlamaya	-10750
▁sw	-10751
▁işg	-10752
▁mardin	-10753
▁tünel	-10754
▁eği	-10755
mediler	-10756
▁efendiler	-10757
gö	-10758
▁yenilg	-10759
▁doğanın	-10760
▁mimari	-10761
▁şeyhül	-10762
▁koyduğu	-10763
işan	-10764
▁girişi	-10765
▁dahilinde	-10766
▁fatura	-10767
▁binası	-10768
kuş	-10769
▁çalı	-10770
▁temeli	-10771
▁muhasebe	-10772
▁mahmud	-10773
ymış	-10774
▁güldü	-10775
▁tercüme	-10776
▁merkezli	-10777
▁sonuca	-10778
dk	-10779
şçi	-10780
▁ila	-10781
▁peç	-10782
▁bilgilerini	-10783
▁papaz	-10784
▁‘’	-10785
ırtı	-10786
metik	-10787
▁dahası	-10788
▁geçmişti	-10789
▁kırsal	-10790
▁kahveren	-10791
▁güreş	-10792
▁hoşnut	-10793
:0	-10794
▁poş	-10795
erin	-10796
alaş	-10797
jinal	-10798
▁telekom	-10799
▁yepyeni	-10800
▁markası	-10801
▁trend	-10802
▁muhafaz	-10803
▁başkaları	-10804
▁anıt	-10805
▁korsan	-10806
▁gelişmeleri	-10807
▁açılır	-10808
asan	-10809
▁yılan	-10810
▁edeceğini	-10811
▁ihsan	-10812
▁kullanıldığı	-10813
kaz	-10814
duğuna	-10815
lediğini	-10816
▁oturuyor	-10817
▁güzer	-10818
72	-10819
.1,	-10820
▁gereğince	-10821
▁sektörde	-10822
ory	-10823
▁vitamini	-10824
lgi	-10825
▁kısmına	-10826
▁ufuk	-10827
▁şefkat	-10828
▁gerilim	-10829
▁olduktan	-10830
▁kenarında	-10831
▁açıktır	-10832
▁brez	-10833
▁hazar	-10834
▁etkinlikleri	-10835
tt	-10836
▁ressam	-10837
▁mütev	-10838
ion	-10839
▁müsabak	-10840
▁neşeli	-10841
iyen	-10842
▁daim	-10843
83	-10844
▁özerk	-10845
▁aleyhine	-10846
vers	-10847
▁rasûlallah	-10848
▁programına	-10849
▁boyutlu	-10850
kut	-10851
hap	-10852
▁aşamada	-10853
dut	-10854
▁kos	-10855
▁muciz	-10856
kab	-10857
▁tecrübeli	-10858
îler	-10859
▁bahse	-10860
▁noktasına	-10861
meliyiz	-10862
▁ışığında	-10863
▁taklit	-10864
.11.	-10865
▁davut	-10866
▁süfyan	-10867
lemektedir	-10868
▁insani	-10869
lüğün	-10870
▁vücudun	-10871
dest	-10872
▁gözlük	-10873
▁bebeğin	-10874
▁söyleyecek	-10875
▁frek	-10876
▁işleme	-10877
▁çevrim	-10878
amıza	-10879
▁okudum	-10880
▁çıkarılan	-10881
▁noktaları	-10882
▁wat	-10883
▁olg	-10884
▁ingil	-10885
lattı	-10886
▁karşısındaki	-10887
30’	-10888
ileş	-10889
▁buluyor	-10890
▁canavar	-10891
gb	-10892
▁duyurdu	-10893
▁borsa	-10894
amay	-10895
▁değişti	-10896
▁bıraktığı	-10897
nal	-10898
▁amasya	-10899
laştırma	-10900
▁telaş	-10901
▁açıklamalarda	-10902
▁nakit	-10903
cim	-10904
▁kare	-10905
▁şirketlerin	-10906
▁yapabilecek	-10907
con	-10908
▁olmanız	-10909
▁öğleden	-10910
▁erit	-10911
▁huzurlu	-10912
▁üt	-10913
▁cinsiyet	-10914
aleti	-10915
▁ellerine	-10916
seler	-10917
81	-10918
hy	-10919
▁up	-10920
▁sigar	-10921
malarda	-10922
▁heyecanlı	-10923
▁fırtına	-10924
▁sıkça	-10925
▁enerjisi	-10926
▁nasip	-10927
▁hayvancılık	-10928
▁etmenin	-10929
▁dükkân	-10930
▁üş	-10931
▁uzattı	-10932
▁oranları	-10933
osun	-10934
ato	-10935
▁ekstra	-10936
▁vurgulayan	-10937
▁niteliği	-10938
▁kapısını	-10939
burada	-10940
▁nitelikli	-10941
▁değiştirme	-10942
▁helikop	-10943
▁karşılaştı	-10944
▁pencere	-10945
▁yapıyordu	-10946
▁simg	-10947
▁malko	-10948
leyiş	-10949
▁yapmıştı	-10950
meme	-10951
tamam	-10952
▁bör	-10953
casına	-10954
kinden	-10955
▁çalışıyorum	-10956
▁what	-10957
ttihat	-10958
▁arnavut	-10959
▁patlama	-10960
▁yaşadığımız	-10961
▁keşf	-10962
▁sayfası	-10963
▁efsane	-10964
▁armağan	-10965
▁veriyoruz	-10966
▁açıklamalar	-10967
rus	-10968
▁endüstriyel	-10969
▁yüze	-10970
▁kimdir	-10971
▁yasası	-10972
▁özdeş	-10973
▁sudan	-10974
▁sokakta	-10975
▁insanlardan	-10976
▁viyana	-10977
zî	-10978
▁direnç	-10979
▁hastalığın	-10980
▁olimp	-10981
▁gelmedi	-10982
▁gülümsey	-10983
▁>>	-10984
▁inter	-10985
▁alınmıştır	-10986
▁ateşi	-10987
▁satan	-10988
▁intikam	-10989
▁lif	-10990
▁sürül	-10991
▁sekreteri	-10992
▁görüşleri	-10993
▁david	-10994
eğinden	-10995
▁hükümdarı	-10996
lüğünde	-10997
▁bilmedi	-10998
bih	-10999
▁alık	-11000
▁biliyorsunuz	-11001
▁varan	-11002
▁başlarına	-11003
ilemez	-11004
▁aracılığı	-11005
wa	-11006
▁tanrıça	-11007
▁mezunu	-11008
▁emeklilik	-11009
que	-11010
▁duyuru	-11011
▁yanlı	-11012
▁küfür	-11013
▁soruyor	-11014
▁çekirdek	-11015
stein	-11016
▁ayrılır	-11017
▁elle	-11018
▁gerektirir	-11019
▁mübarek	-11020
▁koyar	-11021
dükleri	-11022
▁sokağa	-11023
▁bilinir	-11024
▁lazer	-11025
▁hayati	-11026
▁tesisat	-11027
▁sınırı	-11028
▁dursun	-11029
▁bitkisel	-11030
kili	-11031
▁mız	-11032
▁aleyhisselâma	-11033
▁yaşandı	-11034
sch	-11035
kale	-11036
▁okumuş	-11037
pu	-11038
▁til	-11039
▁istemedi	-11040
▁kışkır	-11041
▁saldırıya	-11042
▁yollarını	-11043
▁sesler	-11044
▁tutku	-11045
▁yapılmasını	-11046
▁vücudu	-11047
▁trakya	-11048
nşallah	-11049
▁hı	-11050
▁diyebiliriz	-11051
▁bağımsızlık	-11052
▁liberal	-11053
▁siyasî	-11054
▁süvari	-11055
▁fotoğrafları	-11056
▁konuştuk	-11057
▁bağlamda	-11058
▁emeği	-11059
▁keyfini	-11060
▁gezdir	-11061
▁devri	-11062
▁mutsuz	-11063
▁paketi	-11064
olan	-11065
▁oyla	-11066
▁imaj	-11067
▁ej	-11068
ydım	-11069
()	-11070
▁gro	-11071
▁müsteş	-11072
91	-11073
▁göstergesi	-11074
▁imkansız	-11075
ilme	-11076
▁koşullar	-11077
maktayız	-11078
▁karşılamak	-11079
▁hatip	-11080
▁bildirim	-11081
▁yapalım	-11082
▁tüfek	-11083
▁doz	-11084
▁varken	-11085
ümin	-11086
▁konularında	-11087
▁mask	-11088
▁beh	-11089
▁kitabında	-11090
▁sitede	-11091
▁yönü	-11092
▁mükellef	-11093
▁akşamı	-11094
▁zeyn	-11095
feri	-11096
▁aramızda	-11097
▁hastanede	-11098
ncel	-11099
▁çocuklarının	-11100
▁vat	-11101
ersek	-11102
böyle	-11103
▁açlık	-11104
▁(...)	-11105
▁öncelikli	-11106
hut	-11107
▁sebz	-11108
load	-11109
▁heves	-11110
coin	-11111
▁yorumları	-11112
▁yaşı	-11113
şik	-11114
▁insanlığın	-11115
▁ayrıcalık	-11116
▁çorb	-11117
▁oyuncular	-11118
▁bot	-11119
▁elazığ	-11120
▁harik	-11121
▁ilişkili	-11122
bnü	-11123
▁idrak	-11124
▁imiş	-11125
▁veriyorum	-11126
▁belirtir	-11127
▁sürdüren	-11128
▁renkler	-11129
ence	-11130
▁parf	-11131
▁sonraları	-11132
▁sürecinin	-11133
▁sıralan	-11134
▁siyenp	-11135
▁edilmesini	-11136
▁yakala	-11137
▁grupları	-11138
▁maçın	-11139
▁filmler	-11140
arac	-11141
▁tamamını	-11142
▁orgaz	-11143
▁tuta	-11144
lir	-11145
▁şeyhülis	-11146
▁aldıktan	-11147
▁evrenin	-11148
74	-11149
▁okudu	-11150
▁haftanın	-11151
▁atmış	-11152
▁15.	-11153
rist	-11154
▁bildiğimiz	-11155
▁başrol	-11156
▁kâğı	-11157
▁hemde	-11158
amızın	-11159
▁imalat	-11160
acık	-11161
▁arın	-11162
yetik	-11163
▁büyüyen	-11164
sol	-11165
lanmak	-11166
▁tedir	-11167
stem	-11168
menize	-11169
▁kendilerinden	-11170
▁best	-11171
▁huzuruna	-11172
ışıklık	-11173
▁opsiyon	-11174
imizdeki	-11175
▁kıskanç	-11176
fel	-11177
▁bre	-11178
mamızı	-11179
▁detayları	-11180
▁gb	-11181
▁fikirler	-11182
▁uygulanır	-11183
▁otorit	-11184
▁düşüyor	-11185
▁alındığı	-11186
ason	-11187
▁söylüyorum	-11188
▁temizleme	-11189
▁başlayıp	-11190
▁tutuyor	-11191
▁toplantıya	-11192
▁mülkiyet	-11193
▁hayv	-11194
▁kaydeden	-11195
▁kızları	-11196
▁sırasıyla	-11197
▁server	-11198
▁bağırsak	-11199
▁evler	-11200
▁bron	-11201
▁toprakları	-11202
lot	-11203
▁pomp	-11204
▁ruhsat	-11205
▁çıkmaktadır	-11206
▁lüz	-11207
▁entegre	-11208
isar	-11209
faiye	-11210
▁çub	-11211
▁bomba	-11212
▁sürecek	-11213
ole	-11214
▁kasa	-11215
kik	-11216
▁günlerinde	-11217
▁düştüğü	-11218
▁fetih	-11219
▁şeylerden	-11220
▁adaylar	-11221
ticaret	-11222
▁görüntülen	-11223
▁ıslak	-11224
▁sunuyoruz	-11225
▁borc	-11226
abe	-11227
▁görülebilir	-11228
ınacak	-11229
▁enver	-11230
▁gidiyordu	-11231
▁las	-11232
▁suçu	-11233
hos	-11234
▁war	-11235
▁çalışanların	-11236
▁atma	-11237
taydı	-11238
▁atıl	-11239
▁teorik	-11240
ümün	-11241
▁sürgün	-11242
▁algılan	-11243
▁kooperatif	-11244
▁antrenman	-11245
▁bektaş	-11246
▁nitelendir	-11247
▁programında	-11248
▁suda	-11249
▁kuyu	-11250
▁yazıyı	-11251
▁nüfusu	-11252
▁hususta	-11253
▁referandum	-11254
▁seviyesi	-11255
veti	-11256
▁alerj	-11257
▁cömer	-11258
ilmesinin	-11259
▁sektörün	-11260
▁konusudur	-11261
▁ferah	-11262
lû	-11263
▁aklın	-11264
▁gelmiyor	-11265
▁düşünceleri	-11266
▁pri	-11267
▁tespiti	-11268
▁tedirgin	-11269
tanrı	-11270
ışlı	-11271
▁müdürlük	-11272
▁münasebet	-11273
âs	-11274
▁giriyor	-11275
▁paranın	-11276
link	-11277
trik	-11278
▁2001	-11279
▁17.	-11280
▁afgan	-11281
▁parsel	-11282
▁ortalık	-11283
▁ürünlerini	-11284
uel	-11285
▁şayet	-11286
▁üzgün	-11287
▁strateji	-11288
▁oranla	-11289
izzt	-11290
liliğini	-11291
▁oluşmaktadır	-11292
▁adının	-11293
üd	-11294
diz	-11295
pas	-11296
lerimizde	-11297
general	-11298
▁getirip	-11299
▁kurallar	-11300
▁nato	-11301
▁muy	-11302
mekteydi	-11303
▁yoğurt	-11304
ational	-11305
rafa	-11306
▁duydu	-11307
▁aktör	-11308
dını	-11309
▁tarihlerinde	-11310
akende	-11311
▁yazarın	-11312
▁düşünmeye	-11313
▁verem	-11314
▁hazırladı	-11315
▁logo	-11316
ford	-11317
ıncaya	-11318
eyecektir	-11319
▁himay	-11320
▁ili	-11321
▁macaristan	-11322
▁16.	-11323
▁hamile	-11324
▁öldürüldü	-11325
▁gitmişti	-11326
lülü	-11327
▁1970	-11328
▁gerçekleştirmek	-11329
ebilmektedir	-11330
▁kirli	-11331
▁diyalog	-11332
şer	-11333
▁miy	-11334
▁vücudum	-11335
▁doğruya	-11336
▁taşıdığı	-11337
lerimizden	-11338
▁uyanık	-11339
ilde	-11340
▁hij	-11341
gön	-11342
▁gelişmesi	-11343
asal	-11344
değ	-11345
▁yumruk	-11346
▁anlık	-11347
▁seçme	-11348
▁artması	-11349
rid	-11350
▁zordur	-11351
▁bok	-11352
▁sayfasında	-11353
▁yükseliş	-11354
▁neyin	-11355
▁avustr	-11356
▁standar	-11357
▁negatif	-11358
şit	-11359
stır	-11360
peg	-11361
▁gündelik	-11362
▁yarattı	-11363
▁ahlâk	-11364
▁gelmesini	-11365
▁toprağı	-11366
▁gücüne	-11367
▁bankalar	-11368
▁iğren	-11369
▁operatör	-11370
▁18.	-11371
▁karara	-11372
▁cihan	-11373
▁tanıyor	-11374
-18	-11375
▁reak	-11376
▁yapıya	-11377
▁katliam	-11378
▁diken	-11379
▁artıyor	-11380
▁söyleş	-11381
etti	-11382
▁denge	-11383
▁mineral	-11384
ilet	-11385
▁hoşuna	-11386
▁takvim	-11387
▁kullanılacak	-11388
▁türleri	-11389
▁sabırsız	-11390
zak	-11391
▁ms	-11392
▁yanımda	-11393
acılık	-11394
▁savunan	-11395
gis	-11396
▁pes	-11397
▁görkem	-11398
▁düşkün	-11399
▁anlayabil	-11400
?..	-11401
▁haritası	-11402
▁komplek	-11403
▁mısınız	-11404
▁edilecektir	-11405
▁artışı	-11406
▁ihtiyacınız	-11407
▁taşıt	-11408
▁tavırla	-11409
temiz	-11410
▁lah	-11411
▁etkileyici	-11412
▁kole	-11413
▁durmuş	-11414
▁emp	-11415
▁seyred	-11416
▁bık	-11417
▁merakla	-11418
▁chan	-11419
ty	-11420
rd	-11421
▁götürür	-11422
▁yahud	-11423
▁rakib	-11424
▁silâh	-11425
▁aleyhisselam	-11426
ekiz	-11427
siklop	-11428
▁halkına	-11429
parta	-11430
▁ezber	-11431
▁nihai	-11432
▁değişir	-11433
▁fiziki	-11434
▁jul	-11435
▁takib	-11436
enize	-11437
▁edeceği	-11438
▁yayınlandı	-11439
▁kapsamda	-11440
▁ayakları	-11441
güzel	-11442
mâ	-11443
dey	-11444
▁çektir	-11445
▁çıkışı	-11446
▁130	-11447
▁pasif	-11448
▁anahtarı	-11449
▁kazanır	-11450
▁taciz	-11451
▁turu	-11452
▁(%	-11453
ümüzde	-11454
▁eks	-11455
▁tema	-11456
▁ödev	-11457
acaklar	-11458
▁örnekler	-11459
luktan	-11460
sınlar	-11461
▁yapmadan	-11462
▁yapılmasına	-11463
▁kullanılabil	-11464
▁piyasada	-11465
▁galax	-11466
▁isterse	-11467
▁bağlantılı	-11468
▁harcan	-11469
▁sağlayacaktır	-11470
▁bayezid	-11471
▁uğramış	-11472
▁romantik	-11473
▁kesti	-11474
▁mahkum	-11475
▁sanı	-11476
▁bağlantısından	-11477
▁şöh	-11478
▁bekliyordu	-11479
▁kaldırılması	-11480
▁gözünü	-11481
▁filtr	-11482
▁doğmuş	-11483
▁kapsayan	-11484
▁kilometr	-11485
▁özü	-11486
▁canını	-11487
gıcı	-11488
▁olmam	-11489
▁tunus	-11490
▁olmadığından	-11491
▁küçüm	-11492
▁gittiler	-11493
▁yakınında	-11494
▁tanımak	-11495
▁gömlek	-11496
▁salat	-11497
▁memuru	-11498
▁yarışması	-11499
▁kimliği	-11500
▁yaşantı	-11501
attin	-11502
▁çikola	-11503
▁ömrü	-11504
▁açarak	-11505
ashington	-11506
▁cemiyeti	-11507
▁paylaştı	-11508
▁çem	-11509
işimi	-11510
▁fransızca	-11511
esun	-11512
cesine	-11513
▁bilgilendirme	-11514
▁düşüncelerini	-11515
ddi	-11516
▁karışım	-11517
▁şükür	-11518
tisiz	-11519
▁yapama	-11520
▁edeceğim	-11521
▁öğretmeni	-11522
▁elçisi	-11523
▁haftası	-11524
▁cevapları	-11525
gız	-11526
lığımız	-11527
▁sınıflandır	-11528
▁haksızlık	-11529
sünü	-11530
olsun	-11531
▁kararları	-11532
▁oluşuyor	-11533
epe	-11534
▁koyan	-11535
▁galaxy	-11536
▁hakkına	-11537
▁başkanımız	-11538
▁göstermeye	-11539
▁drizzt	-11540
sosyal	-11541
▁sünen	-11542
ût	-11543
izy	-11544
▁belç	-11545
▁yalçın	-11546
▁bedeni	-11547
▁ebed	-11548
umda	-11549
▁ateşe	-11550
▁içerisindeki	-11551
▁diyarbekrî	-11552
muyordu	-11553
▁gerçekleştirdi	-11554
▁durumları	-11555
▁şun	-11556
▁oturduğu	-11557
▁ert	-11558
▁kablos	-11559
▁pitt	-11560
▁keyfi	-11561
▁alar	-11562
▁cild	-11563
ien	-11564
jik	-11565
▁nedenleri	-11566
riz	-11567
▁öğrendim	-11568
▁yapamaz	-11569
▁hiçbiri	-11570
▁müsaade	-11571
▁cömert	-11572
▁aydınlatma	-11573
▁yürütül	-11574
▁eğitime	-11575
▁yapılacaktır	-11576
-11	-11577
ayeti	-11578
▁dersler	-11579
▁tarikat	-11580
▁verirler	-11581
▁tarihini	-11582
▁sorumlusu	-11583
▁geliştirilen	-11584
âli	-11585
▁bireylerin	-11586
▁öldürmek	-11587
ümüzün	-11588
▁topluluğ	-11589
▁oğlunu	-11590
▁açmış	-11591
▁çalışmanın	-11592
faf	-11593
▁fidan	-11594
▁hükümleri	-11595
▁ilişkilerin	-11596
▁kabuk	-11597
▁yüzme	-11598
▁bireyin	-11599
beti	-11600
▁çanta	-11601
beyi	-11602
▁belirlenmesi	-11603
ysanız	-11604
▁kaçtı	-11605
latan	-11606
lm	-11607
▁soykırım	-11608
▁koymuş	-11609
▁havay	-11610
▁operasyonu	-11611
▁çevresindeki	-11612
▁54	-11613
▁kurgu	-11614
▁çalışanlar	-11615
▁1960	-11616
▁geçit	-11617
▁hırs	-11618
▁4/3	-11619
▁osmanlılar	-11620
▁kurtarma	-11621
▁muharrem	-11622
▁aki	-11623
▁ala	-11624
diğimi	-11625
▁hristiyan	-11626
▁ansiklop	-11627
▁kampanyası	-11628
▁aileler	-11629
▁perakende	-11630
▁çekme	-11631
▁veziri	-11632
▁sahada	-11633
▁fiş	-11634
▁yeryüzünde	-11635
iyeler	-11636
oviç	-11637
▁serdar	-11638
▁katılma	-11639
▁girişimi	-11640
▁bölgesine	-11641
sab	-11642
▁tasavvuf	-11643
▁seferinde	-11644
▁entelek	-11645
▁karakteri	-11646
tap	-11647
▁sıkıcı	-11648
▁düşünme	-11649
▁benimsem	-11650
nat	-11651
▁seviyor	-11652
▁02	-11653
▁başbakanı	-11654
▁51	-11655
▁özge	-11656
▁tutuş	-11657
lamıyor	-11658
▁ilgisini	-11659
▁aln	-11660
▁ikisinin	-11661
▁dünyadan	-11662
dıma	-11663
edip	-11664
▁esmer	-11665
▁dindar	-11666
▁filmde	-11667
▁gökhan	-11668
▁haydi	-11669
▁kolon	-11670
▁klas	-11671
▁dolara	-11672
▁ilanları	-11673
▁duyuyor	-11674
ope	-11675
▁tarzda	-11676
ledir	-11677
▁avrupalı	-11678
▁iskel	-11679
▁mısın	-11680
▁kurulmuştur	-11681
tular	-11682
▁cd	-11683
verdi	-11684
▁başlamadan	-11685
slami	-11686
▁dündar	-11687
▁ağabey	-11688
lişkin	-11689
▁down	-11690
sadece	-11691
▁dk	-11692
▁14.	-11693
lenmiştir	-11694
▁çalışanları	-11695
▁maddesinde	-11696
▁kurab	-11697
▁coğrafya	-11698
▁taşınmaz	-11699
▁bac	-11700
8’	-11701
▁yorumu	-11702
▁dinlemek	-11703
▁duygular	-11704
▁56	-11705
▁fos	-11706
▁maliyeti	-11707
lamaktadır	-11708
▁davranışları	-11709
],	-11710
▁otomotiv	-11711
▁110	-11712
▁mağaza	-11713
▁diril	-11714
▁yoğunlaş	-11715
ktis	-11716
madık	-11717
▁izn	-11718
▁bilerek	-11719
▁hizmetlerini	-11720
▁termin	-11721
ılmasının	-11722
▁yazıları	-11723
▁iyidir	-11724
▁emretti	-11725
▁siteler	-11726
▁zalim	-11727
{{{2	-11728
▁6,	-11729
▁stü	-11730
▁bakter	-11731
▁09	-11732
▁oksijen	-11733
▁sorgulama	-11734
rev	-11735
xhtml	-11736
lamalı	-11737
laj	-11738
▁ziya	-11739
▁yapının	-11740
▁ağırlığı	-11741
▁komitesi	-11742
▁birbiriyle	-11743
▁civar	-11744
▁kadros	-11745
▁islam	-11746
▁cay	-11747
amızı	-11748
▁vurguladı	-11749
▁çarpıcı	-11750
▁bankacılık	-11751
▁yaptırım	-11752
▁ürper	-11753
▁artvin	-11754
▁oluşturul	-11755
▁çekilmiş	-11756
▁ustası	-11757
▁kabin	-11758
▁yüzlü	-11759
▁programın	-11760
▁boşuna	-11761
▁sağlama	-11762
▁gittiğini	-11763
larımla	-11764
▁pasaport	-11765
▁tabur	-11766
▁portekiz	-11767
▁pot	-11768
ümüze	-11769
▁konumu	-11770
▁bant	-11771
▁mahrum	-11772
▁taç	-11773
▁minnet	-11774
▁kentsel	-11775
▁rize	-11776
▁tapına	-11777
▁söylüyordu	-11778
▁160	-11779
▁klav	-11780
▁yapacağınız	-11781
▁mû	-11782
▁işveren	-11783
▁üçünc	-11784
hun	-11785
ikli	-11786
ıtay	-11787
▁etmiyor	-11788
▁zapt	-11789
▁sorumluluğu	-11790
▁menü	-11791
gür	-11792
▁beye	-11793
▁teminat	-11794
▁andan	-11795
▁kökenli	-11796
zim	-11797
▁george	-11798
▁köklü	-11799
▁alex	-11800
▁istediklerini	-11801
-16	-11802
▁çu	-11803
▁uzmanlar	-11804
▁slogan	-11805
▁iftar	-11806
▁psikiyat	-11807
▁işsiz	-11808
cağımız	-11809
▁bırakan	-11810
iyy	-11811
▁yazmaya	-11812
▁başladığını	-11813
▁vermem	-11814
▁yıldızı	-11815
▁bunlarla	-11816
▁çalışmalarının	-11817
▁formül	-11818
▁oluruz	-11819
▁kazandığı	-11820
ırız	-11821
▁|--	-11822
▁boyunda	-11823
▁görmüyor	-11824
▁özgürlüğü	-11825
▁fethullah	-11826
▁sitenin	-11827
▁farklıdır	-11828
keş	-11829
▁yemen	-11830
mesidir	-11831
▁yükümlülük	-11832
▁1999	-11833
▁etmeyin	-11834
▁saatler	-11835
▁oyuncusu	-11836
celi	-11837
▁kahverengi	-11838
▁biyolojik	-11839
▁düzenledi	-11840
▁artırmak	-11841
haber	-11842
mayalım	-11843
▁sarım	-11844
▁deve	-11845
▁sürat	-11846
▁hanedan	-11847
▁verildiği	-11848
▁işlerin	-11849
▁alı	-11850
▁zıt	-11851
▁ilaçlar	-11852
▁odysseus	-11853
▁kh	-11854
▁tesisleri	-11855
▁zu	-11856
▁adımlar	-11857
artık	-11858
▁başlangı	-11859
nönü	-11860
▁ilâh	-11861
▁elverişli	-11862
notes	-11863
cül	-11864
▁almaz	-11865
ğimizi	-11866
▁alıntı	-11867
▁şöval	-11868
▁kre	-11869
oç	-11870
▁64	-11871
▁nan	-11872
▁alıyordu	-11873
-12	-11874
▁suyunu	-11875
▁seçin	-11876
alanı	-11877
▁azar	-11878
guldak	-11879
▁fars	-11880
▁taksim	-11881
▁kolunu	-11882
malık	-11883
bölüm	-11884
▁birikim	-11885
▁fısılda	-11886
▁alacağı	-11887
▁cisim	-11888
▁saadet	-11889
▁şirin	-11890
▁güçler	-11891
uver	-11892
▁ediyorlardı	-11893
▁gerektiğinde	-11894
hir	-11895
▁sorusuna	-11896
pen	-11897
▁geçtiğini	-11898
▁doğumlu	-11899
▁vasıf	-11900
▁renkleri	-11901
▁ünvan	-11902
▁benims	-11903
▁abdülham	-11904
▁kaçış	-11905
▁başıma	-11906
▁göreceksiniz	-11907
▁satılan	-11908
▁ağı	-11909
▁olacaksınız	-11910
▁bağlantısı	-11911
▁beyi	-11912
ward	-11913
▁elimden	-11914
uyla	-11915
şar	-11916
▁bilimi	-11917
▁izleme	-11918
itim	-11919
▁lakin	-11920
▁1920	-11921
kurt	-11922
▁gizlice	-11923
▁zil	-11924
▁şekillendir	-11925
▁harizm	-11926
▁sorusu	-11927
mayız	-11928
▁düzeyinde	-11929
▁luk	-11930
▁züm	-11931
linin	-11932
▁endüstri	-11933
▁ayıp	-11934
▁birileri	-11935
▁piyasası	-11936
▁aramaya	-11937
▁tekir	-11938
ces	-11939
▁bart	-11940
▁lehine	-11941
▁[[	-11942
84	-11943
tayız	-11944
▁hastaların	-11945
▁hoşgör	-11946
▁suik	-11947
▁akç	-11948
▁washington	-11949
▁performansı	-11950
▁belgesel	-11951
▁kesintisiz	-11952
▁yemekler	-11953
▁türkleri	-11954
▁01	-11955
▁sağlığını	-11956
▁2-3	-11957
▁hikâye	-11958
daresi	-11959
▁tamamıyla	-11960
▁haricinde	-11961
▁yaptıktan	-11962
▁super	-11963
▁yakınlarında	-11964
▁ölüme	-11965
inat	-11966
▁mezhep	-11967
▁stu	-11968
▁shih	-11969
▁nuri	-11970
▁huzursuz	-11971
▁yaşadı	-11972
▁medy	-11973
▁tefs	-11974
rop	-11975
▁teknikleri	-11976
▁kibar	-11977
▁zeka	-11978
▁iktidarı	-11979
▁olduğumuzu	-11980
▁görüşmek	-11981
kiye	-11982
▁büs	-11983
▁katında	-11984
dört	-11985
tahya	-11986
▁arıza	-11987
îf	-11988
▁andr	-11989
▁kaldığını	-11990
▁şanslı	-11991
▁***	-11992
▁antlaş	-11993
▁özelliğini	-11994
alarımız	-11995
▁şebek	-11996
▁görüntüsü	-11997
▁panik	-11998
▁ailesine	-11999
▁kadem	-12000
▁belirlemek	-12001
▁yakışıklı	-12002
▁karam	-12003
tuğrul	-12004
▁gerçekçi	-12005
▁izliyor	-12006
▁cir	-12007
üyorum	-12008
▁badem	-12009
▁ardında	-12010
▁memnuniyet	-12011
▁(3)	-12012
eliğin	-12013
▁seviyesine	-12014
▁gerektiğine	-12015
eve	-12016
▁konuşurken	-12017
pss	-12018
▁ts	-12019
▁kktc	-12020
▁kırp	-12021
ksür	-12022
▁kronik	-12023
▁ganimet	-12024
▁kullanın	-12025
▁felsefesi	-12026
▁jon	-12027
▁kıza	-12028
▁kaldırmak	-12029
▁seçimleri	-12030
▁pirinç	-12031
▁yazıda	-12032
▁kardeşler	-12033
▁diyabet	-12034
elek	-12035
▁güzelliği	-12036
▁çubuk	-12037
▁güneydoğu	-12038
fiye	-12039
alisyon	-12040
▁koyarak	-12041
off	-12042
▁atina	-12043
▁ifadesini	-12044
▁girmesi	-12045
▁turkcell	-12046
▁inş	-12047
jpeg	-12048
▁yanda	-12049
▁sürecin	-12050
▁varlığın	-12051
▁merhab	-12052
▁sigortası	-12053
üminyum	-12054
▁birebir	-12055
▁okulun	-12056
radı	-12057
▁kanada	-12058
ettin	-12059
▁dünyasına	-12060
▁izler	-12061
/10	-12062
▁sisteminde	-12063
▁yetkilileri	-12064
emişti	-12065
▁apollon	-12066
▁gey	-12067
▁gelenler	-12068
▁nesne	-12069
▁bildiğim	-12070
▁geçmişi	-12071
▁molek	-12072
▁ediniz	-12073
▁şehrinde	-12074
▁rut	-12075
▁eğitimin	-12076
▁bebeğ	-12077
▁faruk	-12078
apur	-12079
▁gereksinim	-12080
▁söylediler	-12081
▁nah	-12082
▁gözünde	-12083
▁hükmü	-12084
▁plâ	-12085
▁ejder	-12086
eceğinden	-12087
▁durmak	-12088
▁programlar	-12089
▁temelinde	-12090
▁terey	-12091
▁entelektüel	-12092
▁havası	-12093
ayrı	-12094
▁ağzını	-12095
▁süvar	-12096
▁sürecini	-12097
ruğ	-12098
▁endeksi	-12099
▁saklı	-12100
mark	-12101
▁evinin	-12102
▁kurnaz	-12103
emediği	-12104
▁işçilerin	-12105
lhan	-12106
ruklu	-12107
minin	-12108
▁taşımacılık	-12109
▁dereceye	-12110
▁kahire	-12111
▁başkalarına	-12112
▁sokul	-12113
▁katar	-12114
▁cüzdan	-12115
▁eksikliği	-12116
▁olanaksız	-12117
▁duya	-12118
▁başvurusu	-12119
▁ekrem	-12120
hard	-12121
▁dolaylı	-12122
▁sular	-12123
▁otopark	-12124
▁çatal	-12125
iyenin	-12126
▁bireyler	-12127
kadın	-12128
▁kullanılmıştır	-12129
sche	-12130
▁askerin	-12131
▁istil	-12132
vis	-12133
▁güçsüz	-12134
▁koordinatör	-12135
▁rı	-12136
▁etkisiz	-12137
▁sempoz	-12138
sika	-12139
▁sonuçlarını	-12140
▁pusu	-12141
▁olanın	-12142
▁57	-12143
▁fant	-12144
▁eda	-12145
lerince	-12146
▁fotoğrafı	-12147
efa	-12148
terek	-12149
▁mıy	-12150
▁ellerinden	-12151
▁ambul	-12152
▁usb	-12153
▁şapk	-12154
▁ucunda	-12155
▁%100	-12156
▁çikolata	-12157
▁yığ	-12158
▁baktığımızda	-12159
▁işleyen	-12160
▁yazının	-12161
▁başlattı	-12162
▁haberine	-12163
▁ikincisi	-12164
▁borcu	-12165
▁hareketin	-12166
▁öksür	-12167
▁tasarlanmış	-12168
▁döneme	-12169
▁kaymakamı	-12170
akki	-12171
▁göstermiş	-12172
▁deleg	-12173
▁gölge	-12174
dra	-12175
deti	-12176
ğınık	-12177
▁kastam	-12178
▁kocası	-12179
lanmaz	-12180
▁helikopter	-12181
▁odun	-12182
sapp	-12183
▁dönüştü	-12184
▁edince	-12185
▁motiv	-12186
dp	-12187
▁diyoruz	-12188
▁yöne	-12189
▁şampiyonası	-12190
▁karşıtı	-12191
▁nedense	-12192
ankara	-12193
▁olanağı	-12194
▁veriliyor	-12195
▁erim	-12196
▁bitcoin	-12197
▁sahneye	-12198
▁karaciğer	-12199
▁anlamını	-12200
▁sende	-12201
laz	-12202
▁çalışmalara	-12203
▁ileriye	-12204
▁kurb	-12205
▁damg	-12206
▁dilerseniz	-12207
▁özbek	-12208
erik	-12209
▁erzin	-12210
▁özenle	-12211
▁sabaha	-12212
▁araştırmaları	-12213
▁(3	-12214
▁sınava	-12215
▁eki	-12216
▁kredisi	-12217
▁ülkü	-12218
▁sigortalı	-12219
▁yüzük	-12220
▁anneler	-12221
▁konuşmada	-12222
▁rasyon	-12223
▁tul	-12224
▁tehlikeye	-12225
▁çiftlik	-12226
▁tanımı	-12227
oo	-12228
▁enter	-12229
▁sonsuza	-12230
▁duygularını	-12231
cileri	-12232
▁polonya	-12233
▁800	-12234
▁sürün	-12235
▁çıkarır	-12236
▁tanınmış	-12237
▁koruyan	-12238
▁görüşlerini	-12239
▁çevresi	-12240
▁bırakma	-12241
bis	-12242
▁past	-12243
▁konsan	-12244
▁tarifleri	-12245
▁bambaşka	-12246
▁kanseri	-12247
ora	-12248
üh	-12249
▁taksi	-12250
▁aksaray	-12251
▁yelpaz	-12252
atlı	-12253
▁tabl	-12254
râ	-12255
▁aşan	-12256
ilmi	-12257
▁konudaki	-12258
▁mul	-12259
▁federasyon	-12260
▁hikayesi	-12261
▁öylece	-12262
▁bulmaya	-12263
▁koalisyon	-12264
▁yedik	-12265
▁harman	-12266
▁ded	-12267
▁rütb	-12268
▁kazanım	-12269
▁lojistik	-12270
▁seslendi	-12271
▁sütü	-12272
▁adresine	-12273
yın	-12274
▁nevi	-12275
▁destekleyen	-12276
▁olana	-12277
▁melik	-12278
cap	-12279
▁şekeri	-12280
▁metab	-12281
▁inancı	-12282
▁toprağın	-12283
lediğiniz	-12284
▁7,	-12285
▁4-	-12286
▁aralı	-12287
▁mescid	-12288
▁siteniz	-12289
▁tsk	-12290
▁sürüş	-12291
▁08	-12292
▁ekonomisi	-12293
▁ingiliz	-12294
eceksiniz	-12295
ıldım	-12296
▁tepe	-12297
seydi	-12298
▁serü	-12299
▁konusunu	-12300
▁papa	-12301
30,	-12302
stal	-12303
▁bulduk	-12304
▁seçilmiş	-12305
amin	-12306
▁aleyhi	-12307
▁giresun	-12308
▁yapıyorlar	-12309
main	-12310
▁black	-12311
▁yorul	-12312
▁oluşturuyor	-12313
▁hamilelik	-12314
▁metod	-12315
500	-12316
▁yazıp	-12317
▁şaşırt	-12318
föy	-12319
▁doğrudur	-12320
▁olaya	-12321
▁güle	-12322
▁türkistan	-12323
▁sırala	-12324
▁uzlaş	-12325
▁santim	-12326
▁engellemek	-12327
▁lübn	-12328
▁burda	-12329
stih	-12330
mayınız	-12331
▁tabanc	-12332
▁dâv	-12333
▁süpür	-12334
▁şeydi	-12335
▁geminin	-12336
▁yaramaz	-12337
▁jür	-12338
▁aksiyon	-12339
▁yeme	-12340
▁seçti	-12341
▁fotoğraflar	-12342
ting	-12343
▁büyül	-12344
▁yalın	-12345
esih	-12346
▁kala	-12347
▁saçlı	-12348
▁oynama	-12349
▁şakir	-12350
▁kurtarı	-12351
▁başarıya	-12352
▁let	-12353
dyum	-12354
▁norm	-12355
▁sözcüsü	-12356
▁kışın	-12357
▁yatay	-12358
▁lib	-12359
▁alüminyum	-12360
▁tutmuş	-12361
▁fenomen	-12362
▁devletlerin	-12363
▁fri	-12364
leridir	-12365
▁ilaçlama	-12366
asıdır	-12367
▁ilgilendir	-12368
▁hazırlamak	-12369
▁sezonu	-12370
▁tüz	-12371
▁tanıdık	-12372
▁siteye	-12373
▁baha	-12374
▁girmeye	-12375
▁tasvir	-12376
▁hist	-12377
▁senesinde	-12378
▁00	-12379
▁inceledi	-12380
▁yurtdışı	-12381
▁bosna	-12382
▁kategori	-12383
▁düşmanın	-12384
▁araçların	-12385
▁hatalı	-12386
▁geliştirilmesi	-12387
▁madem	-12388
▁yıldön	-12389
▁fatma	-12390
-200	-12391
▁willi	-12392
▁geçirmiş	-12393
imdeki	-12394
▁yanıma	-12395
▁bulunmuştur	-12396
diğince	-12397
▁akh	-12398
▁tümü	-12399
▁manzara	-12400
mann	-12401
▁başlama	-12402
▁sırrı	-12403
▁nüs	-12404
▁karışımı	-12405
▁tasarı	-12406
▁yükseköğretim	-12407
▁makale	-12408
▁konuşmasını	-12409
gren	-12410
▁ısır	-12411
▁belirlenir	-12412
▁yerlerden	-12413
▁gösterg	-12414
zâde	-12415
▁programa	-12416
▁nizam	-12417
▁olabiliyor	-12418
▁mimarlık	-12419
▁katılacak	-12420
▁küçül	-12421
▁altmış	-12422
ee	-12423
▁yatırımcı	-12424
ografi	-12425
▁marks	-12426
▁katılımıyla	-12427
▁tapınak	-12428
▁otelleri	-12429
▁faaliyetlerini	-12430
▁toto	-12431
▁çorba	-12432
▁istiyorsunuz	-12433
▁zonguldak	-12434
▁maksat	-12435
lıklarını	-12436
_**	-12437
genel	-12438
▁yöntemler	-12439
▁gelirken	-12440
sti	-12441
▁orda	-12442
bül	-12443
ideki	-12444
une	-12445
larınızda	-12446
▁kaptır	-12447
▁katman	-12448
▁kutup	-12449
▁çocuklarını	-12450
▁adıyaman	-12451
▁ros	-12452
▁bozukluğu	-12453
maraş	-12454
bes	-12455
▁heyecanla	-12456
gıt	-12457
▁köyde	-12458
▁yazarlar	-12459
▁kalitesini	-12460
nş	-12461
▁yapacağım	-12462
▁yetmiş	-12463
▁fey	-12464
▁host	-12465
▁ülkesine	-12466
▁bors	-12467
▁mukad	-12468
ılınca	-12469
:30	-12470
20,	-12471
▁mücev	-12472
▁resimler	-12473
▁detaylar	-12474
▁eyüp	-12475
▁arabanın	-12476
▁aa	-12477
▁etmekle	-12478
ekonom	-12479
▁başlangıcı	-12480
▁buydu	-12481
:**	-12482
▁açıyor	-12483
▁alanın	-12484
▁kaldırıldı	-12485
▁dinsel	-12486
▁kristal	-12487
▁ruhun	-12488
▁uygundur	-12489
▁gevş	-12490
▁fol	-12491
ledikten	-12492
▁güncelleme	-12493
▁karat	-12494
▁affet	-12495
▁bilimin	-12496
▁helal	-12497
▁döneminin	-12498
stiklal	-12499
lendiği	-12500
▁sûr	-12501
▁kapıda	-12502
▁üzerlerine	-12503
▁tö	-12504
ydılar	-12505
▁çayı	-12506
▁did	-12507
lişkiler	-12508
▁denizin	-12509
▁vuk	-12510
▁gelecektir	-12511
▁hareketler	-12512
▁burjuva	-12513
lev	-12514
▁getirmeye	-12515
▁yetenekli	-12516
▁istiyorsun	-12517
▁olaylara	-12518
▁ihtiyacını	-12519
▁gizlilik	-12520
▁ilkel	-12521
▁erzincan	-12522
▁biliyorsun	-12523
▁ortağı	-12524
▁yeteneği	-12525
▁yaşadık	-12526
▁meslektaş	-12527
▁fâ	-12528
▁robert	-12529
▁dağları	-12530
▁harita	-12531
7’	-12532
▁ansızın	-12533
ýz	-12534
aym	-12535
▁metrekare	-12536
▁sormak	-12537
▁sadakat	-12538
▁beklenmedik	-12539
▁niteliğinde	-12540
▁başlayınca	-12541
▁namus	-12542
▁ertuğrul	-12543
▁alıştır	-12544
▁bostan	-12545
▁olmayacaktır	-12546
▁koşullarda	-12547
ılmadan	-12548
▁babamın	-12549
▁göstermiştir	-12550
▁soyun	-12551
▁muayen	-12552
rul	-12553
oğulları	-12554
▁hunlara	-12555
▁kafası	-12556
duy	-12557
▁farkındalık	-12558
▁mırıldandı	-12559
▁etkinlikler	-12560
mama	-12561
▁soruya	-12562
▁çıktık	-12563
▁arasındadır	-12564
müs	-12565
▁soci	-12566
▁etmişlerdir	-12567
▁galibiyet	-12568
▁bayrağı	-12569
▁mezh	-12570
▁1\.	-12571
oteles	-12572
▁istifade	-12573
▁1)	-12574
buğu	-12575
▁usulü	-12576
▁newt	-12577
▁makul	-12578
▁yerlerinde	-12579
hayat	-12580
▁soğan	-12581
lesin	-12582
▁harç	-12583
üsüne	-12584
▁bilmiyordu	-12585
work	-12586
▁okurken	-12587
▁(200	-12588
▁ibar	-12589
▁perişan	-12590
▁gruba	-12591
ým	-12592
▁rüşvet	-12593
▁ardına	-12594
▁yayılan	-12595
▁asf	-12596
▁kırgız	-12597
▁biriktir	-12598
▁kullanıma	-12599
▁tesli	-12600
▁günkü	-12601
▁hâlde	-12602
▁mutluluğu	-12603
▁ortala	-12604
▁bölgelerinde	-12605
▁bölümüne	-12606
▁birinden	-12607
▁diyebil	-12608
zmit	-12609
▁sovyetler	-12610
▁ünit	-12611
▁izmir	-12612
▁kavur	-12613
▁geçim	-12614
ehr	-12615
▁güver	-12616
▁burç	-12617
▁ayrılık	-12618
kapı	-12619
▁malum	-12620
▁said	-12621
▁puanı	-12622
▁ford	-12623
▁hayali	-12624
▁kdv	-12625
▁naf	-12626
▁akciğer	-12627
▁bahçesi	-12628
▁gücün	-12629
▁sipah	-12630
emeyeceği	-12631
▁esrar	-12632
hael	-12633
▁yanan	-12634
▁emperyalist	-12635
▁imzal	-12636
▁demet	-12637
▁gaf	-12638
ct	-12639
atıyla	-12640
▁olsalar	-12641
▁sicil	-12642
▁word	-12643
▁alanya	-12644
▁iştah	-12645
▁avustralya	-12646
cumhur	-12647
liyorum	-12648
hsan	-12649
▁duymuş	-12650
▁meryem	-12651
▁varlıklar	-12652
▁andre	-12653
▁damat	-12654
▁levent	-12655
iyetinde	-12656
▁babanın	-12657
▁şeffaf	-12658
▁adımlarla	-12659
▁köprüsü	-12660
▁düşünmüş	-12661
-100	-12662
▁yapılacağı	-12663
▁yenilikçi	-12664
▁james	-12665
lığım	-12666
▁askerlerin	-12667
limi	-12668
▁söyleyebiliriz	-12669
lov	-12670
▁kollarını	-12671
▁arındır	-12672
▁derim	-12673
emde	-12674
▁ebi	-12675
▁rahatça	-12676
▁ekleyin	-12677
mparatoru	-12678
▁tıklayınız	-12679
taraf	-12680
▁vurgulan	-12681
▁kası	-12682
iliğine	-12683
▁seçmen	-12684
▁çocuklarda	-12685
▁başarısı	-12686
▁belirlem	-12687
▁herak	-12688
▁ambar	-12689
▁normalde	-12690
▁çiftçi	-12691
▁tasdik	-12692
▁2\.	-12693
▁ertel	-12694
▁hacer	-12695
▁belirlendi	-12696
▁direksiyon	-12697
▁gösteriş	-12698
▁kadrosu	-12699
▁gayri	-12700
dine	-12701
▁asılı	-12702
▁kararın	-12703
▁kesme	-12704
anik	-12705
▁got	-12706
▁edilip	-12707
row	-12708
▁spr	-12709
▁zihniyet	-12710
▁kütahya	-12711
▁mesafede	-12712
▁whatsapp	-12713
▁dayat	-12714
▁yazdım	-12715
▁elif	-12716
▁mühür	-12717
▁avm	-12718
▁fethi	-12719
▁büsbütün	-12720
▁konuşur	-12721
1⁄	-12722
medikleri	-12723
▁kabullen	-12724
▁muvaffak	-12725
▁geomet	-12726
kardeş	-12727
hracat	-12728
▁lor	-12729
▁söze	-12730
▁bulunmadığı	-12731
▁yapmakta	-12732
madde	-12733
▁mantı	-12734
▁taşımaktadır	-12735
10,	-12736
▁afet	-12737
▁ilân	-12738
▁ekrana	-12739
▁tercüm	-12740
▁66	-12741
▁cidd	-12742
▁hiyer	-12743
▁700	-12744
▁yanak	-12745
▁söylemeye	-12746
▁kablosuz	-12747
aktif	-12748
▁ölümüne	-12749
▁geçirilen	-12750
▁yedir	-12751
▁başlatılan	-12752
▁cemil	-12753
ırt	-12754
▁çıkınca	-12755
▁şafak	-12756
▁bölgesindeki	-12757
▁sper	-12758
duğundan	-12759
asker	-12760
gâbe	-12761
▁titreş	-12762
▁amiral	-12763
▁kastamonu	-12764
::	-12765
▁girdiler	-12766
▁elit	-12767
▁tehdi	-12768
▁davr	-12769
▁kım	-12770
▁tuzak	-12771
▁dağınık	-12772
▁coğrafy	-12773
▁olunan	-12774
▁şüphel	-12775
▁yardıma	-12776
▁sürek	-12777
▁hesabına	-12778
▁içti	-12779
▁köyünde	-12780
▁memnuniyeti	-12781
▁mahsus	-12782
▁edilmez	-12783
omi	-12784
▁kaldık	-12785
▁yemekleri	-12786
▁başkanları	-12787
bolu	-12788
▁kun	-12789
▁şarkıcı	-12790
edecek	-12791
▁vermiyor	-12792
▁yüc	-12793
abilirim	-12794
▁umutsuz	-12795
ören	-12796
▁istikamet	-12797
▁çeviri	-12798
▁81	-12799
▁tuttuğu	-12800
▁yürürlük	-12801
▁rem	-12802
▁karşıy	-12803
▁edinilen	-12804
▁hizmetine	-12805
eleme	-12806
▁tüzel	-12807
▁kalori	-12808
▁gelmeden	-12809
▁buralarda	-12810
▁istediler	-12811
▁sırası	-12812
▁konforlu	-12813
▁ülkesinde	-12814
▁çağırdı	-12815
▁bellek	-12816
▁mobily	-12817
▁coşku	-12818
▁pınar	-12819
▁vef	-12820
▁bine	-12821
▁çakır	-12822
▁konuşmasında	-12823
▁helen	-12824
▁kapattı	-12825
imer	-12826
esiydi	-12827
▁sarışın	-12828
▁kaplan	-12829
▁özdemir	-12830
leşti	-12831
▁oynar	-12832
▁usdu	-12833
▁olmamış	-12834
▁fizy	-12835
evler	-12836
▁çalışacak	-12837
▁biş	-12838
▁doküman	-12839
▁tonu	-12840
▁yürümeye	-12841
▁pin	-12842
▁redde	-12843
ekkül	-12844
▁aleksan	-12845
▁ülkeden	-12846
▁aristoteles	-12847
▁benziyor	-12848
▁müfettiş	-12849
▁bölümleri	-12850
▁şöhret	-12851
▁abar	-12852
▁anma	-12853
▁tersi	-12854
▁kazanma	-12855
▁dalgalan	-12856
▁tekirdağ	-12857
▁arıyorum	-12858
▁yaşayacak	-12859
▁hastalıklar	-12860
▁konuşması	-12861
▁tıklayarak	-12862
▁yerlerini	-12863
▁çorap	-12864
▁dilin	-12865
▁ss	-12866
▁platon	-12867
▁azgın	-12868
▁askı	-12869
▁konumda	-12870
▁yaklaşan	-12871
▁aydır	-12872
▁karanlıkta	-12873
▁yakalandı	-12874
▁yapısını	-12875
▁ly	-12876
▁sürdüğü	-12877
▁2)	-12878
ederken	-12879
▁sensör	-12880
mamalıdır	-12881
▁kalmaya	-12882
▁tekne	-12883
▁inanan	-12884
eyebil	-12885
▁dilen	-12886
▁ju	-12887
▁üf	-12888
▁füz	-12889
▁unutulmaz	-12890
▁yaşandığı	-12891
▁haftasında	-12892
▁coğrafi	-12893
▁ithalat	-12894
▁olacağım	-12895
▁tahrip	-12896
▁topla	-12897
▁dinler	-12898
▁nesnel	-12899
▁bağlayan	-12900
▁rul	-12901
▁düzenleyen	-12902
▁teşhis	-12903
yoruz	-12904
▁tansiyon	-12905
▁programda	-12906
kiş	-12907
amadığı	-12908
▁degil	-12909
▁meal	-12910
abilim	-12911
▁manev	-12912
▁planlanan	-12913
▁gösterecek	-12914
▁tekin	-12915
mparatorluk	-12916
▁manay	-12917
▁arkada	-12918
▁mahv	-12919
▁yapmaz	-12920
▁kanununun	-12921
affer	-12922
▁eskisi	-12923
▁açıklamak	-12924
▁üstünlük	-12925
▁sorunlarını	-12926
▁batman	-12927
cis	-12928
▁katled	-12929
▁gününe	-12930
▁yerlerine	-12931
▁babasına	-12932
▁kabile	-12933
▁olmasaydı	-12934
▁mevlâ	-12935
▁kesildi	-12936
oya	-12937
lash	-12938
▁verdiğim	-12939
▁eserin	-12940
▁ısın	-12941
▁cür	-12942
▁gelirse	-12943
-9	-12944
▁bakılırsa	-12945
şk	-12946
ademi	-12947
▁işlemlerini	-12948
▁portakal	-12949
▁ruslar	-12950
▁tutmaya	-12951
▁motif	-12952
▁sivri	-12953
lerimizle	-12954
▁anlaşılıyor	-12955
▁çabucak	-12956
▁aut	-12957
▁okullar	-12958
▁desteğini	-12959
dia	-12960
▁müşav	-12961
▁kendimize	-12962
▁açısı	-12963
▁biriyle	-12964
▁susuz	-12965
▁kına	-12966
▁kayyım	-12967
?'	-12968
▁adımı	-12969
▁dizinin	-12970
▁belçika	-12971
▁tutarı	-12972
▁atlet	-12973
▁ine	-12974
▁adresinden	-12975
▁beylik	-12976
▁kurumların	-12977
▁kın	-12978
oza	-12979
▁patr	-12980
▁belirtileri	-12981
▁eleştiri	-12982
▁latin	-12983
▁antlaşması	-12984
emezdi	-12985
▁sevindir	-12986
▁değişmez	-12987
▁kullanılıyor	-12988
▁liraya	-12989
isten	-12990
▁show	-12991
▁sürüp	-12992
▁geçtikçe	-12993
▁plus	-12994
▁bildiğiniz	-12995
▁hırsızlık	-12996
amayacağı	-12997
▁metafizik	-12998
▁seviyesinde	-12999
▁uzmanlık	-13000
▁abdurrahman	-13001
vân	-13002
▁mevs	-13003
▁telefonla	-13004
▁sakal	-13005
▁görüntüler	-13006
▁kayak	-13007
▁merhabalar	-13008
larımdan	-13009
▁you	-13010
▁“...	-13011
▁altay	-13012
▁savunu	-13013
▁zararı	-13014
erson	-13015
▁haberleşme	-13016
▁içeriye	-13017
▁aşiret	-13018
▁pazarı	-13019
▁kapıları	-13020
kendi	-13021
▁ideolojik	-13022
▁tuttur	-13023
▁arkadan	-13024
▁mahkemeye	-13025
▁ios	-13026
▁kendiniz	-13027
meyip	-13028
▁doyur	-13029
▁milliyetçi	-13030
ememiş	-13031
▁yog	-13032
▁arkaya	-13033
▁zeytinyağı	-13034
esk	-13035
▁sahiplerinin	-13036
▁koordinasyon	-13037
▁çıkarmaya	-13038
▁kullanılmış	-13039
▁dediğim	-13040
▁tarımsal	-13041
▁elimde	-13042
suru	-13043
cular	-13044
▁emzir	-13045
▁celal	-13046
▁bölük	-13047
▁erol	-13048
dare	-13049
▁konsept	-13050
▁cari	-13051
▁ayıran	-13052
▁ataş	-13053
eyr	-13054
▁lez	-13055
▁konferansı	-13056
▁bileşen	-13057
▁yarısında	-13058
mb	-13059
▁nedenini	-13060
▁him	-13061
▁arayıp	-13062
▁nedenlerle	-13063
▁modeller	-13064
▁nikah	-13065
iciler	-13066
▁ilgilendiren	-13067
▁1,5	-13068
▁savaştan	-13069
▁nenni	-13070
▁gerçekleşecek	-13071
▁öc	-13072
▁güncellem	-13073
ansa	-13074
▁sayılmaz	-13075
▁ortaçağ	-13076
▁fiyata	-13077
▁hayvanları	-13078
▁bakıma	-13079
▁ihbar	-13080
▁zeynep	-13081
▁org	-13082
▁müze	-13083
vâ	-13084
▁gizemli	-13085
▁çın	-13086
▁yükle	-13087
▁düzeyi	-13088
▁yanıtladı	-13089
gele	-13090
▁cenk	-13091
▁taham	-13092
mayarak	-13093
▁solunum	-13094
▁demiştir	-13095
ğünde	-13096
▁iktidara	-13097
▁öneri	-13098
▁kaybetmiş	-13099
▁dönüşü	-13100
koz	-13101
▁sürecine	-13102
▁almanca	-13103
▁yönetiminde	-13104
▁olacağına	-13105
genç	-13106
▁hiper	-13107
▁tertip	-13108
▁adamlarının	-13109
▁uçur	-13110
▁başkasının	-13111
▁sağlanır	-13112
skiy	-13113
çelik	-13114
▁xvii	-13115
▁iğrenç	-13116
▁afrin	-13117
▁ortaokul	-13118
isy	-13119
▁bini	-13120
▁sikiş	-13121
▁benzin	-13122
luklar	-13123
▁edebilmek	-13124
▁istihbarat	-13125
▁gücüyle	-13126
cia	-13127
▁kadeh	-13128
▁ruhunu	-13129
▁konsolos	-13130
▁düşünmüyor	-13131
tecek	-13132
▁arsa	-13133
latır	-13134
▁mevlana	-13135
▁sağlanan	-13136
▁başlaması	-13137
▁tarafsız	-13138
▁felsefi	-13139
▁işlerine	-13140
▁dizayn	-13141
▁kabiliyet	-13142
.19	-13143
▁lezz	-13144
▁takı	-13145
▁bırakmış	-13146
▁hidro	-13147
▁hijyen	-13148
▁ecza	-13149
laştı	-13150
▁yayını	-13151
ekt	-13152
gim	-13153
▁alıyoruz	-13154
▁demirel	-13155
▁orjinal	-13156
▁elektro	-13157
▁bakınca	-13158
▁başkanlığında	-13159
▁kadınla	-13160
dö	-13161
▁yaparlar	-13162
▁yöneticiler	-13163
ayir	-13164
▁taktik	-13165
▁algıla	-13166
▁malzemesi	-13167
▁arkasındaki	-13168
lanmasını	-13169
▁85	-13170
▁seferi	-13171
ürken	-13172
▁avlu	-13173
▁iştirak	-13174
▁batır	-13175
eceğimi	-13176
▁uğrayan	-13177
pon	-13178
▁oldug	-13179
▁yes	-13180
▁çözünür	-13181
▁anlıyor	-13182
▁ülkelerinde	-13183
▁çekmeye	-13184
way	-13185
▁faydaları	-13186
▁değir	-13187
▁kullanışlı	-13188
▁tekniği	-13189
âmet	-13190
▁peşin	-13191
▁çerçeve	-13192
▁belirleyen	-13193
▁topladı	-13194
▁cihazlar	-13195
▁kanuni	-13196
▁sayısal	-13197
▁kapısına	-13198
▁seviyeye	-13199
▁veter	-13200
▁oturur	-13201
çiliği	-13202
▁ifadeyle	-13203
▁zanned	-13204
▁şartıyla	-13205
▁frekans	-13206
▁kaydır	-13207
▁fla	-13208
▁yükümlü	-13209
▁ferman	-13210
alik	-13211
lenebilir	-13212
▁keçi	-13213
▁harry	-13214
▁sanatlar	-13215
▁ayni	-13216
▁matba	-13217
▁350	-13218
▁ziyareti	-13219
zer	-13220
▁vereceği	-13221
▁zindan	-13222
▁ida	-13223
▁yeterlidir	-13224
▁soğu	-13225
▁yudum	-13226
▁açıklanan	-13227
▁köyün	-13228
▁sitesinden	-13229
▁tanıyan	-13230
▁ihtiyacımız	-13231
▁âdem	-13232
▁eksen	-13233
▁bağlar	-13234
landırma	-13235
alist	-13236
▁kapasitesi	-13237
▁tüketimi	-13238
▁nr	-13239
▁lübnan	-13240
▁düzce	-13241
▁olduğunuzu	-13242
▁müşterilerine	-13243
▁arkadaşlarının	-13244
ünüze	-13245
deres	-13246
▁coşkun	-13247
▁istiyorlar	-13248
▁balon	-13249
▁etap	-13250
▁sormuş	-13251
▁makar	-13252
ıldılar	-13253
▁topçu	-13254
▁bulunmamaktadır	-13255
▁tesisi	-13256
hon	-13257
▁lou	-13258
▁nuaym	-13259
▁hissediyordu	-13260
▁niy	-13261
▁konumunda	-13262
▁tı	-13263
▁pav	-13264
▁rön	-13265
▁istemeyen	-13266
▁step	-13267
▁çalın	-13268
▁ayağını	-13269
ekon	-13270
üsünün	-13271
▁hayalet	-13272
▁intern	-13273
▁gelme	-13274
▁gördükleri	-13275
▁modül	-13276
▁tanrılar	-13277
ilmesinde	-13278
▁hazırlanıyor	-13279
▁kaynaş	-13280
▁olmayıp	-13281
▁bulunmakta	-13282
▁homur	-13283
▁hâlinde	-13284
▁ılık	-13285
▁þ	-13286
▁seti	-13287
▁ücretleri	-13288
▁yönetiminin	-13289
▁doları	-13290
▁ülkelere	-13291
lediklerini	-13292
▁koşulu	-13293
▁alındığında	-13294
rını	-13295
▁yaya	-13296
neğin	-13297
▁objektif	-13298
▁dilini	-13299
▁editör	-13300
▁tahrik	-13301
▁kötülü	-13302
▁problemleri	-13303
▁keh	-13304
▁oynuyor	-13305
sion	-13306
▁sizce	-13307
▁geceler	-13308
▁köşesinde	-13309
▁çalışmayı	-13310
get	-13311
▁beraberlik	-13312
▁kalmamış	-13313
delen	-13314
▁1950	-13315
▁başlıkları	-13316
▁çevresine	-13317
▁72	-13318
▁yürüyen	-13319
▁biliyordum	-13320
▁polisin	-13321
▁öğrenin	-13322
▁püskür	-13323
▁portföy	-13324
/24	-13325
▁omur	-13326
▁müdafa	-13327
▁yaratır	-13328
▁orgazm	-13329
▁ürünlerinin	-13330
ms	-13331
▁otelde	-13332
▁partiler	-13333
kıs	-13334
lukta	-13335
▁okulları	-13336
▁belediyespor	-13337
▁kıvıl	-13338
▁prol	-13339
emeyeceğini	-13340
ls	-13341
▁öküz	-13342
dış	-13343
hol	-13344
▁farket	-13345
thon	-13346
▁ücretli	-13347
▁tapu	-13348
▁parfüm	-13349
▁mücevher	-13350
▁sonucuna	-13351
▁brezilya	-13352
▁tot	-13353
▁rehberlik	-13354
▁karargâh	-13355
▁bölgeleri	-13356
▁personelin	-13357
▁ziyaretçi	-13358
▁yapmaktan	-13359
▁tutarlı	-13360
▁azı	-13361
▁nispet	-13362
mezdi	-13363
▁22.	-13364
▁oluşturma	-13365
▁bastı	-13366
ja	-13367
▁turları	-13368
jo	-13369
▁bağı	-13370
▁63	-13371
▁ünal	-13372
▁engeller	-13373
lenmektedir	-13374
▁cemiyet	-13375
▁tahliye	-13376
zon	-13377
abd	-13378
/200	-13379
▁şiiri	-13380
▁apaçık	-13381
▁geçtikten	-13382
zle	-13383
▁arzusu	-13384
▁ehli	-13385
▁yanlarında	-13386
bakan	-13387
▁tedbirler	-13388
▁tamamlandı	-13389
ああああ	-13390
▁başkasına	-13391
▁kahramanmaraş	-13392
▁haydar	-13393
▁adları	-13394
▁yon	-13395
▁verilerin	-13396
▁william	-13397
▁uykuya	-13398
▁videosu	-13399
▁güldür	-13400
hit	-13401
▁müess	-13402
▁alınıp	-13403
▁çıldır	-13404
▁nitelikte	-13405
▁tartışmalar	-13406
ûh	-13407
▁ilgil	-13408
▁doğrultu	-13409
▁1-2	-13410
vo	-13411
▁villa	-13412
atları	-13413
9’	-13414
▁muamel	-13415
astik	-13416
▁tekel	-13417
▁hapishan	-13418
dad	-13419
alığa	-13420
▁oral	-13421
▁savaşlar	-13422
▁yetkisi	-13423
▁şişman	-13424
▁yıldızlar	-13425
▁yıkım	-13426
▁geçirildi	-13427
▁mesai	-13428
▁iftir	-13429
▁çalışmış	-13430
▁üyeli	-13431
▁parçacık	-13432
▁dengeli	-13433
▁uçan	-13434
▁fizi	-13435
cilere	-13436
▁keb	-13437
▁yurd	-13438
▁seslendir	-13439
▁elçiler	-13440
▁katkısı	-13441
▁çalıştığını	-13442
▁devasa	-13443
▁izi	-13444
ava	-13445
▁araştırmaya	-13446
▁fare	-13447
king	-13448
2016	-13449
sonra	-13450
veç	-13451
▁mevcu	-13452
▁bakarken	-13453
▁incelemek	-13454
▁peşine	-13455
▁kentinde	-13456
▁maked	-13457
▁tedavisinde	-13458
▁suriyeli	-13459
▁notu	-13460
kincisi	-13461
▁muzaffer	-13462
▁halep	-13463
▁ilâ	-13464
▁yetişen	-13465
▁ulaştırma	-13466
▁beyrut	-13467
▁veh	-13468
▁mürekk	-13469
amayacağını	-13470
▁cı	-13471
▁makineleri	-13472
▁trib	-13473
▁görmesi	-13474
▁hon	-13475
ılmaması	-13476
▁tutulması	-13477
▁belirlenmiş	-13478
▁düşünüyoruz	-13479
▁çağı	-13480
▁bilek	-13481
▁vis	-13482
▁tahr	-13483
▁taraflı	-13484
hani	-13485
▁katolik	-13486
▁tamamlayan	-13487
▁gözde	-13488
▁fikirleri	-13489
tekin	-13490
▁kızını	-13491
▁kelimeleri	-13492
▁mag	-13493
▁ilişkiye	-13494
▁düzene	-13495
▁birbiri	-13496
▁torun	-13497
▁hoşuma	-13498
▁uygulanacak	-13499
▁gelebilecek	-13500
▁galer	-13501
▁kalmamıştı	-13502
eneğini	-13503
▁vadisi	-13504
▁nazım	-13505
▁yapmalı	-13506
▁dun	-13507
▁vücuda	-13508
▁afganistan	-13509
üğü	-13510
yeş	-13511
▁inen	-13512
lemesine	-13513
▁tarla	-13514
▁muhabir	-13515
▁ilerleme	-13516
▁etmesine	-13517
▁edilmesine	-13518
▁çiv	-13519
▁uefa	-13520
▁düşünüp	-13521
sır	-13522
▁zaferi	-13523
▁çıktım	-13524
▁dolandırıcı	-13525
▁hend	-13526
oker	-13527
▁dilediğiniz	-13528
▁dikt	-13529
▁durgun	-13530
▁yazarak	-13531
▁düm	-13532
▁195	-13533
▁önemsiz	-13534
▁kadır	-13535
▁olabildiğince	-13536
▁câ	-13537
küç	-13538
▁sağlayarak	-13539
▁sellem	-13540
▁dökü	-13541
▁gösteriyordu	-13542
▁çarptı	-13543
tüsü	-13544
+1	-13545
▁kağıdı	-13546
civert	-13547
▁bav	-13548
▁yatağa	-13549
▁baskısı	-13550
▁gülümseyerek	-13551
▁diğerine	-13552
▁kpss	-13553
▁görevlileri	-13554
▁23.	-13555
▁düzenlemeler	-13556
▁seramik	-13557
▁>>>	-13558
▁:))	-13559
▁pürüz	-13560
ruh	-13561
▁gelirler	-13562
▁ız	-13563
▁neb	-13564
ıklar	-13565
ebilirler	-13566
▁gözlerine	-13567
▁kadınlarda	-13568
▁içme	-13569
elenen	-13570
▁olasılığı	-13571
▁birlikleri	-13572
sinler	-13573
▁gördüğünü	-13574
▁bahan	-13575
▁çarşı	-13576
▁olimpiyat	-13577
▁denildi	-13578
non	-13579
▁dokunul	-13580
▁çatlak	-13581
▁habersiz	-13582
abilme	-13583
uta	-13584
▁katlan	-13585
▁şal	-13586
ilince	-13587
▁vuran	-13588
▁şiirler	-13589
▁görmedim	-13590
▁arar	-13591
diğimde	-13592
▁yaşından	-13593
▁nut	-13594
▁suikast	-13595
▁artarak	-13596
▁bayağı	-13597
▁iddialı	-13598
▁hissediyorum	-13599
▁→	-13600
▁dersiniz	-13601
▁kont	-13602
▁ulaşmış	-13603
▁unsuru	-13604
▁üstündeki	-13605
▁valiliği	-13606
▁arayarak	-13607
dekiler	-13608
▁alanındaki	-13609
▁geçmiştir	-13610
▁yaklaşımı	-13611
▁kamuoyu	-13612
▁bill	-13613
▁(10	-13614
boş	-13615
▁okullarda	-13616
▁yargıtay	-13617
▁sû	-13618
▁taar	-13619
▁dediğini	-13620
etz	-13621
▁ال	-13622
▁dinledi	-13623
nar	-13624
▁iniş	-13625
▁_"	-13626
▁ozan	-13627
▁merteb	-13628
▁yaşıyoruz	-13629
▁teknolojinin	-13630
▁akışı	-13631
▁erdir	-13632
▁yapılar	-13633
▁eşyaları	-13634
▁bulunduğumuz	-13635
▁barındıran	-13636
müz	-13637
▁hızır	-13638
▁bulamaz	-13639
▁politikalar	-13640
lular	-13641
▁müstak	-13642
▁ziyarete	-13643
▁çember	-13644
▁üçte	-13645
▁sağlayabil	-13646
▁kayıtsız	-13647
▁ps	-13648
anne	-13649
▁kalor	-13650
▁seferber	-13651
▁yurtdışında	-13652
▁yarısını	-13653
▁içsel	-13654
▁sağlamış	-13655
▁çevreye	-13656
▁kaldılar	-13657
▁sorul	-13658
▁tabanlı	-13659
▁kandil	-13660
sünüz	-13661
▁yağm	-13662
▁sınırlarını	-13663
▁yapısal	-13664
▁sermayenin	-13665
▁zorunluluk	-13666
▁adi	-13667
▁prensi	-13668
▁kenan	-13669
amızdan	-13670
▁yönetmeliği	-13671
▁kutusu	-13672
▁fikrini	-13673
eron	-13674
▁resûl	-13675
▁elin	-13676
▁havanın	-13677
▁ciğer	-13678
diyse	-13679
▁tibet	-13680
▁tefsîr	-13681
▁destekli	-13682
▁gerçeğe	-13683
▁yapanlar	-13684
▁yazılımı	-13685
▁**_	-13686
iskop	-13687
layalım	-13688
olas	-13689
cc	-13690
oterapi	-13691
ızda	-13692
▁bağdaş	-13693
▁kilisesi	-13694
▁çıktılar	-13695
▁sistemde	-13696
▁city	-13697
ecekler	-13698
▁keder	-13699
▁durumdur	-13700
size	-13701
malarından	-13702
▁katma	-13703
müyordu	-13704
▁örgütlen	-13705
▁kalkın	-13706
▁ambulans	-13707
▁bitim	-13708
▁odaklan	-13709
▁şuur	-13710
▁komb	-13711
▁dikiş	-13712
▁rahim	-13713
▁verit	-13714
▁sevgiler	-13715
lamasını	-13716
ılıyorum	-13717
▁yerleşik	-13718
ruğu	-13719
özellikle	-13720
▁oğluna	-13721
aynı	-13722
▁bölümünün	-13723
cir	-13724
▁ziyaretçiler	-13725
▁kayın	-13726
▁muhtelif	-13727
▁ocağı	-13728
▁gerçekleştiren	-13729
▁utanç	-13730
▁coşk	-13731
▁havaalan	-13732
▁ödülleri	-13733
▁etrafına	-13734
▁olunur	-13735
▁hanı	-13736
▁olursanız	-13737
▁loc	-13738
▁kürek	-13739
▁gitmesi	-13740
▁seçildi	-13741
uer	-13742
▁sevda	-13743
▁görülecek	-13744
▁sürülen	-13745
▁hemşir	-13746
kadir	-13747
▁mg	-13748
▁gla	-13749
▁yüksekokulu	-13750
▁3\.	-13751
lacaktır	-13752
▁verebil	-13753
▁bulunacak	-13754
▁çeşme	-13755
▁mans	-13756
▁ticareti	-13757
▁olmayabilir	-13758
▁element	-13759
▁ikisini	-13760
▁burayı	-13761
▁şartlarda	-13762
▁dilinde	-13763
▁üstünden	-13764
6’	-13765
ella	-13766
▁görülmüştür	-13767
▁ilişkilerini	-13768
▁kak	-13769
▁dere	-13770
▁hicret	-13771
▁alevi	-13772
▁çorum	-13773
▁önünü	-13774
▁pencereden	-13775
▁uzaklık	-13776
mizî	-13777
▁yarışı	-13778
ica	-13779
▁dileriz	-13780
melerinin	-13781
iymiş	-13782
▁sistemler	-13783
zav	-13784
ymp	-13785
▁cik	-13786
▁kalç	-13787
▁toplamak	-13788
▁sıralar	-13789
▁betim	-13790
▁kalka	-13791
amadım	-13792
▁sıral	-13793
▁korkuyor	-13794
▁telif	-13795
▁salg	-13796
▁zenginlik	-13797
▁muş	-13798
▁pist	-13799
ceğiniz	-13800
▁yurti	-13801
▁ilki	-13802
öğren	-13803
▁anas	-13804
ilmeli	-13805
oluk	-13806
▁kitabını	-13807
▁azdır	-13808
▁lavab	-13809
▁grev	-13810
lamasına	-13811
âret	-13812
ciye	-13813
▁saraya	-13814
▁güvence	-13815
▁maksadı	-13816
▁duyum	-13817
▁meksika	-13818
▁planları	-13819
▁05	-13820
▁dibinde	-13821
▁görkemli	-13822
cd	-13823
▁blo	-13824
▁duyunca	-13825
▁hürmet	-13826
sene	-13827
▁edilmek	-13828
▁herşeyi	-13829
▁romalı	-13830
▁ortasına	-13831
▁talip	-13832
▁sahasında	-13833
yür	-13834
▁ağacın	-13835
dakiler	-13836
▁kurtulmuş	-13837
▁çocuklarına	-13838
wood	-13839
▁zannet	-13840
▁vadede	-13841
▁dedikodu	-13842
▁savur	-13843
▁aygıt	-13844
▁tutulan	-13845
eros	-13846
▁sıralama	-13847
▁çıkabilir	-13848
▁kalarak	-13849
ılmamış	-13850
anıyla	-13851
▁mensu	-13852
▁koşu	-13853
▁tipik	-13854
oca	-13855
▁sahası	-13856
bran	-13857
▁verilmesini	-13858
▁diri	-13859
pazarı	-13860
▁kuyruk	-13861
izin	-13862
▁altıncı	-13863
▁ölçekli	-13864
ayip	-13865
▁gemileri	-13866
▁silik	-13867
▁özcan	-13868
▁merkeze	-13869
▁nda	-13870
▁görüyordu	-13871
▁özelliklere	-13872
▁gerekirdi	-13873
▁gazeteciler	-13874
▁polat	-13875
▁aralarındaki	-13876
▁değerlendirmek	-13877
▁korumaya	-13878
▁ahiret	-13879
▁şır	-13880
▁hıristiy	-13881
▁ilçesine	-13882
▁komis	-13883
dari	-13884
▁yukarıya	-13885
▁59	-13886
rini	-13887
▁zıp	-13888
▁hareketsiz	-13889
▁beklediği	-13890
sec	-13891
▁görevliler	-13892
syö	-13893
▁bağışıklık	-13894
▁kardeşinin	-13895
▁takın	-13896
▁içlerinde	-13897
▁dışından	-13898
▁cab	-13899
fon	-13900
▁ltd	-13901
ımar	-13902
▁yenik	-13903
▁federal	-13904
larıma	-13905
▁fırç	-13906
▁sıkıntılı	-13907
▁oktay	-13908
,_	-13909
▁karabük	-13910
▁adayların	-13911
▁emel	-13912
▁vermeyen	-13913
▁yürürken	-13914
▁yeg	-13915
▁jose	-13916
▁davranışı	-13917
▁asfalt	-13918
▁küçücük	-13919
▁yaptırmak	-13920
▁dille	-13921
▁diyebilirim	-13922
▁görüntüleri	-13923
vay	-13924
▁hül	-13925
▁konuştuğ	-13926
▁uygulamak	-13927
▁oluşturmaktadır	-13928
▁şifre	-13929
▁sing	-13930
▁kıvr	-13931
▁ağaçların	-13932
▁sanmıyorum	-13933
lun	-13934
▁68	-13935
aht	-13936
▁seg	-13937
▁zül	-13938
.00’	-13939
▁başaran	-13940
▁menderes	-13941
▁tarihçi	-13942
▁kıyısında	-13943
▁alıyorum	-13944
▁başbakanlık	-13945
▁özeti	-13946
▁sütun	-13947
▁anlaşmaya	-13948
cay	-13949
▁üze	-13950
▁şaka	-13951
▁elimizde	-13952
▁sıcaklığı	-13953
▁akş	-13954
▁miyiz	-13955
ileceği	-13956
▁amp	-13957
saspor	-13958
▁olayda	-13959
▁nezdinde	-13960
▁torunu	-13961
.6	-13962
▁sefere	-13963
▁seda	-13964
hz	-13965
▁önlemler	-13966
▁çalışmalarında	-13967
▁gömle	-13968
▁kot	-13969
▁ortaklık	-13970
illeus	-13971
▁annenin	-13972
▁etkileşim	-13973
▁geleceğin	-13974
▁yılbaşı	-13975
▁yatıştır	-13976
▁umudu	-13977
örneğin	-13978
▁kalkar	-13979
▁reisi	-13980
▁gömül	-13981
▁atmaya	-13982
▁görüştü	-13983
▁açıklamasında	-13984
fone	-13985
▁tembel	-13986
▁okuyup	-13987
▁gidin	-13988
▁satran	-13989
mün	-13990
▁okş	-13991
mağı	-13992
▁güçlerin	-13993
ılmasında	-13994
▁başının	-13995
▁öneriler	-13996
▁karada	-13997
unuzda	-13998
▁düşündük	-13999
▁içgü	-14000
▁kama	-14001
▁olurum	-14002
▁memlek	-14003
▁fuat	-14004
▁meta	-14005
▁yöneten	-14006
▁benimsen	-14007
▁dibine	-14008
▁öldürür	-14009
mezler	-14010
▁kabart	-14011
▁hasret	-14012
▁görevine	-14013
▁koştur	-14014
▁açıkçası	-14015
00’	-14016
▁levin	-14017
▁5/3	-14018
▁bedenin	-14019
▁getirmiştir	-14020
▁bütünleş	-14021
tle	-14022
▁parametr	-14023
▁kumar	-14024
lerinizin	-14025
▁görüşünü	-14026
▁danışmanı	-14027
▁bilinci	-14028
▁psikoloji	-14029
▁oluyoruz	-14030
▁170	-14031
▁barışı	-14032
▁eksiklik	-14033
▁tutuklandı	-14034
latma	-14035
▁seçimlerde	-14036
▁yapılmalıdır	-14037
eyan	-14038
▁güzergah	-14039
▁dışa	-14040
larınızla	-14041
▁kozmetik	-14042
▁mesajları	-14043
▁thy	-14044
▁terakki	-14045
▁kurmaya	-14046
▁kullanmayı	-14047
osunun	-14048
▁ülkemize	-14049
▁yemiş	-14050
▁süslü	-14051
▁tahlil	-14052
▁parçal	-14053
▁sevinirim	-14054
▁kralın	-14055
cih	-14056
lid	-14057
▁yurdu	-14058
avrup	-14059
▁eşitlik	-14060
▁volkan	-14061
▁yüzy	-14062
▁toplayıp	-14063
▁kürk	-14064
▁hut	-14065
▁ırmak	-14066
âhib	-14067
▁çiling	-14068
▁yahya	-14069
▁yazımızda	-14070
▁topraklar	-14071
lüğünün	-14072
▁hedefe	-14073
lamıyorum	-14074
▁gecede	-14075
▁ödüllendir	-14076
▁sıyr	-14077
▁abone	-14078
▁imha	-14079
▁levh	-14080
▁menz	-14081
▁doğduğu	-14082
▁minimum	-14083
fakat	-14084
▁world	-14085
▁akademi	-14086
▁berg	-14087
laşır	-14088
şler	-14089
▁kuzu	-14090
▁müc	-14091
▁tanrıç	-14092
▁bakınız	-14093
▁gra	-14094
▁bulabilir	-14095
post	-14096
▁düşündür	-14097
▁meras	-14098
▁olmamız	-14099
ingen	-14100
uri	-14101
lib	-14102
▁amca	-14103
▁batak	-14104
▁madrid	-14105
stro	-14106
▁anası	-14107
▁kesilmiş	-14108
▁araştırmacı	-14109
▁litre	-14110
▁kösem	-14111
içe	-14112
▁havaalanı	-14113
▁stüd	-14114
▁programının	-14115
ladığım	-14116
▁işkenc	-14117
versi	-14118
▁paralar	-14119
-14	-14120
▁babasını	-14121
mana	-14122
▁duymak	-14123
▁spek	-14124
▁sami	-14125
▁girdim	-14126
▁ödemek	-14127
hed	-14128
▁out	-14129
▁talepleri	-14130
▁kimler	-14131
tiklerini	-14132
▁yrd	-14133
▁gözlerim	-14134
▁çuv	-14135
larlar	-14136
▁61	-14137
▁olduğun	-14138
▁köye	-14139
peri	-14140
▁saçlarını	-14141
▁muaf	-14142
▁yapmam	-14143
▁mert	-14144
▁eğitimini	-14145
▁kültürünün	-14146
▁rock	-14147
▁bb	-14148
▁arayüz	-14149
cağın	-14150
▁görmedi	-14151
▁ikiz	-14152
[{	-14153
▁süreyle	-14154
▁sıkıntısı	-14155
▁öldürülen	-14156
▁köşk	-14157
▁bazında	-14158
▁şahsiyet	-14159
▁sultanı	-14160
▁davranışlar	-14161
▁sms	-14162
-17	-14163
▁ilerledi	-14164
▁evliy	-14165
karah	-14166
küçük	-14167
malıydı	-14168
▁sultanın	-14169
▁kaçıp	-14170
osuna	-14171
run	-14172
▁motivasyon	-14173
▁çerçevede	-14174
▁abdil	-14175
▁kapağı	-14176
▁hattâ	-14177
▁noktalar	-14178
▁8,	-14179
▁katılmış	-14180
▁çalışmada	-14181
luğundan	-14182
▁mukav	-14183
▁î	-14184
eceğinizi	-14185
▁toplandı	-14186
▁atas	-14187
▁kurumun	-14188
▁gözlü	-14189
▁fragmanı	-14190
▁kapılarını	-14191
▁psikolog	-14192
▁67	-14193
ancak	-14194
▁şişe	-14195
▁grubunun	-14196
devamı	-14197
▁işlevi	-14198
▁dünyaca	-14199
▁ideoloj	-14200
▁daral	-14201
▁konten	-14202
▁berbat	-14203
▁metot	-14204
▁çıktığında	-14205
lig	-14206
▁kesik	-14207
▁isteriz	-14208
iğine	-14209
▁gidelim	-14210
▁evlerine	-14211
▁makinası	-14212
▁kurallarına	-14213
▁saz	-14214
▁küs	-14215
▁yükü	-14216
hik	-14217
▁krip	-14218
▁sahiplerine	-14219
▁fonksiyonu	-14220
▁boşanma	-14221
▁bakımlı	-14222
▁bölgeyi	-14223
ğil	-14224
▁üçlü	-14225
▁kullandığımız	-14226
ıyorsunuz	-14227
mazsa	-14228
▁ıslah	-14229
▁seçimler	-14230
lanıyordu	-14231
▁açılacak	-14232
▁göndermek	-14233
▁mücadelenin	-14234
▁desc	-14235
▁kant	-14236
iğinin	-14237
emis	-14238
▁huzurunda	-14239
▁verecektir	-14240
iyonu	-14241
▁krallık	-14242
cm	-14243
eyt	-14244
▁icat	-14245
▁kayboldu	-14246
ric	-14247
▁güzeldi	-14248
▁fl	-14249
▁davanın	-14250
▁akademisyen	-14251
▁kullanıcıları	-14252
olat	-14253
▁pekiştir	-14254
▁alarm	-14255
▁motorlu	-14256
▁yanınızda	-14257
▁hazreti	-14258
▁elimizden	-14259
▁biter	-14260
▁cim	-14261
▁zel	-14262
▁geli	-14263
gem	-14264
▁saygılı	-14265
▁videoyu	-14266
▁allâh	-14267
▁büyücü	-14268
▁boğaziçi	-14269
▁milletvekilleri	-14270
▁aydan	-14271
▁ümmü	-14272
▁çalışmasını	-14273
ğindeki	-14274
▁sulh	-14275
▁anlayan	-14276
▁karşınıza	-14277
▁esasen	-14278
▁havalandır	-14279
ınızdaki	-14280
▁konusuna	-14281
▁ürettiği	-14282
▁ordusunu	-14283
cas	-14284
▁kararının	-14285
mayınca	-14286
▁yürütme	-14287
▁bitkiler	-14288
▁şölen	-14289
▁padişaha	-14290
▁konulan	-14291
▁martin	-14292
gara	-14293
▁olmamak	-14294
bâ	-14295
▁müjde	-14296
inizdeki	-14297
▁maltepe	-14298
▁anlaşıldı	-14299
şti	-14300
▁göründü	-14301
port	-14302
▁tarl	-14303
▁ışıl	-14304
▁kasaba	-14305
ımla	-14306
emedim	-14307
▁abdest	-14308
▁göstermesi	-14309
▁nihat	-14310
▁michael	-14311
▁geceyi	-14312
▁beyoğlu	-14313
ble	-14314
meyle	-14315
mese	-14316
ncil	-14317
▁konuşmayı	-14318
▁62	-14319
▁korur	-14320
▁paraya	-14321
▁yürüyor	-14322
ılırdı	-14323
▁dönemlerinde	-14324
▁kazanıyor	-14325
kanlı	-14326
▁bulunarak	-14327
▁öldüğü	-14328
▁cezayir	-14329
▁çöktü	-14330
▁seans	-14331
▁reaksiyon	-14332
▁getirilmiş	-14333
▁99	-14334
edisi	-14335
▁adamların	-14336
▁ehliyet	-14337
▁but	-14338
▁gününü	-14339
alp	-14340
▁denizde	-14341
▁sizlerde	-14342
▁kitâb	-14343
▁okuyor	-14344
▁note	-14345
▁kuvveti	-14346
▁asistan	-14347
▁veteriner	-14348
▁işlemini	-14349
▁miting	-14350
tih	-14351
▁sıraya	-14352
eciler	-14353
▁bire	-14354
▁ikil	-14355
herkes	-14356
▁(18	-14357
▁almakta	-14358
▁kullandıkları	-14359
▁çözmek	-14360
▁hamza	-14361
▁sapan	-14362
▁ilgilidir	-14363
vaz	-14364
▁içmek	-14365
▁söyleyeyim	-14366
leydi	-14367
▁tutma	-14368
▁kurallara	-14369
▁boğazı	-14370
olay	-14371
▁sihir	-14372
▁geçmişe	-14373
▁enj	-14374
▁bazılarının	-14375
ilar	-14376
lass	-14377
▁kıdem	-14378
▁özkan	-14379
▁etrafa	-14380
boy	-14381
▁sonlandır	-14382
▁uğradı	-14383
▁biliniyor	-14384
▁muhatap	-14385
▁sıh	-14386
▁karlı	-14387
▁etmemiş	-14388
latıcı	-14389
rarı	-14390
▁nör	-14391
▁iğne	-14392
low	-14393
▁ilm	-14394
dikçe	-14395
ladıklarını	-14396
▁bedensel	-14397
▁anlattığı	-14398
rezzak	-14399
▁3-4	-14400
▁big	-14401
hm	-14402
▁çözümleri	-14403
ramanı	-14404
▁amacımız	-14405
ildikten	-14406
▁yararlanmak	-14407
▁yürüten	-14408
▁hizmetini	-14409
▁adayları	-14410
▁akademisi	-14411
ifi	-14412
▁bölümünden	-14413
▁havlu	-14414
▁plakalı	-14415
▁yıpran	-14416
▁kurarak	-14417
▁müşterilerimize	-14418
▁niyetli	-14419
▁aileleri	-14420
▁turistik	-14421
▁çalışkan	-14422
▁savaşları	-14423
▁anabilim	-14424
▁dine	-14425
▁metni	-14426
emiyorum	-14427
▁odadan	-14428
▁gülüş	-14429
▁soğutma	-14430
▁alırlar	-14431
▁kenarına	-14432
▁çiçekler	-14433
oşa	-14434
▁sevgilisi	-14435
▁bilgisini	-14436
olun	-14437
▁eğitmen	-14438
▁kuruluşlar	-14439
▁zeyd	-14440
▁kokulu	-14441
▁müsait	-14442
▁varıp	-14443
abilirsin	-14444
▁çekirde	-14445
▁belirtiyor	-14446
sizce	-14447
▁görünmez	-14448
efendi	-14449
▁dağılı	-14450
uluğa	-14451
▁evlerin	-14452
▁hisseder	-14453
▁programını	-14454
▁cihazları	-14455
▁fış	-14456
▁üretmek	-14457
▁vatandaşı	-14458
▁koyuyor	-14459
▁kraliçe	-14460
▁mücadelede	-14461
viz	-14462
▁düşündüğü	-14463
▁sabun	-14464
▁makamında	-14465
▁yüzbaşı	-14466
ness	-14467
▁nuh	-14468
▁akhilleus	-14469
----	-14470
yıldı	-14471
▁animasyon	-14472
calı	-14473
▁elleriyle	-14474
▁tanır	-14475
▁çınar	-14476
▁kullanımına	-14477
▁açıklayan	-14478
▁dâr	-14479
▁fert	-14480
▁rec	-14481
▁içeride	-14482
▁dra	-14483
▁marmar	-14484
melerde	-14485
▁söylenir	-14486
iba	-14487
▁lord	-14488
emm	-14489
▁kabak	-14490
▁yırt	-14491
ew	-14492
▁ashab	-14493
▁şerit	-14494
▁kesint	-14495
▁böyledir	-14496
▁söylerken	-14497
▁yakalama	-14498
▁kolaylık	-14499
▁talebinde	-14500
▁bursaspor	-14501
▁dram	-14502
▁âdeta	-14503
▁girit	-14504
▁iletişimi	-14505
▁müsteşar	-14506
▁hp	-14507
▁iso	-14508
▁yüreğ	-14509
▁çapraz	-14510
▁çeyre	-14511
▁güce	-14512
fte	-14513
▁çıkıyordu	-14514
riye	-14515
▁dolaşım	-14516
▁gemiler	-14517
▁zât	-14518
cağımı	-14519
▁burhan	-14520
vak	-14521
▁kalmadan	-14522
yön	-14523
▁cenev	-14524
▁sım	-14525
ea	-14526
ûb	-14527
▁seçimlerinde	-14528
▁davul	-14529
▁dilde	-14530
▁avantajlı	-14531
▁malları	-14532
▁verilerine	-14533
▁cevaplar	-14534
ılmasıyla	-14535
oliz	-14536
▁göçebe	-14537
▁maddelerin	-14538
▁önü	-14539
▁sundu	-14540
▁gıd	-14541
▁tirmizî	-14542
▁düzensiz	-14543
cili	-14544
ilebilecek	-14545
bazı	-14546
▁iseniz	-14547
▁karşılığını	-14548
memi	-14549
▁mana	-14550
▁getirdiler	-14551
▁sınıfta	-14552
▁yağma	-14553
▁kullanıyorum	-14554
▁ağası	-14555
▁aklını	-14556
▁kentte	-14557
▁çalışmaktadır	-14558
▁tram	-14559
▁fazladır	-14560
▁dosyaları	-14561
▁fr	-14562
▁soyundan	-14563
▁çekmiş	-14564
eld	-14565
▁istisna	-14566
▁dayanır	-14567
▁sitemizden	-14568
leştirilmiş	-14569
▁los	-14570
▁görünümü	-14571
▁eman	-14572
▁md	-14573
▁düşüncenin	-14574
jung	-14575
▁içindeydi	-14576
▁chris	-14577
ky	-14578
dayet	-14579
yeşil	-14580
▁sema	-14581
▁prosed	-14582
▁işsizlik	-14583
▁ilkesi	-14584
▁aradı	-14585
fın	-14586
iden	-14587
ero	-14588
▁bakmaya	-14589
ngilizler	-14590
eceğimizi	-14591
ýk	-14592
▁egemenlik	-14593
melere	-14594
▁sili	-14595
▁şükran	-14596
▁akıntı	-14597
▁etmektir	-14598
▁tavrı	-14599
▁periyo	-14600
ileştir	-14601
▁neydi	-14602
▁düşmesi	-14603
▁havale	-14604
▁allahü	-14605
anam	-14606
▁bahane	-14607
▁gözüne	-14608
▁çıkararak	-14609
stantin	-14610
▁sanıyorum	-14611
▁çıkarıldı	-14612
ûlü	-14613
▁ceset	-14614
▁tamiri	-14615
▁ron	-14616
▁sinop	-14617
▁bitmiş	-14618
▁teması	-14619
▁madam	-14620
▁tesbit	-14621
▁param	-14622
▁ağaçlar	-14623
pal	-14624
▁okyanus	-14625
▁görülebil	-14626
▁alınca	-14627
▁ygs	-14628
▁çalan	-14629
▁dilekç	-14630
▁inandır	-14631
▁açacak	-14632
▁temizlen	-14633
▁tahir	-14634
▁parasını	-14635
▁yansım	-14636
▁sulama	-14637
▁mösyö	-14638
▁açıklık	-14639
▁yukar	-14640
anak	-14641
▁ucuna	-14642
▁karayol	-14643
▁1.5	-14644
▁hort	-14645
▁güzeli	-14646
▁görmüştü	-14647
▁istemiyordu	-14648
▁teyz	-14649
▁politikaları	-14650
▁koyuldu	-14651
▁semer	-14652
lallah	-14653
▁yapıları	-14654
▁başlangıc	-14655
▁değişiyor	-14656
▁erkan	-14657
▁yakalay	-14658
ahmet	-14659
▁toy	-14660
▁kolaydır	-14661
▁çankaya	-14662
▁müslümanlara	-14663
▁adap	-14664
▁eksi	-14665
▁görevden	-14666
▁çıkmasına	-14667
▁lenin	-14668
▁oranının	-14669
▁ulaşır	-14670
▁kıvılcım	-14671
▁sevgisi	-14672
uzel	-14673
▁kılıcı	-14674
▁butonuna	-14675
▁poşet	-14676
▁tahmini	-14677
▁kaçmak	-14678
▁dolaşan	-14679
zar	-14680
▁örüm	-14681
▁sorulara	-14682
izde	-14683
▁istersen	-14684
▁hükümetinin	-14685
taur	-14686
▁yapısına	-14687
▁şehircilik	-14688
▁öldürdü	-14689
▁aktaran	-14690
▁yaşlarında	-14691
âî	-14692
▁kupon	-14693
▁kahramanı	-14694
▁fiyatlarla	-14695
▁koyul	-14696
diğinizde	-14697
▁jet	-14698
▁1998	-14699
▁dağlar	-14700
▁ayaklan	-14701
▁benzersiz	-14702
▁one	-14703
▁mesajlar	-14704
▁tahammül	-14705
▁şifa	-14706
araba	-14707
▁cazip	-14708
▁branş	-14709
▁ibarettir	-14710
▁hayatlarını	-14711
▁olabilirler	-14712
▁onca	-14713
▁aranan	-14714
▁hamd	-14715
▁anıms	-14716
▁saatlerde	-14717
diğinin	-14718
▁yarımada	-14719
▁evlili	-14720
▁beklerken	-14721
▁üniversiteler	-14722
▁sgk	-14723
istanbul	-14724
▁fabrikası	-14725
▁secde	-14726
▁sınıfın	-14727
▁temelini	-14728
çilere	-14729
▁with	-14730
▁tanıdığı	-14731
▁rok	-14732
▁koştu	-14733
▁hatası	-14734
▁sokaklarda	-14735
▁çalışmalarda	-14736
▁öğretmenleri	-14737
eet	-14738
eng	-14739
▁gitme	-14740
▁yastık	-14741
▁görerek	-14742
▁jim	-14743
▁indirdi	-14744
▁olabilmektedir	-14745
▁ayına	-14746
▁hurma	-14747
▁büyüklüğü	-14748
▁projede	-14749
gusu	-14750
▁360	-14751
▁yakalamak	-14752
şeh	-14753
berr	-14754
osh	-14755
▁beg	-14756
▁almasını	-14757
şev	-14758
ciliği	-14759
▁dakikalık	-14760
▁andıran	-14761
▁uçurum	-14762
▁akı	-14763
▁diktatör	-14764
larımda	-14765
▁doğuştan	-14766
▁kiz	-14767
▁askere	-14768
▁tunç	-14769
▁onayı	-14770
▁universit	-14771
odal	-14772
▁atlat	-14773
otu	-14774
▁felsefenin	-14775
▁atıf	-14776
▁mantığı	-14777
▁olaydan	-14778
▁gönderme	-14779
▁isparta	-14780
▁köpük	-14781
oh	-14782
▁sandalye	-14783
▁çeşidi	-14784
▁geliri	-14785
kr	-14786
▁112	-14787
▁harbiye	-14788
▁hamle	-14789
▁chu	-14790
▁çalar	-14791
▁çi	-14792
▁tri	-14793
▁yılını	-14794
▁suna	-14795
nn	-14796
▁77	-14797
▁peri	-14798
▁tarama	-14799
▁yenileme	-14800
▁çinlilerin	-14801
▁kağ	-14802
▁ciddiye	-14803
▁yetkililer	-14804
▁faaliyetler	-14805
▁uygulamanın	-14806
eck	-14807
ida	-14808
▁yazdık	-14809
▁olmakta	-14810
▁doğar	-14811
ction	-14812
▁listesinde	-14813
▁oluşturulması	-14814
era	-14815
▁kompoz	-14816
▁dna	-14817
▁sky	-14818
şür	-14819
▁monte	-14820
mın	-14821
▁takılan	-14822
1⁄4	-14823
rich	-14824
▁ödü	-14825
kart	-14826
▁merkezde	-14827
vallah	-14828
▁şunlardır	-14829
▁gerçekleri	-14830
▁tükür	-14831
stedi	-14832
▁toplanmış	-14833
ilmemiş	-14834
▁teslimat	-14835
▁spa	-14836
▁ekranda	-14837
)'	-14838
gue	-14839
çekmece	-14840
▁organizasyonu	-14841
tabii	-14842
▁karaca	-14843
▁buluşma	-14844
▁tatbik	-14845
▁yolunun	-14846
▁sarık	-14847
larý	-14848
▁garson	-14849
mev	-14850
▁şeyle	-14851
▁eller	-14852
▁görmemiş	-14853
▁yaşaya	-14854
▁inç	-14855
oma	-14856
▁gözlerle	-14857
gec	-14858
▁vermekte	-14859
▁hû	-14860
▁batıya	-14861
▁noktadan	-14862
ifa	-14863
▁işlere	-14864
mamıza	-14865
▁5-	-14866
▁olmazdı	-14867
organ	-14868
▁yanlarına	-14869
▁iğn	-14870
▁karayolu	-14871
▁çabası	-14872
▁ahal	-14873
▁olayla	-14874
mene	-14875
▁atama	-14876
▁yatırımlar	-14877
▁pansiyon	-14878
▁yayınlan	-14879
2014	-14880
▁homurdan	-14881
▁satranç	-14882
▁yönündeki	-14883
▁takibi	-14884
▁toplamı	-14885
▁tarihî	-14886
bus	-14887
cistan	-14888
▁poly	-14889
fran	-14890
eyince	-14891
▁halid	-14892
▁uysal	-14893
▁burc	-14894
eleyen	-14895
▁astronom	-14896
▁şarkılar	-14897
▁uygulamayı	-14898
▁gelene	-14899
ağan	-14900
▁boğa	-14901
▁fedakâr	-14902
▁namazını	-14903
dız	-14904
▁çöküş	-14905
▁şükrü	-14906
▁yatakta	-14907
ozan	-14908
kırmızı	-14909
▁girerken	-14910
▁bira	-14911
▁öğün	-14912
▁tayf	-14913
▁sütün	-14914
▁maddesine	-14915
lish	-14916
▁göksel	-14917
▁itfaiye	-14918
▁sitesine	-14919
▁önerileri	-14920
▁kesip	-14921
▁olabilmek	-14922
▁yürüyerek	-14923
ilmeyen	-14924
▁yararı	-14925
▁karşılaşma	-14926
▁yağdır	-14927
▁kütüphane	-14928
indedir	-14929
▁aff	-14930
▁tanrısı	-14931
▁olduğunca	-14932
▁kısır	-14933
▁gidiyorum	-14934
▁kazası	-14935
keli	-14936
▁anlamış	-14937
▁oyuncuları	-14938
▁felâ	-14939
▁king	-14940
▁ifadeleri	-14941
▁belle	-14942
▁göt	-14943
▁alanların	-14944
▁esnada	-14945
▁gözüyle	-14946
odos	-14947
[...]
