<unk>	0
<s>	0
</s>	0
ar	-0
▁b	-1
er	-2
an	-3
in	-4
▁k	-5
en	-6
▁d	-7
ın	-8
▁s	-9
ir	-10
il	-11
▁y	-12
▁g	-13
al	-14
ak	-15
▁o	-16
lar	-17
▁t	-18
▁i	-19
▁v	-20
el	-21
ek	-22
▁h	-23
ma	-24
et	-25
la	-26
▁a	-27
un	-28
da	-29
de	-30
ler	-31
▁bir	-32
▁m	-33
or	-34
▁ve	-35
es	-36
iy	-37
im	-38
ır	-39
em	-40
▁ç	-41
iz	-42
ur	-43
at	-44
ik	-45
ed	-46
on	-47
ün	-48
ay	-49
▁ol	-50
ey	-51
as	-52
lı	-53
▁bu	-54
▁ya	-55
▁p	-56
dı	-57
ür	-58
▁ö	-59
is	-60
iş	-61
▁de	-62
am	-63
le	-64
ış	-65
aş	-66
▁f	-67
ıl	-68
▁da	-69
▁n	-70
▁ş	-71
dan	-72
du	-73
ul	-74
it	-75
▁gö	-76
▁al	-77
▁ka	-78
di	-79
ını	-80
ya	-81
um	-82
▁il	-83
ım	-84
ık	-85
li	-86
▁iç	-87
st	-88
ini	-89
üz	-90
▁ar	-91
ce	-92
ında	-93
ine	-94
ok	-95
ab	-96
den	-97
▁r	-98
ız	-99
ol	-100
▁e	-101
▁sa	-102
inde	-103
▁an	-104
lan	-105
ları	-106
▁z	-107
▁u	-108
yor	-109
az	-110
▁yap	-111
ük	-112
▁baş	-113
ti	-114
▁c	-115
▁1	-116
mas	-117
tı	-118
ların	-119
iler	-120
üm	-121
iyor	-122
ğı	-123
mak	-124
▁için	-125
esi	-126
▁kar	-127
dır	-128
ta	-129
leri	-130
▁gör	-131
eler	-132
▁et	-133
alar	-134
uş	-135
▁son	-136
ra	-137
ev	-138
ül	-139
ına	-140
ca	-141
▁bil	-142
▁gel	-143
üş	-144
inin	-145
▁ed	-146
▁2	-147
te	-148
unu	-149
ği	-150
oğ	-151
cak	-152
dir	-153
ah	-154
▁ay	-155
iye	-156
▁ger	-157
▁ver	-158
ıs	-159
▁“	-160
mış	-161
us	-162
uk	-163
▁ön	-164
lik	-165
▁on	-166
▁ile	-167
ut	-168
eç	-169
▁oldu	-170
ec	-171
▁in	-172
bil	-173
tir	-174
ib	-175
mek	-176
ön	-177
▁kon	-178
ha	-179
▁en	-180
lık	-181
▁(	-182
▁değ	-183
..	-184
▁tar	-185
uz	-186
miş	-187
edi	-188
ez	-189
tır	-190
tan	-191
larak	-192
ip	-193
▁kal	-194
▁ken	-195
öy	-196
af	-197
len	-198
man	-199
▁kad	-200
▁yer	-201
▁iş	-202
ından	-203
▁olarak	-204
▁kur	-205
▁her	-206
cı	-207
▁or	-208
▁ma	-209
üy	-210
▁çok	-211
▁olan	-212
▁ko	-213
ki	-214
se	-215
iniz	-216
ması	-217
laş	-218
ibi	-219
▁var	-220
▁el	-221
▁daha	-222
▁gün	-223
▁bul	-224
anı	-225
lay	-226
eş	-227
op	-228
▁tür	-229
lu	-230
lem	-231
eni	-232
ının	-233
▁ist	-234
▁bel	-235
▁olduğ	-236
eye	-237
▁gibi	-238
▁aç	-239
ağ	-240
san	-241
ro	-242
▁geç	-243
▁çık	-244
ası	-245
▁yar	-246
ih	-247
inden	-248
aki	-249
aman	-250
ıyor	-251
ken	-252
sa	-253
ka	-254
▁ak	-255
imiz	-256
▁sür	-257
▁ne	-258
▁öz	-259
▁kul	-260
▁uy	-261
eki	-262
me	-263
▁ben	-264
▁düş	-265
ap	-266
▁üz	-267
▁yan	-268
▁ama	-269
▁yıl	-270
üt	-271
▁"	-272
alı	-273
...	-274
ama	-275
yla	-276
▁doğ	-277
▁yaş	-278
isi	-279
▁hal	-280
▁dev	-281
▁bun	-282
iç	-283
▁par	-284
▁çal	-285
▁3	-286
▁kadar	-287
eden	-288
▁üzer	-289
▁sonra	-290
▁zaman	-291
ecek	-292
▁türk	-293
ru	-294
▁l	-295
daki	-296
▁dur	-297
os	-298
ili	-299
▁bak	-300
▁top	-301
ci	-302
▁büy	-303
▁tek	-304
ör	-305
▁kend	-306
▁karş	-307
maya	-308
▁kullan	-309
eri	-310
bilir	-311
üç	-312
▁çalış	-313
larını	-314
lü	-315
eb	-316
eh	-317
lerin	-318
▁kay	-319
ğr	-320
ğını	-321
▁gerek	-322
yon	-323
let	-324
öz	-325
uy	-326
▁bo	-327
tur	-328
eli	-329
▁şey	-330
▁mü	-331
▁say	-332
▁hay	-333
unda	-334
iyle	-335
▁es	-336
id	-337
▁gen	-338
▁sor	-339
▁ev	-340
▁ola	-341
aya	-342
▁yaz	-343
▁bulun	-344
▁ek	-345
ılı	-346
▁yön	-347
ece	-348
abil	-349
lam	-350
▁er	-351
met	-352
▁kap	-353
iyet	-354
ist	-355
▁der	-356
▁sağ	-357
▁dön	-358
lara	-359
▁20	-360
av	-361
leş	-362
ilen	-363
may	-364
ımız	-365
ep	-366
▁as	-367
arak	-368
ten	-369
ilm	-370
▁büyük	-371
▁uz	-372
ad	-373
▁hak	-374
▁biz	-375
gi	-376
ark	-377
▁pro	-378
asında	-379
dım	-380
▁değil	-381
ğini	-382
ılan	-383
▁yüz	-384
dığı	-385
▁taraf	-386
ıp	-387
▁yak	-388
men	-389
sel	-390
▁ki	-391
erek	-392
öl	-393
▁mu	-394
if	-395
yi	-396
▁kat	-397
▁oy	-398
▁san	-399
▁söy	-400
▁eğ	-401
lerini	-402
▁ad	-403
▁yeni	-404
bir	-405
nin	-406
▁har	-407
deki	-408
▁at	-409
▁den	-410
muş	-411
▁sah	-412
▁insan	-413
arı	-414
▁yol	-415
▁karşı	-416
dü	-417
▁4	-418
ot	-419
▁do	-420
edir	-421
▁şek	-422
cu	-423
imi	-424
▁siz	-425
▁sev	-426
▁gerç	-427
ede	-428
ran	-429
▁gir	-430
om	-431
ef	-432
▁yok	-433
malar	-434
▁göz	-435
▁bağ	-436
▁özel	-437
▁hem	-438
▁öğr	-439
ers	-440
▁ür	-441
▁uyg	-442
ada	-443
ic	-444
▁ok	-445
lama	-446
tu	-447
▁ise	-448
▁ü	-449
▁böl	-450
dür	-451
bul	-452
▁kiş	-453
▁mer	-454
▁söz	-455
▁düşün	-456
uyor	-457
▁hiç	-458
▁dün	-459
▁bur	-460
ter	-461
▁gerçek	-462
rı	-463
▁tem	-464
ğu	-465
eleri	-466
enin	-467
▁tak	-468
▁diye	-469
ladı	-470
ne	-471
▁mil	-472
▁öl	-473
kin	-474
▁ser	-475
▁di	-476
ısı	-477
▁tan	-478
▁belir	-479
ster	-480
▁göre	-481
00	-482
▁ce	-483
makta	-484
▁yük	-485
eyi	-486
▁5	-487
▁alt	-488
una	-489
nın	-490
▁ort	-491
tr	-492
tık	-493
▁düz	-494
öyle	-495
▁-	-496
▁kor	-497
▁ada	-498
der	-499
▁açık	-500
▁tarih	-501
lere	-502
▁olduğu	-503
▁su	-504
▁sır	-505
nı	-506
acak	-507
▁em	-508
elik	-509
sız	-510
▁19	-511
▁gü	-512
maz	-513
▁aş	-514
lah	-515
larda	-516
▁kan	-517
tür	-518
▁haz	-519
▁veya	-520
oc	-521
esinde	-522
▁başk	-523
▁yet	-524
si	-525
▁dedi	-526
▁göster	-527
▁has	-528
▁durum	-529
▁önem	-530
▁alan	-531
▁ağ	-532
ınız	-533
▁az	-534
▁ilk	-535
▁olduğunu	-536
▁çek	-537
▁iyi	-538
dur	-539
etir	-540
mesi	-541
aç	-542
▁fark	-543
▁duy	-544
▁ilg	-545
eyen	-546
▁edil	-547
▁sav	-548
tü	-549
lat	-550
▁tut	-551
larının	-552
▁iki	-553
lığı	-554
ütün	-555
▁getir	-556
ht	-557
▁ter	-558
tedir	-559
diği	-560
▁tarafından	-561
siniz	-562
sı	-563
▁şekil	-564
▁kö	-565
ğer	-566
▁hat	-567
▁kim	-568
▁değiş	-569
ram	-570
iv	-571
▁içinde	-572
siz	-573
fa	-574
▁dem	-575
▁türkiye	-576
▁201	-577
▁etti	-578
▁tüm	-579
anın	-580
larına	-581
eti	-582
up	-583
▁iz	-584
re	-585
tik	-586
atı	-587
aber	-588
▁bey	-589
.”	-590
unun	-591
▁kaz	-592
dık	-593
▁oluş	-594
iyordu	-595
art	-596
▁kıs	-597
esine	-598
est	-599
üs	-600
▁ban	-601
abilir	-602
▁bilg	-603
▁bütün	-604
ileri	-605
▁is	-606
ye	-607
▁taş	-608
▁av	-609
▁önce	-610
▁doğru	-611
▁aynı	-612
meye	-613
▁kendi	-614
▁seç	-615
han	-616
maktadır	-617
üyor	-618
▁bas	-619
▁neden	-620
▁sen	-621
▁mo	-622
ça	-623
▁bin	-624
usu	-625
▁ül	-626
esini	-627
▁kes	-628
daş	-629
▁dış	-630
ara	-631
▁öğren	-632
mektedir	-633
▁hiz	-634
▁olma	-635
sun	-636
etim	-637
dece	-638
▁olur	-639
▁zor	-640
▁ör	-641
lardan	-642
kü	-643
aret	-644
▁yay	-645
▁sal	-646
▁şekilde	-647
▁baz	-648
▁ab	-649
lerine	-650
▁güz	-651
▁üst	-652
▁hizmet	-653
▁mes	-654
liği	-655
▁birlik	-656
▁ancak	-657
ocuk	-658
alık	-659
▁w	-660
ret	-661
tar	-662
▁bek	-663
lerinin	-664
▁onun	-665
iyorum	-666
▁diğer	-667
▁hakk	-668
aları	-669
ındaki	-670
ven	-671
ayan	-672
ıla	-673
▁şu	-674
na	-675
▁faz	-676
▁kurul	-677
▁j	-678
▁kız	-679
▁arasında	-680
▁böyle	-681
▁genel	-682
▁konuş	-683
▁6	-684
▁nas	-685
lığ	-686
▁değer	-687
▁devam	-688
▁devlet	-689
dik	-690
▁han	-691
ri	-692
▁çocuk	-693
ünde	-694
▁geliş	-695
ımı	-696
ıldı	-697
ünü	-698
uv	-699
▁güzel	-700
▁çıkar	-701
▁sonu	-702
lerde	-703
▁git	-704
▁gelen	-705
ayı	-706
raf	-707
▁tab	-708
▁eğit	-709
▁boy	-710
olo	-711
▁görün	-712
larında	-713
ğin	-714
▁önemli	-715
▁fak	-716
▁kit	-717
üne	-718
▁ülk	-719
▁sahip	-720
▁mal	-721
▁fazla	-722
▁ün	-723
ılmış	-724
aca	-725
▁ede	-726
▁hayat	-727
iyat	-728
▁kr	-729
asyon	-730
hal	-731
▁başka	-732
bu	-733
▁ot	-734
ac	-735
ans	-736
▁tes	-737
ıy	-738
çe	-739
▁dav	-740
leştir	-741
dar	-742
ilik	-743
ledi	-744
alan	-745
▁dik	-746
▁im	-747
mem	-748
▁ilgili	-749
stan	-750
▁hazır	-751
▁dil	-752
▁bile	-753
tığı	-754
larla	-755
▁adam	-756
üp	-757
▁eş	-758
▁alın	-759
▁düzen	-760
unuz	-761
▁mi	-762
ber	-763
sek	-764
▁nasıl	-765
▁hav	-766
▁birlikte	-767
▁şeh	-768
▁sat	-769
▁am	-770
kez	-771
▁bunun	-772
▁can	-773
likle	-774
▁kadın	-775
ırak	-776
▁savaş	-777
istem	-778
lendir	-779
▁gön	-780
eket	-781
▁ayrı	-782
▁konu	-783
▁sadece	-784
▁yat	-785
luk	-786
▁7	-787
▁so	-788
▁onu	-789
▁çev	-790
miştir	-791
diğ	-792
ley	-793
▁bırak	-794
▁dönem	-795
▁bah	-796
▁yardım	-797
kı	-798
▁din	-799
▁sistem	-800
oloj	-801
▁tel	-802
▁etk	-803
▁arka	-804
▁üç	-805
▁merkez	-806
ıcı	-807
▁kom	-808
▁sık	-809
▁güç	-810
▁olmak	-811
▁önc	-812
▁bölg	-813
gün	-814
del	-815
▁güven	-816
▁saat	-817
ilerin	-818
mi	-819
stanbul	-820
bet	-821
▁eden	-822
ebilir	-823
dığını	-824
▁man	-825
rup	-826
▁mut	-827
▁üzerine	-828
dığ	-829
mıştı	-830
▁eğitim	-831
▁benim	-832
▁gid	-833
▁bazı	-834
▁te	-835
▁kaç	-836
▁kazan	-837
▁mak	-838
▁yür	-839
▁karar	-840
malı	-841
mayı	-842
▁içer	-843
masını	-844
▁farklı	-845
olu	-846
lerinde	-847
▁haf	-848
▁eder	-849
▁oyun	-850
▁hep	-851
▁ah	-852
▁sı	-853
▁ulaş	-854
lak	-855
sin	-856
kan	-857
yal	-858
▁kır	-859
▁bit	-860
bn	-861
▁şim	-862
▁kendis	-863
▁uzun	-864
▁olacak	-865
▁sar	-866
▁iliş	-867
gu	-868
▁mad	-869
▁görev	-870
▁sit	-871
20	-872
laya	-873
▁ik	-874
cel	-875
▁dünya	-876
▁8	-877
ulu	-878
cek	-879
▁ses	-880
▁kam	-881
ğü	-882
▁biri	-883
ünkü	-884
nun	-885
▁kav	-886
ildi	-887
▁tama	-888
ika	-889
▁yüksek	-890
▁res	-891
▁küç	-892
kat	-893
▁‘	-894
▁hareket	-895
lerden	-896
rak	-897
ılır	-898
mez	-899
▁#	-900
▁tekn	-901
."	-902
▁10	-903
▁yapılan	-904
por	-905
ide	-906
mıştır	-907
cü	-908
▁gaz	-909
▁tah	-910
▁tam	-911
▁çünkü	-912
▁met	-913
▁uygu	-914
▁iht	-915
sal	-916
liğ	-917
▁ürün	-918
▁hiçbir	-919
oz	-920
med	-921
▁allah	-922
▁bunu	-923
masına	-924
duğu	-925
▁rah	-926
▁yem	-927
eğ	-928
▁sek	-929
dim	-930
larından	-931
▁haber	-932
müş	-933
mayan	-934
▁li	-935
▁tas	-936
lerinden	-937
lâ	-938
esinin	-939
▁anlam	-940
▁olduk	-941
▁hük	-942
▁la	-943
▁yal	-944
ağı	-945
▁bulunan	-946
indeki	-947
layan	-948
▁koy	-949
▁üzerinde	-950
▁ona	-951
▁bölüm	-952
▁mah	-953
▁geçir	-954
▁düny	-955
▁bar	-956
gil	-957
▁fakat	-958
rar	-959
▁öy	-960
ebil	-961
gel	-962
mişti	-963
ren	-964
▁yine	-965
▁arkadaş	-966
▁halk	-967
siy	-968
lum	-969
▁kabul	-970
gram	-971
▁ey	-972
▁küçük	-973
elim	-974
lük	-975
van	-976
lerle	-977
ıt	-978
▁bab	-979
▁görüş	-980
tör	-981
lardı	-982
▁olay	-983
ban	-984
▁sun	-985
▁ber	-986
▁artık	-987
▁kas	-988
▁tur	-989
ulan	-990
▁belirt	-991
▁dok	-992
tal	-993
eceğ	-994
ver	-995
bar	-996
eg	-997
lo	-998
▁bana	-999
▁9	-1000
▁mev	-1001
▁üzere	-1002
dem	-1003
▁pol	-1004
▁gönder	-1005
âr	-1006
▁olması	-1007
hur	-1008
▁siy	-1009
ılması	-1010
▁mar	-1011
▁hız	-1012
▁hemen	-1013
▁mek	-1014
orm	-1015
emiz	-1016
▁dikkat	-1017
▁bay	-1018
▁hakkında	-1019
▁muh	-1020
net	-1021
▁yani	-1022
▁genç	-1023
▁teş	-1024
▁fa	-1025
▁eski	-1026
▁etmek	-1027
asına	-1028
uma	-1029
▁ask	-1030
▁ortaya	-1031
çi	-1032
ni	-1033
suz	-1034
▁sab	-1035
iyoruz	-1036
▁yas	-1037
za	-1038
▁yönet	-1039
▁pek	-1040
▁yaşam	-1041
▁seb	-1042
▁'	-1043
▁uygun	-1044
gı	-1045
gan	-1046
▁sos	-1047
tım	-1048
▁orta	-1049
▁oğ	-1050
▁os	-1051
gin	-1052
▁kork	-1053
usunda	-1054
▁kol	-1055
ilmesi	-1056
▁işlem	-1057
▁cum	-1058
çok	-1059
▁beled	-1060
ıyordu	-1061
larımız	-1062
elerin	-1063
▁ren	-1064
▁ayr	-1065
be	-1066
▁yor	-1067
manın	-1068
▁sak	-1069
▁ro	-1070
▁başkanı	-1071
▁olmuş	-1072
▁art	-1073
▁program	-1074
▁şimdi	-1075
▁oluştur	-1076
edik	-1077
▁bilin	-1078
▁mem	-1079
baş	-1080
▁mey	-1081
▁his	-1082
▁proj	-1083
▁başladı	-1084
isinde	-1085
▁diy	-1086
▁fir	-1087
▁kayn	-1088
▁yakın	-1089
▁cev	-1090
ket	-1091
▁15	-1092
çı	-1093
ivers	-1094
ân	-1095
▁dolay	-1096
▁üy	-1097
▁otur	-1098
▁mı	-1099
▁ho	-1100
yan	-1101
iversit	-1102
▁yaklaş	-1103
yı	-1104
▁,	-1105
ge	-1106
▁burada	-1107
kes	-1108
mam	-1109
lamak	-1110
maları	-1111
madan	-1112
▁nok	-1113
▁tal	-1114
▁kül	-1115
acı	-1116
duğ	-1117
ince	-1118
▁başkan	-1119
▁vardı	-1120
▁ul	-1121
▁*	-1122
▁gül	-1123
ing	-1124
sik	-1125
▁erk	-1126
),	-1127
par	-1128
▁yerine	-1129
he	-1130
▁vardır	-1131
▁çöz	-1132
▁kolay	-1133
▁hüküm	-1134
▁ihtiy	-1135
▁geri	-1136
▁dest	-1137
▁geldi	-1138
▁mas	-1139
▁toplum	-1140
▁üniversit	-1141
▁200	-1142
▁ifa	-1143
lantı	-1144
▁anlat	-1145
sam	-1146
nız	-1147
lanan	-1148
det	-1149
▁hast	-1150
▁benz	-1151
sen	-1152
▁kişi	-1153
lıyor	-1154
ümüz	-1155
▁osman	-1156
▁inan	-1157
▁etm	-1158
▁ef	-1159
eme	-1160
▁çeş	-1161
▁–	-1162
ilir	-1163
▁pay	-1164
▁destek	-1165
▁biraz	-1166
▁sil	-1167
▁başar	-1168
▁fır	-1169
/1	-1170
▁hâ	-1171
tim	-1172
istan	-1173
işim	-1174
▁çağ	-1175
▁ayrıca	-1176
▁ifade	-1177
▁eğer	-1178
▁çar	-1179
▁sorun	-1180
min	-1181
▁sonr	-1182
▁deniz	-1183
▁rahat	-1184
▁ail	-1185
▁bilgi	-1186
▁birbir	-1187
▁çin	-1188
▁tat	-1189
▁yen	-1190
▁müdür	-1191
aba	-1192
▁film	-1193
ig	-1194
▁tamam	-1195
▁ziy	-1196
▁sosyal	-1197
▁per	-1198
aşa	-1199
undan	-1200
▁sonuç	-1201
▁plan	-1202
▁12	-1203
▁gelir	-1204
▁anlaş	-1205
▁bizim	-1206
▁birçok	-1207
▁uzak	-1208
▁le	-1209
asını	-1210
aştır	-1211
üc	-1212
▁sey	-1213
▁bugün	-1214
inizi	-1215
▁cumhur	-1216
-1	-1217
▁beni	-1218
▁yalnız	-1219
▁şir	-1220
▁â	-1221
▁oda	-1222
▁istedi	-1223
tığ	-1224
▁pey	-1225
▁vur	-1226
ınır	-1227
umuz	-1228
ekli	-1229
▁:	-1230
ov	-1231
▁tav	-1232
▁yayın	-1233
?”	-1234
sın	-1235
▁sağlık	-1236
▁ner	-1237
▁ard	-1238
).	-1239
▁yarat	-1240
cağ	-1241
▁millet	-1242
▁[	-1243
bi	-1244
▁tanı	-1245
leme	-1246
oğlu	-1247
kün	-1248
▁18	-1249
▁görül	-1250
▁kitap	-1251
unca	-1252
▁olabilir	-1253
▁araştır	-1254
din	-1255
res	-1256
▁kurum	-1257
▁sur	-1258
▁özellikle	-1259
tif	-1260
uh	-1261
▁boz	-1262
lemek	-1263
lenen	-1264
ort	-1265
su	-1266
▁yılında	-1267
dın	-1268
▁kez	-1269
ışı	-1270
▁yağ	-1271
▁kah	-1272
ayet	-1273
▁herkes	-1274
gam	-1275
▁koş	-1276
▁altında	-1277
meler	-1278
▁gerçekleştir	-1279
amaz	-1280
▁istem	-1281
onom	-1282
ğa	-1283
▁tasar	-1284
▁olsun	-1285
▁dir	-1286
ünün	-1287
lerimiz	-1288
▁hes	-1289
▁kil	-1290
▁biç	-1291
▁müş	-1292
▁öyle	-1293
▁yanı	-1294
uluk	-1295
dum	-1296
▁üret	-1297
▁beş	-1298
deş	-1299
▁diz	-1300
▁ediyor	-1301
▁çeşit	-1302
vet	-1303
▁ac	-1304
dak	-1305
▁ağır	-1306
bol	-1307
eği	-1308
▁sul	-1309
▁boş	-1310
lim	-1311
tin	-1312
urt	-1313
▁uç	-1314
per	-1315
▁kültür	-1316
▁tekrar	-1317
▁ch	-1318
og	-1319
▁müz	-1320
▁kı	-1321
▁anla	-1322
sil	-1323
ırım	-1324
.1	-1325
▁öğrenc	-1326
▁fiyat	-1327
▁bağlı	-1328
leyen	-1329
▁kir	-1330
ch	-1331
▁geçen	-1332
▁bakan	-1333
vi	-1334
▁ulus	-1335
imde	-1336
tiği	-1337
▁0	-1338
teş	-1339
iydi	-1340
medi	-1341
▁ayak	-1342
▁sok	-1343
▁adı	-1344
▁ora	-1345
abilirsiniz	-1346
diler	-1347
ünden	-1348
▁telef	-1349
▁11	-1350
▁aşağı	-1351
ğimiz	-1352
▁dol	-1353
▁avrup	-1354
▁olup	-1355
▁vak	-1356
▁erkek	-1357
âm	-1358
▁asker	-1359
▁paz	-1360
▁çoğ	-1361
aj	-1362
▁sınır	-1363
siyon	-1364
kara	-1365
▁kut	-1366
▁süre	-1367
eyh	-1368
edim	-1369
▁kaldır	-1370
kinci	-1371
▁kaynak	-1372
▁kısa	-1373
▁müm	-1374
▁dö	-1375
iyi	-1376
uyu	-1377
▁sel	-1378
doğ	-1379
ba	-1380
▁men	-1381
▁edilen	-1382
▁günü	-1383
ilmiş	-1384
▁başla	-1385
▁telefon	-1386
ıntı	-1387
▁müs	-1388
nek	-1389
▁bilim	-1390
▁temel	-1391
▁köy	-1392
gamber	-1393
▁gi	-1394
▁ardından	-1395
▁dair	-1396
asının	-1397
atan	-1398
▁13	-1399
▁buna	-1400
▁söyledi	-1401
▁terc	-1402
ilere	-1403
laştır	-1404
▁sultan	-1405
▁size	-1406
▁konusunda	-1407
ınıf	-1408
▁du	-1409
▁oyn	-1410
ğim	-1411
ali	-1412
▁sanat	-1413
üf	-1414
▁dönüş	-1415
eceği	-1416
▁siyas	-1417
▁öldür	-1418
!”	-1419
▁kuş	-1420
▁bor	-1421
▁peygamber	-1422
▁değildir	-1423
▁ku	-1424
▁zar	-1425
▁abd	-1426
▁öğret	-1427
▁hiss	-1428
ydı	-1429
▁kontr	-1430
ılacak	-1431
▁med	-1432
▁dah	-1433
sunuz	-1434
kaç	-1435
▁dör	-1436
▁ölüm	-1437
▁madde	-1438
....	-1439
▁ir	-1440
▁para	-1441
▁araç	-1442
uru	-1443
düğ	-1444
▁yönetim	-1445
▁yeniden	-1446
edef	-1447
▁yav	-1448
▁ekonom	-1449
▁paşa	-1450
▁iti	-1451
ıyorum	-1452
▁ilişk	-1453
▁avrupa	-1454
▁değerlendir	-1455
▁mec	-1456
▁meydan	-1457
abı	-1458
▁14	-1459
▁kalk	-1460
▁id	-1461
ade	-1462
▁ordu	-1463
▁sin	-1464
▁kardeş	-1465
oğraf	-1466
▁bildir	-1467
▁hey	-1468
▁şöyle	-1469
ici	-1470
▁verdi	-1471
ınca	-1472
▁kesin	-1473
▁zamanda	-1474
ime	-1475
▁um	-1476
oy	-1477
larıyla	-1478
▁ait	-1479
duk	-1480
▁aleyh	-1481
▁yaptığı	-1482
ve	-1483
▁isim	-1484
▁mümkün	-1485
ngil	-1486
▁yapan	-1487
ızı	-1488
▁çevr	-1489
ehir	-1490
nde	-1491
▁okul	-1492
▁hedef	-1493
▁sınıf	-1494
tem	-1495
meden	-1496
▁16	-1497
▁kontrol	-1498
▁şah	-1499
▁şehir	-1500
▁spor	-1501
▁geniş	-1502
sanız	-1503
▁aras	-1504
▁paylaş	-1505
▁dal	-1506
landır	-1507
aların	-1508
isini	-1509
▁kem	-1510
▁davran	-1511
▁karış	-1512
▁cin	-1513
▁şirket	-1514
üman	-1515
▁üc	-1516
leriyle	-1517
gın	-1518
▁ölç	-1519
▁renk	-1520
▁soru	-1521
▁demek	-1522
▁müca	-1523
▁osmanlı	-1524
▁fran	-1525
▁kaf	-1526
▁gez	-1527
▁oluyor	-1528
▁birkaç	-1529
lardır	-1530
▁po	-1531
▁ankara	-1532
▁temiz	-1533
adan	-1534
▁tabi	-1535
zı	-1536
pan	-1537
▁beraber	-1538
▁saç	-1539
▁tep	-1540
▁parç	-1541
▁%	-1542
▁dayan	-1543
▁indir	-1544
▁gazet	-1545
ke	-1546
▁pat	-1547
▁engel	-1548
▁başv	-1549
▁değişik	-1550
▁st	-1551
▁onlar	-1552
▁geliştir	-1553
▁hun	-1554
▁incel	-1555
▁cam	-1556
▁unu	-1557
▁olmayan	-1558
▁re	-1559
ısında	-1560
▁|	-1561
▁devr	-1562
▁milyon	-1563
▁ruh	-1564
▁teh	-1565
▁değiştir	-1566
▁ana	-1567
esinden	-1568
acağ	-1569
▁dar	-1570
▁tarihi	-1571
▁_	-1572
▁gece	-1573
▁pr	-1574
cağını	-1575
ıda	-1576
▁kendiler	-1577
▁belki	-1578
alım	-1579
▁asl	-1580
▁saldır	-1581
mı	-1582
▁suç	-1583
▁rek	-1584
▁ço	-1585
▁çalışmalar	-1586
▁(1	-1587
▁hatta	-1588
▁yüksel	-1589
▁kendini	-1590
alt	-1591
▁ziyaret	-1592
▁prof	-1593
▁dak	-1594
▁meh	-1595
▁oldukça	-1596
izm	-1597
▁yaşan	-1598
ola	-1599
▁17	-1600
▁merkezi	-1601
201	-1602
▁kalit	-1603
▁yaptı	-1604
▁dr	-1605
▁kuv	-1606
bilirsiniz	-1607
▁mücadel	-1608
▁gec	-1609
▁lis	-1610
▁rus	-1611
▁bize	-1612
▁ann	-1613
▁fik	-1614
nsan	-1615
▁özg	-1616
cağı	-1617
ator	-1618
▁fot	-1619
meyi	-1620
▁hatır	-1621
▁içerisinde	-1622
▁mis	-1623
hangi	-1624
▁gereken	-1625
▁cevap	-1626
bak	-1627
ekk	-1628
▁tic	-1629
▁giz	-1630
▁yapmak	-1631
▁tanrı	-1632
▁yüzde	-1633
▁yanında	-1634
▁alış	-1635
▁kıy	-1636
▁mik	-1637
▁af	-1638
isinin	-1639
▁konusu	-1640
lk	-1641
âh	-1642
umu	-1643
iyeti	-1644
erli	-1645
▁uğr	-1646
▁tercih	-1647
▁olsa	-1648
▁dan	-1649
lek	-1650
erj	-1651
ğiniz	-1652
▁bunlar	-1653
▁tük	-1654
▁zat	-1655
▁ham	-1656
▁yemek	-1657
▁un	-1658
▁gal	-1659
/2	-1660
▁model	-1661
▁sizin	-1662
▁grup	-1663
ho	-1664
▁gerekir	-1665
▁veren	-1666
▁vatan	-1667
▁des	-1668
elerini	-1669
yet	-1670
▁pazar	-1671
umlu	-1672
50	-1673
▁oku	-1674
arası	-1675
pr	-1676
▁rağ	-1677
▁elde	-1678
▁düşünc	-1679
eyin	-1680
tor	-1681
▁ta	-1682
elere	-1683
▁/	-1684
▁alman	-1685
▁giriş	-1686
▁nef	-1687
muz	-1688
▁bi	-1689
▁onların	-1690
▁bes	-1691
▁örg	-1692
eyim	-1693
▁kür	-1694
▁yapıl	-1695
▁herhangi	-1696
▁nokt	-1697
▁kapsam	-1698
▁çiz	-1699
unuyor	-1700
▁tr	-1701
▁ih	-1702
ize	-1703
▁don	-1704
▁serv	-1705
▁kötü	-1706
şa	-1707
▁ker	-1708
▁çalışan	-1709
▁ali	-1710
▁bal	-1711
com	-1712
▁gider	-1713
elen	-1714
,”	-1715
efer	-1716
▁sonunda	-1717
▁30	-1718
iştir	-1719
▁ip	-1720
▁nit	-1721
▁cen	-1722
▁dost	-1723
▁adet	-1724
▁giy	-1725
▁ücret	-1726
▁faal	-1727
▁mez	-1728
▁teknoloj	-1729
inci	-1730
masının	-1731
▁hafta	-1732
▁çıkan	-1733
▁dört	-1734
nda	-1735
şam	-1736
▁itibar	-1737
▁fil	-1738
ğın	-1739
▁ister	-1740
alet	-1741
▁rağmen	-1742
▁kara	-1743
?"	-1744
uvar	-1745
▁kurt	-1746
▁hoş	-1747
tiler	-1748
parator	-1749
ecektir	-1750
▁özellik	-1751
▁seçim	-1752
▁sol	-1753
▁aldı	-1754
âz	-1755
ser	-1756
▁bundan	-1757
▁yık	-1758
ari	-1759
▁kendisine	-1760
ent	-1761
▁takım	-1762
end	-1763
▁çalışma	-1764
▁bakım	-1765
eceğini	-1766
30	-1767
▁aslında	-1768
▁yapı	-1769
▁hava	-1770
▁elek	-1771
ılıyor	-1772
▁of	-1773
▁yoğ	-1774
▁ark	-1775
▁onları	-1776
▁adım	-1777
issel	-1778
can	-1779
▁çıktı	-1780
▁etkin	-1781
malıdır	-1782
▁gök	-1783
▁fay	-1784
▁derece	-1785
▁ateş	-1786
▁iler	-1787
▁yolu	-1788
lüğ	-1789
▁toprak	-1790
▁sektör	-1791
▁yere	-1792
kil	-1793
anıyor	-1794
mer	-1795
tiğini	-1796
lis	-1797
▁gem	-1798
ant	-1799
▁yorum	-1800
▁yaşa	-1801
of	-1802
▁1.	-1803
mesini	-1804
▁yöntem	-1805
▁ders	-1806
landı	-1807
▁anda	-1808
▁düşman	-1809
2,	-1810
▁aleyhissel	-1811
sınız	-1812
ben	-1813
▁gar	-1814
▁ortak	-1815
▁yarar	-1816
▁dışında	-1817
▁ilet	-1818
las	-1819
▁tl	-1820
▁gerçekten	-1821
▁ikinci	-1822
fer	-1823
▁senin	-1824
▁çözüm	-1825
▁takip	-1826
ternet	-1827
▁belli	-1828
▁eser	-1829
▁yerde	-1830
▁bat	-1831
▁yuk	-1832
▁«	-1833
▁müsl	-1834
lüğü	-1835
izi	-1836
sat	-1837
▁yaban	-1838
▁unut	-1839
▁kims	-1840
▁belediye	-1841
▁orada	-1842
▁şekl	-1843
▁faaliyet	-1844
▁iy	-1845
▁aydın	-1846
000	-1847
▁ap	-1848
yo	-1849
▁yapar	-1850
▁yum	-1851
itik	-1852
▁zaten	-1853
alarda	-1854
▁böylece	-1855
▁veril	-1856
▁silah	-1857
▁amaç	-1858
elerde	-1859
meyen	-1860
▁almak	-1861
▁teknik	-1862
ast	-1863
▁toplantı	-1864
▁x	-1865
▁oran	-1866
▁boyunca	-1867
▁taşı	-1868
▁halde	-1869
rik	-1870
▁kuvvet	-1871
mayacak	-1872
▁sabah	-1873
▁üzerinden	-1874
▁maç	-1875
esiyle	-1876
▁götür	-1877
▁söylem	-1878
▁organ	-1879
▁sebep	-1880
▁karşılaş	-1881
madı	-1882
▁hik	-1883
▁hayvan	-1884
▁ele	-1885
ala	-1886
▁teda	-1887
▁öde	-1888
▁çeşitli	-1889
▁ara	-1890
▁mus	-1891
▁zorunda	-1892
▁doğr	-1893
lış	-1894
▁müslüman	-1895
▁türlü	-1896
rah	-1897
▁çocu	-1898
alama	-1899
▁mahk	-1900
▁dolayı	-1901
▁enerj	-1902
leye	-1903
▁fel	-1904
▁mesel	-1905
1,	-1906
▁akıl	-1907
▁sıra	-1908
üb	-1909
imizin	-1910
▁fotoğraf	-1911
▁24	-1912
▁gerekli	-1913
▁doğal	-1914
luluk	-1915
▁kab	-1916
▁—	-1917
kır	-1918
ısından	-1919
▁##	-1920
▁sem	-1921
▁amer	-1922
lığını	-1923
ülü	-1924
okr	-1925
▁şart	-1926
▁part	-1927
▁idi	-1928
şte	-1929
luğu	-1930
▁kalan	-1931
onu	-1932
▁olabil	-1933
ift	-1934
▁val	-1935
▁ıs	-1936
▁geçmiş	-1937
▁belediy	-1938
▁elektr	-1939
▁öner	-1940
▁şeyi	-1941
5,	-1942
▁uzman	-1943
▁örnek	-1944
▁ettiği	-1945
üst	-1946
lanmış	-1947
3,	-1948
8,	-1949
▁güneş	-1950
isine	-1951
▁durumda	-1952
▁soy	-1953
fi	-1954
1.	-1955
düğü	-1956
sak	-1957
▁acı	-1958
▁ederek	-1959
▁soğ	-1960
emez	-1961
dî	-1962
ku	-1963
▁üniversitesi	-1964
▁sürdür	-1965
imizi	-1966
▁del	-1967
od	-1968
mel	-1969
menin	-1970
](	-1971
▁kurulu	-1972
▁edin	-1973
for	-1974
▁piy	-1975
gen	-1976
ıyla	-1977
luğ	-1978
▁mark	-1979
▁zen	-1980
irler	-1981
▁sürekli	-1982
▁kelim	-1983
▁temsil	-1984
gun	-1985
▁hastan	-1986
▁ha	-1987
ışık	-1988
▁cih	-1989
▁insanlar	-1990
▁kuz	-1991
7,	-1992
▁num	-1993
▁vaz	-1994
▁hesap	-1995
▁oto	-1996
▁amacı	-1997
▁tanım	-1998
▁sez	-1999
ima	-2000
9,	-2001
▁hızlı	-2002
▁belg	-2003
bat	-2004
cer	-2005
ıyoruz	-2006
▁parti	-2007
afa	-2008
ukuk	-2009
ırken	-2010
dıkları	-2011
ira	-2012
yıl	-2013
br	-2014
üsü	-2015
▁kapı	-2016
ısıyla	-2017
▁satış	-2018
taş	-2019
▁sana	-2020
unan	-2021
lin	-2022
▁nak	-2023
▁sıcak	-2024
uştur	-2025
▁anad	-2026
▁başına	-2027
▁sahibi	-2028
▁2.	-2029
▁sam	-2030
▁yüzden	-2031
2.	-2032
▁sayf	-2033
layacak	-2034
▁buy	-2035
▁.	-2036
▁iddi	-2037
▁>	-2038
▁arab	-2039
dük	-2040
▁gelecek	-2041
▁for	-2042
ekkür	-2043
▁ihtiyaç	-2044
▁yardımcı	-2045
▁hangi	-2046
▁edecek	-2047
kın	-2048
6,	-2049
4,	-2050
▁geçti	-2051
,"	-2052
▁beyaz	-2053
▁şaş	-2054
cut	-2055
▁tart	-2056
▁şeyler	-2057
ale	-2058
her	-2059
▁yazı	-2060
▁**	-2061
▁uygulan	-2062
▁it	-2063
bur	-2064
dr	-2065
▁yukarı	-2066
ılım	-2067
mesine	-2068
▁bilgiler	-2069
eder	-2070
sta	-2071
▁2018	-2072
▁beb	-2073
alarında	-2074
fet	-2075
▁üretim	-2076
isyon	-2077
▁gerçekleş	-2078
manız	-2079
▁istiyor	-2080
ga	-2081
imize	-2082
▁mahal	-2083
▁canlı	-2084
lıkla	-2085
▁onlara	-2086
▁cez	-2087
▁25	-2088
▁yoktur	-2089
ia	-2090
▁çevir	-2091
▁may	-2092
▁arasındaki	-2093
▁ileri	-2094
▁yönelik	-2095
▁hukuk	-2096
▁dağ	-2097
▁güçlü	-2098
▁mağ	-2099
▁altın	-2100
arlar	-2101
inc	-2102
teki	-2103
eci	-2104
▁\	-2105
elerinin	-2106
▁nedeniyle	-2107
▁bunların	-2108
▁yoğun	-2109
▁olmaz	-2110
▁nerede	-2111
▁yurt	-2112
tay	-2113
▁etmiş	-2114
ngiliz	-2115
▁örne	-2116
▁şi	-2117
▁milli	-2118
lerdir	-2119
uyordu	-2120
lerdi	-2121
▁halinde	-2122
▁mevcut	-2123
▁diyor	-2124
▁yatırım	-2125
▁anadolu	-2126
matik	-2127
▁derin	-2128
▁cid	-2129
▁edilm	-2130
fak	-2131
▁yanlış	-2132
▁yabancı	-2133
türk	-2134
▁ortam	-2135
do	-2136
▁vatandaş	-2137
▁akşam	-2138
üncü	-2139
▁demir	-2140
inize	-2141
▁det	-2142
▁must	-2143
mir	-2144
▁kayıt	-2145
ati	-2146
▁min	-2147
▁kral	-2148
ğında	-2149
tiv	-2150
lül	-2151
▁zarar	-2152
▁meydana	-2153
eştir	-2154
▁sefer	-2155
▁sig	-2156
▁ilç	-2157
▁ilişkin	-2158
mekte	-2159
▁boğ	-2160
▁fen	-2161
hu	-2162
▁çarp	-2163
meli	-2164
▁gru	-2165
larım	-2166
▁çift	-2167
doğan	-2168
▁verilen	-2169
▁nes	-2170
▁çat	-2171
▁dünyanın	-2172
▁fet	-2173
▁tu	-2174
▁toplam	-2175
▁içine	-2176
mey	-2177
▁tartış	-2178
say	-2179
alarını	-2180
▁199	-2181
▁dağı	-2182
▁kuruluş	-2183
▁kendisi	-2184
enek	-2185
▁...	-2186
▁uluslar	-2187
hak	-2188
bo	-2189
▁net	-2190
laması	-2191
▁karak	-2192
▁rak	-2193
▁bayan	-2194
bel	-2195
▁malz	-2196
▁başarı	-2197
▁bulunduğu	-2198
taj	-2199
imin	-2200
iğ	-2201
▁isteyen	-2202
**	-2203
▁yavaş	-2204
masında	-2205
▁arz	-2206
▁batı	-2207
meleri	-2208
▁\-	-2209
▁fin	-2210
▁rap	-2211
▁özgür	-2212
▁str	-2213
▁örgüt	-2214
rin	-2215
yar	-2216
▁hayır	-2217
▁hır	-2218
▁mustafa	-2219
▁pen	-2220
▁sına	-2221
layarak	-2222
▁hen	-2223
▁doktor	-2224
▁arada	-2225
▁öğretmen	-2226
▁kamu	-2227
▁pren	-2228
▁tamamen	-2229
▁hale	-2230
▁otel	-2231
ıldığı	-2232
alara	-2233
▁teşekkür	-2234
▁tık	-2235
▁yaklaşık	-2236
▁kuru	-2237
eniz	-2238
miyor	-2239
10	-2240
allah	-2241
▁sayesinde	-2242
▁vide	-2243
▁fer	-2244
lığın	-2245
▁kimse	-2246
3.	-2247
▁geliyor	-2248
-2	-2249
▁şark	-2250
▁ii	-2251
▁kok	-2252
▁kendisini	-2253
▁huz	-2254
▁sırasında	-2255
anlar	-2256
▁insanların	-2257
ana	-2258
üyle	-2259
▁aleyhisselâm	-2260
▁kılı	-2261
▁pu	-2262
▁düşünüyor	-2263
▁sırada	-2264
▁the	-2265
▁aday	-2266
işti	-2267
▁adına	-2268
lamaya	-2269
ısını	-2270
mparator	-2271
tesi	-2272
▁güvenlik	-2273
tıyor	-2274
▁tay	-2275
▁se	-2276
▁bizi	-2277
mamış	-2278
pit	-2279
lilik	-2280
▁and	-2281
▁verir	-2282
işah	-2283
▁sınav	-2284
bay	-2285
▁kişinin	-2286
evi	-2287
diğini	-2288
▁polis	-2289
▁önünde	-2290
▁bağım	-2291
▁doğu	-2292
amak	-2293
▁vermek	-2294
kar	-2295
▁konuda	-2296
▁yarış	-2297
▁çab	-2298
▁mehmet	-2299
▁ez	-2300
cısı	-2301
iliği	-2302
▁if	-2303
▁dü	-2304
slam	-2305
▁izin	-2306
▁öğ	-2307
elerine	-2308
▁pad	-2309
▁oğlu	-2310
▁rapor	-2311
▁tehlik	-2312
▁bilgis	-2313
▁verdiği	-2314
kanı	-2315
▁diş	-2316
lığa	-2317
.)	-2318
▁politik	-2319
▁yüzyıl	-2320
▁internet	-2321
▁yazar	-2322
▁to	-2323
▁peygamberimiz	-2324
▁benzer	-2325
▁etkil	-2326
▁pan	-2327
▁meş	-2328
▁uluslararası	-2329
ulmuş	-2330
▁gür	-2331
▁pers	-2332
iri	-2333
ımda	-2334
yum	-2335
▁hz	-2336
▁işaret	-2337
▁olacaktır	-2338
mal	-2339
▁seni	-2340
▁sistemi	-2341
▁kullanıcı	-2342
▁kendine	-2343
▁açısından	-2344
▁durumu	-2345
▁sp	-2346
▁yoksa	-2347
▁savun	-2348
▁kent	-2349
▁teslim	-2350
▁komut	-2351
▁beri	-2352
▁mıs	-2353
ğınız	-2354
ısına	-2355
▁us	-2356
▁yaptık	-2357
▁yana	-2358
▁kaybet	-2359
▁öd	-2360
ılmıştır	-2361
ediler	-2362
▁işi	-2363
lerce	-2364
olojik	-2365
amaya	-2366
▁mutlu	-2367
▁sizi	-2368
▁karşılık	-2369
▁beden	-2370
▁nis	-2371
▁mutlak	-2372
▁bank	-2373
▁haline	-2374
▁ekip	-2375
▁ba	-2376
▁padişah	-2377
▁beklen	-2378
▁tip	-2379
▁esas	-2380
üle	-2381
alarının	-2382
▁müh	-2383
▁anlay	-2384
▁şeklinde	-2385
düm	-2386
▁sonucu	-2387
▁ticaret	-2388
▁key	-2389
▁makin	-2390
▁cumhurbaş	-2391
isk	-2392
liyor	-2393
▁gay	-2394
▁hastalık	-2395
▁kanun	-2396
asından	-2397
▁resim	-2398
▁gitti	-2399
▁tarihinde	-2400
▁yalnızca	-2401
▁dek	-2402
▁kâ	-2403
▁değildi	-2404
▁talep	-2405
geç	-2406
▁rol	-2407
atür	-2408
ğine	-2409
liğini	-2410
sem	-2411
▁zengin	-2412
▁araştırma	-2413
▁def	-2414
tep	-2415
▁nedenle	-2416
▁erdoğan	-2417
po	-2418
talya	-2419
ılmaz	-2420
htm	-2421
▁açıklama	-2422
▁efen	-2423
▁kapat	-2424
▁adlı	-2425
▁mot	-2426
lulu	-2427
▁siv	-2428
▁merak	-2429
▁eg	-2430
▁yıldı	-2431
▁ayır	-2432
son	-2433
îr	-2434
bah	-2435
▁sebeb	-2436
▁dakika	-2437
▁web	-2438
inç	-2439
5.	-2440
▁yürüt	-2441
▁yapılacak	-2442
ülen	-2443
gar	-2444
▁cihaz	-2445
▁detay	-2446
▁hisset	-2447
▁bilgisay	-2448
haf	-2449
▁birden	-2450
urdu	-2451
iran	-2452
▁not	-2453
lacak	-2454
▁hükümet	-2455
▁şüp	-2456
ilerek	-2457
▁dahil	-2458
▁dışarı	-2459
\.	-2460
▁başlan	-2461
▁mart	-2462
▁müşter	-2463
taki	-2464
▁mesaj	-2465
▁kilo	-2466
▁sevg	-2467
şı	-2468
7.	-2469
▁altına	-2470
▁dolayısıyla	-2471
▁duygu	-2472
6.	-2473
▁yoktu	-2474
▁güc	-2475
▁dolu	-2476
▁hayal	-2477
har	-2478
▁demokr	-2479
”,	-2480
ton	-2481
▁zih	-2482
eyle	-2483
ormal	-2484
▁insanın	-2485
▁emin	-2486
▁mektu	-2487
▁başarılı	-2488
mat	-2489
▁kum	-2490
▁çer	-2491
ıştır	-2492
▁tasarım	-2493
▁çö	-2494
atik	-2495
amız	-2496
sk	-2497
▁keş	-2498
▁huzur	-2499
▁ces	-2500
▁21	-2501
9.	-2502
ladığı	-2503
▁sordu	-2504
▁fut	-2505
▁kuzey	-2506
▁bahs	-2507
▁karşısında	-2508
▁sanki	-2509
▁duvar	-2510
▁söylen	-2511
▁ekonomik	-2512
▁terör	-2513
▁ettik	-2514
▁yıldır	-2515
ate	-2516
▁aldığı	-2517
▁sanay	-2518
ilerinin	-2519
▁aracı	-2520
▁aşk	-2521
▁yeş	-2522
▁idar	-2523
diğinde	-2524
▁olmadığını	-2525
lanması	-2526
▁güney	-2527
▁çiç	-2528
▁28	-2529
▁henüz	-2530
dığımız	-2531
anlık	-2532
lüyor	-2533
va	-2534
▁kurtar	-2535
▁aya	-2536
▁tespit	-2537
▁başında	-2538
ılma	-2539
▁dos	-2540
▁yandan	-2541
▁kasım	-2542
ünüz	-2543
▁prens	-2544
▁eb	-2545
▁servis	-2546
▁açı	-2547
▁olmas	-2548
ina	-2549
▁fat	-2550
elerinde	-2551
▁yaptır	-2552
▁alır	-2553
▁oper	-2554
esel	-2555
ile	-2556
▁önceki	-2557
▁kurtul	-2558
lanır	-2559
4.	-2560
▁olun	-2561
▁uğ	-2562
▁piyas	-2563
▁sap	-2564
▁davranış	-2565
dılar	-2566
▁şid	-2567
▁100	-2568
▁cep	-2569
anlı	-2570
izik	-2571
▁dam	-2572
ğinde	-2573
▁içeri	-2574
▁günümüz	-2575
▁co	-2576
▁uygulama	-2577
▁hafif	-2578
▁tekli	-2579
ledik	-2580
▁müzik	-2581
▁no	-2582
▁kişiler	-2583
mıyor	-2584
▁od	-2585
▁2/	-2586
şehir	-2587
kim	-2588
▁koşul	-2589
dığım	-2590
▁varsa	-2591
▁biçimde	-2592
▁bulunuyor	-2593
▁birleş	-2594
mamız	-2595
▁artır	-2596
▁kapsamında	-2597
▁cil	-2598
▁22	-2599
▁be	-2600
amet	-2601
▁saf	-2602
▁eylül	-2603
▁bağlantı	-2604
▁satın	-2605
▁evet	-2606
▁temmuz	-2607
ger	-2608
zmir	-2609
▁günlük	-2610
▁işlet	-2611
alarına	-2612
isel	-2613
▁iletişim	-2614
▁bunları	-2615
ene	-2616
▁list	-2617
▁kavram	-2618
lâm	-2619
osu	-2620
ele	-2621
.,	-2622
▁aralık	-2623
▁mur	-2624
go	-2625
teri	-2626
▁bazen	-2627
▁şam	-2628
▁50	-2629
vek	-2630
../	-2631
ğan	-2632
▁mon	-2633
▁işte	-2634
▁psik	-2635
ğe	-2636
yüz	-2637
40	-2638
](../	-2639
▁uyan	-2640
▁konuştu	-2641
▁ocak	-2642
elikle	-2643
▁ülkemiz	-2644
▁person	-2645
▁defa	-2646
▁bol	-2647
▁bahç	-2648
▁isten	-2649
▁kullanılan	-2650
cılık	-2651
▁mük	-2652
▁uc	-2653
▁tıp	-2654
▁cumhuriyet	-2655
60	-2656
liler	-2657
▁ünlü	-2658
▁altı	-2659
▁sorum	-2660
▁ciddi	-2661
rek	-2662
abilecek	-2663
▁birinci	-2664
▁çoğu	-2665
▁sözleş	-2666
▁şer	-2667
▁yıllık	-2668
ıyı	-2669
▁3.	-2670
▁aktar	-2671
dam	-2672
▁sayılı	-2673
▁40	-2674
lit	-2675
▁fayd	-2676
▁ondan	-2677
▁yaşayan	-2678
▁itibaren	-2679
▁prob	-2680
▁bakış	-2681
str	-2682
▁görüyor	-2683
▁end	-2684
asyonu	-2685
acağı	-2686
▁yeri	-2687
▁kayb	-2688
▁yıldız	-2689
▁varlık	-2690
▁inşa	-2691
▁futbol	-2692
gör	-2693
enler	-2694
▁yılı	-2695
▁cem	-2696
▁edildi	-2697
▁zev	-2698
▁olursa	-2699
ital	-2700
duğunu	-2701
larınız	-2702
▁uygulam	-2703
▁27	-2704
▁yerleş	-2705
▁yü	-2706
▁yanına	-2707
▁oluşan	-2708
aket	-2709
▁edilir	-2710
▁alıp	-2711
lendi	-2712
▁bilgisayar	-2713
▁kısm	-2714
ımıza	-2715
oloji	-2716
▁belediyesi	-2717
ârî	-2718
qu	-2719
red	-2720
▁2017	-2721
▁resmi	-2722
▁hed	-2723
esiz	-2724
▁tarif	-2725
nu	-2726
▁tör	-2727
▁23	-2728
elerden	-2729
▁şiddet	-2730
sp	-2731
▁br	-2732
mızı	-2733
▁düzey	-2734
▁ib	-2735
▁felse	-2736
▁şar	-2737
altı	-2738
▁olmadığı	-2739
▁ebu	-2740
▁oyuncu	-2741
▁stan	-2742
▁soh	-2743
▁eylem	-2744
▁dök	-2745
dikleri	-2746
▁seviy	-2747
çiler	-2748
▁ic	-2749
▁aile	-2750
▁ahmet	-2751
▁istiyorum	-2752
▁duyg	-2753
▁muham	-2754
▁normal	-2755
8.	-2756
▁ekim	-2757
▁had	-2758
▁başvur	-2759
yse	-2760
▁gerekiyor	-2761
▁laz	-2762
▁malzem	-2763
ırı	-2764
▁kullanım	-2765
▁balık	-2766
▁miktar	-2767
▁eksik	-2768
no	-2769
ücu	-2770
emek	-2771
▁olmuştur	-2772
▁yunan	-2773
tey	-2774
▁birey	-2775
lenmiş	-2776
▁uyar	-2777
atif	-2778
▁nüf	-2779
▁pet	-2780
▁köş	-2781
▁memnun	-2782
▁pas	-2783
sızlık	-2784
▁tüket	-2785
▁kitab	-2786
▁çocuğ	-2787
▁kural	-2788
▁barış	-2789
▁etraf	-2790
ite	-2791
▁mücadele	-2792
▁form	-2793
▁beğ	-2794
hi	-2795
ersiz	-2796
▁problem	-2797
▁nokta	-2798
▁sert	-2799
▁boyut	-2800
çev	-2801
▁süreç	-2802
▁dedim	-2803
▁biçim	-2804
▁araya	-2805
▁basın	-2806
▁doldur	-2807
▁ceza	-2808
▁yeşil	-2809
▁birliği	-2810
▁sıkıntı	-2811
▁köp	-2812
▁26	-2813
▁hepsi	-2814
▁teb	-2815
▁ışık	-2816
▁tec	-2817
▁anal	-2818
işi	-2819
▁bayram	-2820
▁şiir	-2821
▁ülke	-2822
▁video	-2823
▁kemal	-2824
▁saray	-2825
▁29	-2826
▁naz	-2827
▁tesis	-2828
▁görmek	-2829
▁kaş	-2830
ullah	-2831
mada	-2832
▁aks	-2833
üme	-2834
▁hüc	-2835
izyon	-2836
▁kış	-2837
▁bağır	-2838
▁ge	-2839
▁eğlen	-2840
deniz	-2841
▁sokak	-2842
▁üstün	-2843
▁günde	-2844
▁sayısı	-2845
▁sayı	-2846
ümü	-2847
one	-2848
mu	-2849
▁görüntü	-2850
▁mayıs	-2851
dern	-2852
▁###	-2853
▁mekan	-2854
▁göl	-2855
▁sohbet	-2856
▁alınan	-2857
80	-2858
▁fırsat	-2859
▁milletvek	-2860
▁nedir	-2861
▁davet	-2862
▁haziran	-2863
▁önüne	-2864
▁örneğin	-2865
liğin	-2866
ımızı	-2867
dıktan	-2868
▁yola	-2869
hay	-2870
lamış	-2871
▁merh	-2872
▁ekran	-2873
▁başvuru	-2874
omo	-2875
▁hap	-2876
▁enerji	-2877
lığına	-2878
▁üm	-2879
▁far	-2880
▁asla	-2881
▁süt	-2882
var	-2883
ücü	-2884
▁muht	-2885
▁day	-2886
▁yeterli	-2887
ii	-2888
fen	-2889
memiş	-2890
▁ted	-2891
amı	-2892
▁dolaş	-2893
▁kaldı	-2894
eğin	-2895
▁gerektiğini	-2896
▁arap	-2897
▁danış	-2898
fe	-2899
▁edip	-2900
▁esn	-2901
atürk	-2902
dal	-2903
▁olmaya	-2904
▁fikir	-2905
▁amacıyla	-2906
emi	-2907
asıyla	-2908
▁meg	-2909
sü	-2910
▁tabii	-2911
▁rusya	-2912
▁gelmiş	-2913
▁işe	-2914
▁yapıyor	-2915
▁ilan	-2916
lesi	-2917
emin	-2918
▁çay	-2919
▁buluş	-2920
▁mel	-2921
▁fon	-2922
▁gizli	-2923
lisi	-2924
▁mül	-2925
▁heyec	-2926
▁sonuc	-2927
ûl	-2928
▁bula	-2929
▁öğrenciler	-2930
▁üçüncü	-2931
▁lim	-2932
.2	-2933
▁ten	-2934
line	-2935
muştur	-2936
yız	-2937
ayıf	-2938
▁değişiklik	-2939
ekim	-2940
▁emek	-2941
layıp	-2942
▁güncel	-2943
ucu	-2944
ılabilir	-2945
ova	-2946
▁dönemde	-2947
kân	-2948
▁ettir	-2949
slâm	-2950
▁vücu	-2951
hat	-2952
▁vâ	-2953
▁şüph	-2954
▁motor	-2955
▁bitir	-2956
▁akl	-2957
▁neler	-2958
▁direk	-2959
▁etmeye	-2960
▁yaşlı	-2961
▁başbak	-2962
bilecek	-2963
▁göç	-2964
▁meclis	-2965
abet	-2966
▁alacak	-2967
mayın	-2968
üler	-2969
▁bed	-2970
▁mobil	-2971
▁muhammed	-2972
▁dünyada	-2973
▁sim	-2974
▁rad	-2975
▁zayıf	-2976
▁tez	-2977
▁baktı	-2978
uç	-2979
▁sül	-2980
▁bebek	-2981
▁asıl	-2982
asi	-2983
▁anne	-2984
▁çan	-2985
▁alma	-2986
lenmesi	-2987
mür	-2988
▁öt	-2989
/3	-2990
tığımız	-2991
▁bulunmaktadır	-2992
ilerini	-2993
âb	-2994
▁profes	-2995
▁yazılı	-2996
▁söylüyor	-2997
▁sonraki	-2998
diğimiz	-2999
▁elektrik	-3000
ısının	-3001
▁go	-3002
uldu	-3003
▁dolar	-3004
sim	-3005
▁basit	-3006
▁reklam	-3007
üyordu	-3008
▁teşkil	-3009
▁soğuk	-3010
▁söyley	-3011
▁başlayan	-3012
▁nisan	-3013
▁peş	-3014
car	-3015
▁tit	-3016
▁hac	-3017
▁fi	-3018
ebilirsiniz	-3019
maktan	-3020
▁bilir	-3021
▁yansı	-3022
▁tor	-3023
▁zey	-3024
▁güm	-3025
▁deneyim	-3026
▁müdürlüğü	-3027
xt	-3028
▁meslek	-3029
▁ahmed	-3030
▁sene	-3031
▁mahkem	-3032
▁fizik	-3033
kur	-3034
▁kart	-3035
▁düzenlenen	-3036
▁almış	-3037
▁bakanlığı	-3038
▁böy	-3039
arken	-3040
▁çiçek	-3041
▁durumunda	-3042
▁katkı	-3043
▁etkili	-3044
▁atatürk	-3045
ât	-3046
▁modern	-3047
▁roman	-3048
gal	-3049
veriş	-3050
mur	-3051
▁dile	-3052
▁yerleştir	-3053
▁karakter	-3054
▁kanal	-3055
▁mısır	-3056
▁namaz	-3057
ko	-3058
cık	-3059
▁vazgeç	-3060
▁hus	-3061
▁mutlaka	-3062
▁eve	-3063
ilmiştir	-3064
tuk	-3065
▁eleştir	-3066
▁sezon	-3067
iyon	-3068
▁ni	-3069
▁tran	-3070
▁ikti	-3071
to	-3072
▁siyasi	-3073
▁düğ	-3074
▁askeri	-3075
▁yapıldı	-3076
▁kıl	-3077
ise	-3078
▁hâlâ	-3079
▁cinsel	-3080
masından	-3081
▁bulundu	-3082
▁ağr	-3083
▁kredi	-3084
▁yeter	-3085
▁düşük	-3086
▁değerli	-3087
▁rast	-3088
best	-3089
▁ağaç	-3090
ire	-3091
sini	-3092
▁piş	-3093
azı	-3094
▁sarı	-3095
uklu	-3096
meniz	-3097
▁numar	-3098
▁sürec	-3099
▁müt	-3100
ınızı	-3101
eceğiniz	-3102
çak	-3103
rafik	-3104
imli	-3105
▁yetiş	-3106
âzî	-3107
▁na	-3108
▁ters	-3109
▁zam	-3110
▁gelip	-3111
▁yetk	-3112
▁medya	-3113
▁yürüy	-3114
▁sessiz	-3115
▁türkçe	-3116
▁gönül	-3117
▁çerçev	-3118
▁kendilerine	-3119
▁koc	-3120
▁giden	-3121
etler	-3122
▁ediyorum	-3123
▁yapmış	-3124
▁girişim	-3125
▁ilaç	-3126
▁red	-3127
liğe	-3128
▁öne	-3129
tak	-3130
▁kanı	-3131
▁tatlı	-3132
▁yapacak	-3133
▁devleti	-3134
▁etkinlik	-3135
gisi	-3136
dul	-3137
ây	-3138
akk	-3139
mar	-3140
dev	-3141
erken	-3142
inizin	-3143
muştu	-3144
lanma	-3145
▁mor	-3146
▁hin	-3147
▁•	-3148
▁amerika	-3149
▁ide	-3150
▁sonrası	-3151
yen	-3152
▁elbet	-3153
▁beğen	-3154
70	-3155
▁kararı	-3156
▁yapma	-3157
▁parça	-3158
▁poz	-3159
▁genellikle	-3160
▁biliyor	-3161
▁yanıt	-3162
▁edece	-3163
diğim	-3164
▁olduğuna	-3165
▁temsilc	-3166
büs	-3167
egor	-3168
ladık	-3169
▁imz	-3170
▁bö	-3171
ıma	-3172
▁sip	-3173
▁yedi	-3174
ağa	-3175
iyordum	-3176
▁lüt	-3177
tılar	-3178
yas	-3179
fat	-3180
elerle	-3181
▁test	-3182
▁onay	-3183
▁lider	-3184
▁diyerek	-3185
les	-3186
lediği	-3187
bey	-3188
▁yerinde	-3189
seniz	-3190
▁ölçü	-3191
▁takdir	-3192
ck	-3193
ons	-3194
gaz	-3195
▁kesinlikle	-3196
gr	-3197
dat	-3198
▁alıyor	-3199
▁uğraş	-3200
yım	-3201
▁kırmızı	-3202
▁31	-3203
▁ilgilen	-3204
▁siyah	-3205
onik	-3206
▁birisi	-3207
▁müdürü	-3208
▁’	-3209
▁azal	-3210
edeki	-3211
mes	-3212
▁haft	-3213
▁teklif	-3214
▁ederim	-3215
▁borç	-3216
▁alarak	-3217
▁saldırı	-3218
▁dokun	-3219
▁müda	-3220
▁etik	-3221
▁saygı	-3222
elidir	-3223
ham	-3224
▁yönetic	-3225
▁şiş	-3226
▁2016	-3227
▁hu	-3228
▁edilmesi	-3229
cılar	-3230
niyet	-3231
!"	-3232
▁fakül	-3233
ilecek	-3234
tere	-3235
▁sağlıklı	-3236
▁nur	-3237
▁sö	-3238
▁yolc	-3239
▁tedav	-3240
▁doğum	-3241
▁başlat	-3242
ımızın	-3243
▁gördüğ	-3244
undaki	-3245
dığınız	-3246
▁fransız	-3247
▁tedavi	-3248
lenme	-3249
▁kılıç	-3250
▁salon	-3251
▁edilmiş	-3252
▁tuz	-3253
iyim	-3254
pany	-3255
▁personel	-3256
▁bec	-3257
▁cumhurbaşkanı	-3258
acağını	-3259
▁mim	-3260
▁fu	-3261
▁serbest	-3262
etik	-3263
html	-3264
▁proje	-3265
tığını	-3266
▁şaşır	-3267
umsuz	-3268
▁mün	-3269
▁zorun	-3270
▁aray	-3271
▁hüs	-3272
bal	-3273
siye	-3274
▁düşür	-3275
▁hizmeti	-3276
ner	-3277
▁edeb	-3278
stik	-3279
▁esk	-3280
rahim	-3281
▁nakl	-3282
▁gol	-3283
istik	-3284
▁mill	-3285
▁sayıda	-3286
▁gösteren	-3287
yu	-3288
12	-3289
▁deste	-3290
dip	-3291
co	-3292
▁buraya	-3293
▁başta	-3294
ğinden	-3295
▁lo	-3296
▁adres	-3297
▁zira	-3298
▁kop	-3299
▁gülüm	-3300
▁tır	-3301
▁chp	-3302
▁sizlere	-3303
▁ödül	-3304
imizde	-3305
▁bahis	-3306
stos	-3307
▁oyunu	-3308
▁ayn	-3309
▁tarz	-3310
▁başını	-3311
▁megâzî	-3312
▁adını	-3313
ahat	-3314
▁etme	-3315
▁orman	-3316
▁gören	-3317
▁çocuklar	-3318
▁tahmin	-3319
▁kızı	-3320
▁vâkı	-3321
iyorlar	-3322
ımın	-3323
ebilecek	-3324
▁bakanı	-3325
▁kabil	-3326
süz	-3327
▁dey	-3328
▁va	-3329
▁ücretsiz	-3330
▁almanya	-3331
▁zevk	-3332
▁neredeyse	-3333
▁öğrenci	-3334
▁taz	-3335
▁kişisel	-3336
▁olduğundan	-3337
▁başlar	-3338
ediği	-3339
ınıza	-3340
urken	-3341
▁ağu	-3342
▁olmalı	-3343
▁zaf	-3344
▁yıllar	-3345
▁198	-3346
▁şik	-3347
▁kahr	-3348
▁baskı	-3349
▁rab	-3350
acaktır	-3351
elt	-3352
▁çağır	-3353
▁yapılması	-3354
usunu	-3355
▁ned	-3356
elerinden	-3357
▁sitesi	-3358
▁plat	-3359
▁toplumsal	-3360
▁korku	-3361
▁sermay	-3362
▁sonrasında	-3363
19	-3364
▁şamp	-3365
ıza	-3366
▁programı	-3367
▁sanayi	-3368
▁jo	-3369
eyici	-3370
▁süp	-3371
▁gelenek	-3372
▁yapılır	-3373
ğına	-3374
emen	-3375
▁kaliteli	-3376
▁kategor	-3377
lerim	-3378
▁ton	-3379
▁bür	-3380
▁ortadan	-3381
▁üstüne	-3382
umak	-3383
........	-3384
▁yaşında	-3385
▁savaşı	-3386
alığı	-3387
ulması	-3388
ze	-3389
âl	-3390
▁elinde	-3391
sey	-3392
iliyor	-3393
▁tok	-3394
▁kadınlar	-3395
▁doğrudan	-3396
▁puan	-3397
▁vakit	-3398
▁reh	-3399
▁ayar	-3400
▁otomo	-3401
▁bölümü	-3402
▁(2	-3403
▁yalan	-3404
lenir	-3405
▁alanı	-3406
vel	-3407
arım	-3408
▁vâkıdî	-3409
▁erken	-3410
forman	-3411
▁trans	-3412
▁korun	-3413
ırlar	-3414
▁hab	-3415
▁esc	-3416
▁gide	-3417
▁oldukları	-3418
▁konum	-3419
▁şarkı	-3420
▁şehit	-3421
▁mektup	-3422
▁taşıy	-3423
▁oysa	-3424
▁sağlar	-3425
▁kadının	-3426
▁eşit	-3427
▁döv	-3428
▁siyaset	-3429
▁olmuştu	-3430
dikten	-3431
▁katılım	-3432
▁şeyin	-3433
▁ilgi	-3434
▁sağlamak	-3435
▁tecr	-3436
▁ağustos	-3437
▁vermiş	-3438
▁uzat	-3439
▁kalp	-3440
▁evde	-3441
cil	-3442
muyor	-3443
zi	-3444
▁bağımsız	-3445
▁dahi	-3446
▁birer	-3447
▁diren	-3448
atör	-3449
text	-3450
▁kullanıl	-3451
▁suriye	-3452
▁hoc	-3453
lıklar	-3454
▁yahu	-3455
▁amerik	-3456
▁yatak	-3457
ikat	-3458
▁bununla	-3459
▁yarı	-3460
▁döndü	-3461
▁elbette	-3462
▁performan	-3463
memek	-3464
▁koca	-3465
▁kısmı	-3466
▁yüzünden	-3467
cağız	-3468
▁escort	-3469
gıç	-3470
▁kendilerini	-3471
dun	-3472
▁lazım	-3473
iyatı	-3474
▁ref	-3475
ayla	-3476
▁derne	-3477
ildiği	-3478
▁kahraman	-3479
-3	-3480
▁mod	-3481
brahim	-3482
15	-3483
▁izle	-3484
şi	-3485
▁kök	-3486
şu	-3487
sur	-3488
▁kadro	-3489
tern	-3490
▁alanında	-3491
eyecek	-3492
▁kör	-3493
▁nin	-3494
▁aklı	-3495
dek	-3496
▁elb	-3497
▁dışı	-3498
lıkları	-3499
başı	-3500
▁çalışmaları	-3501
▁birinin	-3502
▁gücü	-3503
müştü	-3504
▁hikay	-3505
▁arası	-3506
▁stand	-3507
▁tarım	-3508
▁hakkı	-3509
▁eğitimi	-3510
▁th	-3511
▁nedeni	-3512
▁edebil	-3513
kenin	-3514
▁mühend	-3515
▁si	-3516
▁herkesin	-3517
90	-3518
▁uçak	-3519
▁aşırı	-3520
meni	-3521
▁anlamına	-3522
imleri	-3523
▁döneminde	-3524
emeye	-3525
ündeki	-3526
▁şubat	-3527
▁pencer	-3528
▁emir	-3529
▁ulusal	-3530
ult	-3531
▁gelin	-3532
iyan	-3533
▁ağz	-3534
rail	-3535
▁çıkış	-3536
▁firmalar	-3537
▁çap	-3538
▁kişilik	-3539
▁öğretim	-3540
▁efendi	-3541
▁gur	-3542
iği	-3543
▁karanlık	-3544
emmel	-3545
▁ins	-3546
▁4.	-3547
▁peki	-3548
▁madd	-3549
▁memur	-3550
▁taşın	-3551
▁tap	-3552
▁operasyon	-3553
▁nih	-3554
sinin	-3555
▁olmasına	-3556
▁aj	-3557
▁hizmetleri	-3558
liğine	-3559
▁onunla	-3560
▁görür	-3561
ngiltere	-3562
▁abdul	-3563
▁ince	-3564
▁seçenek	-3565
▁kahv	-3566
erler	-3567
▁yayım	-3568
▁öf	-3569
sına	-3570
▁ayında	-3571
▁fes	-3572
eyman	-3573
▁bölge	-3574
▁uzan	-3575
▁car	-3576
nam	-3577
▁karıştır	-3578
▁düştü	-3579
▁yaparak	-3580
▁yapabil	-3581
▁cüm	-3582
▁devletin	-3583
üstü	-3584
kel	-3585
▁hanım	-3586
▁yetiştir	-3587
▁antalya	-3588
▁yapılmış	-3589
▁kapalı	-3590
▁lig	-3591
tp	-3592
▁vah	-3593
▁kimi	-3594
▁küt	-3595
yap	-3596
ilerine	-3597
ısız	-3598
▁dakik	-3599
▁dep	-3600
etici	-3601
evet	-3602
▁yaşanan	-3603
ğıt	-3604
asa	-3605
▁üzerindeki	-3606
▁göğ	-3607
▁dosy	-3608
liğinde	-3609
▁sona	-3610
▁bursa	-3611
alardan	-3612
zz	-3613
bin	-3614
▁tv	-3615
25	-3616
▁yönetimi	-3617
ata	-3618
▁babası	-3619
▁anlayış	-3620
atej	-3621
▁ürünleri	-3622
ded	-3623
▁fransa	-3624
▁ata	-3625
▁kamer	-3626
▁bilm	-3627
▁hala	-3628
▁olumsuz	-3629
▁kulak	-3630
▁roma	-3631
yer	-3632
evizyon	-3633
▁hasan	-3634
▁milyar	-3635
▁hazırlan	-3636
▁tatil	-3637
▁şans	-3638
düz	-3639
▁öncelikle	-3640
▁üyesi	-3641
45	-3642
▁yararlan	-3643
▁risk	-3644
yonel	-3645
madığı	-3646
▁veriyor	-3647
▁yasak	-3648
acağız	-3649
▁eşy	-3650
▁gib	-3651
▁ayrıntı	-3652
▁gr	-3653
▁pla	-3654
▁sağlam	-3655
▁sahn	-3656
▁adamın	-3657
amış	-3658
▁kitabı	-3659
inizde	-3660
▁göm	-3661
zu	-3662
▁gerektir	-3663
▁alışveriş	-3664
▁mükemmel	-3665
brıs	-3666
▁pop	-3667
▁büyükşehir	-3668
▁akıllı	-3669
tis	-3670
imler	-3671
▁hızla	-3672
rac	-3673
▁belirli	-3674
▁nefes	-3675
▁baba	-3676
▁bilgileri	-3677
▁birini	-3678
▁ışı	-3679
▁por	-3680
▁içi	-3681
▁içindeki	-3682
sizlik	-3683
▁adalet	-3684
lamaz	-3685
▁taleb	-3686
▁arama	-3687
eksiyon	-3688
unç	-3689
rol	-3690
bek	-3691
▁stratej	-3692
▁terk	-3693
▁anlamda	-3694
hen	-3695
▁yumuş	-3696
▁müşteri	-3697
▁harek	-3698
ılıp	-3699
biz	-3700
▁gazi	-3701
▁zek	-3702
▁verilm	-3703
▁yapmaya	-3704
▁aylık	-3705
▁toplu	-3706
▁hasta	-3707
▁bon	-3708
▁tev	-3709
▁arttır	-3710
nan	-3711
ulur	-3712
▁sağlayan	-3713
▁bilinen	-3714
▁bilinç	-3715
▁ihtiyac	-3716
▁elem	-3717
▁tane	-3718
▁süleyman	-3719
artesi	-3720
aray	-3721
▁yaygın	-3722
▁iyice	-3723
▁tutar	-3724
▁:)	-3725
▁koru	-3726
▁etmektedir	-3727
▁2015	-3728
▁derec	-3729
tül	-3730
emiş	-3731
▁tavsiye	-3732
▁atı	-3733
▁girdi	-3734
▁kla	-3735
▁kaçır	-3736
▁milletvekili	-3737
▁teknoloji	-3738
▁yerel	-3739
▁197	-3740
▁paket	-3741
▁aşağıdaki	-3742
▁sayın	-3743
▁hayatı	-3744
▁hayata	-3745
▁yir	-3746
▁alanda	-3747
▁nitelik	-3748
▁sakin	-3749
sını	-3750
▁köpr	-3751
▁yada	-3752
hale	-3753
ud	-3754
lemeye	-3755
.3	-3756
cağım	-3757
▁yerini	-3758
▁dis	-3759
rim	-3760
dığında	-3761
▁kus	-3762
ımızda	-3763
edek	-3764
▁yiye	-3765
▁amel	-3766
sas	-3767
▁ep	-3768
▁lan	-3769
mekten	-3770
larınızı	-3771
ly	-3772
tel	-3773
▁komisyon	-3774
▁devrim	-3775
▁new	-3776
ıyorlar	-3777
▁buz	-3778
▁hür	-3779
▁emniyet	-3780
▁öte	-3781
▁vergi	-3782
▁çoğun	-3783
işleri	-3784
▁sağlan	-3785
▁istek	-3786
▁şef	-3787
▁konut	-3788
▁hol	-3789
▁esir	-3790
▁profesyonel	-3791
ndan	-3792
▁grubu	-3793
▁fab	-3794
▁vurgu	-3795
▁öden	-3796
▁olanlar	-3797
23	-3798
ındır	-3799
kal	-3800
laşma	-3801
ust	-3802
▁üstünde	-3803
form	-3804
▁park	-3805
...”	-3806
▁organiz	-3807
▁karşılı	-3808
▁çor	-3809
▁eh	-3810
▁mir	-3811
lığının	-3812
▁gidip	-3813
▁kıbrıs	-3814
▁lisans	-3815
17	-3816
▁donan	-3817
▁iddia	-3818
▁verildi	-3819
▁itir	-3820
▁suy	-3821
▁)	-3822
▁kere	-3823
▁rum	-3824
shak	-3825
▁suret	-3826
▁ömer	-3827
▁kürt	-3828
▁adan	-3829
illa	-3830
işam	-3831
eral	-3832
▁üye	-3833
▁civ	-3834
▁anay	-3835
▁keyif	-3836
▁başbakan	-3837
lığıyla	-3838
▁sün	-3839
ydi	-3840
▁standart	-3841
▁rahatsız	-3842
▁cad	-3843
▁rüz	-3844
uyorum	-3845
alarından	-3846
▁çevre	-3847
split	-3848
▁kullanarak	-3849
▁heyecan	-3850
▁sinir	-3851
şey	-3852
▁me	-3853
layın	-3854
▁35	-3855
▁yardımcısı	-3856
▁giderek	-3857
▁artış	-3858
▁kazandır	-3859
▁şif	-3860
etin	-3861
öğr	-3862
urum	-3863
tuğ	-3864
▁vüc	-3865
mut	-3866
mail	-3867
▁atan	-3868
iki	-3869
▁öldürül	-3870
▁düşünce	-3871
▁umut	-3872
▁yıllarda	-3873
ılış	-3874
çin	-3875
▁ır	-3876
tek	-3877
cilik	-3878
▁sus	-3879
▁odası	-3880
imden	-3881
dukları	-3882
ansı	-3883
▁60	-3884
▁mühendis	-3885
▁hayatını	-3886
18	-3887
dit	-3888
▁önceden	-3889
▁cer	-3890
makla	-3891
▁oğul	-3892
▁niyet	-3893
▁iken	-3894
▁banka	-3895
▁çak	-3896
▁gerekmektedir	-3897
▁imkan	-3898
▁sayfa	-3899
▁oyna	-3900
▁şeker	-3901
▁ism	-3902
▁konuşma	-3903
▁kalma	-3904
▁demektir	-3905
▁olmadan	-3906
▁samsun	-3907
▁hi	-3908
▁dünyaya	-3909
▁adr	-3910
▁birbirine	-3911
esindeki	-3912
usal	-3913
▁kaybol	-3914
▁ifad	-3915
▁evren	-3916
ılabil	-3917
▁hâkim	-3918
▁hissed	-3919
biliriz	-3920
▁birik	-3921
▁op	-3922
▁tören	-3923
ığ	-3924
antaj	-3925
▁bunlardan	-3926
rem	-3927
ğinin	-3928
larımızın	-3929
▁ust	-3930
dıklarını	-3931
▁taşıma	-3932
▁kalmış	-3933
▁televizyon	-3934
▁selam	-3935
▁sesi	-3936
adem	-3937
▁otomobil	-3938
▁ülkenin	-3939
arında	-3940
ond	-3941
▁sorunu	-3942
panya	-3943
▁hit	-3944
▁katıl	-3945
▁süs	-3946
99	-3947
▁eriş	-3948
▁tho	-3949
▁etkisi	-3950
▁zafer	-3951
▁kalın	-3952
▁mür	-3953
sında	-3954
▁vücut	-3955
▁sonucunda	-3956
ess	-3957
▁becer	-3958
▁imkân	-3959
▁etmesi	-3960
ilerden	-3961
ker	-3962
▁2014	-3963
▁́	-3964
desi	-3965
▁geçerli	-3966
▁halkın	-3967
▁kalab	-3968
▁suyu	-3969
▁eur	-3970
▁felsef	-3971
▁sü	-3972
ışma	-3973
lıklı	-3974
▁yağmur	-3975
▁yenil	-3976
ceği	-3977
▁elini	-3978
▁sahiptir	-3979
▁sorumlu	-3980
ılarak	-3981
▁vb	-3982
▁iktidar	-3983
▁vez	-3984
mız	-3985
▁cilt	-3986
ang	-3987
▁odak	-3988
▁ödeme	-3989
medik	-3990
ğiz	-3991
▁getiren	-3992
▁belirten	-3993
kon	-3994
▁arac	-3995
acağım	-3996
▁ölü	-3997
▁târî	-3998
▁katıldı	-3999
▁ettim	-4000
▁fayda	-4001
▁sine	-4002
▁port	-4003
▁belirtti	-4004
▁vek	-4005
▁günlerde	-4006
▁şen	-4007
diye	-4008
▁ney	-4009
▁teor	-4010
▁şa	-4011
tarı	-4012
▁gördü	-4013
▁isimli	-4014
▁doğan	-4015
book	-4016
▁şampiyon	-4017
müştür	-4018
des	-4019
ete	-4020
▁insanları	-4021
▁olanak	-4022
▁kıv	-4023
▁sivil	-4024
▁mesaf	-4025
▁söyler	-4026
▁gelince	-4027
▁vit	-4028
▁toplan	-4029
48	-4030
▁fiyatları	-4031
▁marka	-4032
▁misaf	-4033
▁?	-4034
▁lütfen	-4035
gü	-4036
13	-4037
larımızı	-4038
▁parmak	-4039
▁olumlu	-4040
▁olmasını	-4041
▁usul	-4042
▁bekl	-4043
▁bakımından	-4044
▁ettiler	-4045
▁tef	-4046
sev	-4047
▁turizm	-4048
▁kavuş	-4049
▁nüfus	-4050
▁thomas	-4051
bb	-4052
▁=	-4053
nden	-4054
onun	-4055
lerinizi	-4056
▁sipar	-4057
▁buradan	-4058
▁efsan	-4059
ane	-4060
üny	-4061
▁kulüb	-4062
▁sevgi	-4063
▁diyar	-4064
▁üs	-4065
▁işin	-4066
▁firma	-4067
▁okuy	-4068
▁ediyordu	-4069
▁finans	-4070
spor	-4071
▁neh	-4072
▁kişilerin	-4073
▁deng	-4074
ayım	-4075
▁!	-4076
mediği	-4077
16	-4078
▁kup	-4079
▁anah	-4080
▁şeyh	-4081
▁süper	-4082
▁yo	-4083
▁olacağını	-4084
malarını	-4085
▁kapan	-4086
kâr	-4087
hane	-4088
▁çekti	-4089
larındaki	-4090
▁metin	-4091
▁çel	-4092
log	-4093
srail	-4094
▁online	-4095
irken	-4096
▁grub	-4097
diğiniz	-4098
masıyla	-4099
▁geldiği	-4100
▁parçası	-4101
▁işbir	-4102
mm	-4103
▁giren	-4104
layıcı	-4105
▁danışman	-4106
ag	-4107
▁ucuz	-4108
▁böyl	-4109
eceğiz	-4110
▁açıklam	-4111
▁kanıt	-4112
ry	-4113
▁boğaz	-4114
▁bet	-4115
▁istediği	-4116
▁başı	-4117
▁eğil	-4118
▁çelik	-4119
▁gözlem	-4120
erseniz	-4121
▁makam	-4122
▁binlerce	-4123
▁uyku	-4124
eğe	-4125
▁derneği	-4126
abz	-4127
▁sırt	-4128
▁bilimsel	-4129
▁muhaf	-4130
cusu	-4131
▁işç	-4132
▁fakültesi	-4133
43	-4134
atıcı	-4135
▁târîh	-4136
▁ilişki	-4137
▁köpek	-4138
rika	-4139
▁detaylı	-4140
adı	-4141
▁hesab	-4142
▁ufak	-4143
▁ediyoruz	-4144
▁kel	-4145
▁taşıyan	-4146
▁hişam	-4147
▁harit	-4148
▁32	-4149
▁akadem	-4150
▁murat	-4151
▁prot	-4152
▁sonsuz	-4153
▁rez	-4154
▁asya	-4155
▁projesi	-4156
▁yılda	-4157
▁deney	-4158
▁kalb	-4159
▁temin	-4160
▁geçer	-4161
▁kurban	-4162
▁durdur	-4163
day	-4164
▁bazıları	-4165
ilendir	-4166
onya	-4167
ilebilir	-4168
▁yaşama	-4169
şık	-4170
▁olduğumuz	-4171
rum	-4172
▁zamanlar	-4173
▁günümüzde	-4174
▁yapım	-4175
▁verecek	-4176
▁özelliği	-4177
▁özellikleri	-4178
▁endiş	-4179
▁zamanı	-4180
▁sitemiz	-4181
▁ölçüde	-4182
▁pil	-4183
▁topra	-4184
▁kons	-4185
▁olağan	-4186
▁kendisinin	-4187
▁kaçın	-4188
▁komp	-4189
▁neş	-4190
leyerek	-4191
▁kalır	-4192
▁abdullah	-4193
▁sevin	-4194
▁büt	-4195
▁tanr	-4196
▁gözleri	-4197
▁söylemek	-4198
layabil	-4199
▁adamı	-4200
▁sevgil	-4201
unları	-4202
etleri	-4203
▁gözlerini	-4204
▁uygula	-4205
▁enf	-4206
▁başlangıç	-4207
▁tren	-4208
▁duyar	-4209
▁fener	-4210
▁bende	-4211
▁ısı	-4212
▁1,	-4213
▁bulunur	-4214
▁bom	-4215
▁tiyat	-4216
▁büyü	-4217
tepe	-4218
ngilizce	-4219
▁istediğiniz	-4220
▁aralarında	-4221
▁çocukların	-4222
▁dini	-4223
aka	-4224
▁buyur	-4225
pa	-4226
isinden	-4227
▁koruma	-4228
mesinin	-4229
▁toz	-4230
.[	-4231
▁edebiyat	-4232
▁işle	-4233
çer	-4234
▁süren	-4235
▁anlama	-4236
▁işler	-4237
▁başlıyor	-4238
sızın	-4239
tığım	-4240
▁acaba	-4241
▁harika	-4242
46	-4243
aza	-4244
▁bozuk	-4245
▁komutan	-4246
ciler	-4247
▁meml	-4248
tın	-4249
lili	-4250
▁yerden	-4251
▁inanç	-4252
▁bez	-4253
▁alk	-4254
▁almaya	-4255
▁görünce	-4256
lari	-4257
▁zamanlarda	-4258
zat	-4259
anda	-4260
alay	-4261
▁yüce	-4262
eceğim	-4263
meyecek	-4264
gul	-4265
▁halkı	-4266
distan	-4267
alim	-4268
ros	-4269
▁ihtim	-4270
▁yarım	-4271
▁düzenli	-4272
istiyan	-4273
▁kendimi	-4274
▁ı	-4275
▁kayna	-4276
▁gıda	-4277
▁sh	-4278
alarla	-4279
ogle	-4280
liy	-4281
▁geril	-4282
leyin	-4283
▁sürede	-4284
▁33	-4285
▁alb	-4286
▁platform	-4287
▁yirmi	-4288
lerimizi	-4289
▁öncesi	-4290
▁ettiğini	-4291
▁tanın	-4292
ys	-4293
▁nesn	-4294
ersin	-4295
▁yönel	-4296
53	-4297
▁dür	-4298
▁5.	-4299
tıcı	-4300
▁tablo	-4301
isiyle	-4302
//	-4303
▁36	-4304
ılmıştı	-4305
ph	-4306
▁araba	-4307
42	-4308
▁bitk	-4309
▁başkanlığı	-4310
▁yakalan	-4311
abilmek	-4312
▁yel	-4313
▁geçiş	-4314
▁gittik	-4315
lığında	-4316
iyer	-4317
▁hüseyin	-4318
47	-4319
▁hil	-4320
usuna	-4321
▁bence	-4322
▁sıkı	-4323
▁hunlar	-4324
▁ur	-4325
nik	-4326
▁lin	-4327
▁erz	-4328
tacak	-4329
▁şeye	-4330
▁yolda	-4331
fı	-4332
▁açıklamada	-4333
mü	-4334
▁vad	-4335
▁irak	-4336
▁ye	-4337
▁ürünler	-4338
luluğ	-4339
▁hadis	-4340
lçe	-4341
▁win	-4342
▁sözleri	-4343
▁bahset	-4344
▁ht	-4345
▁196	-4346
sul	-4347
th	-4348
▁akp	-4349
▁ilişkiler	-4350
▁önemlidir	-4351
▁yaşamak	-4352
▁muk	-4353
▁arzu	-4354
▁ani	-4355
▁özen	-4356
▁sebebi	-4357
▁pap	-4358
uşu	-4359
▁gösterir	-4360
▁kod	-4361
▁üstelik	-4362
▁yazılım	-4363
uf	-4364
▁dip	-4365
▁dönemi	-4366
▁üniversite	-4367
cının	-4368
ınızda	-4369
▁tecrüb	-4370
▁çıkmış	-4371
▁sunuyor	-4372
▁bl	-4373
▁ob	-4374
▁tim	-4375
▁unsur	-4376
▁kimsenin	-4377
areti	-4378
▁van	-4379
▁kutsal	-4380
▁veri	-4381
▁2013	-4382
luluğu	-4383
ladığ	-4384
▁sözc	-4385
▁diler	-4386
▁+	-4387
▁insanı	-4388
▁çeki	-4389
▁2/1	-4390
▁muhal	-4391
▁getirdi	-4392
▁hakim	-4393
▁yarg	-4394
▁tehdit	-4395
▁ayakk	-4396
▁günün	-4397
▁hel	-4398
▁uyum	-4399
▁oraya	-4400
▁ça	-4401
▁kısım	-4402
▁sabit	-4403
▁feth	-4404
▁tutuk	-4405
▁sözü	-4406
▁haklı	-4407
inal	-4408
▁bug	-4409
▁ihtiyacı	-4410
zzet	-4411
▁tedbir	-4412
▁süresi	-4413
▁dalg	-4414
ura	-4415
▁çıkart	-4416
▁mit	-4417
ation	-4418
tion	-4419
▁ayrıl	-4420
kk	-4421
▁gitmek	-4422
▁beşik	-4423
▁korkunç	-4424
▁ortalama	-4425
▁mavi	-4426
▁etmiştir	-4427
▁istedik	-4428
▁çıkıyor	-4429
maktay	-4430
çek	-4431
▁kamp	-4432
tum	-4433
://	-4434
are	-4435
▁günah	-4436
▁yarın	-4437
mos	-4438
▁seyahat	-4439
▁sekiz	-4440
▁istih	-4441
▁çeken	-4442
▁tanış	-4443
▁yoluyla	-4444
itir	-4445
▁memleket	-4446
▁tra	-4447
▁gördük	-4448
▁kampany	-4449
▁gelişim	-4450
2018	-4451
▁denetim	-4452
▁servisi	-4453
dağ	-4454
▁fatih	-4455
lasyon	-4456
▁ph	-4457
▁yah	-4458
▁avantaj	-4459
▁güvenli	-4460
▁cuma	-4461
▁sahib	-4462
▁zorunlu	-4463
▁değeri	-4464
ksiyon	-4465
bahçe	-4466
▁bağış	-4467
▁cas	-4468
▁yıldırım	-4469
▁oranı	-4470
reti	-4471
▁düzenlen	-4472
▁akr	-4473
▁con	-4474
▁3/	-4475
▁çocuğun	-4476
tıkları	-4477
▁sonuna	-4478
▁yüzü	-4479
▁soruştur	-4480
▁aktif	-4481
ledim	-4482
▁dağıt	-4483
▁sorgu	-4484
▁partisi	-4485
diy	-4486
dil	-4487
ore	-4488
▁otobüs	-4489
leyici	-4490
▁ri	-4491
▁tiyatro	-4492
▁cel	-4493
▁içerik	-4494
▁kaynağı	-4495
▁renkli	-4496
▁ayı	-4497
▁jan	-4498
mo	-4499
eliği	-4500
▁dönüştür	-4501
▁google	-4502
▁maden	-4503
.000	-4504
memiz	-4505
▁inc	-4506
▁uğra	-4507
kul	-4508
▁demiş	-4509
▁hd	-4510
▁mahallesi	-4511
▁araz	-4512
▁parlak	-4513
98	-4514
▁alg	-4515
▁kadınların	-4516
and	-4517
▁delik	-4518
▁şeri	-4519
ft	-4520
▁&	-4521
▁evlen	-4522
yle	-4523
▁faiz	-4524
ann	-4525
▁mezar	-4526
▁seks	-4527
▁olamaz	-4528
▁analiz	-4529
andan	-4530
▁doğrult	-4531
fo	-4532
▁yürür	-4533
▁hücr	-4534
▁hediye	-4535
▁düzenlem	-4536
▁geçtiğimiz	-4537
-0	-4538
düğünü	-4539
▁ederken	-4540
▁olduklarını	-4541
▁sağlayacak	-4542
▁km	-4543
▁he	-4544
dular	-4545
orta	-4546
▁çalışıyor	-4547
▁tarihli	-4548
▁mimar	-4549
liş	-4550
▁başken	-4551
▁trabz	-4552
▁metre	-4553
▁benden	-4554
▁yiyecek	-4555
▁eline	-4556
▁yılın	-4557
▁sik	-4558
▁egemen	-4559
▁şük	-4560
▁kıya	-4561
iyiz	-4562
▁istik	-4563
▁yaşındaki	-4564
âye	-4565
▁ağrı	-4566
▁1/	-4567
▁gümüş	-4568
▁fonksiyon	-4569
ron	-4570
has	-4571
▁düşünüyorum	-4572
▁oradan	-4573
▁savunma	-4574
nün	-4575
▁dük	-4576
▁iyil	-4577
nak	-4578
▁birleştir	-4579
▁yaralan	-4580
azam	-4581
tematik	-4582
adet	-4583
▁3/1	-4584
▁konak	-4585
▁kaydet	-4586
▁kullanımı	-4587
hayır	-4588
▁olası	-4589
▁değişim	-4590
▁ilginç	-4591
▁dizi	-4592
liğinin	-4593
▁çekil	-4594
▁bizans	-4595
▁dedik	-4596
▁45	-4597
▁görülen	-4598
▁açtı	-4599
▁açıkla	-4600
▁lir	-4601
▁geb	-4602
▁sanırım	-4603
▁yargı	-4604
▁şehr	-4605
int	-4606
▁kurulan	-4607
▁mantık	-4608
▁birbirinden	-4609
▁haberleri	-4610
▁boyu	-4611
▁tıpkı	-4612
▁attı	-4613
▁festiv	-4614
4)	-4615
11	-4616
▁başlamış	-4617
▁2012	-4618
▁sipariş	-4619
▁biy	-4620
▁zamanında	-4621
ray	-4622
doğu	-4623
vik	-4624
▁kapas	-4625
▁vol	-4626
▁efend	-4627
▁yukarıda	-4628
yeni	-4629
▁trafik	-4630
49	-4631
▁ülkede	-4632
▁söyleyen	-4633
jen	-4634
▁nihayet	-4635
rat	-4636
▁hâl	-4637
▁lira	-4638
so	-4639
▁şub	-4640
▁okun	-4641
▁gene	-4642
ceğini	-4643
▁yaşadığı	-4644
▁bölgede	-4645
▁yerli	-4646
aberî	-4647
▁düşünür	-4648
▁yatır	-4649
22	-4650
▁edilmiştir	-4651
▁isyan	-4652
▁ant	-4653
▁yönlendir	-4654
▁imza	-4655
▁oğl	-4656
▁mat	-4657
▁80	-4658
▁duruma	-4659
▁misafir	-4660
ws	-4661
▁içinden	-4662
dy	-4663
embe	-4664
lılar	-4665
köy	-4666
fik	-4667
lıdır	-4668
▁boya	-4669
▁etki	-4670
▁yör	-4671
▁yetkil	-4672
▁mutfak	-4673
▁otomatik	-4674
▁sorumluluk	-4675
▁paris	-4676
▁hediy	-4677
▁sağla	-4678
▁konfer	-4679
▁belirtilen	-4680
▁husus	-4681
rü	-4682
▁geldiğini	-4683
▁gördüm	-4684
▁edebilir	-4685
ilmektedir	-4686
▁mesela	-4687
...]	-4688
▁birim	-4689
▁nam	-4690
▁tad	-4691
yaz	-4692
▁klasik	-4693
▁vermeye	-4694
bas	-4695
duğum	-4696
▁rest	-4697
▁selç	-4698
vey	-4699
▁kayıp	-4700
ilmez	-4701
▁70	-4702
▁yaptıkları	-4703
▁kov	-4704
iter	-4705
▁tanıt	-4706
bür	-4707
▁ismi	-4708
▁insanlara	-4709
▁coğraf	-4710
▁sk	-4711
▁kişiye	-4712
uc	-4713
▁açıdan	-4714
▁açıkladı	-4715
ges	-4716
▁çök	-4717
▁öfk	-4718
▁anti	-4719
▁anlamı	-4720
▁kaymak	-4721
▁garip	-4722
▁avuk	-4723
dün	-4724
▁azından	-4725
▁bölgesinde	-4726
▁güzellik	-4727
▁site	-4728
ks	-4729
▁bilen	-4730
şet	-4731
▁zeytin	-4732
▁bulut	-4733
duğumuz	-4734
▁işçi	-4735
▁takdirde	-4736
▁hazırlık	-4737
teşem	-4738
▁imparator	-4739
▁alına	-4740
racat	-4741
▁sunu	-4742
yacak	-4743
▁yolunda	-4744
▁ordusu	-4745
iber	-4746
▁500	-4747
seri	-4748
▁eğlenc	-4749
dığına	-4750
▁kuma	-4751
ırıl	-4752
aseb	-4753
▁yaparken	-4754
▁gidiyor	-4755
▁amerikan	-4756
▁1/1	-4757
▁ras	-4758
tanın	-4759
▁hükümdar	-4760
▁cema	-4761
▁kardeşi	-4762
▁düşen	-4763
▁maddi	-4764
iklet	-4765
▁şeyleri	-4766
▁olmalıdır	-4767
▁büny	-4768
▁ürünü	-4769
▁elç	-4770
ıldığında	-4771
▁kullanılır	-4772
tez	-4773
ýn	-4774
lardaki	-4775
ard	-4776
▁kapital	-4777
çu	-4778
▁bulundur	-4779
▁ven	-4780
▁muhtem	-4781
▁duyur	-4782
▁lok	-4783
▁önlem	-4784
▁şık	-4785
▁omuz	-4786
▁rece	-4787
tadır	-4788
leriniz	-4789
▁öngör	-4790
▁öp	-4791
▁görmüş	-4792
▁içeren	-4793
▁elektronik	-4794
▁jap	-4795
▁dudak	-4796
27	-4797
kırı	-4798
▁taht	-4799
▁süreci	-4800
▁güvenilir	-4801
▁tutan	-4802
diven	-4803
▁müşteriler	-4804
ıldığını	-4805
▁aşağıda	-4806
yip	-4807
▁nem	-4808
▁harekete	-4809
▁yılmaz	-4810
▁mehmed	-4811
ung	-4812
▁pazarlama	-4813
alandır	-4814
▁buyurdu	-4815
▁rakam	-4816
▁belirterek	-4817
lor	-4818
▁yaşay	-4819
▁beşiktaş	-4820
▁duran	-4821
▁dikkate	-4822
▁ec	-4823
▁görevi	-4824
▁acil	-4825
▁bı	-4826
▁ru	-4827
▁sevgili	-4828
▁cesaret	-4829
▁taberî	-4830
emesi	-4831
usuz	-4832
▁çıkıp	-4833
yaş	-4834
▁diyen	-4835
▁aran	-4836
▁feder	-4837
▁doğa	-4838
.»	-4839
▁mülk	-4840
▁bulunma	-4841
▁kenar	-4842
▁yürüyüş	-4843
▁yapabilir	-4844
kir	-4845
▁uğur	-4846
uydu	-4847
sup	-4848
▁sıv	-4849
▁derecede	-4850
▁başlı	-4851
anet	-4852
▁zihin	-4853
masın	-4854
ula	-4855
▁alım	-4856
▁ticari	-4857
ebî	-4858
▁toplumun	-4859
▁sistemleri	-4860
isin	-4861
biy	-4862
asındaki	-4863
▁dediler	-4864
▁2,	-4865
▁alay	-4866
▁fık	-4867
▁şö	-4868
▁37	-4869
▁katılan	-4870
lıktan	-4871
▁muhteşem	-4872
▁görsel	-4873
▁hassas	-4874
olog	-4875
bor	-4876
26	-4877
ps	-4878
▁yitir	-4879
▁kilis	-4880
▁kriz	-4881
▁hanbel	-4882
▁pozisyon	-4883
▁etkilen	-4884
▁benzeri	-4885
▁ahlak	-4886
ij	-4887
▁altern	-4888
▁söyleye	-4889
▁”	-4890
▁konya	-4891
▁bekliyor	-4892
sv	-4893
ınar	-4894
▁anı	-4895
▁manz	-4896
▁kanunu	-4897
▁niş	-4898
▁müst	-4899
▁merhaba	-4900
öğretim	-4901
lerindeki	-4902
▁karma	-4903
▁adana	-4904
▁modelleri	-4905
▁arkadaşlar	-4906
emedi	-4907
▁elinden	-4908
▁gençlik	-4909
ayacak	-4910
atas	-4911
▁yumuşak	-4912
▁adeta	-4913
▁yürü	-4914
▁doğrultusunda	-4915
▁inanıyor	-4916
▁işit	-4917
▁utan	-4918
▁onur	-4919
▁açılan	-4920
▁kızıl	-4921
yalı	-4922
▁şikayet	-4923
▁transfer	-4924
▁belirlen	-4925
▁sof	-4926
ağın	-4927
leyip	-4928
▁taban	-4929
▁uzaklaş	-4930
):	-4931
ülebilir	-4932
▁beyin	-4933
▁metal	-4934
▁emr	-4935
▁dili	-4936
▁bunlara	-4937
cebook	-4938
▁sanatçı	-4939
▁düşünül	-4940
▁nik	-4941
▁oyunları	-4942
▁dua	-4943
▁ulaştır	-4944
▁geriye	-4945
▁araştırmalar	-4946
▁mutluluk	-4947
müyor	-4948
▁büyüm	-4949
▁galib	-4950
▁işgal	-4951
▁cumhuriyeti	-4952
▁[...]	-4953
▁rabb	-4954
ie	-4955
▁sir	-4956
▁sonuçları	-4957
▁maliyet	-4958
▁babam	-4959
lanıyor	-4960
▁uzay	-4961
lerken	-4962
okul	-4963
buk	-4964
lanmıştır	-4965
gesi	-4966
usuf	-4967
▁elbis	-4968
▁performans	-4969
cisi	-4970
▁kalabalık	-4971
▁konser	-4972
▁şunu	-4973
▁bugüne	-4974
▁kesim	-4975
▁konuk	-4976
▁bölgesi	-4977
▁arasına	-4978
▁genelde	-4979
▁hakları	-4980
▁riv	-4981
▁pa	-4982
▁önümüz	-4983
▁cm	-4984
▁bulmak	-4985
▁alternatif	-4986
▁işlemi	-4987
▁titr	-4988
▁alabilirsiniz	-4989
▁itibariyle	-4990
▁çalıştır	-4991
illi	-4992
▁herkese	-4993
▁yasal	-4994
▁yaklaşım	-4995
▁teşvik	-4996
▁ramaz	-4997
imizden	-4998
▁onlardan	-4999
▁yüzey	-5000
ysa	-5001
▁etmişti	-5002
▁dekor	-5003
▁oynan	-5004
cam	-5005
▁âlem	-5006
▁geçici	-5007
uyucu	-5008
▁gerektiği	-5009
▁takımı	-5010
imet	-5011
▁tepki	-5012
▁sadr	-5013
▁olsay	-5014
üye	-5015
▁buh	-5016
▁moda	-5017
▁farkında	-5018
▁zir	-5019
▁maz	-5020
--	-5021
▁aldım	-5022
lal	-5023
leşme	-5024
▁tavır	-5025
▁sesle	-5026
▁yerlerde	-5027
▁ödem	-5028
▁tahta	-5029
▁evr	-5030
▁olurdu	-5031
oyu	-5032
",	-5033
▁hoca	-5034
▁ideal	-5035
▁geleneksel	-5036
▁sizler	-5037
sit	-5038
▁noktada	-5039
▁çocuğu	-5040
▁cami	-5041
▁yolcu	-5042
▁şeref	-5043
▁38	-5044
28	-5045
▁denet	-5046
▁hali	-5047
▁mic	-5048
mamak	-5049
pe	-5050
uluğ	-5051
▁fiyatı	-5052
▁çocukları	-5053
▁kursu	-5054
▁özgü	-5055
▁reis	-5056
▁varol	-5057
▁mezun	-5058
larca	-5059
▁çatış	-5060
ılmasını	-5061
▁ex	-5062
▁ağız	-5063
▁evden	-5064
▁çam	-5065
▁ikisi	-5066
▁dönüp	-5067
manı	-5068
▁vası	-5069
▁2/2	-5070
halde	-5071
▁evi	-5072
▁kültürel	-5073
-5	-5074
▁bastır	-5075
▁filmi	-5076
tuğu	-5077
▁resûl	-5078
▁recep	-5079
41	-5080
▁hazırlanan	-5081
âyet	-5082
eğini	-5083
▁nö	-5084
▁eklen	-5085
▁kolayca	-5086
▁kimlik	-5087
▁darbe	-5088
▁tayyip	-5089
▁adlandır	-5090
▁bis	-5091
▁türkler	-5092
▁birine	-5093
▁nefret	-5094
.0	-5095
▁anahtar	-5096
▁karşılaştır	-5097
▁taşım	-5098
▁cennet	-5099
led	-5100
▁ülkemizde	-5101
▁harf	-5102
▁eşi	-5103
▁alev	-5104
eyerek	-5105
▁coş	-5106
▁sıf	-5107
▁fiziksel	-5108
▁düzelt	-5109
▁okuma	-5110
▁hekim	-5111
▁lu	-5112
▁sözler	-5113
▁yaprak	-5114
▁çerçevesinde	-5115
▁sermaye	-5116
▁zinc	-5117
▁hapis	-5118
pat	-5119
▁amac	-5120
▁tepk	-5121
▁bakalım	-5122
▁fabrik	-5123
çesi	-5124
▁arasından	-5125
aat	-5126
▁gerekti	-5127
''	-5128
▁izlen	-5129
▁almaktadır	-5130
ilerle	-5131
mekle	-5132
▁kuy	-5133
▁olmadı	-5134
▁kıyafet	-5135
▁görebil	-5136
▁üyeleri	-5137
▁alınması	-5138
▁bask	-5139
cin	-5140
▁ayakkabı	-5141
▁kelime	-5142
▁çabuk	-5143
▁»	-5144
▁hastalı	-5145
mede	-5146
için	-5147
▁som	-5148
▁kırk	-5149
▁sürü	-5150
âlâ	-5151
▁dokuz	-5152
▁gemi	-5153
▁gereği	-5154
ord	-5155
▁daire	-5156
tüm	-5157
mesiyle	-5158
ruk	-5159
▁kurumsal	-5160
sine	-5161
▁90	-5162
elli	-5163
▁1/2	-5164
tülü	-5165
▁iii	-5166
▁açıkça	-5167
sy	-5168
▁hayran	-5169
tah	-5170
▁yusuf	-5171
95	-5172
▁olmayacak	-5173
97	-5174
▁biliyorum	-5175
▁işleri	-5176
smail	-5177
▁özgürlük	-5178
▁sön	-5179
.5	-5180
▁kilomet	-5181
▁kalem	-5182
▁bankası	-5183
▁vs	-5184
▁kurs	-5185
▁takv	-5186
▁kli	-5187
▁sever	-5188
yid	-5189
diniz	-5190
otel	-5191
▁bahsed	-5192
▁hindistan	-5193
▁darb	-5194
▁kıymet	-5195
melidir	-5196
ceğim	-5197
▁azalt	-5198
▁sığın	-5199
ıf	-5200
▁çalışması	-5201
▁hikây	-5202
▁alındı	-5203
▁ilav	-5204
▁rü	-5205
▁yorgun	-5206
▁yuvar	-5207
35	-5208
▁gösterdi	-5209
urlar	-5210
▁verilir	-5211
deri	-5212
kâ	-5213
▁taraftan	-5214
▁deli	-5215
▁organizasyon	-5216
▁nez	-5217
▁facebook	-5218
atasaray	-5219
isiniz	-5220
▁düşündü	-5221
keti	-5222
abiliyor	-5223
imle	-5224
▁çizg	-5225
▁gayet	-5226
▁ilçesinde	-5227
-6	-5228
▁bacak	-5229
lon	-5230
▁pişir	-5231
ino	-5232
hn	-5233
ınma	-5234
▁vic	-5235
larımıza	-5236
nternet	-5237
▁derken	-5238
▁olmaktan	-5239
▁maaş	-5240
.’	-5241
yken	-5242
▁gündem	-5243
cağına	-5244
▁ceph	-5245
▁endü	-5246
dığından	-5247
▁tw	-5248
▁sabır	-5249
▁2011	-5250
tab	-5251
▁istif	-5252
▁durumlarda	-5253
âil	-5254
▁gazete	-5255
▁sız	-5256
▁karşıya	-5257
ilip	-5258
▁kapasit	-5259
▁sendik	-5260
▁ekib	-5261
36	-5262
▁evlilik	-5263
▁başlamıştı	-5264
▁benimle	-5265
▁hü	-5266
stit	-5267
▁kullanmak	-5268
▁vir	-5269
▁ordus	-5270
▁temizlik	-5271
▁yapısı	-5272
▁katı	-5273
▁yetenek	-5274
▁ris	-5275
ai	-5276
gaç	-5277
▁rahmet	-5278
▁şehrin	-5279
▁dans	-5280
▁depo	-5281
▁vererek	-5282
▁çağr	-5283
▁tehlikeli	-5284
rî	-5285
ğının	-5286
tığında	-5287
▁olmaktadır	-5288
▁sef	-5289
▁bk	-5290
ılmasına	-5291
▁kumaş	-5292
diklerini	-5293
▁gösteriyor	-5294
ıklı	-5295
▁olunca	-5296
lukla	-5297
▁öv	-5298
▁bakın	-5299
▁özet	-5300
21	-5301
▁etmem	-5302
▁matematik	-5303
▁evin	-5304
▁hor	-5305
▁hakikat	-5306
ınızın	-5307
▁bahar	-5308
▁beklem	-5309
▁pah	-5310
▁görünüm	-5311
ılmaktadır	-5312
▁görünüyor	-5313
▁rej	-5314
▁mali	-5315
▁evvel	-5316
▁ekmek	-5317
▁yapımı	-5318
▁restor	-5319
▁	-5320
▁ilah	-5321
▁ağa	-5322
▁birinc	-5323
▁kusur	-5324
▁bireysel	-5325
giz	-5326
▁gürül	-5327
▁pratik	-5328
▁hayatta	-5329
asız	-5330
lerimi	-5331
▁ramazan	-5332
▁boyun	-5333
▁yeryüz	-5334
▁bizzat	-5335
işehir	-5336
▁havuz	-5337
▁olayı	-5338
şe	-5339
▁korumak	-5340
pt	-5341
▁kırık	-5342
▁olduğum	-5343
▁ulu	-5344
lıkta	-5345
▁derg	-5346
96	-5347
▁gelmişti	-5348
denin	-5349
▁aziz	-5350
maması	-5351
▁tir	-5352
sar	-5353
▁faydalan	-5354
melerini	-5355
▁iv	-5356
▁arkasında	-5357
▁faktör	-5358
uyoruz	-5359
▁sağlığı	-5360
▁gözden	-5361
▁nev	-5362
▁yur	-5363
▁doğrusu	-5364
▁''	-5365
▁olaylar	-5366
▁gördüğü	-5367
▁nakliyat	-5368
▁ekonomi	-5369
▁http	-5370
jital	-5371
▁açılış	-5372
inler	-5373
usunun	-5374
▁kanser	-5375
▁yeten	-5376
▁mensup	-5377
▁rekabet	-5378
▁fenerbahçe	-5379
▁gülüms	-5380
his	-5381
bon	-5382
larımı	-5383
git	-5384
▁denk	-5385
▁serg	-5386
▁yakından	-5387
▁gecik	-5388
▁lezzet	-5389
▁bağlan	-5390
▁tro	-5391
▁ofis	-5392
ladım	-5393
▁ediliyor	-5394
▁pir	-5395
▁yazık	-5396
▁herhalde	-5397
▁vel	-5398
ordin	-5399
▁şeyden	-5400
▁kula	-5401
▁etmez	-5402
▁gurur	-5403
▁şair	-5404
▁dilek	-5405
ary	-5406
diğine	-5407
▁yolculuk	-5408
▁incelen	-5409
lerimizin	-5410
▁gündüz	-5411
▁avukat	-5412
38	-5413
▁yaşar	-5414
3)	-5415
▁daima	-5416
medim	-5417
vin	-5418
▁karşılan	-5419
▁koltuk	-5420
▁sevk	-5421
▁beyan	-5422
oto	-5423
ilmesini	-5424
üldü	-5425
▁haberi	-5426
▁değin	-5427
mesinde	-5428
▁galatasaray	-5429
▁ertesi	-5430
yada	-5431
▁falan	-5432
▁karab	-5433
leyecek	-5434
▁alışkan	-5435
▁üretic	-5436
▁mağaz	-5437
▁örgütü	-5438
anıp	-5439
▁yayınları	-5440
ona	-5441
hp	-5442
▁sürük	-5443
▁getirmek	-5444
▁yangın	-5445
▁popüler	-5446
▁kalite	-5447
emeyen	-5448
türkiye	-5449
adaki	-5450
istin	-5451
gre	-5452
▁annesi	-5453
▁uygulaması	-5454
malarına	-5455
▁blog	-5456
ori	-5457
▁çığ	-5458
ple	-5459
âde	-5460
▁hıristiyan	-5461
▁yenilik	-5462
▁ayağa	-5463
ris	-5464
liliği	-5465
▁sağlaya	-5466
▁vali	-5467
ıydı	-5468
çeri	-5469
▁ış	-5470
arya	-5471
▁milliyet	-5472
▁edilecek	-5473
▁rakip	-5474
▁gibiydi	-5475
▁biridir	-5476
▁desteği	-5477
ıb	-5478
▁inşaat	-5479
▁uyarı	-5480
▁sonradan	-5481
▁polit	-5482
▁denilen	-5483
▁deri	-5484
▁cumhurbaşkan	-5485
▁pkk	-5486
▁netic	-5487
▁fazlası	-5488
▁doğur	-5489
ğimi	-5490
▁6.	-5491
▁uyandır	-5492
▁bül	-5493
▁halı	-5494
▁öğrencilerin	-5495
▁aleyhisselâmın	-5496
▁aşa	-5497
▁yaşat	-5498
▁düğün	-5499
▁olmayı	-5500
▁cok	-5501
▁ameliyat	-5502
iner	-5503
▁çıl	-5504
▁kongr	-5505
▁vas	-5506
▁rüzg	-5507
▁saha	-5508
▁günler	-5509
▁aykırı	-5510
slan	-5511
▁söyledik	-5512
▁sergil	-5513
teydi	-5514
manızı	-5515
▁cenaz	-5516
:00	-5517
▁koç	-5518
▁sığ	-5519
▁halka	-5520
{{	-5521
▁aktiv	-5522
▁öm	-5523
▁defter	-5524
▁abdül	-5525
▁selim	-5526
▁oldum	-5527
▁yürüm	-5528
▁karadeniz	-5529
▁antr	-5530
▁kurumu	-5531
▁köylü	-5532
▁tayin	-5533
▁hatt	-5534
▁com	-5535
▁ceb	-5536
▁rehber	-5537
▁taraftar	-5538
yasal	-5539
▁siyasal	-5540
tansiy	-5541
▁yolunu	-5542
▁dijital	-5543
▁sözcük	-5544
lemiş	-5545
ese	-5546
▁iptal	-5547
▁akın	-5548
▁yı	-5549
▁koz	-5550
▁kralı	-5551
▁tanıtım	-5552
allı	-5553
▁hayatın	-5554
▁çarpış	-5555
▁komşu	-5556
!’	-5557
▁doy	-5558
▁kilit	-5559
▁faydalı	-5560
▁güçlendir	-5561
şek	-5562
▁haş	-5563
▁ümit	-5564
▁bilgisi	-5565
▁iman	-5566
▁aracılığıyla	-5567
▁lam	-5568
▁euro	-5569
▁hele	-5570
rag	-5571
esef	-5572
▁sağlıyor	-5573
▁arş	-5574
▁gayret	-5575
▁2010	-5576
▁depr	-5577
isa	-5578
{{{	-5579
▁hata	-5580
▁deh	-5581
▁edebilirsiniz	-5582
▁yerler	-5583
şallah	-5584
▁yetkili	-5585
▁karşın	-5586
acağınız	-5587
veren	-5588
▁çıkacak	-5589
eddin	-5590
▁ra	-5591
▁potansiy	-5592
▁nec	-5593
▁çıkardı	-5594
▁şaşkın	-5595
▁değilim	-5596
▁noktası	-5597
tıktan	-5598
▁yenilen	-5599
amik	-5600
▁öldü	-5601
▁çalıştı	-5602
▁fe	-5603
44	-5604
ack	-5605
▁kanat	-5606
▁irade	-5607
sün	-5608
▁duruyor	-5609
aydı	-5610
▁buldu	-5611
▁bölün	-5612
▁mevzu	-5613
▁bulan	-5614
ng	-5615
▁kemik	-5616
unuzu	-5617
▁esnaf	-5618
dınız	-5619
▁len	-5620
sör	-5621
şlet	-5622
▁evine	-5623
▁mahall	-5624
▁erkekler	-5625
▁malat	-5626
▁cinayet	-5627
▁kendileri	-5628
▁kadını	-5629
▁bulama	-5630
▁gev	-5631
▁cins	-5632
▁kağıt	-5633
kesi	-5634
▁şube	-5635
▁post	-5636
ebi	-5637
▁göğüs	-5638
▁sahil	-5639
”.	-5640
▁kızın	-5641
▁edildiği	-5642
ısınız	-5643
▁işlev	-5644
▁bilgilendir	-5645
▁şak	-5646
val	-5647
▁bayrak	-5648
▁disip	-5649
ife	-5650
▁hareketi	-5651
▁hip	-5652
leyic	-5653
▁olacağı	-5654
▁kayded	-5655
▁edilebilir	-5656
▁anlatıyor	-5657
▁suretiyle	-5658
▁mecbur	-5659
▁gazetec	-5660
ûm	-5661
takım	-5662
▁hisse	-5663
pg	-5664
▁seyir	-5665
tikten	-5666
▁öbür	-5667
▁tutul	-5668
▁demokratik	-5669
▁merdiven	-5670
▁dikkatli	-5671
▁ayakta	-5672
▁işlemleri	-5673
anti	-5674
▁verg	-5675
▁duruş	-5676
▁tuhaf	-5677
▁akdeniz	-5678
▁![	-5679
▁kader	-5680
▁bilmiyorum	-5681
▁sigara	-5682
75	-5683
▁bid	-5684
bakır	-5685
▁kaptan	-5686
▁itiraz	-5687
▁küresel	-5688
▁refer	-5689
ilerde	-5690
elerek	-5691
▁veli	-5692
▁mikro	-5693
tifak	-5694
mesinden	-5695
▁yunanistan	-5696
▁sadrazam	-5697
▁yumur	-5698
tam	-5699
▁amaçlı	-5700
▁radyo	-5701
▁sigort	-5702
▁baştan	-5703
▁önde	-5704
▁şehri	-5705
akkale	-5706
▁belgesi	-5707
kas	-5708
▁nitekim	-5709
▁sandal	-5710
▁öteki	-5711
luğun	-5712
sav	-5713
▁kıyı	-5714
▁ast	-5715
los	-5716
▁alabil	-5717
▁topluluk	-5718
▁anlaya	-5719
▁yedek	-5720
▁bedel	-5721
▁duygusal	-5722
▁konuşan	-5723
▁babasının	-5724
▁est	-5725
anız	-5726
▁devir	-5727
▁vücud	-5728
kun	-5729
▁kahvaltı	-5730
▁ze	-5731
▁48	-5732
ograf	-5733
▁makal	-5734
▁esnasında	-5735
▁ihtimal	-5736
pek	-5737
▁modeli	-5738
ünce	-5739
▁geldiğinde	-5740
liydi	-5741
▁çalışır	-5742
▁denir	-5743
▁satı	-5744
images	-5745
▁(1)	-5746
eleriyle	-5747
lüğe	-5748
▁dernek	-5749
▁gelişmeler	-5750
iyetini	-5751
▁lond	-5752
▁meden	-5753
▁plak	-5754
▁görünen	-5755
anları	-5756
▁hastanesi	-5757
▁ısrar	-5758
▁kullandı	-5759
▁gözük	-5760
24	-5761
▁verici	-5762
14	-5763
▁onlarla	-5764
▁karışık	-5765
▁melek	-5766
▁türü	-5767
▁kıp	-5768
▁güne	-5769
▁enstit	-5770
▁vitam	-5771
▁dönüşüm	-5772
▁sembol	-5773
▁verdim	-5774
▁cemaat	-5775
ülür	-5776
not	-5777
▁gelişmiş	-5778
yim	-5779
▁adıyla	-5780
▁ettikleri	-5781
▁çağrı	-5782
▁antik	-5783
ısal	-5784
▁kitl	-5785
▁bağımlı	-5786
▁hepsini	-5787
▁temas	-5788
▁nereye	-5789
▁göze	-5790
▁mümkündür	-5791
▁sakın	-5792
▁günden	-5793
▁insana	-5794
izmin	-5795
lus	-5796
▁aslan	-5797
maktır	-5798
▁sebebiyle	-5799
39	-5800
▁kütüp	-5801
▁karşılıklı	-5802
▁zehir	-5803
▁zul	-5804
▁hakan	-5805
▁hur	-5806
▁anlattı	-5807
▁qu	-5808
erv	-5809
dows	-5810
▁rengi	-5811
▁teker	-5812
ock	-5813
ity	-5814
esin	-5815
/0	-5816
▁silahlı	-5817
▁tanık	-5818
ex	-5819
ûr	-5820
▁konuyu	-5821
▁uçuş	-5822
▁kuşat	-5823
▁seyyid	-5824
▁tutum	-5825
landığı	-5826
▁iade	-5827
▁kuşk	-5828
▁meyv	-5829
▁rüy	-5830
▁eskiden	-5831
▁sürece	-5832
▁mini	-5833
▁görüşmeler	-5834
▁300	-5835
▁getirdiği	-5836
▁ibaret	-5837
utu	-5838
▁gu	-5839
▁önemi	-5840
▁sigorta	-5841
▁dava	-5842
▁şirketi	-5843
▁görülür	-5844
▁yükselt	-5845
▁geliyordu	-5846
▁hatırlat	-5847
▁firmamız	-5848
▁ebû	-5849
▁kaya	-5850
▁olmakla	-5851
▁hayırlı	-5852
lilerin	-5853
bot	-5854
rın	-5855
▁imal	-5856
▁malzeme	-5857
▁hayli	-5858
amıyor	-5859
▁maddesi	-5860
▁olmasa	-5861
▁jandar	-5862
▁diyet	-5863
▁yakal	-5864
▁leh	-5865
!..	-5866
▁je	-5867
▁birbirlerine	-5868
tip	-5869
▁gözalt	-5870
▁mekke	-5871
eceğimiz	-5872
▁zemin	-5873
iret	-5874
▁kanunun	-5875
▁ilave	-5876
37	-5877
▁neyse	-5878
▁ortada	-5879
▁gidecek	-5880
▁kahve	-5881
inda	-5882
▁sınırlı	-5883
bert	-5884
▁vi	-5885
▁anlatan	-5886
mparatorluğu	-5887
▁gönderdi	-5888
▁şunları	-5889
▁aydınlat	-5890
▁kesîr	-5891
▁kullanan	-5892
.00	-5893
▁güvenliği	-5894
okulu	-5895
▁kıyas	-5896
rama	-5897
▁müdahale	-5898
▁otuz	-5899
▁niçin	-5900
▁mahmut	-5901
▁ihracat	-5902
▁psikolojik	-5903
larken	-5904
▁göstermek	-5905
▁kararlı	-5906
demir	-5907
emem	-5908
▁yapıp	-5909
kaya	-5910
▁sekret	-5911
▁birtakım	-5912
▁çevresinde	-5913
▁tabak	-5914
▁yüzünü	-5915
▁yurtdı	-5916
▁pis	-5917
▁petrol	-5918
▁bıraktı	-5919
eydi	-5920
▁olmaları	-5921
▁budur	-5922
ülmesi	-5923
tük	-5924
▁meclisi	-5925
▁koyu	-5926
▁planı	-5927
▁vermektedir	-5928
▁şahıs	-5929
▁sorunları	-5930
madım	-5931
▁verilmesi	-5932
ruf	-5933
âd	-5934
▁mahkeme	-5935
▁olgun	-5936
eceğine	-5937
▁andro	-5938
▁pal	-5939
▁toh	-5940
▁tarihleri	-5941
▁ran	-5942
eyn	-5943
atın	-5944
▁incelem	-5945
ıyordum	-5946
▁pak	-5947
▁egz	-5948
▁yapıla	-5949
▁bileş	-5950
▁vezir	-5951
▁yasa	-5952
▁195	-5953
gs	-5954
▁yaptım	-5955
ığı	-5956
▁verme	-5957
ediğini	-5958
▁çekin	-5959
▁değerlendirme	-5960
caya	-5961
îm	-5962
gah	-5963
▁artan	-5964
▁yöntemi	-5965
▁bizler	-5966
iyorsunuz	-5967
▁istiyordu	-5968
uncu	-5969
lığından	-5970
mit	-5971
suzluk	-5972
▁istiyoruz	-5973
▁bina	-5974
zan	-5975
▁aksine	-5976
lıyordu	-5977
▁olduğunda	-5978
▁miktarda	-5979
▁ederler	-5980
▁hakkındaki	-5981
................	-5982
▁eşya	-5983
▁gerekse	-5984
▁afrika	-5985
▁koordin	-5986
▁haberler	-5987
▁olduğunuz	-5988
▁vefat	-5989
▁nat	-5990
▁39	-5991
▁dayalı	-5992
tic	-5993
ibe	-5994
▁;	-5995
▁anayasa	-5996
▁kartı	-5997
▁yoksul	-5998
▁ortamda	-5999
▁34	-6000
▁sinema	-6001
▁yüzüne	-6002
▁dünyayı	-6003
▁lak	-6004
▁bilgiye	-6005
▁ikin	-6006
▁ortasında	-6007
osk	-6008
▁kaçak	-6009
▁yahut	-6010
▁okulu	-6011
▁ulaşabilirsiniz	-6012
▁dum	-6013
▁musun	-6014
▁yapabilirsiniz	-6015
sh	-6016
▁kimyasal	-6017
▁evinde	-6018
▁cumartesi	-6019
▁ca	-6020
▁zihn	-6021
sının	-6022
▁telefonu	-6023
▁sıradan	-6024
eğine	-6025
ilmişti	-6026
şim	-6027
▁bölümünde	-6028
▁rivayet	-6029
ozof	-6030
▁çanakkale	-6031
▁fo	-6032
▁yönünde	-6033
▁gitmiş	-6034
nü	-6035
32	-6036
▁2008	-6037
▁anlatır	-6038
▁zamanla	-6039
▁sonuçlar	-6040
▁işbirliği	-6041
▁sta	-6042
▁kiralama	-6043
lıyorum	-6044
▁süz	-6045
▁yazdığı	-6046
0,	-6047
fed	-6048
▁kib	-6049
gâh	-6050
dıkça	-6051
▁bulgar	-6052
▁algı	-6053
▁alak	-6054
▁yemin	-6055
üyü	-6056
▁mac	-6057
▁alınır	-6058
gat	-6059
mayıp	-6060
▁oluşturan	-6061
isiz	-6062
▁tipi	-6063
▁yetersiz	-6064
▁turk	-6065
▁çil	-6066
▁paylaşım	-6067
teyiz	-6068
▁demokrasi	-6069
wn	-6070
▁gelmesi	-6071
▁isterseniz	-6072
▁politika	-6073
▁za	-6074
ebilmek	-6075
▁eli	-6076
▁halen	-6077
▁çav	-6078
▁kuvvetli	-6079
.'	-6080
▁açıldı	-6081
▁tüketic	-6082
irim	-6083
▁çekici	-6084
ich	-6085
▁başlayacak	-6086
].	-6087
▁yüküm	-6088
▁okur	-6089
▁kuran	-6090
▁bozul	-6091
land	-6092
▁civarında	-6093
unus	-6094
▁futbolcu	-6095
▁ülkeler	-6096
▁olağanüstü	-6097
▁kalıcı	-6098
ımdan	-6099
▁kazanç	-6100
▁önümüzdeki	-6101
▁mâ	-6102
▁yaptığını	-6103
..."	-6104
▁trabzon	-6105
▁delâil	-6106
▁saniye	-6107
▁cüml	-6108
▁istediğini	-6109
duktan	-6110
▁nesil	-6111
ûn	-6112
▁mhp	-6113
▁istiyorsanız	-6114
▁hacı	-6115
▁kendisinden	-6116
▁muay	-6117
şap	-6118
-4	-6119
▁üstü	-6120
henn	-6121
kem	-6122
sinde	-6123
âzım	-6124
▁ti	-6125
memesi	-6126
▁kolaylaştır	-6127
▁göv	-6128
▁talima	-6129
▁çey	-6130
mus	-6131
▁zah	-6132
▁diyarbakır	-6133
▁arkasından	-6134
ere	-6135
▁mol	-6136
▁kulüp	-6137
hid	-6138
▁varmış	-6139
▁edici	-6140
▁emekli	-6141
▁tâ	-6142
▁anlamak	-6143
▁albüm	-6144
▁kullandığı	-6145
▁erzurum	-6146
▁general	-6147
▁yu	-6148
▁banyo	-6149
▁koku	-6150
▁üretimi	-6151
▁cerrah	-6152
▁muhab	-6153
liye	-6154
▁pam	-6155
lemesi	-6156
▁anında	-6157
▁ninni	-6158
▁altyap	-6159
▁salı	-6160
▁edir	-6161
yak	-6162
▁çuk	-6163
melik	-6164
▁usta	-6165
▁yaratıcı	-6166
▁zirv	-6167
▁burası	-6168
▁ege	-6169
ğeri	-6170
▁arkadaşı	-6171
▁çır	-6172
▁köyü	-6173
▁düzeyde	-6174
▁çadır	-6175
▁zeh	-6176
▁sorunun	-6177
▁edilmektedir	-6178
▁tuv	-6179
▁hazret	-6180
▁kalıp	-6181
▁ithal	-6182
cıların	-6183
▁imkanı	-6184
▁mevcuttur	-6185
elendir	-6186
▁duru	-6187
▁girer	-6188
▁bulunması	-6189
▁tanesi	-6190
▁7.	-6191
▁kullanma	-6192
▁dışişleri	-6193
kit	-6194
▁resûlullah	-6195
▁gazetesi	-6196
▁sanıyor	-6197
▁barındır	-6198
▁final	-6199
▁windows	-6200
▁seviş	-6201
▁gücünü	-6202
▁hunların	-6203
▁ci	-6204
satı	-6205
▁gerekç	-6206
▁direktör	-6207
▁maruz	-6208
▁stat	-6209
▁masa	-6210
▁dörd	-6211
▁meyve	-6212
▁müşrik	-6213
▁başarısız	-6214
▁şeytan	-6215
rük	-6216
vanı	-6217
▁görünüş	-6218
▁kü	-6219
▁sch	-6220
▁kapıyı	-6221
note	-6222
▁hikmet	-6223
▁tasarımı	-6224
▁okum	-6225
1)	-6226
▁idare	-6227
▁kısmını	-6228
▁müsa	-6229
ste	-6230
▁cevabı	-6231
ill	-6232
alesef	-6233
▁medine	-6234
cev	-6235
▁alınacak	-6236
▁acel	-6237
▁kutu	-6238
▁biliyordu	-6239
▁sivas	-6240
▁seyret	-6241
▁önder	-6242
nsanlar	-6243
29	-6244
▁bilge	-6245
▁atilla	-6246
▁açma	-6247
▁öyl	-6248
▁filozof	-6249
mediğini	-6250
▁gelmiştir	-6251
▁sayede	-6252
▁konularda	-6253
ağını	-6254
▁kavg	-6255
▁gözaltına	-6256
▁bugünkü	-6257
▁yıllardır	-6258
▁kumandan	-6259
▁diplo	-6260
▁durdu	-6261
paşa	-6262
▁anım	-6263
darı	-6264
îh	-6265
▁kalacak	-6266
▁yaptığımız	-6267
▁etrafında	-6268
▁tabgaç	-6269
▁birinde	-6270
▁havalim	-6271
▁yumurta	-6272
▁yılından	-6273
▁geride	-6274
▁sertif	-6275
duğunuz	-6276
ustur	-6277
▁gölg	-6278
▁fan	-6279
▁aşkın	-6280
paz	-6281
▁bakar	-6282
▁zorluk	-6283
imini	-6284
▁eskişehir	-6285
▁seven	-6286
▁hic	-6287
unlar	-6288
▁yaşıyor	-6289
ırdı	-6290
▁ilçe	-6291
▁sov	-6292
ilmesine	-6293
▁güler	-6294
▁uyu	-6295
▁kısaca	-6296
▁kurtuluş	-6297
33	-6298
sis	-6299
kah	-6300
▁karan	-6301
▁yüzlerce	-6302
arda	-6303
erk	-6304
ülmüş	-6305
▁yayınlanan	-6306
▁yapıldığı	-6307
▁bro	-6308
▁fas	-6309
alılar	-6310
âk	-6311
▁döner	-6312
▁tarafı	-6313
▁boyn	-6314
iyye	-6315
bab	-6316
mis	-6317
▁kendinizi	-6318
landa	-6319
▁lük	-6320
▁ulaşım	-6321
▁tasarruf	-6322
▁diyorum	-6323
▁mahkemesi	-6324
iti	-6325
▁küf	-6326
▁müdürlüğ	-6327
fil	-6328
▁altındaki	-6329
▁çiğ	-6330
bilirim	-6331
▁aksi	-6332
▁bulur	-6333
düler	-6334
▁sebeple	-6335
ğım	-6336
yaj	-6337
▁zamana	-6338
▁resm	-6339
▁getirir	-6340
riyet	-6341
▁gı	-6342
▁canlandır	-6343
kür	-6344
▁ayet	-6345
▁malatya	-6346
masyon	-6347
▁kısı	-6348
lerimize	-6349
▁kendime	-6350
▁hastalığı	-6351
▁lek	-6352
lanarak	-6353
▁konus	-6354
▁beyler	-6355
▁gözler	-6356
▁karşısına	-6357
▁ziyade	-6358
▁kötül	-6359
luğa	-6360
▁sıvı	-6361
▁yeterince	-6362
▁şekli	-6363
ji	-6364
▁gündeme	-6365
▁seçen	-6366
65	-6367
▁sürücü	-6368
▁ırk	-6369
▁keskin	-6370
▁olsaydı	-6371
menizi	-6372
pi	-6373
▁suyun	-6374
▁dolan	-6375
▁bilet	-6376
▁girmiş	-6377
▁kaza	-6378
▁ahşap	-6379
▁etmeyi	-6380
▁siteleri	-6381
ıplak	-6382
în	-6383
▁geldik	-6384
▁günleri	-6385
nel	-6386
▁subay	-6387
▁hemş	-6388
istler	-6389
▁dola	-6390
▁adayı	-6391
▁keyifli	-6392
▁yılları	-6393
▁tey	-6394
uluyor	-6395
otik	-6396
▁sunan	-6397
▁varsay	-6398
antep	-6399
▁oranında	-6400
▁bulunduğunu	-6401
▁yiy	-6402
▁doç	-6403
maların	-6404
▁gelişme	-6405
▁sevinç	-6406
▁çıktığı	-6407
▁komutanı	-6408
▁lisesi	-6409
▁bkz	-6410
▁yapın	-6411
▁android	-6412
▁gelerek	-6413
çisi	-6414
▁oluyordu	-6415
▁47	-6416
▁şimdiye	-6417
▁kapak	-6418
▁şüphesiz	-6419
▁yolları	-6420
▁yab	-6421
zam	-6422
▁ömür	-6423
▁kişiyi	-6424
top	-6425
▁görevlendir	-6426
▁çağdaş	-6427
▁ww	-6428
▁mesle	-6429
▁kopar	-6430
kap	-6431
▁sözünü	-6432
▁yüzyılda	-6433
▁öğrenmek	-6434
ilerinden	-6435
emizde	-6436
▁kimin	-6437
▁sömür	-6438
▁uydur	-6439
sından	-6440
▁çik	-6441
▁anlar	-6442
▁damar	-6443
▁denize	-6444
türü	-6445
▁ailen	-6446
▁gezeg	-6447
▁pazartesi	-6448
▁alıcı	-6449
▁maalesef	-6450
onlar	-6451
▁nereden	-6452
▁laf	-6453
2)	-6454
▁olmaması	-6455
▁farkı	-6456
üzel	-6457
itter	-6458
ahh	-6459
alarıyla	-6460
▁kafa	-6461
▁elli	-6462
hone	-6463
▁silin	-6464
▁bulaş	-6465
▁log	-6466
ök	-6467
peryal	-6468
▁yerleri	-6469
▁tarafında	-6470
▁gösterdiği	-6471
▁niye	-6472
iyel	-6473
▁etiketler	-6474
▁esîr	-6475
▁sâ	-6476
▁delil	-6477
▁tom	-6478
▁sovyet	-6479
meyin	-6480
▁john	-6481
▁alması	-6482
ebek	-6483
mıyorum	-6484
▁cehenn	-6485
spanya	-6486
▁olmanın	-6487
▁hükümeti	-6488
▁durak	-6489
▁55	-6490
▁sis	-6491
tikleri	-6492
▁nar	-6493
▁devamlı	-6494
▁ölen	-6495
▁zav	-6496
ildiğini	-6497
amadı	-6498
▁sayılır	-6499
▁set	-6500
▁genişlet	-6501
▁öncelik	-6502
▁duyduğu	-6503
▁tac	-6504
▁kuvvetleri	-6505
▁edirne	-6506
isyen	-6507
▁durumun	-6508
tl	-6509
▁uygar	-6510
anların	-6511
rip	-6512
▁heykel	-6513
▁valisi	-6514
▁ailesi	-6515
▁kiralık	-6516
abileceği	-6517
▁tarafa	-6518
▁gibidir	-6519
▁görecek	-6520
▁york	-6521
yabil	-6522
yordu	-6523
▁tarihsel	-6524
▁bizden	-6525
tes	-6526
-201	-6527
▁alanları	-6528
▁fikr	-6529
▁garanti	-6530
▁yuv	-6531
talyan	-6532
▁şiddetli	-6533
▁köl	-6534
▁şem	-6535
▁bidâye	-6536
▁oğlum	-6537
likleri	-6538
luğunu	-6539
ano	-6540
mıştım	-6541
lup	-6542
▁mevsim	-6543
▁uyumlu	-6544
▁anlaşma	-6545
▁söylemiş	-6546
▁meşhur	-6547
▁gerçeği	-6548
amızda	-6549
▁besin	-6550
▁başladılar	-6551
▁çekir	-6552
▁âyet	-6553
işle	-6554
▁alınarak	-6555
▁kurtu	-6556
▁hid	-6557
▁kısıt	-6558
▁dönemin	-6559
▁görünür	-6560
hakî	-6561
▁zincir	-6562
▁vakıf	-6563
▁gökyüz	-6564
ılmaya	-6565
▁tb	-6566
▁göstermektedir	-6567
▁müf	-6568
lanacak	-6569
amayan	-6570
melerin	-6571
▁rezerv	-6572
▁londra	-6573
▁korkut	-6574
nşa	-6575
sc	-6576
▁harca	-6577
▁istis	-6578
▁muhalef	-6579
▁annem	-6580
fir	-6581
▁dert	-6582
▁anlayışı	-6583
elle	-6584
▁razı	-6585
▁mersin	-6586
oğol	-6587
ilebil	-6588
▁kimseye	-6589
▁jandarma	-6590
▁misin	-6591
yiz	-6592
▁kulübü	-6593
▁sıfır	-6594
▁şahin	-6595
:)	-6596
▁cal	-6597
▁çevres	-6598
▁alkol	-6599
▁beyhakî	-6600
▁çant	-6601
▁müd	-6602
▁ligi	-6603
▁bekleyen	-6604
▁1/3	-6605
▁başladım	-6606
▁makyaj	-6607
▁uf	-6608
ılıyordu	-6609
iyorlardı	-6610
amam	-6611
▁buğ	-6612
▁beslenme	-6613
▁kurmak	-6614
▁istan	-6615
▁sahne	-6616
avv	-6617
▁çalışmak	-6618
▁dürüst	-6619
▁aşama	-6620
▁olanı	-6621
nci	-6622
▁8.	-6623
hiş	-6624
▁kaymakam	-6625
▁özür	-6626
azi	-6627
dîn	-6628
▁ov	-6629
▁sayg	-6630
▁varlığı	-6631
▁zer	-6632
▁komün	-6633
sizin	-6634
▁seri	-6635
▁mete	-6636
▁süreli	-6637
▁salonu	-6638
▁2000	-6639
▁alçak	-6640
▁konferans	-6641
▁tuş	-6642
mad	-6643
▁bünyesinde	-6644
daha	-6645
nas	-6646
▁dördüncü	-6647
▁tarzı	-6648
▁yapması	-6649
▁gelmez	-6650
▁ekipleri	-6651
cılığı	-6652
rom	-6653
▁www	-6654
▁tüf	-6655
▁yoluna	-6656
85	-6657
_0	-6658
▁girip	-6659
▁eseri	-6660
▁iğ	-6661
▁raporu	-6662
eğer	-6663
▁nöbet	-6664
▁akrab	-6665
▁makine	-6666
▁ens	-6667
▁kaydetti	-6668
▁masraf	-6669
▁cezası	-6670
ell	-6671
▁sizden	-6672
▁sorular	-6673
▁akış	-6674
▁erdem	-6675
▁müslim	-6676
▁tedavisi	-6677
▁vakfı	-6678
▁yüzyılın	-6679
▁ulaşmak	-6680
▁yönde	-6681
▁diğeri	-6682
▁unutul	-6683
▁kitabın	-6684
▁çizgi	-6685
▁numaralı	-6686
▁macer	-6687
▁bırakıp	-6688
lg	-6689
▁vesil	-6690
▁rüzgâr	-6691
▁kred	-6692
▁örneği	-6693
▁canım	-6694
▁dediği	-6695
▁verimli	-6696
▁tüketim	-6697
▁belirlenen	-6698
▁millî	-6699
▁yahudi	-6700
▁link	-6701
▁efendim	-6702
▁makinesi	-6703
ırda	-6704
▁150	-6705
▁cis	-6706
eyip	-6707
▁merkezinde	-6708
▁heyet	-6709
lerdeki	-6710
▁sözleşme	-6711
▁erişim	-6712
ille	-6713
▁öncesinde	-6714
▁perş	-6715
leyse	-6716
▁yerlere	-6717
▁başladık	-6718
▁kargo	-6719
▁ürünün	-6720
leki	-6721
▁bisiklet	-6722
▁altını	-6723
▁bitki	-6724
▁zik	-6725
▁seyr	-6726
ılmak	-6727
idi	-6728
▁niteli	-6729
▁vicdan	-6730
6)	-6731
▁tüy	-6732
▁dalı	-6733
▁gönl	-6734
▁koyun	-6735
▁şe	-6736
▁adamları	-6737
?»	-6738
▁gözet	-6739
▁gereksin	-6740
▁keyf	-6741
▁hakkını	-6742
▁hazin	-6743
▁gözü	-6744
memişti	-6745
▁disiplin	-6746
▁kocaman	-6747
▁ehl	-6748
ong	-6749
▁kurş	-6750
▁bonus	-6751
▁musunuz	-6752
▁hariç	-6753
▁robot	-6754
▁0,	-6755
▁kaldığı	-6756
itesi	-6757
▁cevab	-6758
foot	-6759
▁oğuz	-6760
masız	-6761
▁hatırla	-6762
▁yağı	-6763
▁kağan	-6764
amayacak	-6765
▁birşey	-6766
▁ga	-6767
hem	-6768
▁geçip	-6769
▁istanbul	-6770
▁cezalandır	-6771
▁alanlar	-6772
▁başlıklı	-6773
▁buhârî	-6774
▁genelinde	-6775
benim	-6776
▁selçuklu	-6777
▁devamı	-6778
▁kale	-6779
ww	-6780
▁uyk	-6781
▁geliştirme	-6782
▁iphone	-6783
▁gelmektedir	-6784
▁maçı	-6785
▁zamanın	-6786
▁türklerin	-6787
▁dor	-6788
ağına	-6789
▁kek	-6790
▁gülen	-6791
▁kayseri	-6792
▁düşünceler	-6793
ceğiz	-6794
▁ederiz	-6795
duğunda	-6796
▁kazanan	-6797
uzu	-6798
▁ita	-6799
▁kalmak	-6800
▁muhar	-6801
▁süredir	-6802
gini	-6803
▁dib	-6804
▁medeniyet	-6805
udi	-6806
şleri	-6807
▁müdahal	-6808
▁2009	-6809
▁fetö	-6810
▁kamyon	-6811
▁indirim	-6812
▁44	-6813
▁eliyle	-6814
▁verim	-6815
▁yürek	-6816
▁ötürü	-6817
▁sunulan	-6818
▁müte	-6819
▁kalmıştı	-6820
▁başa	-6821
▁yönetmeli	-6822
yat	-6823
▁milletvekil	-6824
opa	-6825
▁ekibi	-6826
▁prote	-6827
▁caz	-6828
▁yönetmen	-6829
▁anlamında	-6830
▁yoldan	-6831
▁geçirdi	-6832
▁geçiyor	-6833
▁misiniz	-6834
▁bodr	-6835
ts	-6836
eter	-6837
▁raf	-6838
▁karn	-6839
▁sc	-6840
▁açan	-6841
▁mater	-6842
▁sorunlar	-6843
▁ayrıntılı	-6844
ılda	-6845
▁mevki	-6846
âv	-6847
▁dosya	-6848
▁murad	-6849
▁işini	-6850
▁bıçak	-6851
▁düzgün	-6852
▁otor	-6853
▁diyal	-6854
▁ikna	-6855
▁zem	-6856
likten	-6857
▁ilişkileri	-6858
▁zorlu	-6859
▁yansıt	-6860
▁gümrük	-6861
▁3,	-6862
▁uygulamaları	-6863
▁ölümü	-6864
iyo	-6865
▁köken	-6866
▁apple	-6867
▁çarşam	-6868
umun	-6869
▁ittifak	-6870
▁eğlenceli	-6871
▁muhtemelen	-6872
▁moğol	-6873
▁saati	-6874
▁ellerini	-6875
footnote	-6876
tıp	-6877
▁hom	-6878
▁uzmanı	-6879
▁arslan	-6880
▁seviye	-6881
▁birleşik	-6882
▁olabilecek	-6883
▁labor	-6884
▁arşiv	-6885
▁arkadaşları	-6886
▁kültürü	-6887
mışlar	-6888
▁toplantısı	-6889
ladığını	-6890
yâ	-6891
%20	-6892
▁giderken	-6893
abiliriz	-6894
▁olayları	-6895
▁savaşa	-6896
▁avustur	-6897
mec	-6898
▁gan	-6899
ick	-6900
▁emperyal	-6901
iya	-6902
▁şap	-6903
▁istedim	-6904
▁mekaniz	-6905
▁dışına	-6906
yani	-6907
▁bildirdi	-6908
▁boşal	-6909
hep	-6910
▁bakarak	-6911
▁panel	-6912
ress	-6913
▁kötülük	-6914
▁çeliş	-6915
lâh	-6916
beri	-6917
▁deprem	-6918
▁orhan	-6919
letişim	-6920
▁mahalle	-6921
▁kullanılması	-6922
▁büyüy	-6923
▁bağlam	-6924
juv	-6925
▁taze	-6926
▁kaps	-6927
78	-6928
kay	-6929
▁42	-6930
▁epey	-6931
▁olmazsa	-6932
▁koydu	-6933
eyş	-6934
▁çalışmaya	-6935
âmil	-6936
▁şarap	-6937
▁perşembe	-6938
▁fikri	-6939
▁döş	-6940
ıyorlardı	-6941
▁kapısı	-6942
▁almıştır	-6943
▁kaydı	-6944
▁ermeni	-6945
▁keşfet	-6946
▁çekmek	-6947
▁isterim	-6948
▁çekim	-6949
▁bütç	-6950
akat	-6951
▁etken	-6952
▁sınırları	-6953
▁uzaklaştır	-6954
buki	-6955
▁bekir	-6956
▁endüstr	-6957
vat	-6958
göz	-6959
▁görüyoruz	-6960
▁tamir	-6961
likler	-6962
▁rö	-6963
▁teşekkürler	-6964
▁yapmayı	-6965
▁gerçekleşen	-6966
▁varlığını	-6967
▁bodrum	-6968
▁çavuş	-6969
▁karmaşık	-6970
▁43	-6971
▁hasar	-6972
▁aldır	-6973
▁belge	-6974
▁·	-6975
▁mesleki	-6976
▁tavsiy	-6977
▁başından	-6978
▁yavru	-6979
▁bizimle	-6980
▁rica	-6981
ısındaki	-6982
dön	-6983
▁kaynakları	-6984
▁46	-6985
www	-6986
▁190	-6987
▁oruç	-6988
▁meşgul	-6989
maktaydı	-6990
▁yerinden	-6991
▁kariyer	-6992
barı	-6993
▁firması	-6994
▁tıkan	-6995
▁bulabilirsiniz	-6996
▁atık	-6997
▁çaba	-6998
ülecek	-6999
▁adresi	-7000
salar	-7001
▁taşımak	-7002
▁edilerek	-7003
▁uyuştur	-7004
▁çu	-7005
▁denen	-7006
▁fuar	-7007
arik	-7008
▁materyal	-7009
▁kaybetti	-7010
▁bekledi	-7011
til	-7012
▁metr	-7013
▁perde	-7014
abilen	-7015
ump	-7016
▁hani	-7017
tiy	-7018
▁hitap	-7019
▁fıs	-7020
▁üzün	-7021
miz	-7022
▁stres	-7023
▁lideri	-7024
▁gaziantep	-7025
▁muc	-7026
ref	-7027
▁çarşamba	-7028
▁amir	-7029
▁olayın	-7030
lamadan	-7031
▁sektöründe	-7032
▁bilinc	-7033
▁kıt	-7034
▁köprü	-7035
/201	-7036
▁bilmek	-7037
yol	-7038
aladı	-7039
▁öykü	-7040
ob	-7041
ds	-7042
bütün	-7043
tılı	-7044
▁zeki	-7045
sus	-7046
atistik	-7047
gut	-7048
▁olgu	-7049
200	-7050
▁tazmin	-7051
▁sec	-7052
cik	-7053
▁pi	-7054
▁geçerek	-7055
▁kasab	-7056
▁akla	-7057
▁söylediği	-7058
▁başladığı	-7059
▁icra	-7060
▁akademik	-7061
▁istemez	-7062
▁inti	-7063
▁sözcü	-7064
▁oturan	-7065
atçı	-7066
ndeki	-7067
▁dakikada	-7068
▁oluşur	-7069
▁bos	-7070
okol	-7071
▁şirketin	-7072
alel	-7073
▁muam	-7074
▁derhal	-7075
ull	-7076
▁filistin	-7077
▁tarihte	-7078
▁tamamlan	-7079
emeyecek	-7080
-10	-7081
▁ibadet	-7082
▁sizleri	-7083
7)	-7084
▁kadına	-7085
▁savaşın	-7086
zade	-7087
▁buradaki	-7088
▁fit	-7089
▁laborat	-7090
▁beslen	-7091
▁gönüllü	-7092
▁organize	-7093
▁pahalı	-7094
55	-7095
▁belirgin	-7096
▁yaralı	-7097
▁bağırdı	-7098
miyordu	-7099
▁bayramı	-7100
mp	-7101
▁iyilik	-7102
▁soluk	-7103
▁potansiyel	-7104
mıyordu	-7105
▁fırsatı	-7106
▁işken	-7107
örü	-7108
▁oyunun	-7109
▁müthiş	-7110
▁ayrım	-7111
▁arayan	-7112
▁felsefe	-7113
▁fed	-7114
▁uzaktan	-7115
içi	-7116
▁hizmetler	-7117
ğından	-7118
▁diledi	-7119
▁antren	-7120
▁teâlâ	-7121
uar	-7122
▁ram	-7123
▁bitti	-7124
▁tırman	-7125
png	-7126
▁uygulanan	-7127
▁col	-7128
abilirler	-7129
▁tersine	-7130
▁bakımdan	-7131
▁sisteminin	-7132
▁açıklaması	-7133
▁çalışmalarını	-7134
]](../	-7135
.10	-7136
ladılar	-7137
▁çür	-7138
veya	-7139
▁evrensel	-7140
evî	-7141
pro	-7142
nce	-7143
▁fakir	-7144
▁değilse	-7145
▁büyüme	-7146
▁düzenleme	-7147
▁karşımıza	-7148
▁pe	-7149
bit	-7150
▁çukur	-7151
idor	-7152
▁oyunlar	-7153
ates	-7154
▁sıç	-7155
▁duv	-7156
çuk	-7157
▁konuya	-7158
▁şartı	-7159
▁41	-7160
▁plastik	-7161
burg	-7162
▁görevli	-7163
▁şimdiden	-7164
▁olacaktı	-7165
▁halkının	-7166
▁çıplak	-7167
▁4/	-7168
▁geçirmek	-7169
▁açığa	-7170
▁çoktan	-7171
oda	-7172
▁ayda	-7173
▁sünnet	-7174
▁my	-7175
▁suçlu	-7176
▁ima	-7177
▁yılının	-7178
▁muz	-7179
▁harp	-7180
▁zorla	-7181
▁teşkilat	-7182
▁400	-7183
ükle	-7184
▁boşluk	-7185
▁sonuçta	-7186
▁karşılığında	-7187
▁kilometre	-7188
▁burun	-7189
▁oldular	-7190
▁garant	-7191
▁keç	-7192
▁soruşturma	-7193
▁halil	-7194
▁kazandı	-7195
▁atöl	-7196
▁tun	-7197
▁numarası	-7198
▁manevi	-7199
▁aptal	-7200
▁konfor	-7201
▁hepimiz	-7202
▁komisyonu	-7203
▁tbmm	-7204
▁dünyası	-7205
▁çinli	-7206
▁gerekirse	-7207
▁oluşum	-7208
▁olduğunun	-7209
isindeki	-7210
▁kodu	-7211
iğit	-7212
▁mm	-7213
▁reddet	-7214
▁sadık	-7215
▁akım	-7216
▁soruları	-7217
▁okumak	-7218
▁yoksun	-7219
▁şartları	-7220
▁gürültü	-7221
▁arif	-7222
kender	-7223
▁kuram	-7224
▁üstlen	-7225
▁gençler	-7226
diğinden	-7227
▁karay	-7228
▁verilecek	-7229
▁yolun	-7230
org	-7231
▁itaat	-7232
▁havada	-7233
▁yut	-7234
▁yapış	-7235
▁sesini	-7236
▁..	-7237
▁twitter	-7238
araj	-7239
▁tuvalet	-7240
larsa	-7241
unuza	-7242
▁gelişen	-7243
şak	-7244
▁anlamlı	-7245
31	-7246
▁vasıt	-7247
▁lit	-7248
▁ermen	-7249
liğiyle	-7250
▁cah	-7251
▁basket	-7252
▁öylesine	-7253
▁öğle	-7254
▁sahîh	-7255
mil	-7256
lüğünü	-7257
ümde	-7258
76	-7259
▁çıkması	-7260
▁tarifi	-7261
▁alet	-7262
▁bizde	-7263
▁duruyordu	-7264
▁malzemeleri	-7265
▁kin	-7266
▁yararlı	-7267
dağı	-7268
▁yemeği	-7269
▁kalkış	-7270
▁düşüş	-7271
▁uzanan	-7272
▁ört	-7273
▁topar	-7274
▁atıyor	-7275
▁hissetti	-7276
▁döndür	-7277
irli	-7278
▁ikram	-7279
▁lat	-7280
sever	-7281
▁alınmış	-7282
▁senden	-7283
▁kamera	-7284
▁yapmanız	-7285
▁imzalan	-7286
▁miktarı	-7287
▁sürpr	-7288
▁olayların	-7289
▁beklent	-7290
▁gerçi	-7291
▁karın	-7292
▁protokol	-7293
▁kaçınılmaz	-7294
▁iyileştir	-7295
bank	-7296
dis	-7297
▁ai	-7298
▁çıkarak	-7299
▁mağdur	-7300
▁kütüphan	-7301
▁hev	-7302
masi	-7303
▁giyim	-7304
▁milletin	-7305
▁gidece	-7306
▁meb	-7307
▁ajans	-7308
▁biliyoruz	-7309
▁değişen	-7310
▁beklenen	-7311
▁kendinden	-7312
▁lay	-7313
▁sahte	-7314
▁dünyadaki	-7315
▁gözyaş	-7316
madığını	-7317
▁karşılığı	-7318
şlem	-7319
▁intik	-7320
▁eleman	-7321
diren	-7322
fan	-7323
▁hürriyet	-7324
▁verilmiştir	-7325
▁pozit	-7326
▁gergin	-7327
▁tuttu	-7328
▁bakır	-7329
▁hafız	-7330
▁belirsiz	-7331
▁vil	-7332
▁turn	-7333
▁kâğıt	-7334
▁beda	-7335
▁rektör	-7336
▁şahit	-7337
iliğinden	-7338
▁yardımıyla	-7339
▁yardımı	-7340
biye	-7341
-8	-7342
graf	-7343
▁çir	-7344
▁bulunmak	-7345
▁örgütün	-7346
hoş	-7347
▁tü	-7348
▁kocaeli	-7349
▁diyordu	-7350
▁ücreti	-7351
liğinden	-7352
▁döviz	-7353
don	-7354
▁rahatlıkla	-7355
malısınız	-7356
ciğer	-7357
▁gram	-7358
▁satır	-7359
sâ	-7360
▁oyunc	-7361
▁duyarlı	-7362
ding	-7363
▁çekiyor	-7364
oper	-7365
▁hek	-7366
▁kurulmuş	-7367
dini	-7368
lediler	-7369
▁tüc	-7370
▁somut	-7371
esidir	-7372
▁zararlı	-7373
▁görevini	-7374
▁parma	-7375
34	-7376
▁bilmiyor	-7377
▁başkent	-7378
▁burjuv	-7379
labilir	-7380
tas	-7381
▁gam	-7382
▁emret	-7383
▁ag	-7384
▁çocuklara	-7385
5)	-7386
▁kitapları	-7387
▁uk	-7388
▁kalktı	-7389
▁istihdam	-7390
▁koridor	-7391
laşması	-7392
▁geleceğ	-7393
▁düzeni	-7394
ende	-7395
▁masaj	-7396
çilik	-7397
bunu	-7398
▁blok	-7399
▁dinlen	-7400
▁bölgeye	-7401
▁festival	-7402
▁öğrencileri	-7403
▁anayas	-7404
▁q	-7405
▁müslümanlar	-7406
▁dışındaki	-7407
zin	-7408
▁sanal	-7409
9)	-7410
▁haykır	-7411
▁açar	-7412
emiyor	-7413
ğla	-7414
ersiniz	-7415
▁altından	-7416
▁verip	-7417
gül	-7418
▁kadı	-7419
▁sürecinde	-7420
çilerin	-7421
kiler	-7422
▁büyüt	-7423
▁dayanıklı	-7424
▁donanım	-7425
▁parlam	-7426
değer	-7427
likte	-7428
▁hang	-7429
▁tohum	-7430
▁seviyorum	-7431
▁dergisi	-7432
▁miras	-7433
▁çıkmak	-7434
▁bulunuyordu	-7435
▁65	-7436
▁çırp	-7437
▁hayred	-7438
▁dondur	-7439
▁bileti	-7440
▁şifr	-7441
▁tutun	-7442
▁kıla	-7443
▁bizlere	-7444
▁suya	-7445
▁çöp	-7446
▁salladı	-7447
▁rüzgar	-7448
▁yarattığı	-7449
▁araçları	-7450
▁yiğit	-7451
▁bomb	-7452
▁rev	-7453
dilik	-7454
▁nice	-7455
▁gidiş	-7456
▁yönetmelik	-7457
▁grafik	-7458
▁venedik	-7459
▁düşündüğ	-7460
▁çinliler	-7461
▁çatı	-7462
▁haftada	-7463
zaman	-7464
▁görünt	-7465
mayacağını	-7466
▁9.	-7467
▁kayde	-7468
▁zavallı	-7469
akkak	-7470
▁yukarıdaki	-7471
lamıştı	-7472
▁finansal	-7473
mışlardı	-7474
▁tatmin	-7475
oter	-7476
▁böylelikle	-7477
▁klima	-7478
▁sporcu	-7479
▁yavuz	-7480
▁lüks	-7481
▁hayret	-7482
▁dostluk	-7483
▁sy	-7484
▁peyn	-7485
▁sistemin	-7486
▁hastalıkları	-7487
▁bük	-7488
▁çekip	-7489
▁musa	-7490
ğünü	-7491
▁imam	-7492
▁oranda	-7493
▁kore	-7494
büy	-7495
tre	-7496
▁payı	-7497
ork	-7498
dunuz	-7499
▁montaj	-7500
ılığı	-7501
▁ürünlerin	-7502
indan	-7503
uyan	-7504
▁sürüyor	-7505
▁kâr	-7506
▁kureyş	-7507
▁temsilcisi	-7508
▁ric	-7509
▁apart	-7510
▁sic	-7511
▁seçimi	-7512
▁konular	-7513
▁kutlu	-7514
▁yanıl	-7515
▁vakt	-7516
▁lise	-7517
lanabilir	-7518
enk	-7519
soy	-7520
▁odasına	-7521
▁düşer	-7522
▁tablet	-7523
▁bardak	-7524
▁farklılık	-7525
▁barbar	-7526
▁boru	-7527
▁denli	-7528
▁yabgu	-7529
▁almıştı	-7530
▁kaba	-7531
68	-7532
▁yumurt	-7533
▁müzak	-7534
▁içten	-7535
▁mosk	-7536
▁sizinle	-7537
▁katil	-7538
▁görmez	-7539
▁müddet	-7540
sî	-7541
▁gittim	-7542
▁olmuyor	-7543
▁arma	-7544
▁kızar	-7545
▁4/1	-7546
▁kerim	-7547
▁karısı	-7548
▁ağırlık	-7549
▁filmin	-7550
▁görme	-7551
▁ettiğimiz	-7552
▁izlemek	-7553
▁tamamı	-7554
▁lev	-7555
▁ilim	-7556
▁1-	-7557
▁görülmektedir	-7558
▁olmasın	-7559
▁we	-7560
▁macar	-7561
düs	-7562
▁süreçte	-7563
▁eşlik	-7564
▁yapılıyor	-7565
▁dinin	-7566
ff	-7567
iyete	-7568
▁çıkarmak	-7569
▁doktora	-7570
▁muhafaza	-7571
sm	-7572
oft	-7573
▁horm	-7574
▁firmaları	-7575
▁alana	-7576
▁rom	-7577
skender	-7578
ulmuştur	-7579
▁albay	-7580
lç	-7581
ektif	-7582
▁caddesi	-7583
▁paralel	-7584
arş	-7585
▁gerekiyordu	-7586
▁koleksiyon	-7587
▁demişti	-7588
▁rız	-7589
▁geçmek	-7590
▁alanlarda	-7591
▁om	-7592
▁kud	-7593
▁üzül	-7594
▁çıkma	-7595
▁pişman	-7596
▁endek	-7597
▁şok	-7598
▁liman	-7599
çın	-7600
▁ağab	-7601
▁topu	-7602
şır	-7603
diğin	-7604
das	-7605
▁güçlük	-7606
▁çoğunlukla	-7607
▁özlem	-7608
▁dairesi	-7609
▁verebilir	-7610
▁balkan	-7611
▁sürdü	-7612
▁hükm	-7613
▁10.	-7614
und	-7615
nşaat	-7616
▁oyuncak	-7617
cuk	-7618
▁karbon	-7619
▁muhaseb	-7620
▁âdet	-7621
▁gerçekte	-7622
▁elbise	-7623
▁edenler	-7624
▁uygulamalar	-7625
rad	-7626
▁mide	-7627
▁kedi	-7628
▁yetişkin	-7629
kö	-7630
▁eğlence	-7631
▁hesabı	-7632
lım	-7633
100	-7634
▁ergen	-7635
▁vade	-7636
▁forum	-7637
▁etiket	-7638
▁uyuşturucu	-7639
▁tutmak	-7640
▁demokras	-7641
▁kampanya	-7642
▁masal	-7643
▁ışığı	-7644
▁şanlı	-7645
▁120	-7646
▁arist	-7647
▁muaz	-7648
▁samimi	-7649
▁aklına	-7650
▁olanların	-7651
ört	-7652
▁aynen	-7653
ester	-7654
▁hamil	-7655
▁bü	-7656
iliğin	-7657
lamalar	-7658
▁vermişti	-7659
▁divan	-7660
▁gittikçe	-7661
▁göst	-7662
▁miydi	-7663
▁aldık	-7664
▁bölümde	-7665
▁dönen	-7666
▁medyum	-7667
▁metrek	-7668
▁kontrolü	-7669
esto	-7670
▁sep	-7671
yorum	-7672
▁sakarya	-7673
▁hadi	-7674
bana	-7675
▁orij	-7676
umuzun	-7677
bahar	-7678
bî	-7679
kül	-7680
▁yakış	-7681
▁üretilen	-7682
▁star	-7683
▁başlıca	-7684
▁işık	-7685
▁ağac	-7686
▁digit	-7687
▁önemlisi	-7688
sağ	-7689
danın	-7690
▁belirtildi	-7691
▁kullanılabilir	-7692
▁yerin	-7693
▁eyalet	-7694
▁salih	-7695
umuzu	-7696
▁char	-7697
▁hayatına	-7698
▁versiyon	-7699
▁zeus	-7700
▁değişikliği	-7701
▁3/2	-7702
unuzun	-7703
▁vermesi	-7704
tarih	-7705
▁pant	-7706
▁olduğumu	-7707
stagram	-7708
▁arkadaşım	-7709
▁yükselen	-7710
sir	-7711
▁düşmüş	-7712
▁tartışma	-7713
▁kesi	-7714
▁avusturya	-7715
▁dâh	-7716
▁ord	-7717
▁verilmiş	-7718
▁yarısı	-7719
▁2007	-7720
alya	-7721
▁üyelik	-7722
▁olabilirsiniz	-7723
akal	-7724
lahi	-7725
▁muhakkak	-7726
lanmaktadır	-7727
▁sadak	-7728
iyetle	-7729
▁bahçe	-7730
▁girmek	-7731
ağında	-7732
larınıza	-7733
▁emre	-7734
▁tebrik	-7735
▁itiraf	-7736
▁yanından	-7737
▁gönderilen	-7738
▁yapılmıştır	-7739
▁şikâyet	-7740
▁biçimi	-7741
▁rahatsızlık	-7742
▁ifadelerini	-7743
▁uydu	-7744
▁sıfat	-7745
▁herkesi	-7746
cal	-7747
▁zekâ	-7748
▁estetik	-7749
▁duygusu	-7750
▁sunum	-7751
▁ödülü	-7752
melerine	-7753
▁bilem	-7754
▁liste	-7755
ilmeye	-7756
▁çim	-7757
gulan	-7758
▁bayra	-7759
▁sürpriz	-7760
▁atom	-7761
▁haksız	-7762
itler	-7763
ılırken	-7764
ğinizi	-7765
▁traf	-7766
▁oynay	-7767
▁trak	-7768
▁söyle	-7769
eğinin	-7770
▁başlaya	-7771
ice	-7772
şah	-7773
▁katli	-7774
▁müj	-7775
hiç	-7776
▁padişahın	-7777
ılımı	-7778
▁yaşamış	-7779
▁kitaplar	-7780
▁kullanı	-7781
▁mum	-7782
uyorlar	-7783
miyorum	-7784
▁tedarik	-7785
imizle	-7786
▁çama	-7787
▁ekledi	-7788
lamaları	-7789
▁örtü	-7790
▁tasavv	-7791
▁ayrıldı	-7792
dedi	-7793
tti	-7794
▁askerî	-7795
ment	-7796
fez	-7797
▁hüz	-7798
▁azer	-7799
▁kanaat	-7800
▁soylu	-7801
▁bölgenin	-7802
▁büyükel	-7803
▁arkasına	-7804
▁play	-7805
amın	-7806
tıklarını	-7807
-7	-7808
▁tüken	-7809
larınızın	-7810
▁çalıştığı	-7811
▁aşık	-7812
ımızdan	-7813
bire	-7814
▁hotel	-7815
▁diğerleri	-7816
▁alırken	-7817
we	-7818
▁hayatında	-7819
▁kuşkusuz	-7820
ecik	-7821
▁saatte	-7822
▁yüklen	-7823
▁kazanmak	-7824
▁geleceği	-7825
▁tehlike	-7826
▁zamandır	-7827
itasyon	-7828
▁kalmadı	-7829
▁adama	-7830
özel	-7831
nâ	-7832
▁ispat	-7833
▁<	-7834
bağ	-7835
▁beklemek	-7836
▁solu	-7837
ünc	-7838
▁lâ	-7839
▁doku	-7840
▁etkileri	-7841
▁başlamıştır	-7842
ersen	-7843
inip	-7844
▁hakaret	-7845
▁düzel	-7846
__	-7847
▁terap	-7848
ebiliyor	-7849
ebe	-7850
▁katkıda	-7851
▁krem	-7852
devlet	-7853
▁şeylerin	-7854
göl	-7855
▁felaket	-7856
sten	-7857
▁yıllarında	-7858
▁kep	-7859
▁işyer	-7860
▁sunduğu	-7861
▁zehebî	-7862
balaj	-7863
▁açıp	-7864
▁görünüyordu	-7865
▁zır	-7866
▁gayrim	-7867
▁inanılmaz	-7868
▁berek	-7869
▁astr	-7870
▁faaliyetleri	-7871
ısın	-7872
▁kalıyor	-7873
▁gezi	-7874
rut	-7875
▁niz	-7876
elif	-7877
▁kaplı	-7878
▁fatur	-7879
▁aman	-7880
uluğu	-7881
▁saatlerinde	-7882
malıyız	-7883
beyaz	-7884
tiş	-7885
lileri	-7886
▁mütte	-7887
▁ötesinde	-7888
▁devletleri	-7889
▁istediğim	-7890
▁seçenekleri	-7891
▁şüphe	-7892
yük	-7893
▁camii	-7894
▁fı	-7895
▁eklem	-7896
▁gecesi	-7897
▁ente	-7898
▁haned	-7899
▁öğrenme	-7900
kam	-7901
▁vizyon	-7902
▁obj	-7903
▁türkmen	-7904
▁yır	-7905
▁egzersiz	-7906
▁olmasından	-7907
▁benî	-7908
çileri	-7909
▁market	-7910
▁alanına	-7911
▁pamuk	-7912
▁surat	-7913
▁bulabil	-7914
▁porno	-7915
▁hakem	-7916
▁engelli	-7917
▁görmeye	-7918
▁iyileş	-7919
rit	-7920
sviç	-7921
▁plana	-7922
▁durumuna	-7923
▁koruyucu	-7924
▁adamlar	-7925
▁kamuoy	-7926
▁edeceğiz	-7927
▁akses	-7928
mik	-7929
▁dikkatle	-7930
▁tarafta	-7931
▁tahsil	-7932
▁üzeri	-7933
▁bedava	-7934
▁sertifik	-7935
▁bran	-7936
▁ömr	-7937
▁kıskan	-7938
▁emlak	-7939
▁çirkin	-7940
▁giys	-7941
▁atmos	-7942
niz	-7943
▁görüşme	-7944
▁boşan	-7945
▁aracın	-7946
▁kalkınma	-7947
▁eşsiz	-7948
▁veriler	-7949
urî	-7950
▁anlatım	-7951
▁kast	-7952
▁destan	-7953
ilmek	-7954
▁minik	-7955
ğınızda	-7956
▁öğüt	-7957
▁put	-7958
mara	-7959
▁bulma	-7960
▁parayı	-7961
▁kartal	-7962
▁mekân	-7963
lülük	-7964
▁denem	-7965
▁kuşku	-7966
▁esen	-7967
▁bakımı	-7968
▁projeler	-7969
▁arda	-7970
lası	-7971
ılırsa	-7972
ânî	-7973
söz	-7974
▁devrimci	-7975
dırıcı	-7976
▁kolaylıkla	-7977
▁muv	-7978
▁sınıfı	-7979
▁katıldığı	-7980
▁kimseler	-7981
▁idam	-7982
▁söyledim	-7983
mt	-7984
▁abdur	-7985
▁verdiler	-7986
sos	-7987
▁sancak	-7988
▁stratejik	-7989
gir	-7990
the	-7991
malara	-7992
ladığımız	-7993
ýr	-7994
▁kapının	-7995
▁cor	-7996
▁tün	-7997
ach	-7998
▁izledi	-7999
▁dedek	-8000
▁yazılmış	-8001
ağının	-8002
#_	-8003
▁asan	-8004
▁rüya	-8005
▁programları	-8006
baycan	-8007
▁tarihinden	-8008
▁pom	-8009
▁konuyla	-8010
▁elindeki	-8011
▁randev	-8012
▁zap	-8013
▁sizlerle	-8014
▁enstitüsü	-8015
tc	-8016
▁kılav	-8017
▁enfeksiyon	-8018
▁inceleme	-8019
▁py	-8020
oks	-8021
▁mesele	-8022
▁bozukluk	-8023
▁anılan	-8024
▁ambalaj	-8025
▁kızlar	-8026
▁yang	-8027
▁özgün	-8028
çılık	-8029
▁vakti	-8030
▁alp	-8031
▁mühim	-8032
▁moskova	-8033
▁değerleri	-8034
▁stok	-8035
▁kazak	-8036
▁isteği	-8037
▁saatleri	-8038
▁konuları	-8039
leyebilirsiniz	-8040
▁250	-8041
▁saltan	-8042
▁sih	-8043
▁birdenbire	-8044
▁kısmında	-8045
ruz	-8046
çağı	-8047
▁eti	-8048
▁mırıl	-8049
▁umarım	-8050
▁sahipleri	-8051
usun	-8052
▁sesleri	-8053
▁nakliye	-8054
▁frank	-8055
▁atak	-8056
▁ruhu	-8057
▁tıb	-8058
▁olabileceğini	-8059
▁düşünmek	-8060
set	-8061
amıyorum	-8062
▁izleyen	-8063
masıdır	-8064
88	-8065
liyordu	-8066
name	-8067
▁beyn	-8068
▁göğs	-8069
pet	-8070
▁yazıyor	-8071
dükten	-8072
▁yapılmaktadır	-8073
▁olanları	-8074
▁bud	-8075
▁harc	-8076
▁kokusu	-8077
▁hücum	-8078
mamıştı	-8079
▁valide	-8080
▁sunul	-8081
▁etkileş	-8082
▁elçi	-8083
▁ikiye	-8084
▁alabilir	-8085
▁oğlan	-8086
▁etmekte	-8087
lamayı	-8088
dv	-8089
mazlar	-8090
▁talimat	-8091
▁olmasının	-8092
▁anlatı	-8093
▁etmeden	-8094
▁yönetici	-8095
▁aldıkları	-8096
▁kurşun	-8097
▁istenen	-8098
▁kalkıp	-8099
raz	-8100
▁sinan	-8101
▁değişken	-8102
şimdi	-8103
laşmış	-8104
▁yazın	-8105
ftn	-8106
▁yaptığım	-8107
▁reform	-8108
67	-8109
▁ismini	-8110
▁noktaya	-8111
▁bilgilere	-8112
▁fıkr	-8113
▁rady	-8114
▁kişilere	-8115
▁hr	-8116
lil	-8117
▁dağıtım	-8118
▁verin	-8119
▁satışa	-8120
izmi	-8121
▁yazarı	-8122
▁oturdu	-8123
leyebil	-8124
posta	-8125
▁ülkemizin	-8126
▁cengiz	-8127
▁karaman	-8128
▁parçalan	-8129
▁gününde	-8130
▁yakında	-8131
▁yaşamın	-8132
▁itibarı	-8133
▁ilişkisi	-8134
▁yurtdış	-8135
▁oturup	-8136
▁sayılan	-8137
▁haç	-8138
▁aylarında	-8139
▁ailenin	-8140
ecekti	-8141
▁kade	-8142
ami	-8143
▁sözlerini	-8144
▁vazif	-8145
▁organik	-8146
düğünde	-8147
adi	-8148
ml	-8149
▁dersi	-8150
▁yapay	-8151
▁dönemlerde	-8152
▁hayatının	-8153
▁yazdı	-8154
▁trump	-8155
▁aktivit	-8156
▁savcı	-8157
çağ	-8158
üydü	-8159
▁düşündüm	-8160
▁sm	-8161
▁kâmil	-8162
▁unutmayın	-8163
▁terörist	-8164
ses	-8165
▁çetin	-8166
▁gizem	-8167
▁istasyon	-8168
▁etsin	-8169
▁aşağıya	-8170
inizden	-8171
▁farkına	-8172
▁yazan	-8173
böl	-8174
panyol	-8175
▁servet	-8176
▁öyleyse	-8177
▁ihmal	-8178
▁ülkelerin	-8179
▁listesi	-8180
▁çalışırken	-8181
emizin	-8182
baz	-8183
gelen	-8184
▁midir	-8185
▁aldığını	-8186
▁düşünen	-8187
mini	-8188
▁orijinal	-8189
▁hatun	-8190
ilmelidir	-8191
▁kg	-8192
▁aniden	-8193
▁fre	-8194
▁olmasıdır	-8195
lidir	-8196
▁enflasyon	-8197
▁işten	-8198
maktadırlar	-8199
eyiz	-8200
2’	-8201
▁tavuk	-8202
zen	-8203
▁yaptığ	-8204
yası	-8205
▁75	-8206
▁gor	-8207
▁mail	-8208
▁irti	-8209
▁slo	-8210
▁başlık	-8211
▁dalga	-8212
▁yazma	-8213
şin	-8214
▁noktasında	-8215
▁).	-8216
▁ifadesi	-8217
▁kucak	-8218
▁kurut	-8219
▁peşinde	-8220
▁dekorasyon	-8221
▁etmedi	-8222
▁okula	-8223
▁sarayı	-8224
▁korunması	-8225
▁gran	-8226
düş	-8227
▁senar	-8228
▁rot	-8229
▁sinyal	-8230
▁özellikler	-8231
▁yaratı	-8232
ndir	-8233
▁arapça	-8234
▁devreye	-8235
▁sakat	-8236
▁yalı	-8237
▁çen	-8238
▁nişan	-8239
▁sordum	-8240
▁duyul	-8241
▁geldim	-8242
▁inanc	-8243
▁dizisi	-8244
▁şehirde	-8245
▁turgut	-8246
cilerin	-8247
ああ	-8248
▁cesur	-8249
▁terim	-8250
▁sıcaklık	-8251
▁şof	-8252
▁şerif	-8253
▁edecektir	-8254
mon	-8255
▁görüldüğü	-8256
işe	-8257
▁--	-8258
▁kemer	-8259
▁kandır	-8260
▁bulacak	-8261
onsor	-8262
▁belâz	-8263
▁savaşçı	-8264
▁yapıyoruz	-8265
▁yeğ	-8266
▁full	-8267
▁sınavı	-8268
▁müslümanların	-8269
▁kapsamlı	-8270
▁parçaları	-8271
▁eşliğinde	-8272
▁ket	-8273
▁ste	-8274
▁bildiği	-8275
naz	-8276
▁timur	-8277
▁münaseb	-8278
▁verdik	-8279
▁tarihine	-8280
▁hamur	-8281
mesin	-8282
cağınız	-8283
▁kef	-8284
yn	-8285
▁bırakın	-8286
▁kurucu	-8287
▁yılına	-8288
!»	-8289
büyük	-8290
▁katk	-8291
▁anlamıyla	-8292
▁teşeb	-8293
▁bakmak	-8294
▁yıla	-8295
▁kaldırdı	-8296
dığın	-8297
▁rahip	-8298
▁konusundaki	-8299
hab	-8300
▁tescil	-8301
▁ediyorlar	-8302
▁ülkelerde	-8303
▁kısac	-8304
▁vergisi	-8305
▁insanlık	-8306
gazi	-8307
▁bağlıdır	-8308
▁festivali	-8309
▁sırf	-8310
urk	-8311
▁kayıtlı	-8312
tro	-8313
▁hocam	-8314
taç	-8315
lav	-8316
▁rasûl	-8317
▁manzar	-8318
▁yetki	-8319
▁bm	-8320
▁ihtiyar	-8321
▁gelmek	-8322
▁savaşta	-8323
alarca	-8324
▁desen	-8325
gn	-8326
▁vekil	-8327
▁aradan	-8328
▁zorundadır	-8329
açık	-8330
▁fal	-8331
▁deyişle	-8332
had	-8333
malarının	-8334
▁rit	-8335
opol	-8336
▁sars	-8337
▁seksi	-8338
▁geçmişte	-8339
▁cüz	-8340
▁kudret	-8341
▁kaleme	-8342
▁farkın	-8343
▁evrak	-8344
▁ked	-8345
▁testi	-8346
▁derler	-8347
▁çelebi	-8348
iğe	-8349
▁özal	-8350
▁japonya	-8351
▁belâzurî	-8352
pp	-8353
▁sark	-8354
▁toplanan	-8355
▁yapılabilir	-8356
▁basketbol	-8357
ladıkları	-8358
▁oğulları	-8359
▁prim	-8360
▁2-	-8361
▁mahkûm	-8362
▁öğrencilere	-8363
▁kanlı	-8364
▁yücel	-8365
oli	-8366
▁bakanlık	-8367
▁sayısının	-8368
▁bası	-8369
▁uygulamaya	-8370
▁geçtiği	-8371
▁federasyonu	-8372
▁dostu	-8373
▁yaşamı	-8374
▁yöntemleri	-8375
▁doğuş	-8376
▁sust	-8377
▁ilanı	-8378
▁ilgisi	-8379
▁icin	-8380
▁kaybı	-8381
▁sektörü	-8382
ûmet	-8383
▁japon	-8384
▁getirildi	-8385
▁düzenlediği	-8386
▁profil	-8387
▁nazar	-8388
▁rüş	-8389
iyetin	-8390
▁oluşturduğu	-8391
▁santr	-8392
▁eserleri	-8393
▁prenses	-8394
▁zamanki	-8395
▁numara	-8396
▁aldılar	-8397
▁galiba	-8398
▁meşru	-8399
▁manisa	-8400
▁hafifçe	-8401
mül	-8402
▁hayreddîn	-8403
▁birincisi	-8404
▁düşmanı	-8405
▁hattı	-8406
▁kurdu	-8407
olik	-8408
▁kendisiyle	-8409
▁küp	-8410
▁sade	-8411
▁çaresiz	-8412
▁başkenti	-8413
haz	-8414
▁ulaştı	-8415
▁gösteri	-8416
▁eğilim	-8417
tüel	-8418
▁âlim	-8419
▁azerbaycan	-8420
übe	-8421
▁yanındaki	-8422
▁havalimanı	-8423
66	-8424
▁teklifi	-8425
▁bütçe	-8426
▁dinlem	-8427
▁kısmen	-8428
▁fig	-8429
▁au	-8430
▁sponsor	-8431
▁vadeli	-8432
unacak	-8433
▁gerçekleşti	-8434
▁kadir	-8435
▁yaratık	-8436
▁iklim	-8437
▁pantol	-8438
kurmay	-8439
▁by	-8440
▁ök	-8441
▁alama	-8442
▁kırım	-8443
▁isteyenler	-8444
-19	-8445
ülasyon	-8446
▁üyeler	-8447
▁kullanıcılar	-8448
▁ülkeye	-8449
▁milyonlarca	-8450
resyon	-8451
▁edemez	-8452
▁meydanı	-8453
neden	-8454
▁arı	-8455
▁getirilen	-8456
▁uyuş	-8457
▁bakıyor	-8458
▁plaj	-8459
▁rolü	-8460
▁aklım	-8461
▁bilmez	-8462
▁seninle	-8463
▁tarafına	-8464
▁getiriyor	-8465
▁etek	-8466
▁şartlar	-8467
▁yara	-8468
oğul	-8469
ash	-8470
▁elden	-8471
▁canav	-8472
▁yapılabil	-8473
▁katılımcı	-8474
labil	-8475
▁bahçeli	-8476
▁kendiliğinden	-8477
▁getirmiş	-8478
▁muhalefet	-8479
▁dayanan	-8480
nsanların	-8481
▁mesci	-8482
▁kurduğu	-8483
▁konseyi	-8484
▁kabar	-8485
▁taahh	-8486
▁herşey	-8487
abilmesi	-8488
▁başkalarının	-8489
gor	-8490
▁zan	-8491
ebileceği	-8492
▁işletme	-8493
▁gereksiz	-8494
▁semp	-8495
▁odaya	-8496
▁diyecek	-8497
▁kendimizi	-8498
▁soğut	-8499
▁yaratan	-8500
▁ortadoğu	-8501
▁lik	-8502
▁dışarıda	-8503
▁tıbbi	-8504
▁tanrının	-8505
▁çı	-8506
gur	-8507
▁iktis	-8508
▁dünyasında	-8509
▁çıkarıp	-8510
iğin	-8511
▁geldiler	-8512
8)	-8513
▁turnuv	-8514
ebilen	-8515
▁almayı	-8516
▁türkç	-8517
▁aklıma	-8518
omet	-8519
▁bulmuş	-8520
▁kardeşim	-8521
▁cümle	-8522
▁merhamet	-8523
▁bilinçli	-8524
▁merkezine	-8525
ilirken	-8526
uzun	-8527
dinde	-8528
ğiyle	-8529
▁asit	-8530
▁burn	-8531
▁sağlanması	-8532
]](	-8533
çinde	-8534
rez	-8535
▁hint	-8536
▁kapitalist	-8537
▁konuşmaya	-8538
daroğlu	-8539
▁kaşığı	-8540
▁pilot	-8541
▁anlatmak	-8542
▁sunmaktadır	-8543
▁içecek	-8544
▁rıza	-8545
▁sizde	-8546
▁teknolojik	-8547
▁sayfada	-8548
▁şur	-8549
▁sesli	-8550
▁kaygı	-8551
▁kupası	-8552
başka	-8553
▁önlemek	-8554
aşı	-8555
ezid	-8556
▁ucu	-8557
▁birbirini	-8558
82	-8559
hey	-8560
ınan	-8561
▁kavim	-8562
aklı	-8563
▁yil	-8564
▁toplantıda	-8565
▁yıldan	-8566
larımın	-8567
▁müzesi	-8568
▁körfez	-8569
berg	-8570
▁görüp	-8571
▁dinamik	-8572
gari	-8573
▁beklet	-8574
aa	-8575
▁pozitif	-8576
vir	-8577
▁11.	-8578
▁ekipman	-8579
▁vermeden	-8580
?’	-8581
sor	-8582
▁yapacağı	-8583
▁ısıt	-8584
ınıyor	-8585
▁haftalık	-8586
▁paş	-8587
▁fah	-8588
▁meselesi	-8589
▁çöl	-8590
▁milletler	-8591
▁şimdilik	-8592
▁vatandaşlar	-8593
atlar	-8594
ral	-8595
▁denizli	-8596
▁kaybeden	-8597
iyse	-8598
▁satılık	-8599
▁bakıyordu	-8600
▁deyip	-8601
▁taşır	-8602
▁serin	-8603
▁istemiş	-8604
{{{1	-8605
▁gösterilen	-8606
▁uyarınca	-8607
▁sürer	-8608
dro	-8609
▁piyasa	-8610
▁açıl	-8611
mışlardır	-8612
▁biber	-8613
▁durumunu	-8614
▁hayvanlar	-8615
▁ardı	-8616
spanyol	-8617
▁nükle	-8618
▁ettiğiniz	-8619
▁(2)	-8620
▁hoşlan	-8621
▁hastane	-8622
▁(19	-8623
▁görem	-8624
▁bunda	-8625
ılışı	-8626
▁kadınları	-8627
pir	-8628
56	-8629
âf	-8630
▁sevdiği	-8631
▁bulup	-8632
▁semt	-8633
▁kaybed	-8634
▁tebliğ	-8635
▁asansör	-8636
çısı	-8637
lgili	-8638
▁çıkmıştı	-8639
▁içe	-8640
▁ihal	-8641
▁üni	-8642
▁samsung	-8643
▁bilinmeyen	-8644
ürler	-8645
▁nu	-8646
1’	-8647
▁delikanlı	-8648
edd	-8649
▁idari	-8650
▁danışmanlık	-8651
▁maddeler	-8652
▁maliye	-8653
▁vermez	-8654
▁etkiler	-8655
▁vermiştir	-8656
▁yetin	-8657
▁göçmen	-8658
çası	-8659
sana	-8660
ney	-8661
▁ihan	-8662
yurt	-8663
▁varoluş	-8664
▁zihinsel	-8665
▁şansı	-8666
ikal	-8667
abak	-8668
▁küm	-8669
▁sistemine	-8670
laç	-8671
▁yuvarlak	-8672
unt	-8673
▁bağdat	-8674
mektir	-8675
▁böcek	-8676
cum	-8677
▁sınırsız	-8678
▁dâhil	-8679
▁odada	-8680
▁değişiklikler	-8681
abileceğiniz	-8682
▁geçmeden	-8683
▁seslen	-8684
▁yıkama	-8685
▁katılımı	-8686
▁buldum	-8687
87	-8688
delik	-8689
▁layık	-8690
▁çapında	-8691
▁sistemini	-8692
▁alem	-8693
▁yerleşim	-8694
▁şev	-8695
ndaki	-8696
gâ	-8697
sviçre	-8698
▁yakıt	-8699
...)	-8700
▁sıkıştır	-8701
4’	-8702
▁buhar	-8703
▁formu	-8704
▁nor	-8705
▁yapıştır	-8706
▁hükümetin	-8707
▁projenin	-8708
▁başkanlık	-8709
▁işine	-8710
▁isimler	-8711
▁erkeklerin	-8712
▁mih	-8713
cav	-8714
▁hareketleri	-8715
▁genelkurmay	-8716
▁sn	-8717
▁girdiği	-8718
▁kraliç	-8719
▁çalışmalarına	-8720
▁sıralarda	-8721
enlerin	-8722
esince	-8723
sür	-8724
manıza	-8725
▁49	-8726
▁yaşamını	-8727
▁kaynaklanan	-8728
▁baskın	-8729
▁avcı	-8730
gerçek	-8731
▁emri	-8732
▁onda	-8733
▁ötek	-8734
▁kalmaz	-8735
raç	-8736
▁reç	-8737
▁uğrat	-8738
▁koşulları	-8739
▁iletişime	-8740
▁masum	-8741
▁kavga	-8742
▁şan	-8743
▁hukuki	-8744
odu	-8745
▁adında	-8746
▁galip	-8747
▁hazırlanmış	-8748
▁çoğal	-8749
ian	-8750
asın	-8751
▁posta	-8752
peki	-8753
esir	-8754
▁bam	-8755
▁yayımlanan	-8756
▁baktım	-8757
▁tüketici	-8758
57	-8759
▁mağlup	-8760
▁mıdır	-8761
▁4,	-8762
lerinize	-8763
▁tarihinin	-8764
▁hum	-8765
enkul	-8766
jan	-8767
▁yalvar	-8768
▁zann	-8769
▁haram	-8770
▁oluşturur	-8771
▁yönelt	-8772
▁mırıldan	-8773
▁tüp	-8774
▁hdp	-8775
osman	-8776
▁işlen	-8777
);	-8778
bı	-8779
▁caf	-8780
▁tik	-8781
iyesi	-8782
▁acele	-8783
▁açıklan	-8784
▁oturma	-8785
▁burs	-8786
yanın	-8787
▁satışı	-8788
▁içerir	-8789
edin	-8790
▁flor	-8791
luğunda	-8792
▁yazılan	-8793
tüğü	-8794
▁protesto	-8795
▁düşünerek	-8796
▁kayg	-8797
▁esnek	-8798
▁şarj	-8799
▁resmen	-8800
sım	-8801
▁kalitesi	-8802
▁abbas	-8803
▁ju	-8804
▁çeker	-8805
▁tarihin	-8806
▁okyan	-8807
▁türden	-8808
▁adli	-8809
▁maçında	-8810
▁yavaşça	-8811
▁gülümsem	-8812
je	-8813
▁kavramı	-8814
eyebilirsiniz	-8815
▁izlem	-8816
▁yağış	-8817
teb	-8818
ington	-8819
tıkça	-8820
▁alek	-8821
▁iri	-8822
▁geçtik	-8823
nes	-8824
▁halbuki	-8825
▁####	-8826
▁haric	-8827
lıyoruz	-8828
ela	-8829
tiğimiz	-8830
▁hızlandır	-8831
▁imkânsız	-8832
▁mö	-8833
▁çamaşır	-8834
▁eşyalar	-8835
▁rezervasyon	-8836
emektedir	-8837
▁lü	-8838
▁taşıyor	-8839
▁yolculuğ	-8840
dere	-8841
▁ölçüm	-8842
▁gazeteci	-8843
▁kenara	-8844
▁haberdar	-8845
▁giyin	-8846
▁politikası	-8847
▁kestir	-8848
▁sandaly	-8849
▁başlay	-8850
▁eng	-8851
▁havaya	-8852
▁hükûmet	-8853
▁metaf	-8854
▁yargılan	-8855
tra	-8856
▁atılan	-8857
▁kongre	-8858
eğinde	-8859
▁yığın	-8860
▁artı	-8861
▁resimleri	-8862
tün	-8863
▁üretici	-8864
nî	-8865
▁mr	-8866
▁basamak	-8867
▁söylenen	-8868
!)	-8869
use	-8870
lâk	-8871
▁köle	-8872
▁dökül	-8873
▁devamını	-8874
▁görülüyor	-8875
▁sitesinde	-8876
▁uygur	-8877
▁öyk	-8878
▁yağlı	-8879
▁hollanda	-8880
▁amr	-8881
▁protein	-8882
▁sanık	-8883
▁gri	-8884
▁teknolojisi	-8885
▁sıkış	-8886
▁lâzım	-8887
▁konuşmak	-8888
hai	-8889
▁kavuştur	-8890
lop	-8891
▁çılgın	-8892
▁gönderildi	-8893
▁istemiyorum	-8894
▁mc	-8895
▁işlemler	-8896
▁evlat	-8897
▁ayrılan	-8898
▁bilmeyen	-8899
ayıp	-8900
▁seçilen	-8901
▁bla	-8902
▁mobilya	-8903
▁aldat	-8904
▁ihtil	-8905
▁peter	-8906
▁hedefi	-8907
▁lastik	-8908
▁ruhsal	-8909
▁hazine	-8910
tığımızda	-8911
stil	-8912
alarak	-8913
▁atöly	-8914
▁indi	-8915
▁misyon	-8916
▁sindir	-8917
kiralama	-8918
▁bedeli	-8919
▁marmara	-8920
▁gebelik	-8921
▁turist	-8922
▁hepsinin	-8923
▁dehşet	-8924
▁alımı	-8925
▁adil	-8926
▁manas	-8927
▁aram	-8928
▁rekor	-8929
önü	-8930
▁boşalt	-8931
▁2006	-8932
▁açmak	-8933
▁ettiğim	-8934
▁bölgesel	-8935
▁parlament	-8936
▁oluşturmak	-8937
▁âşık	-8938
▁açtığı	-8939
ned	-8940
▁kolları	-8941
▁zırh	-8942
adüf	-8943
▁gönderdiği	-8944
▁bülent	-8945
▁medres	-8946
▁erkeğin	-8947
olar	-8948
liyoruz	-8949
▁göreve	-8950
▁instagram	-8951
▁şehzade	-8952
▁atış	-8953
▁gelebilir	-8954
▁kuşak	-8955
▁talih	-8956
▁tokat	-8957
9’	-8958
▁çif	-8959
ure	-8960
anıyordu	-8961
▁titiz	-8962
utube	-8963
jpg	-8964
▁isimleri	-8965
▁sıy	-8966
▁cenaze	-8967
▁edit	-8968
▁ilahi	-8969
▁bakıldığında	-8970
etice	-8971
▁buğday	-8972
▁avuç	-8973
▁olas	-8974
▁görüyorum	-8975
▁yürürlüğe	-8976
▁evleri	-8977
▁bekleniyor	-8978
▁cehennem	-8979
▁tarihe	-8980
▁eminim	-8981
▁mektubu	-8982
dığımı	-8983
▁yakalay	-8984
▁müttefik	-8985
izz	-8986
▁tank	-8987
▁kurumlar	-8988
▁kullanılarak	-8989
▁tutup	-8990
ılacağı	-8991
▁önündeki	-8992
mayacağı	-8993
▁yüzünde	-8994
▁gelişimi	-8995
▁afyon	-8996
▁olurlar	-8997
▁berlin	-8998
▁neticesinde	-8999
▁karşıt	-9000
▁vahşi	-9001
▁yahudiler	-9002
ilya	-9003
▁askerler	-9004
▁kendinize	-9005
itt	-9006
oğu	-9007
▁kuralları	-9008
▁amaçla	-9009
▁geçirdiği	-9010
▁$	-9011
▁gereklidir	-9012
▁kömür	-9013
▁güneşin	-9014
yolu	-9015
▁amerikalı	-9016
senin	-9017
dıköy	-9018
lüt	-9019
▁bilimler	-9020
▁gecenin	-9021
lusu	-9022
▁menfa	-9023
▁muhtar	-9024
▁istemek	-9025
▁dilim	-9026
sah	-9027
▁başlığı	-9028
lamanın	-9029
▁güçleri	-9030
▁mühendisliği	-9031
▁gelmeye	-9032
▁arıyor	-9033
▁kusursuz	-9034
▁okuyucu	-9035
bun	-9036
▁kurma	-9037
mişler	-9038
irdi	-9039
▁yıkan	-9040
▁malzemeler	-9041
▁doğdu	-9042
▁bilmem	-9043
▁halif	-9044
abileceğini	-9045
▁söyleyerek	-9046
▁kimseyi	-9047
iyeli	-9048
▁hareketle	-9049
ücük	-9050
▁xvi	-9051
▁dediğimiz	-9052
iver	-9053
▁yürüdü	-9054
▁sözleşmesi	-9055
▁air	-9056
▁yazısı	-9057
▁ikili	-9058
▁yazıcı	-9059
htiy	-9060
linik	-9061
▁bölümünü	-9062
▁verdikleri	-9063
▁huy	-9064
▁çıkmaz	-9065
▁duyulan	-9066
▁nehir	-9067
ildiğinde	-9068
▁ödey	-9069
▁olmay	-9070
nav	-9071
▁attığı	-9072
▁müziği	-9073
▁istedikleri	-9074
▁2005	-9075
▁atar	-9076
86	-9077
▁ürk	-9078
▁selçuk	-9079
▁beraberinde	-9080
olojisi	-9081
umuza	-9082
▁bizleri	-9083
▁vaj	-9084
çılar	-9085
▁ensâb	-9086
memiştir	-9087
▁sayısız	-9088
77	-9089
▁karg	-9090
▁sizlerin	-9091
▁arayış	-9092
▁edilemez	-9093
▁iştir	-9094
▁casino	-9095
▁yollar	-9096
)’	-9097
▁dışarıdan	-9098
smet	-9099
▁vazgeçilmez	-9100
▁nükleer	-9101
▁lamb	-9102
▁4/2	-9103
▁atmosfer	-9104
dıran	-9105
au	-9106
larıdır	-9107
beral	-9108
▁devletler	-9109
ani	-9110
▁araçlar	-9111
▁limon	-9112
▁göstererek	-9113
enizi	-9114
▁geçerken	-9115
▁referans	-9116
duklarını	-9117
▁kelimeler	-9118
▁başlangıçta	-9119
▁gayrimenkul	-9120
▁beton	-9121
▁kurulum	-9122
▁bilimleri	-9123
izasyon	-9124
▁benzeyen	-9125
▁günümüze	-9126
▁başlarında	-9127
şen	-9128
▁metro	-9129
▁bereket	-9130
urfa	-9131
▁direkt	-9132
▁maddenin	-9133
▁toplantısında	-9134
▁şubesi	-9135
▁oynamak	-9136
ayın	-9137
▁kudüs	-9138
ril	-9139
▁fiil	-9140
▁tutk	-9141
▁kalkan	-9142
▁artar	-9143
▁izni	-9144
▁vekili	-9145
lanıp	-9146
▁istikrar	-9147
▁istatistik	-9148
▁dönük	-9149
▁fazlasıyla	-9150
memektedir	-9151
▁toprağa	-9152
leşmiş	-9153
ulacak	-9154
kânı	-9155
▁bilgilerin	-9156
▁dönüyor	-9157
▁redded	-9158
▁mesajı	-9159
▁verdiğini	-9160
▁fırın	-9161
▁çalışıyordu	-9162
rib	-9163
▁aldığımız	-9164
▁ağzı	-9165
ulus	-9166
▁netice	-9167
▁tesadüf	-9168
▁benzet	-9169
▁rejim	-9170
▁sunar	-9171
▁girecek	-9172
▁yed	-9173
▁değişimi	-9174
abilmektedir	-9175
▁arg	-9176
▁toptan	-9177
mayacaktır	-9178
▁tırnak	-9179
▁inşallah	-9180
fmt	-9181
▁hastanın	-9182
anızı	-9183
▁vuruş	-9184
▁cemal	-9185
▁lav	-9186
▁sözlü	-9187
▁ilerleyen	-9188
emize	-9189
seni	-9190
▁vd	-9191
diki	-9192
▁siyen	-9193
▁piyasaya	-9194
acaktı	-9195
▁alakalı	-9196
ax	-9197
miştim	-9198
▁çekerek	-9199
▁cat	-9200
▁hırsız	-9201
▁farkınd	-9202
▁komik	-9203
▁soya	-9204
▁durumlar	-9205
▁ilçesi	-9206
▁şirketleri	-9207
▁ayrıc	-9208
▁bakanlar	-9209
▁sunucu	-9210
io	-9211
▁lar	-9212
▁tencer	-9213
▁sağladı	-9214
▁cadde	-9215
çık	-9216
▁katal	-9217
ılabilecek	-9218
▁geçecek	-9219
▁kafasını	-9220
▁fena	-9221
▁görüşü	-9222
▁içini	-9223
▁böylesine	-9224
▁hain	-9225
▁gittiği	-9226
▁işlerini	-9227
▁zeytinya	-9228
▁oynayan	-9229
▁tavan	-9230
▁bayanlar	-9231
▁unvan	-9232
âne	-9233
▁kriter	-9234
▁sosyalist	-9235
▁tutuklu	-9236
▁duş	-9237
▁anlatmaya	-9238
▁kullanmaya	-9239
▁gun	-9240
▁engin	-9241
▁kağı	-9242
▁yaşamaya	-9243
▁maçta	-9244
▁seçkin	-9245
▁randevu	-9246
lüğüne	-9247
▁arabistan	-9248
lıkların	-9249
▁filmleri	-9250
▁konaklama	-9251
▁kolu	-9252
ilecektir	-9253
.(	-9254
▁olabilirdi	-9255
ith	-9256
▁otop	-9257
olos	-9258
barat	-9259
▁sandık	-9260
▁donat	-9261
▁toplumu	-9262
▁pel	-9263
▁hususunda	-9264
iii	-9265
mun	-9266
leden	-9267
▁yürütülen	-9268
▁değerler	-9269
▁efendimiz	-9270
▁sözlerine	-9271
ny	-9272
▁sök	-9273
larımızla	-9274
▁kiral	-9275
▁maksim	-9276
▁kahkah	-9277
▁ordusunun	-9278
▁muhtemel	-9279
▁herş	-9280
▁husu	-9281
▁başlayarak	-9282
lenin	-9283
▁görüntül	-9284
▁durmadan	-9285
▁kadarıyla	-9286
▁kongresi	-9287
hassa	-9288
▁boyutu	-9289
▁taksit	-9290
▁19.	-9291
▁tahsis	-9292
yeri	-9293
lub	-9294
▁tetik	-9295
▁olmalıydı	-9296
▁umur	-9297
▁birimi	-9298
▁beklentiler	-9299
▁ülkeleri	-9300
lini	-9301
▁tüccar	-9302
lendirme	-9303
▁kılıçdaroğlu	-9304
rosoft	-9305
▁deneme	-9306
▁çeyrek	-9307
▁ilerlem	-9308
▁odaları	-9309
▁sürüm	-9310
▁düşüncesi	-9311
▁digiturk	-9312
▁üzüntü	-9313
▁buçuk	-9314
▁geçin	-9315
▁kullanır	-9316
lamıştır	-9317
▁ileride	-9318
▁durup	-9319
▁aldığım	-9320
▁çet	-9321
▁sekreter	-9322
ıltı	-9323
▁1000	-9324
▁mutf	-9325
cen	-9326
▁ilham	-9327
▁tol	-9328
▁dikkatini	-9329
▁anket	-9330
▁amatör	-9331
▁geleni	-9332
▁5/	-9333
▁evli	-9334
▁sağlamaktadır	-9335
▁asgari	-9336
▁bürokr	-9337
▁gre	-9338
-20	-9339
▁çıkarı	-9340
▁kilise	-9341
ble	-9342
ülerek	-9343
lıların	-9344
▁denizi	-9345
▁partiler	-9346
endi	-9347
▁serp	-9348
ld	-9349
93	-9350
▁promos	-9351
izme	-9352
kent	-9353
▁kurtulmak	-9354
▁emanet	-9355
▁liu	-9356
eceğin	-9357
▁parkı	-9358
▁kullanıyor	-9359
laki	-9360
ülük	-9361
▁ortamı	-9362
▁amc	-9363
çocuk	-9364
▁yarışma	-9365
▁çıkmıştır	-9366
▁gelsin	-9367
▁kısacası	-9368
▁tarihten	-9369
▁çözümü	-9370
▁sarhoş	-9371
▁dikkati	-9372
opagan	-9373
▁konf	-9374
▁yapıt	-9375
▁kavray	-9376
▁nimet	-9377
▁içeriği	-9378
▁örgü	-9379
▁masanın	-9380
▁etmesini	-9381
▁inci	-9382
▁maddesinin	-9383
.4	-9384
layınız	-9385
espor	-9386
▁bulunmayan	-9387
pol	-9388
▁mıydı	-9389
vari	-9390
▁max	-9391
▁takdim	-9392
▁kitapta	-9393
▁akar	-9394
▁yanaş	-9395
▁grubun	-9396
▁geçiren	-9397
▁kurucusu	-9398
▁gelecekte	-9399
nsanın	-9400
▁dedektif	-9401
▁biriydi	-9402
▁tadını	-9403
▁fev	-9404
▁pırıl	-9405
▁deyim	-9406
▁profesör	-9407
▁hizmete	-9408
▁yıllarca	-9409
stra	-9410
şir	-9411
▁58	-9412
emizi	-9413
▁çoban	-9414
ayi	-9415
▁işletim	-9416
▁heyeti	-9417
▁elleri	-9418
▁okuyan	-9419
▁oynanan	-9420
ont	-9421
▁oksi	-9422
enni	-9423
▁bulundukları	-9424
ışın	-9425
▁kritik	-9426
▁önemini	-9427
▁kıymetli	-9428
isti	-9429
▁sarf	-9430
▁talebi	-9431
▁şirketler	-9432
▁aşam	-9433
▁elma	-9434
▁rey	-9435
▁projeleri	-9436
dig	-9437
yaspor	-9438
eğim	-9439
▁damla	-9440
çü	-9441
▁kadıköy	-9442
▁baraj	-9443
▁atarak	-9444
▁üskü	-9445
▁altyapı	-9446
▁yeniçeri	-9447
▁glo	-9448
▁haliyle	-9449
▁uşak	-9450
▁ayırt	-9451
▁bulunmuş	-9452
▁dilerim	-9453
▁arız	-9454
▁vize	-9455
lasman	-9456
▁öncü	-9457
▁lanet	-9458
ski	-9459
58	-9460
▁edelim	-9461
▁gözle	-9462
▁bilgiyi	-9463
çal	-9464
▁fın	-9465
▁nap	-9466
▁arazi	-9467
mece	-9468
▁nüfuz	-9469
▁bırakmak	-9470
▁verilmektedir	-9471
▁örnekleri	-9472
ekler	-9473
▁ölmüş	-9474
▁kapıya	-9475
rım	-9476
▁insanlarla	-9477
▁soyut	-9478
▁bozkır	-9479
luğunun	-9480
▁derv	-9481
ish	-9482
bk	-9483
beş	-9484
▁yazdır	-9485
▁bürün	-9486
▁halini	-9487
ebir	-9488
▁çare	-9489
▁propagan	-9490
▁şehre	-9491
ena	-9492
▁kalesi	-9493
▁baya	-9494
▁doğrul	-9495
▁etmel	-9496
▁odasında	-9497
▁nerde	-9498
▁aramak	-9499
▁stil	-9500
▁dükkan	-9501
doğru	-9502
▁davası	-9503
▁kuruş	-9504
▁gülümsedi	-9505
▁yaptığınız	-9506
▁olabileceği	-9507
cavüz	-9508
oth	-9509
▁muhalif	-9510
wer	-9511
▁müraca	-9512
▁kablo	-9513
▁bildirildi	-9514
▁yi	-9515
▁yaptılar	-9516
veni	-9517
îd	-9518
▁dostum	-9519
▁vermedi	-9520
▁aittir	-9521
▁rumeli	-9522
▁aşamasında	-9523
._	-9524
muh	-9525
ıra	-9526
▁sağladığı	-9527
ladığım	-9528
▁poli	-9529
▁inf	-9530
▁tümüyle	-9531
▁yazmak	-9532
!!	-9533
ilerinde	-9534
▁onar	-9535
▁saçma	-9536
▁kalması	-9537
▁istifa	-9538
layı	-9539
▁ziraat	-9540
▁merkezleri	-9541
▁mav	-9542
▁görüldü	-9543
lanmaya	-9544
▁ty	-9545
acağımız	-9546
▁🙂	-9547
gk	-9548
▁yükseldi	-9549
▁harem	-9550
▁çıkardığı	-9551
irt	-9552
▁600	-9553
▁halebî	-9554
ğunu	-9555
▁ın	-9556
▁intihar	-9557
▁sürüc	-9558
▁platformu	-9559
iliğe	-9560
▁dünyasının	-9561
mişlerdi	-9562
▁çalışarak	-9563
▁sessizce	-9564
inizle	-9565
▁turan	-9566
ysse	-9567
▁topa	-9568
by	-9569
▁neye	-9570
▁frag	-9571
▁yüklü	-9572
_00	-9573
▁inanıyorum	-9574
ebilmesi	-9575
▁hissettir	-9576
▁olursak	-9577
▁dinle	-9578
▁işçiler	-9579
▁nehri	-9580
▁aşı	-9581
▁12.	-9582
▁olurken	-9583
▁partner	-9584
▁taahhüt	-9585
ug	-9586
▁yönünden	-9587
ras	-9588
▁pür	-9589
landığını	-9590
beni	-9591
lana	-9592
▁kaldırıp	-9593
▁imar	-9594
▁lezzetli	-9595
▁koltuğ	-9596
▁cezaev	-9597
▁led	-9598
▁duman	-9599
▁öğrenim	-9600
bugün	-9601
layabilirsiniz	-9602
▁namazı	-9603
bilim	-9604
▁deyince	-9605
▁alanlarında	-9606
▁planda	-9607
▁amas	-9608
ömer	-9609
▁durur	-9610
▁kars	-9611
92	-9612
▁wal	-9613
▁bag	-9614
▁pul	-9615
▁oynadığı	-9616
▁belgeler	-9617
▁çözül	-9618
▁ordunun	-9619
lý	-9620
▁sevimli	-9621
▁kategorisinde	-9622
baba	-9623
iyorsun	-9624
▁promosyon	-9625
tiz	-9626
▁manastır	-9627
▁korkusu	-9628
▁buluştur	-9629
▁prog	-9630
yok	-9631
▁konuşmalar	-9632
▁ke	-9633
▁etkisini	-9634
▁tanıma	-9635
ılacaktır	-9636
▁annesinin	-9637
▁batılı	-9638
▁ailesinin	-9639
cıları	-9640
sed	-9641
▁kentin	-9642
zir	-9643
layabilir	-9644
▁kurtarmak	-9645
▁toplumda	-9646
▁yılların	-9647
▁temizliği	-9648
94	-9649
iyetine	-9650
▁kazı	-9651
▁biten	-9652
▁sözde	-9653
hil	-9654
▁yoldaş	-9655
▁içerisine	-9656
dirler	-9657
bunun	-9658
▁bırakarak	-9659
▁bekliyoruz	-9660
▁konuşuyor	-9661
▁askerleri	-9662
▁şaf	-9663
dola	-9664
▁domat	-9665
▁sisteme	-9666
▁skor	-9667
mişlerdir	-9668
▁düzenlendi	-9669
▁kime	-9670
▁idiler	-9671
▁başak	-9672
▁inkâr	-9673
sık	-9674
kisi	-9675
▁bilhassa	-9676
▁odanın	-9677
▁ajansı	-9678
▁masaya	-9679
▁etmeleri	-9680
▁sitemizde	-9681
▁disk	-9682
▁oğlunun	-9683
▁2003	-9684
▁kızgın	-9685
▁1980	-9686
cın	-9687
▁çamur	-9688
ius	-9689
▁çalışıyoruz	-9690
ınak	-9691
▁ihlal	-9692
▁kaşık	-9693
ço	-9694
▁suresi	-9695
▁olursunuz	-9696
ladıktan	-9697
ılmalıdır	-9698
▁hün	-9699
▁bolu	-9700
▁askerlik	-9701
▁mühendislik	-9702
▁geçmesi	-9703
▁kuruluşu	-9704
▁kalbi	-9705
▁diyanet	-9706
ğrul	-9707
▁2004	-9708
▁okumaya	-9709
▁adası	-9710
▁alışkanlık	-9711
▁devre	-9712
▁kafkas	-9713
ileriyle	-9714
▁temsilcileri	-9715
▁marx	-9716
▁yıp	-9717
▁gördüğüm	-9718
▁hızı	-9719
▁öğrencisi	-9720
▁hangisi	-9721
▁hüzün	-9722
▁geliştirmek	-9723
▁fabrika	-9724
ette	-9725
win	-9726
▁burcu	-9727
▁staj	-9728
▁aksesuar	-9729
▁harcam	-9730
▁değerini	-9731
▁tecavüz	-9732
▁ebev	-9733
61	-9734
▁seçeneği	-9735
▁gördüğümüz	-9736
▁forma	-9737
tamam	-9738
▁filan	-9739
ifor	-9740
▁youtube	-9741
▁sex	-9742
inceye	-9743
▁basınç	-9744
▁etkisiyle	-9745
-15	-9746
▁fren	-9747
▁kişiden	-9748
▁mükelle	-9749
▁atmak	-9750
▁çıkmaya	-9751
▁yapmıştır	-9752
▁kana	-9753
▁krizi	-9754
yü	-9755
amıyordu	-9756
▁problemi	-9757
▁biçiminde	-9758
▁dergi	-9759
▁ilti	-9760
▁eri	-9761
▁180	-9762
▁umu	-9763
dor	-9764
▁tamamladı	-9765
▁ekme	-9766
▁dede	-9767
▁onlarca	-9768
▁akan	-9769
▁verileri	-9770
▁hareketli	-9771
arka	-9772
▁derdi	-9773
▁uğruna	-9774
cım	-9775
imp	-9776
▁real	-9777
▁seviyede	-9778
▁hukuku	-9779
▁ihtiyaçlarını	-9780
eddüt	-9781
▁böbr	-9782
▁evrim	-9783
▁oturum	-9784
▁iyisi	-9785
▁söndür	-9786
▁kaynaklar	-9787
▁ihale	-9788
▁odysse	-9789
▁yönden	-9790
▁keşke	-9791
▁ukray	-9792
▁teşkilatı	-9793
▁ulaşan	-9794
vent	-9795
▁başarılar	-9796
▁fazlasını	-9797
▁keşif	-9798
▁depresyon	-9799
▁@	-9800
tun	-9801
▁özelliklerini	-9802
lerse	-9803
▁boylu	-9804
▁hissede	-9805
▁oluşu	-9806
▁maksa	-9807
idin	-9808
▁hâr	-9809
▁miz	-9810
▁tazminat	-9811
▁töreni	-9812
▁teknolojileri	-9813
leştirme	-9814
▁konulu	-9815
▁odaklı	-9816
▁geleceğini	-9817
▁3-	-9818
▁faydası	-9819
▁ağzından	-9820
▁yâ	-9821
▁yavrum	-9822
▁pembe	-9823
ordu	-9824
▁tıkanık	-9825
akâr	-9826
dos	-9827
▁verdiğimiz	-9828
▁sad	-9829
▁etmekten	-9830
gon	-9831
▁alkış	-9832
▁muğla	-9833
▁öztürk	-9834
▁köt	-9835
amanın	-9836
’’	-9837
▁yorumlar	-9838
▁itibarıyla	-9839
ns	-9840
▁mân	-9841
▁kurulması	-9842
▁kitle	-9843
▁edildiğini	-9844
▁dönmüş	-9845
▁dişi	-9846
▁teşebbüs	-9847
▁viy	-9848
▁bilişim	-9849
▁çekiş	-9850
▁kâfir	-9851
▁paylaşmak	-9852
▁hormon	-9853
pu	-9854
??	-9855
▁reg	-9856
▁düzenlenecek	-9857
▁geor	-9858
ardı	-9859
▁dul	-9860
▁giydir	-9861
▁öğrenildi	-9862
▁tabir	-9863
mamı	-9864
▁tuğ	-9865
▁serisi	-9866
▁umum	-9867
▁yeniçer	-9868
▁gördüğünüz	-9869
▁sofr	-9870
luğuna	-9871
▁çocuğa	-9872
▁komünist	-9873
▁arke	-9874
▁vurdu	-9875
▁bakıp	-9876
▁tâbi	-9877
▁şüpheli	-9878
kti	-9879
▁seminer	-9880
▁artıyor	-9881
▁etmeniz	-9882
▁eren	-9883
kol	-9884
▁kadınlara	-9885
▁ender	-9886
▁işareti	-9887
▁dönemine	-9888
▁balkon	-9889
▁şoför	-9890
▁muazzam	-9891
▁çatışma	-9892
▁koyup	-9893
osunu	-9894
▁kurmuş	-9895
▁balıkesir	-9896
▁gezin	-9897
alarındaki	-9898
▁yatan	-9899
nut	-9900
nis	-9901
▁sayısını	-9902
▁kelimesi	-9903
▁riski	-9904
▁yapılandır	-9905
aydın	-9906
▁ayın	-9907
▁diliyorum	-9908
itan	-9909
portaj	-9910
▁patates	-9911
▁firmanın	-9912
oni	-9913
▁diyorlar	-9914
▁medi	-9915
şan	-9916
▁başarıyla	-9917
▁geceleri	-9918
▁atıldı	-9919
▁çocukluk	-9920
âlet	-9921
▁oyuna	-9922
▁patron	-9923
▁fiyatlar	-9924
▁oyunda	-9925
▁hastaneye	-9926
dışı	-9927
sveç	-9928
▁gas	-9929
▁tarikat	-9930
ınıp	-9931
▁kıyasla	-9932
▁şiirleri	-9933
tına	-9934
▁ümmet	-9935
▁bilginin	-9936
▁sıklıkla	-9937
▁çeşitleri	-9938
lenerek	-9939
▁menfaat	-9940
▁toplamda	-9941
gay	-9942
▁saçları	-9943
▁sosy	-9944
üsünü	-9945
▁sebze	-9946
▁kızım	-9947
leyebilir	-9948
▁dolap	-9949
▁kazanmış	-9950
▁etkileyen	-9951
▁buton	-9952
▁dövüş	-9953
▁tereddüt	-9954
tv	-9955
▁toplama	-9956
nc	-9957
▁şeydir	-9958
adam	-9959
ünç	-9960
▁suudi	-9961
edikleri	-9962
▁konunun	-9963
▁yaralandı	-9964
hiz	-9965
cunun	-9966
nasıl	-9967
▁miyim	-9968
▁öle	-9969
▁mevzuat	-9970
▁dayanarak	-9971
▁saptan	-9972
▁cerrahi	-9973
▁loj	-9974
batı	-9975
▁büyüsü	-9976
▁onarım	-9977
▁buda	-9978
▁ikamet	-9979
▁üyelerinin	-9980
,»	-9981
▁mid	-9982
▁zamandan	-9983
▁kurumları	-9984
▁yaptıklarını	-9985
tınız	-9986
▁yunus	-9987
▁vatandaşların	-9988
ayn	-9989
▁telek	-9990
▁dim	-9991
▁jam	-9992
▁koya	-9993
5’	-9994
kız	-9995
▁vasıtasıyla	-9996
▁başardı	-9997
[[	-9998
siyle	-9999
ırsa	-10000
▁prensip	-10001
▁personeli	-10002
▁böylesi	-10003
▁çoğunluğu	-10004
▁esin	-10005
ülebil	-10006
▁getirerek	-10007
▁asır	-10008
eğiyle	-10009
▁irtibat	-10010
mazdı	-10011
▁140	-10012
▁ellerinde	-10013
▁alf	-10014
▁restoran	-10015
▁20.	-10016
',	-10017
▁kararlar	-10018
▁2019	-10019
▁ülkeyi	-10020
▁milleti	-10021
▁görevleri	-10022
mud	-10023
▁ateşli	-10024
ekte	-10025
▁çevirdi	-10026
▁tecrübe	-10027
▁mağar	-10028
▁girerek	-10029
▁yazmış	-10030
▁oturmuş	-10031
▁ster	-10032
▁nil	-10033
▁içindir	-10034
usundan	-10035
▁istemiyor	-10036
▁diyelim	-10037
▁bölgedeki	-10038
ğün	-10039
▁kimya	-10040
▁ceket	-10041
ularak	-10042
▁tet	-10043
▁sergilen	-10044
▁rüt	-10045
onspor	-10046
▁nic	-10047
▁röportaj	-10048
▁söylemişti	-10049
▁microsoft	-10050
▁anlatılan	-10051
▁ley	-10052
▁ret	-10053
▁istenilen	-10054
▁kaldım	-10055
▁mekanik	-10056
▁olacağız	-10057
cy	-10058
amda	-10059
▁planlama	-10060
▁senaryo	-10061
▁yapmaktadır	-10062
▁kenti	-10063
▁görevlisi	-10064
ıh	-10065
kend	-10066
▁malı	-10067
▁vaziyet	-10068
▁ihtiyaçları	-10069
▁sorunsuz	-10070
omen	-10071
▁firmaların	-10072
dok	-10073
▁izah	-10074
▁elveriş	-10075
▁okut	-10076
▁üste	-10077
▁pantolon	-10078
hisar	-10079
▁köşe	-10080
▁5,	-10081
▁kaplama	-10082
▁elektrikli	-10083
▁malik	-10084
▁derinlik	-10085
▁aslı	-10086
▁birlikt	-10087
▁çıkarken	-10088
ûd	-10089
▁bardağı	-10090
▁kombin	-10091
▁viz	-10092
mazlık	-10093
▁maksimum	-10094
64	-10095
▁refah	-10096
▁diyarbek	-10097
▁deneyimi	-10098
ux	-10099
▁bulgaristan	-10100
▁birbirlerini	-10101
▁cey	-10102
▁domates	-10103
▁kendilerinin	-10104
▁devletinin	-10105
▁tatar	-10106
▁tao	-10107
▁etnik	-10108
larımızdan	-10109
press	-10110
▁tuna	-10111
▁saman	-10112
▁çekildi	-10113
▁nefis	-10114
▁peşinden	-10115
63	-10116
91	-10117
}](../	-10118
▁mesafe	-10119
▁trt	-10120
▁değiştirmek	-10121
▁virüs	-10122
▁kararını	-10123
▁başlamak	-10124
▁yapıldığını	-10125
▁gerektiren	-10126
▁vallahi	-10127
istiy	-10128
▁fakült	-10129
▁neg	-10130
▁cevabını	-10131
▁duyan	-10132
▁dersleri	-10133
▁gerekçesiyle	-10134
▁öfke	-10135
▁peynir	-10136
▁ettiklerini	-10137
cağından	-10138
▁ray	-10139
▁muhtaç	-10140
▁ölür	-10141
▁zulüm	-10142
▁katlı	-10143
▁acımasız	-10144
hel	-10145
▁isabet	-10146
▁belirtmek	-10147
▁izleyic	-10148
▁dolarlık	-10149
▁depolama	-10150
▁asil	-10151
▁abon	-10152
mah	-10153
▁ölümünden	-10154
▁bekliyorum	-10155
▁torb	-10156
▁bilinmektedir	-10157
tiniz	-10158
▁ışın	-10159
▁pik	-10160
73	-10161
▁ihtimali	-10162
abi	-10163
yem	-10164
▁sevilen	-10165
▁imkânı	-10166
▁edi	-10167
▁başkası	-10168
▁ağırlıklı	-10169
▁alâ	-10170
▁açıklamaya	-10171
dığının	-10172
▁şanlıurfa	-10173
▁yapacağını	-10174
▁vitamin	-10175
ive	-10176
▁arttı	-10177
▁okulda	-10178
▁yapılarak	-10179
▁seh	-10180
deler	-10181
▁sola	-10182
▁ipek	-10183
▁cap	-10184
▁devlete	-10185
▁laboratuvar	-10186
▁ayrılmış	-10187
▁partinin	-10188
▁abi	-10189
▁tutarak	-10190
melisiniz	-10191
ebileceğini	-10192
▁uzakta	-10193
▁kis	-10194
▁gruplar	-10195
▁yelken	-10196
▁düşünüyordu	-10197
▁neyi	-10198
▁kâh	-10199
▁ortamında	-10200
▁müzaker	-10201
▁çözümler	-10202
▁oluşturulan	-10203
▁kalıntı	-10204
▁kabu	-10205
ebiliriz	-10206
▁hop	-10207
▁ağacı	-10208
▁süf	-10209
▁dönerek	-10210
▁ayşe	-10211
▁anlaşması	-10212
▁çıkaran	-10213
▁koymak	-10214
▁referan	-10215
▁53	-10216
madılar	-10217
▁sorumluluğ	-10218
▁birleşmiş	-10219
ümüzü	-10220
▁türkü	-10221
tuğunu	-10222
▁birbirleriyle	-10223
▁3/3	-10224
alığın	-10225
▁ihanet	-10226
fin	-10227
ersem	-10228
▁chat	-10229
▁ölümsüz	-10230
iliğini	-10231
▁derviş	-10232
▁zarf	-10233
vert	-10234
cesi	-10235
▁yolla	-10236
▁dayanışma	-10237
lçesi	-10238
▁bekler	-10239
âma	-10240
dası	-10241
▁muayene	-10242
▁saldırgan	-10243
▁durumdan	-10244
▁hikaye	-10245
▁kalmıştır	-10246
çişleri	-10247
▁yönlü	-10248
▁doğalgaz	-10249
▁sho	-10250
▁muvaf	-10251
▁yaşadıkları	-10252
▁düşünün	-10253
▁sanatı	-10254
▁yurttaş	-10255
▁jack	-10256
▁sağa	-10257
▁trav	-10258
▁şudur	-10259
larımızda	-10260
▁13.	-10261
▁demokrat	-10262
▁yama	-10263
▁bunca	-10264
▁klinik	-10265
▁ayının	-10266
▁idrar	-10267
▁takımın	-10268
▁önünden	-10269
▁öğretmenler	-10270
▁belgeleri	-10271
pınar	-10272
▁anlaşılan	-10273
▁omz	-10274
▁reş	-10275
▁yep	-10276
▁parçalar	-10277
▁kılan	-10278
bre	-10279
▁çektiği	-10280
cell	-10281
2017	-10282
▁yetkin	-10283
▁kapıdan	-10284
▁ağrısı	-10285
▁duvara	-10286
▁halife	-10287
▁ihraç	-10288
ansiyon	-10289
▁direktörü	-10290
▁patent	-10291
▁ceviz	-10292
▁oz	-10293
▁kişileri	-10294
▁mutluluğ	-10295
afet	-10296
▁üzüm	-10297
acağına	-10298
▁defalarca	-10299
▁`	-10300
sinden	-10301
▁aşkı	-10302
▁şimdiki	-10303
▁halkla	-10304
▁gövde	-10305
▁bölgelerde	-10306
▁istediğimiz	-10307
laşan	-10308
▁başlandı	-10309
▁fuarı	-10310
▁sop	-10311
ikler	-10312
▁sözlük	-10313
▁işkence	-10314
▁yapacağız	-10315
".	-10316
▁lt	-10317
▁solun	-10318
▁tanınan	-10319
▁büro	-10320
▁hazretleri	-10321
▁şaşırtıcı	-10322
▁olmadığına	-10323
kom	-10324
▁kuruluşları	-10325
▁resul	-10326
▁keşfed	-10327
lanmıştı	-10328
▁1990	-10329
irse	-10330
▁seo	-10331
▁sunmak	-10332
▁oynat	-10333
▁ağzına	-10334
▁rüyada	-10335
▁kaynaklı	-10336
▁krist	-10337
ucak	-10338
▁tabiat	-10339
▁olmaksızın	-10340
▁zamanlı	-10341
▁sevdiğim	-10342
▁soruyu	-10343
eyebilir	-10344
▁şiddetle	-10345
▁veriyordu	-10346
▁pres	-10347
▁katılmak	-10348
83	-10349
▁kararlaştır	-10350
▁hücre	-10351
▁böbrek	-10352
lilere	-10353
▁analizi	-10354
▁gitmeye	-10355
▁apol	-10356
▁endişe	-10357
▁mp	-10358
ily	-10359
azığ	-10360
▁vaat	-10361
▁kıyamet	-10362
▁geçerlidir	-10363
▁mermer	-10364
▁görebilirsiniz	-10365
▁müracaat	-10366
oterap	-10367
▁kılavuz	-10368
▁eserler	-10369
▁karı	-10370
▁şimşek	-10371
▁sib	-10372
▁götürdü	-10373
ect	-10374
▁almadan	-10375
▁tekstil	-10376
▁çarş	-10377
▁kumanda	-10378
▁gıd	-10379
lının	-10380
ix	-10381
▁konse	-10382
my	-10383
idir	-10384
▁bölgeler	-10385
ling	-10386
▁dönüm	-10387
▁mücadelesi	-10388
▁üreten	-10389
▁mesut	-10390
mamıştır	-10391
▁ahlaki	-10392
ğren	-10393
hr	-10394
ever	-10395
▁büyüklük	-10396
▁içki	-10397
▁mantıklı	-10398
▁süresince	-10399
▁borçlu	-10400
▁vesile	-10401
▁nın	-10402
▁bulduğu	-10403
▁direniş	-10404
▁wor	-10405
▁anladım	-10406
.[[	-10407
▁jen	-10408
▁hamam	-10409
kırım	-10410
▁çekilen	-10411
▁anlaşılır	-10412
71	-10413
culuk	-10414
leniyor	-10415
’,	-10416
▁veda	-10417
▁yaşına	-10418
çinin	-10419
▁beşinci	-10420
▁sürdürdü	-10421
bizim	-10422
▁dersin	-10423
▁eğr	-10424
belki	-10425
▁konul	-10426
unup	-10427
▁deplasman	-10428
▁sergi	-10429
▁fırtın	-10430
52	-10431
ss	-10432
▁süm	-10433
▁cahil	-10434
birliği	-10435
▁sük	-10436
-30	-10437
▁önceleri	-10438
sınıf	-10439
▁tadı	-10440
▁ayağı	-10441
▁anna	-10442
▁entel	-10443
▁hepimizin	-10444
▁tatb	-10445
▁wu	-10446
▁değiliz	-10447
▁medyada	-10448
▁trabzonspor	-10449
▁2002	-10450
▁yazılar	-10451
▁adnan	-10452
▁satıcı	-10453
▁tc	-10454
▁https	-10455
navut	-10456
üyorum	-10457
ağından	-10458
eski	-10459
osiklet	-10460
▁verirken	-10461
▁zon	-10462
▁gündür	-10463
▁muhabbet	-10464
▁açıklandı	-10465
▁dinî	-10466
▁bulgu	-10467
▁yaşta	-10468
▁moral	-10469
şletme	-10470
▁sorar	-10471
▁xx	-10472
▁azın	-10473
▁reng	-10474
▁oturt	-10475
iliyordu	-10476
▁hissi	-10477
▁meme	-10478
▁canı	-10479
▁casus	-10480
▁troya	-10481
çünkü	-10482
▁minim	-10483
▁açılmış	-10484
▁devrimi	-10485
▁laik	-10486
umuzda	-10487
▁aydınlık	-10488
masa	-10489
▁tesir	-10490
iriz	-10491
▁odalar	-10492
▁maddeleri	-10493
mektedirler	-10494
▁sürdürülebilir	-10495
▁şeklindeki	-10496
▁kk	-10497
▁mardin	-10498
▁komş	-10499
▁hastalar	-10500
▁anladı	-10501
tının	-10502
▁saygın	-10503
leşen	-10504
▁etkinliği	-10505
▁korum	-10506
▁edilmelidir	-10507
▁motoru	-10508
▁açılması	-10509
▁mülte	-10510
cinin	-10511
▁öğrencinin	-10512
▁zür	-10513
▁kanalı	-10514
▁paul	-10515
dırlar	-10516
▁yapıyorum	-10517
▁yakışık	-10518
▁gölü	-10519
▁resmî	-10520
▁versin	-10521
▁kılın	-10522
index	-10523
ulmuştu	-10524
▁müfet	-10525
▁ا	-10526
▁hy	-10527
▁dönmek	-10528
▁radikal	-10529
▁püs	-10530
▁52	-10531
▁telgraf	-10532
ınızdan	-10533
▁uygulanması	-10534
▁feda	-10535
▁pasap	-10536
▁nazik	-10537
▁mantar	-10538
kor	-10539
lunun	-10540
▁bütünüyle	-10541
▁topluma	-10542
▁tütün	-10543
▁sektörünün	-10544
▁çıktığını	-10545
▁angel	-10546
akar	-10547
tezi	-10548
▁buzdola	-10549
▁rep	-10550
▁blu	-10551
▁çığlık	-10552
▁kullanıcıların	-10553
▁çıkarma	-10554
▁cihazı	-10555
▁haklarını	-10556
▁gemisi	-10557
operatif	-10558
üsünde	-10559
▁hayvanların	-10560
ğimde	-10561
▁topluluğu	-10562
▁komutanlığı	-10563
▁hazırladığı	-10564
stri	-10565
emiştir	-10566
ght	-10567
▁zahmet	-10568
▁zab	-10569
tiğim	-10570
rahman	-10571
▁sayıları	-10572
ünüzü	-10573
▁ky	-10574
▁domuz	-10575
▁hatay	-10576
▁parası	-10577
▁duydum	-10578
▁dog	-10579
▁ülkesi	-10580
▁şeylere	-10581
ledikleri	-10582
▁binanın	-10583
▁sorunların	-10584
yaman	-10585
▁paramet	-10586
▁wil	-10587
▁zorlan	-10588
▁avu	-10589
▁dışarıya	-10590
▁nadir	-10591
▁yükleme	-10592
▁çalışmaların	-10593
▁fav	-10594
▁şeyhül	-10595
79	-10596
▁tünel	-10597
▁yetmez	-10598
▁anlamsız	-10599
▁vermeyi	-10600
lî	-10601
▁burak	-10602
cını	-10603
cem	-10604
▁unutma	-10605
▁sag	-10606
▁şuan	-10607
▁kendim	-10608
iyorsa	-10609
▁limit	-10610
▁şehirler	-10611
▁ebeveyn	-10612
siyet	-10613
ayıcı	-10614
▁hesaba	-10615
▁ettikten	-10616
▁deneyimli	-10617
▁oradaki	-10618
▁yaratmak	-10619
▁etmeyen	-10620
▁erdi	-10621
▁hediyeler	-10622
▁ederse	-10623
▁muhafız	-10624
▁yöneticileri	-10625
şçi	-10626
▁atın	-10627
▁zarif	-10628
▁tıklayın	-10629
ünür	-10630
▁adem	-10631
▁boşa	-10632
▁fatura	-10633
▁sahipliği	-10634
▁sw	-10635
▁fâ	-10636
barek	-10637
▁birde	-10638
▁genetik	-10639
▁adlandırılan	-10640
▁gezegen	-10641
ranı	-10642
▁yin	-10643
▁nolu	-10644
▁rehberi	-10645
usa	-10646
▁tarafın	-10647
▁pc	-10648
▁aldığınız	-10649
▁samim	-10650
acaksınız	-10651
▁başsav	-10652
▁sayfası	-10653
▁global	-10654
▁edilmişti	-10655
işik	-10656
▁apartman	-10657
▁kira	-10658
gb	-10659
▁motosiklet	-10660
▁edeceğini	-10661
▁21.	-10662
▁sonuca	-10663
▁trend	-10664
dünya	-10665
62	-10666
▁yöneticisi	-10667
▁sahibinin	-10668
ymış	-10669
ibet	-10670
▁ederdi	-10671
kitap	-10672
▁sessizlik	-10673
ald	-10674
▁vitamini	-10675
▁performansı	-10676
ood	-10677
▁telaf	-10678
kuş	-10679
tive	-10680
▁markası	-10681
▁bırakır	-10682
▁kısmının	-10683
▁saltanat	-10684
▁sektörde	-10685
▁nelerdir	-10686
▁gençlerin	-10687
▁ayna	-10688
▁edebilecek	-10689
dk	-10690
▁jean	-10691
▁söylenebilir	-10692
lısı	-10693
▁sevdik	-10694
▁papaz	-10695
▁salonunda	-10696
http	-10697
▁birç	-10698
eğince	-10699
▁pasta	-10700
▁muhasebe	-10701
ırtı	-10702
▁duyu	-10703
▁okuya	-10704
▁saatlik	-10705
▁edebiyatı	-10706
▁telekom	-10707
▁bilgilerini	-10708
▁ila	-10709
▁aracılığı	-10710
▁bilindiği	-10711
▁şöy	-10712
▁figür	-10713
▁cephe	-10714
▁ihsan	-10715
▁‘’	-10716
▁bilgin	-10717
▁herif	-10718
▁gerilim	-10719
▁türb	-10720
▁atıp	-10721
ydu	-10722
▁helik	-10723
▁duyguları	-10724
▁merkezli	-10725
▁anıt	-10726
▁isminin	-10727
▁gelişmeleri	-10728
▁korsan	-10729
▁getirilmesi	-10730
▁anlamaya	-10731
asan	-10732
▁faş	-10733
▁kaçan	-10734
▁bot	-10735
▁ressam	-10736
▁mars	-10737
▁muciz	-10738
vil	-10739
▁doğanın	-10740
▁emeklilik	-10741
dara	-10742
▁santral	-10743
▁muhat	-10744
▁muhafaz	-10745
▁çevrim	-10746
▁gerçeklik	-10747
▁arkadaşlık	-10748
▁girişi	-10749
▁kuruldu	-10750
▁çalıştım	-10751
mine	-10752
▁ukrayna	-10753
▁eksiksiz	-10754
insan	-10755
▁mahmud	-10756
▁yoz	-10757
▁hazar	-10758
▁fındık	-10759
▁neşeli	-10760
▁olanlara	-10761
▁temeli	-10762
▁salt	-10763
gö	-10764
rab	-10765
mediler	-10766
▁mükellef	-10767
vers	-10768
▁açıktır	-10769
▁holding	-10770
▁efendiler	-10771
▁şefkat	-10772
▁sub	-10773
▁wat	-10774
▁peç	-10775
▁olimp	-10776
aban	-10777
▁tüfek	-10778
▁boyutlu	-10779
▁kahveren	-10780
df	-10781
▁taklit	-10782
▁dahilinde	-10783
▁hoşnut	-10784
▁getirecek	-10785
▁buluyor	-10786
▁geçmişti	-10787
51	-10788
▁çiğn	-10789
▁güldü	-10790
oyun	-10791
▁fırtına	-10792
▁farz	-10793
▁kare	-10794
abilirdi	-10795
laştırma	-10796
işan	-10797
▁yapmıştı	-10798
ou	-10799
ýþ	-10800
▁güzer	-10801
▁cinsiyet	-10802
▁karşısındaki	-10803
▁özdeş	-10804
▁mimari	-10805
▁ilke	-10806
▁kapısını	-10807
▁geleceğe	-10808
çının	-10809
▁başkaları	-10810
▁ufuk	-10811
▁sigar	-10812
▁başlarına	-10813
▁noktasına	-10814
▁hatip	-10815
gg	-10816
▁kırsal	-10817
▁tezgah	-10818
▁çıkarılan	-10819
kaz	-10820
▁yaşadığımız	-10821
▁aşamada	-10822
▁veriyoruz	-10823
▁telaş	-10824
▁bağlamda	-10825
▁yığ	-10826
jinal	-10827
72	-10828
▁duyurdu	-10829
▁işletmeler	-10830
▁binası	-10831
▁yenilg	-10832
▁gelmedi	-10833
▁niteliği	-10834
▁vücudun	-10835
▁işleme	-10836
▁programına	-10837
▁gücünün	-10838
▁çalı	-10839
amıza	-10840
alaş	-10841
▁gözlerinin	-10842
ion	-10843
▁koyduğu	-10844
malarda	-10845
▁armağan	-10846
dut	-10847
▁gereğince	-10848
▁canavar	-10849
▁aleyhine	-10850
▁işg	-10851
▁açıklamalarda	-10852
dest	-10853
▁vücudu	-10854
lemektedir	-10855
▁kenarında	-10856
ita	-10857
.1,	-10858
▁üt	-10859
▁olg	-10860
▁borsa	-10861
meliyiz	-10862
oid	-10863
▁güreş	-10864
▁okudum	-10865
▁olmanız	-10866
81	-10867
▁eği	-10868
▁bıraktığı	-10869
aleti	-10870
▁yepyeni	-10871
89	-10872
▁özerk	-10873
▁etkinlikleri	-10874
69	-10875
nal	-10876
▁daim	-10877
▁dub	-10878
metik	-10879
▁huzurlu	-10880
▁tecrübeli	-10881
▁koyar	-10882
▁ışığında	-10883
▁sürdürüyor	-10884
zî	-10885
▁yasası	-10886
hap	-10887
▁dahası	-10888
hy	-10889
▁değişti	-10890
duğuna	-10891
ory	-10892
erin	-10893
▁format	-10894
▁üsküdar	-10895
▁bahse	-10896
▁kısmına	-10897
▁yılan	-10898
burada	-10899
▁oranları	-10900
▁gözlük	-10901
▁fırat	-10902
▁mütev	-10903
▁açıklamalar	-10904
▁söyleyecek	-10905
▁ekstra	-10906
59	-10907
con	-10908
▁kullanıldığı	-10909
:0	-10910
leyiş	-10911
▁kimdir	-10912
▁süfyan	-10913
▁anlata	-10914
▁brez	-10915
▁sokağa	-10916
▁amasya	-10917
▁arnavut	-10918
▁yapabilecek	-10919
▁devri	-10920
▁liberal	-10921
▁rasûlallah	-10922
kut	-10923
▁açılır	-10924
▁elazığ	-10925
cim	-10926
▁nasip	-10927
:30	-10928
dükleri	-10929
▁ingil	-10930
▁lif	-10931
▁dükkân	-10932
▁gezdir	-10933
▁hastalığın	-10934
▁konuştuk	-10935
ileş	-10936
ümin	-10937
kab	-10938
▁yüze	-10939
kinden	-10940
▁yaşandı	-10941
▁değiştirme	-10942
iyen	-10943
▁akşamı	-10944
▁öğleden	-10945
rus	-10946
isar	-10947
▁soruyor	-10948
▁saldırıya	-10949
meme	-10950
▁şirketlerin	-10951
▁gro	-10952
▁frek	-10953
▁direnç	-10954
▁elle	-10955
▁olduktan	-10956
▁bebeğin	-10957
▁üş	-10958
▁nakit	-10959
▁okumuş	-10960
▁diyebiliriz	-10961
seler	-10962
▁efsane	-10963
que	-10964
54	-10965
▁sürül	-10966
▁viyana	-10967
▁bildiğimiz	-10968
▁bildirim	-10969
▁başrol	-10970
▁siyasî	-10971
▁oturuyor	-10972
sch	-10973
ttihat	-10974
▁çalışıyorum	-10975
▁sınırı	-10976
▁tesisat	-10977
▁bağırsak	-10978
▁sıkça	-10979
▁endüstriyel	-10980
▁hayati	-10981
▁mask	-10982
▁helikop	-10983
▁keşf	-10984
eğinden	-10985
boş	-10986
▁what	-10987
▁aleyhisselâma	-10988
▁davut	-10989
▁dursun	-10990
▁varan	-10991
▁server	-10992
.11.	-10993
▁ellerine	-10994
▁alınmıştır	-10995
▁etmenin	-10996
▁insani	-10997
▁sudan	-10998
▁şeyhülis	-10999
menize	-11000
▁satan	-11001
lüğün	-11002
amay	-11003
▁zeyn	-11004
osun	-11005
▁kışkır	-11006
▁kos	-11007
▁david	-11008
▁oyla	-11009
▁patlama	-11010
▁yapıyordu	-11011
sol	-11012
▁erit	-11013
ilemez	-11014
▁tercüme	-11015
stein	-11016
▁malko	-11017
lediğini	-11018
lgi	-11019
▁bilinir	-11020
▁aramızda	-11021
▁hayvancılık	-11022
▁kombi	-11023
▁inter	-11024
kili	-11025
▁alık	-11026
nşallah	-11027
▁sebz	-11028
▁tutku	-11029
▁intikam	-11030
▁koşullar	-11031
ato	-11032
feri	-11033
▁hı	-11034
▁pencere	-11035
▁çekirdek	-11036
▁gülümsey	-11037
▁beh	-11038
▁imkansız	-11039
▁müsabak	-11040
▁yapalım	-11041
▁enerjisi	-11042
▁tamamını	-11043
▁kâğı	-11044
▁up	-11045
▁aldıktan	-11046
▁bitkisel	-11047
▁duyuru	-11048
▁görüşleri	-11049
▁noktaları	-11050
▁gerektirir	-11051
▁insanlardan	-11052
▁istemedi	-11053
▁temizleme	-11054
▁sesler	-11055
▁sekreteri	-11056
▁yollarını	-11057
ilme	-11058
▁grupları	-11059
▁bilmedi	-11060
▁yapılmasını	-11061
▁açlık	-11062
▁>>	-11063
▁karşılamak	-11064
▁simg	-11065
▁algılan	-11066
▁mülkiyet	-11067
îler	-11068
▁war	-11069
▁anlık	-11070
▁paketi	-11071
▁trakya	-11072
▁adaylar	-11073
▁bağımsızlık	-11074
▁sektörün	-11075
▁veriyorum	-11076
▁çocuklarının	-11077
▁hükümdarı	-11078
▁sokakta	-11079
▁vat	-11080
▁nüfusu	-11081
▁til	-11082
▁tedir	-11083
lüğünde	-11084
▁süvari	-11085
▁öncelikli	-11086
▁vurgulayan	-11087
▁harik	-11088
▁kitabında	-11089
▁uygulanır	-11090
▁mutsuz	-11091
wa	-11092
▁ayrılır	-11093
▁çıkmaktadır	-11094
▁tanrıça	-11095
ersek	-11096
▁heves	-11097
▁büyüyen	-11098
▁evrenin	-11099
casına	-11100
▁kızları	-11101
▁mezunu	-11102
▁lazer	-11103
▁şayet	-11104
▁nitelikli	-11105
()	-11106
▁emeği	-11107
▁enver	-11108
▁gelmiyor	-11109
bih	-11110
şik	-11111
ncel	-11112
▁siyenp	-11113
imizdeki	-11114
▁kasa	-11115
lanmak	-11116
▁evler	-11117
▁söylüyorum	-11118
▁renkler	-11119
▁keyfini	-11120
▁yorumları	-11121
▁mız	-11122
▁bre	-11123
maktayız	-11124
▁belirtir	-11125
▁heyecanlı	-11126
▁gidiyordu	-11127
▁pri	-11128
tt	-11129
▁hususta	-11130
böyle	-11131
rist	-11132
▁ateşi	-11133
▁mübarek	-11134
▁göstergesi	-11135
▁parf	-11136
▁hastanede	-11137
▁sürdüren	-11138
▁düşünceleri	-11139
lir	-11140
▁sitede	-11141
▁yakala	-11142
▁toprakları	-11143
▁doz	-11144
▁oyuncular	-11145
▁programında	-11146
taydı	-11147
▁hemde	-11148
ydım	-11149
▁kooperatif	-11150
abe	-11151
▁bomba	-11152
▁ilişkili	-11153
▁oluşmaktadır	-11154
▁idrak	-11155
▁imaj	-11156
▁konularında	-11157
▁15.	-11158
ason	-11159
▁biliyorsunuz	-11160
▁afgan	-11161
üd	-11162
▁suçu	-11163
ticaret	-11164
▁müsteş	-11165
▁günlerinde	-11166
▁çorb	-11167
liliğini	-11168
bnü	-11169
▁suda	-11170
▁detayları	-11171
▁imalat	-11172
▁aklın	-11173
▁adının	-11174
74	-11175
▁parsel	-11176
akende	-11177
etti	-11178
mamızı	-11179
▁tedirgin	-11180
▁tuta	-11181
kale	-11182
▁lüz	-11183
hut	-11184
▁fikirler	-11185
▁ms	-11186
▁pasif	-11187
▁ayrıcalık	-11188
▁varken	-11189
▁sonraları	-11190
▁görülebilir	-11191
▁haftanın	-11192
ole	-11193
▁cömer	-11194
▁sürgün	-11195
uel	-11196
veti	-11197
▁kendilerinden	-11198
▁maçın	-11199
▁huzuruna	-11200
zak	-11201
▁tarihlerinde	-11202
▁çalışanların	-11203
stır	-11204
▁sıralan	-11205
▁fetih	-11206
ebilmektedir	-11207
▁toplantıya	-11208
▁bör	-11209
▁duydu	-11210
▁yönü	-11211
ence	-11212
▁arın	-11213
▁imiş	-11214
▁düştüğü	-11215
▁edilmesini	-11216
▁insanlığın	-11217
ayarak	-11218
▁logo	-11219
▁yaşı	-11220
diz	-11221
▁(...)	-11222
▁münasebet	-11223
▁ıslak	-11224
▁borc	-11225
▁filmler	-11226
lû	-11227
▁kaydeden	-11228
▁küfür	-11229
▁okudu	-11230
▁doğruya	-11231
▁giriyor	-11232
▁sırasıyla	-11233
▁şeylerden	-11234
▁sürecinin	-11235
ümün	-11236
▁galax	-11237
▁alındığı	-11238
▁neyin	-11239
▁yazıyı	-11240
▁antrenman	-11241
ilmesinin	-11242
▁ürünlerini	-11243
ışıklık	-11244
acık	-11245
lülü	-11246
▁atıl	-11247
ınacak	-11248
▁atmış	-11249
▁memuru	-11250
tanrı	-11251
▁atma	-11252
▁yumruk	-11253
▁gelmesini	-11254
▁tespiti	-11255
▁yoğurt	-11256
lerimizden	-11257
▁kuyu	-11258
rid	-11259
▁ezber	-11260
▁las	-11261
▁hayv	-11262
▁kabuk	-11263
▁görüntülen	-11264
▁referandum	-11265
▁diyalog	-11266
▁sayfasında	-11267
▁miy	-11268
▁pomp	-11269
▁kıskanç	-11270
▁tanıyor	-11271
▁öldürüldü	-11272
ikli	-11273
▁ferah	-11274
▁konusudur	-11275
▁ruhsat	-11276
▁sunuyoruz	-11277
8’	-11278
▁17.	-11279
faiye	-11280
amızın	-11281
stem	-11282
ışlı	-11283
▁nitelendir	-11284
coin	-11285
▁1970	-11286
şer	-11287
olan	-11288
▁nato	-11289
▁düşünmeye	-11290
▁fotoğrafları	-11291
▁gerçekleştirmek	-11292
▁orgaz	-11293
arac	-11294
▁avustr	-11295
▁kurallar	-11296
▁cevapları	-11297
▁çektir	-11298
▁macaristan	-11299
▁sürecek	-11300
▁uğramış	-11301
▁kirli	-11302
?..	-11303
yetik	-11304
▁otorit	-11305
▁gittiler	-11306
▁toprağı	-11307
▁aydınlatma	-11308
▁fırlat	-11309
▁galaxy	-11310
▁karara	-11311
▁oranla	-11312
▁paranın	-11313
▁bron	-11314
asal	-11315
▁bayezid	-11316
▁başlayıp	-11317
▁taşıt	-11318
▁alerj	-11319
▁getirip	-11320
▁gb	-11321
▁tutuyor	-11322
▁kullanılacak	-11323
▁negatif	-11324
▁ortalık	-11325
▁yahud	-11326
▁entegre	-11327
şit	-11328
▁vücudum	-11329
▁edilecektir	-11330
rafa	-11331
▁anlayabil	-11332
▁emp	-11333
▁türleri	-11334
▁lah	-11335
▁gündelik	-11336
▁teorik	-11337
▁edeceği	-11338
güzel	-11339
▁savunan	-11340
rd	-11341
lot	-11342
▁müdürlük	-11343
fel	-11344
▁mineral	-11345
▁muy	-11346
▁bok	-11347
▁bektaş	-11348
gön	-11349
▁best	-11350
▁bankalar	-11351
▁strateji	-11352
izzt	-11353
▁diken	-11354
▁üzgün	-11355
▁ej	-11356
ilde	-11357
▁bık	-11358
▁artması	-11359
▁zordur	-11360
dını	-11361
atörü	-11362
▁yapılmasına	-11363
▁anahtarı	-11364
▁romantik	-11365
▁hakik	-11366
▁himay	-11367
▁tarihini	-11368
temiz	-11369
▁taşıdığı	-11370
▁merakla	-11371
mekteydi	-11372
▁halkına	-11373
peg	-11374
eyecektir	-11375
▁gelişmesi	-11376
▁salat	-11377
ub	-11378
▁cihan	-11379
▁komplek	-11380
▁denge	-11381
▁artışı	-11382
▁uyanık	-11383
lerimizde	-11384
acılık	-11385
▁kesti	-11386
▁taciz	-11387
▁mahkum	-11388
oviç	-11389
▁takvim	-11390
▁(%	-11391
▁iğren	-11392
▁verem	-11393
ashington	-11394
▁yazarın	-11395
▁düşkün	-11396
▁değişir	-11397
▁bilgilendirme	-11398
▁görkem	-11399
▁seyred	-11400
▁fiş	-11401
▁cild	-11402
▁yapıya	-11403
gis	-11404
▁seçme	-11405
▁takib	-11406
ümüzde	-11407
▁fiziki	-11408
umda	-11409
ırız	-11410
▁sanı	-11411
▁edeceğim	-11412
▁ihtiyacınız	-11413
▁hij	-11414
▁piyasada	-11415
▁yüzme	-11416
▁ahlâk	-11417
parta	-11418
▁gücüne	-11419
▁aktör	-11420
▁yarışması	-11421
▁durmuş	-11422
▁entr	-11423
değ	-11424
ıncaya	-11425
▁silâh	-11426
▁16.	-11427
▁gömlek	-11428
▁doğmuş	-11429
▁gitmişti	-11430
▁turu	-11431
▁18.	-11432
▁tema	-11433
acaklar	-11434
pas	-11435
▁ili	-11436
▁130	-11437
▁sabırsız	-11438
▁kaldırılması	-11439
hos	-11440
▁tasavvuf	-11441
▁örnekler	-11442
▁uzattı	-11443
▁pes	-11444
ational	-11445
▁bedeni	-11446
▁ağabey	-11447
▁tavırla	-11448
▁kilometr	-11449
▁söyleş	-11450
load	-11451
▁kararları	-11452
▁etkileyici	-11453
▁çikola	-11454
▁hamile	-11455
beti	-11456
▁topluluğ	-11457
esun	-11458
gız	-11459
▁karışım	-11460
▁kullanılabil	-11461
▁2001	-11462
▁kole	-11463
ilet	-11464
▁öğretmeni	-11465
tığına	-11466
dey	-11467
ford	-11468
siklop	-11469
▁eğitime	-11470
▁yükseliş	-11471
▁çem	-11472
âli	-11473
▁küçüm	-11474
▁götürür	-11475
▁dindar	-11476
▁hoşuna	-11477
▁öğrendim	-11478
▁tanımak	-11479
▁aleyhisselam	-11480
ût	-11481
▁perakende	-11482
▁mısınız	-11483
▁yayınlandı	-11484
ty	-11485
▁jul	-11486
▁seviyesi	-11487
▁pitt	-11488
general	-11489
▁cemiyeti	-11490
▁oğlunu	-11491
▁reak	-11492
▁şükür	-11493
ddi	-11494
▁standar	-11495
▁verirler	-11496
sünü	-11497
▁müsaade	-11498
beyi	-11499
▁kapsamda	-11500
▁dersler	-11501
▁bölgesine	-11502
▁sağlayacaktır	-11503
▁opsiyon	-11504
▁yanımda	-11505
▁göstermeye	-11506
dıma	-11507
▁bağlantılı	-11508
▁dk	-11509
▁ateşe	-11510
▁yaşantı	-11511
ekiz	-11512
tisiz	-11513
▁hiçbiri	-11514
▁entelek	-11515
▁kurtarma	-11516
sınlar	-11517
sosyal	-11518
▁yalçın	-11519
▁sorumlusu	-11520
▁haftası	-11521
▁ömrü	-11522
▁işveren	-11523
▁eks	-11524
▁çıkışı	-11525
▁ilişkilerin	-11526
ien	-11527
cesine	-11528
▁yapmadan	-11529
▁harcan	-11530
ayeti	-11531
▁ödev	-11532
▁koyan	-11533
▁çalışmanın	-11534
▁kolon	-11535
▁cömert	-11536
▁nihai	-11537
▁kampanyası	-11538
▁diril	-11539
muyordu	-11540
▁bağlantısından	-11541
diğimi	-11542
▁katılma	-11543
▁fransızca	-11544
▁keyfi	-11545
lığımız	-11546
link	-11547
gıcı	-11548
▁elçisi	-11549
▁açmış	-11550
▁54	-11551
luktan	-11552
▁yapama	-11553
âs	-11554
madık	-11555
▁nedenleri	-11556
▁alar	-11557
▁chan	-11558
▁gökhan	-11559
▁yürütül	-11560
▁bireylerin	-11561
▁kapsayan	-11562
▁özü	-11563
▁sünen	-11564
▁geliştirilen	-11565
▁başlamadan	-11566
▁yapılacaktır	-11567
▁başkanımız	-11568
▁muharrem	-11569
faf	-11570
▁gerçekleştirdi	-11571
lamalı	-11572
▁isterse	-11573
▁belirlenmesi	-11574
enize	-11575
▁seviyor	-11576
▁coğrafya	-11577
▁geçit	-11578
▁tunus	-11579
▁gözünü	-11580
▁diyarbekrî	-11581
▁düşüncelerini	-11582
▁koymuş	-11583
nat	-11584
▁6,	-11585
-18	-11586
▁yakınında	-11587
▁bağlantısı	-11588
edip	-11589
▁iskel	-11590
olsun	-11591
▁olmam	-11592
▁belç	-11593
ılmasının	-11594
attin	-11595
landırma	-11596
▁şun	-11597
▁tutuş	-11598
▁ziya	-11599
▁bekliyordu	-11600
iyeler	-11601
▁dünyadan	-11602
▁yeryüzünde	-11603
▁içerisindeki	-11604
lamıyor	-11605
▁seferinde	-11606
▁4/3	-11607
▁hükümleri	-11608
▁yapacağınız	-11609
▁çekme	-11610
▁canını	-11611
▁drizzt	-11612
▁oluşuyor	-11613
▁açarak	-11614
▁uzmanlar	-11615
▁klav	-11616
▁psikiyat	-11617
ümüzün	-11618
▁şöh	-11619
▁02	-11620
▁hırs	-11621
▁köklü	-11622
▁aki	-11623
▁haritası	-11624
▁çanta	-11625
▁durumları	-11626
▁fos	-11627
▁katliam	-11628
▁yapamaz	-11629
jik	-11630
▁tabur	-11631
▁filmde	-11632
▁komitesi	-11633
ledir	-11634
▁havay	-11635
▁sıkıcı	-11636
▁ert	-11637
izy	-11638
▁hizmetlerini	-11639
▁aln	-11640
işimi	-11641
▁menü	-11642
▁serdar	-11643
▁hakkına	-11644
▁çalışmalarının	-11645
▁dolara	-11646
▁duygular	-11647
iyy	-11648
▁yüzlü	-11649
▁etmiyor	-11650
▁filtr	-11651
▁işlerin	-11652
▁ansiklop	-11653
sab	-11654
▁dündar	-11655
▁oturduğu	-11656
tular	-11657
▁yazıları	-11658
▁haydi	-11659
▁ikisinin	-11660
latan	-11661
▁programın	-11662
▁kentsel	-11663
▁ağırlığı	-11664
▁olmadığından	-11665
▁dinlemek	-11666
▁sürün	-11667
▁düşüyor	-11668
-11	-11669
▁özge	-11670
▁fidan	-11671
lm	-11672
▁avrupalı	-11673
▁öldürmek	-11674
epe	-11675
▁bac	-11676
▁oluşturul	-11677
riz	-11678
▁kablos	-11679
▁karakteri	-11680
▁ebed	-11681
▁sarım	-11682
larımla	-11683
▁1960	-11684
▁rakib	-11685
mâ	-11686
▁56	-11687
▁maddesinde	-11688
▁slogan	-11689
▁çalışanlar	-11690
▁ala	-11691
▁pasaport	-11692
▁haksızlık	-11693
tap	-11694
▁başladığını	-11695
▁09	-11696
▁ilgisini	-11697
▁termin	-11698
▁sitenin	-11699
▁aileler	-11700
lişkin	-11701
▁zu	-11702
▁gittiğini	-11703
▁bireyin	-11704
▁yazmaya	-11705
haber	-11706
▁özgürlüğü	-11707
▁sorgulama	-11708
zim	-11709
▁mağaza	-11710
▁tapına	-11711
▁oksijen	-11712
▁14.	-11713
▁stü	-11714
▁iyidir	-11715
rop	-11716
gür	-11717
▁formül	-11718
▁başbakanı	-11719
▁sorumluluğu	-11720
▁tarzda	-11721
▁islam	-11722
▁veziri	-11723
ümüze	-11724
▁zalim	-11725
▁ayakları	-11726
verdi	-11727
▁klas	-11728
▁girişimi	-11729
▁siteler	-11730
▁çevresindeki	-11731
hir	-11732
▁ediyorlardı	-11733
▁iftar	-11734
▁kökenli	-11735
▁mısın	-11736
ıtay	-11737
▁kadros	-11738
▁kimliği	-11739
▁maliyeti	-11740
▁hristiyan	-11741
xhtml	-11742
▁operasyonu	-11743
▁sahada	-11744
asıdır	-11745
ktis	-11746
slami	-11747
▁benimsem	-11748
▁beye	-11749
▁davranışları	-11750
▁51	-11751
▁luk	-11752
▁konumu	-11753
▁hastaların	-11754
▁64	-11755
alanı	-11756
▁söylüyordu	-11757
▁cay	-11758
▁zapt	-11759
▁andan	-11760
▁vermem	-11761
▁elverişli	-11762
kik	-11763
▁yükümlülük	-11764
▁oluruz	-11765
▁fethullah	-11766
▁aramaya	-11767
▁alacağı	-11768
▁tesisleri	-11769
▁pot	-11770
▁üçünc	-11771
▁istediklerini	-11772
hun	-11773
▁esmer	-11774
▁taşınmaz	-11775
{{{2	-11776
],	-11777
▁izn	-11778
▁görmüyor	-11779
lamaktadır	-11780
malık	-11781
▁adımlar	-11782
▁alı	-11783
▁başlangı	-11784
▁110	-11785
▁seçin	-11786
lenmiştir	-11787
▁girmesi	-11788
▁kurulmuştur	-11789
▁verildiği	-11790
▁gerektiğinde	-11791
▁emretti	-11792
sadece	-11793
▁yapının	-11794
▁bankacılık	-11795
▁george	-11796
ğimizi	-11797
▁mahrum	-11798
▁başıma	-11799
▁ilanları	-11800
▁kurgu	-11801
▁osmanlılar	-11802
▁artvin	-11803
▁bilimi	-11804
▁azar	-11805
guldak	-11806
▁ilaçlar	-11807
▁bant	-11808
▁lakin	-11809
7’	-11810
▁zıt	-11811
▁çarpıcı	-11812
▁birbiriyle	-11813
▁kaçış	-11814
pen	-11815
▁sürat	-11816
▁mû	-11817
▁zil	-11818
bölüm	-11819
▁güçler	-11820
▁çalışanları	-11821
▁yazıda	-11822
▁bilerek	-11823
▁fars	-11824
▁grev	-11825
▁duyuyor	-11826
▁sağlama	-11827
mayalım	-11828
▁oyuncusu	-11829
▁washington	-11830
▁kibar	-11831
▁tekir	-11832
▁ünvan	-11833
▁teknikleri	-11834
uyla	-11835
linin	-11836
kurt	-11837
▁nan	-11838
rev	-11839
▁1920	-11840
▁kazanır	-11841
notes	-11842
keş	-11843
▁civar	-11844
▁türkleri	-11845
▁boşuna	-11846
▁yorumu	-11847
ward	-11848
▁kabin	-11849
▁otomotiv	-11850
▁portekiz	-11851
▁kazandığı	-11852
▁cd	-11853
▁down	-11854
▁teminat	-11855
-16	-11856
▁saatler	-11857
▁yoğunlaş	-11858
▁hikâye	-11859
▁kıza	-11860
▁izleme	-11861
sko	-11862
▁kahverengi	-11863
tayız	-11864
▁biyolojik	-11865
84	-11866
▁jon	-11867
▁bakter	-11868
▁haricinde	-11869
▁elimden	-11870
amızı	-11871
▁inş	-11872
▁yemen	-11873
▁birileri	-11874
▁belirlemek	-11875
▁alex	-11876
▁minnet	-11877
▁birikim	-11878
-12	-11879
nönü	-11880
▁rize	-11881
kiye	-11882
üminyum	-11883
▁soykırım	-11884
▁abdülham	-11885
sche	-11886
▁yıldızı	-11887
▁hanedan	-11888
▁yaşadı	-11889
▁taksim	-11890
▁göreceksiniz	-11891
▁160	-11892
▁tamamıyla	-11893
▁yaptıktan	-11894
▁|--	-11895
▁kre	-11896
▁shih	-11897
ysanız	-11898
▁satılan	-11899
▁akç	-11900
▁gerektiğine	-11901
celi	-11902
▁cisim	-11903
▁odysseus	-11904
▁almaz	-11905
▁yaptırım	-11906
▁vurguladı	-11907
inat	-11908
▁terey	-11909
▁düşünme	-11910
▁çekilmiş	-11911
▁düzeyinde	-11912
▁düzenledi	-11913
▁turkcell	-11914
▁baktığımızda	-11915
▁bunlarla	-11916
▁alıyordu	-11917
cül	-11918
mayız	-11919
▁okulun	-11920
▁artırmak	-11921
▁suyunu	-11922
▁etmeyin	-11923
▁ilâh	-11924
daresi	-11925
▁mezhep	-11926
▁taç	-11927
ope	-11928
▁ürper	-11929
▁bırakan	-11930
tahya	-11931
▁kastam	-11932
▁şöval	-11933
fiye	-11934
▁fısılda	-11935
▁beyi	-11936
▁sağlığını	-11937
▁kronik	-11938
▁kaldığını	-11939
▁deve	-11940
uğ	-11941
▁konuşurken	-11942
▁kesintisiz	-11943
▁lehine	-11944
▁ölüme	-11945
▁gizlice	-11946
▁olacaksınız	-11947
▁izler	-11948
▁yanda	-11949
▁ardında	-11950
▁plâ	-11951
elek	-11952
cağımız	-11953
▁geçtiğini	-11954
▁farklıdır	-11955
▁programlar	-11956
▁hükmü	-11957
▁sempoz	-11958
▁ailesine	-11959
▁deleg	-11960
▁kurab	-11961
▁vasıf	-11962
▁ganimet	-11963
▁koyarak	-11964
▁kolunu	-11965
▁sorusuna	-11966
▁panik	-11967
▁super	-11968
▁şekillendir	-11969
▁harizm	-11970
▁kullanın	-11971
▁yemekler	-11972
▁hoşgör	-11973
pss	-11974
▁sorusu	-11975
alarımız	-11976
▁entelektüel	-11977
▁şanslı	-11978
▁boyunda	-11979
ces	-11980
▁cir	-11981
emediği	-11982
▁züm	-11983
ğınık	-11984
▁endüstri	-11985
▁işçilerin	-11986
▁zeka	-11987
▁memnuniyet	-11988
artık	-11989
▁seçimleri	-11990
▁gözünde	-11991
▁katar	-11992
▁olduğumuzu	-11993
uver	-11994
kadın	-11995
▁şirin	-11996
▁renkleri	-11997
▁kh	-11998
▁stu	-11999
▁saadet	-12000
▁söylediler	-12001
tuğrul	-12002
▁büs	-12003
▁otopark	-12004
▁endeksi	-12005
▁kktc	-12006
▁çubuk	-12007
▁fant	-12008
▁güneydoğu	-12009
▁nuri	-12010
şar	-12011
▁ağı	-12012
▁gereksinim	-12013
▁belgesel	-12014
▁kardeşler	-12015
▁saklı	-12016
▁iktidarı	-12017
▁özelliğini	-12018
▁piyasası	-12019
▁ifadesini	-12020
▁vef	-12021
▁ayıp	-12022
▁ağzını	-12023
apur	-12024
▁ts	-12025
▁işsiz	-12026
▁cüzdan	-12027
▁katında	-12028
▁kaldırmak	-12029
▁suik	-12030
▁hareketin	-12031
▁badem	-12032
ksür	-12033
▁andr	-12034
▁nesne	-12035
▁askerin	-12036
▁duya	-12037
bis	-12038
▁2-3	-12039
▁merhab	-12040
▁faruk	-12041
▁şehrinde	-12042
▁birebir	-12043
jpeg	-12044
radı	-12045
dra	-12046
▁gelenler	-12047
▁tul	-12048
▁benims	-12049
▁felsefesi	-12050
▁karam	-12051
▁antlaş	-12052
seydi	-12053
mark	-12054
oo	-12055
▁eksikliği	-12056
▁taşımacılık	-12057
▁anlamını	-12058
▁işleyen	-12059
▁tefs	-12060
lerince	-12061
▁temelinde	-12062
alisyon	-12063
▁[[	-12064
▁medy	-12065
▁görüşmek	-12066
▁duygularını	-12067
dört	-12068
▁dereceye	-12069
▁doğumlu	-12070
eliğin	-12071
▁meraklı	-12072
▁otob	-12073
▁çikolata	-12074
▁gey	-12075
▁özbek	-12076
▁çıkarır	-12077
▁süvar	-12078
▁nedense	-12079
▁yöne	-12080
▁apollon	-12081
▁gerçekçi	-12082
hard	-12083
▁şebek	-12084
▁özenle	-12085
▁kullanılmıştır	-12086
▁molek	-12087
▁sürecini	-12088
▁pusu	-12089
▁kurnaz	-12090
▁eğitimin	-12091
▁tabl	-12092
▁haberine	-12093
▁tarifleri	-12094
▁pirinç	-12095
▁izliyor	-12096
deti	-12097
▁sahneye	-12098
mesidir	-12099
vis	-12100
minin	-12101
▁şampiyonası	-12102
akki	-12103
erik	-12104
▁çiftlik	-12105
▁dünyasına	-12106
efa	-12107
▁yetkilileri	-12108
▁fotoğrafı	-12109
▁alıntı	-12110
▁konuşmada	-12111
▁sisteminde	-12112
▁bart	-12113
terek	-12114
▁***	-12115
▁atina	-12116
▁durmak	-12117
▁kurb	-12118
lanmaz	-12119
îf	-12120
▁dolaylı	-12121
▁koruyan	-12122
▁havası	-12123
▁sokul	-12124
▁kanada	-12125
▁başvurusu	-12126
▁sütü	-12127
▁diyoruz	-12128
▁varlığın	-12129
▁atlı	-12130
▁ustası	-12131
▁kırp	-12132
▁ekrem	-12133
▁sonuçlarını	-12134
▁sürecin	-12135
▁arıza	-12136
eceğinden	-12137
▁tehlikeye	-12138
▁huzursuz	-12139
▁yakışıklı	-12140
▁helikopter	-12141
▁usb	-12142
emişti	-12143
▁güçsüz	-12144
▁bildiğim	-12145
▁yakınlarında	-12146
▁veriliyor	-12147
ettin	-12148
▁tepe	-12149
▁tanıdık	-12150
laj	-12151
▁alüminyum	-12152
ayrı	-12153
▁fri	-12154
sapp	-12155
▁motiv	-12156
▁sabaha	-12157
▁gölge	-12158
▁olanın	-12159
itim	-12160
iyenin	-12161
▁görüntüsü	-12162
▁adresine	-12163
▁geminin	-12164
▁şapk	-12165
▁eki	-12166
▁7,	-12167
▁yüzük	-12168
▁güzelliği	-12169
▁serü	-12170
▁seviyesine	-12171
▁nizam	-12172
▁olanaksız	-12173
▁ucunda	-12174
▁sular	-12175
▁lübn	-12176
▁yükseköğretim	-12177
▁araştırmaları	-12178
▁enter	-12179
▁şeydi	-12180
▁sigortalı	-12181
▁ellerinden	-12182
sika	-12183
▁istil	-12184
üh	-12185
▁olana	-12186
▁öksür	-12187
▁harman	-12188
▁seslendi	-12189
▁çorba	-12190
▁geçmişi	-12191
▁odun	-12192
▁sınava	-12193
▁hikayesi	-12194
▁toprağın	-12195
▁4-	-12196
▁%100	-12197
▁çevresi	-12198
▁dilerseniz	-12199
▁aksiyon	-12200
▁ülkü	-12201
▁tasarlanmış	-12202
▁(3)	-12203
▁bosna	-12204
▁kadem	-12205
▁uzlaş	-12206
▁çatal	-12207
▁bulmaya	-12208
▁başkalarına	-12209
dp	-12210
▁kaymakamı	-12211
▁nah	-12212
▁erzin	-12213
▁seçti	-12214
▁katılacak	-12215
amin	-12216
stih	-12217
▁yazının	-12218
▁fey	-12219
▁dönüştü	-12220
▁ilgilendir	-12221
▁rasyon	-12222
▁bırakma	-12223
imdeki	-12224
▁ediniz	-12225
▁karşıtı	-12226
▁giresun	-12227
▁damg	-12228
/10	-12229
ilmi	-12230
▁siteniz	-12231
▁rı	-12232
▁edince	-12233
▁ikincisi	-12234
▁kahire	-12235
▁evinin	-12236
▁800	-12237
▁seçilmiş	-12238
▁tsk	-12239
stiklal	-12240
▁etkisiz	-12241
▁mıy	-12242
▁erim	-12243
▁düşmanın	-12244
cap	-12245
▁borcu	-12246
▁aleyhi	-12247
▁kredisi	-12248
esih	-12249
▁ileriye	-12250
▁konudaki	-12251
▁rut	-12252
lhan	-12253
▁yelpaz	-12254
▁aralı	-12255
▁tanınmış	-12256
tığın	-12257
laz	-12258
▁bambaşka	-12259
▁sonbahar	-12260
▁anneler	-12261
▁01	-12262
▁yorul	-12263
▁taksi	-12264
▁let	-12265
▁kocası	-12266
▁görüşlerini	-12267
▁çalışmalara	-12268
▁ded	-12269
▁did	-12270
▁şekeri	-12271
▁sende	-12272
▁namus	-12273
▁sırrı	-12274
▁ilkel	-12275
▁metrekare	-12276
3’	-12277
▁döneme	-12278
lişkiler	-12279
▁melik	-12280
âtı	-12281
▁koalisyon	-12282
nş	-12283
föy	-12284
▁engellemek	-12285
▁yapıyorlar	-12286
-200	-12287
▁sigortası	-12288
▁zonguldak	-12289
▁08	-12290
bül	-12291
main	-12292
ılınca	-12293
▁nevi	-12294
▁geliştirilmesi	-12295
▁toto	-12296
▁hamilelik	-12297
▁konuşmasını	-12298
▁bebeğ	-12299
▁sözcüsü	-12300
▁makul	-12301
▁kazanım	-12302
▁(3	-12303
▁diyabet	-12304
▁büyül	-12305
▁karaciğer	-12306
yın	-12307
▁kala	-12308
cileri	-12309
▁affet	-12310
lediğiniz	-12311
ora	-12312
ankara	-12313
ideki	-12314
ee	-12315
▁oluşturuyor	-12316
▁fol	-12317
▁burda	-12318
▁nüs	-12319
▁inceledi	-12320
▁fenomen	-12321
diğince	-12322
▁kristal	-12323
▁tanımı	-12324
▁past	-12325
sti	-12326
▁yazıp	-12327
râ	-12328
▁ısır	-12329
mayınız	-12330
▁bulduk	-12331
▁yıldön	-12332
▁programa	-12333
▁tüz	-12334
▁konsan	-12335
▁santim	-12336
▁tutmuş	-12337
▁şaşırt	-12338
▁host	-12339
▁gelirken	-12340
▁kaçtı	-12341
▁sırala	-12342
▁papa	-12343
maraş	-12344
▁ambul	-12345
▁doğrudur	-12346
zmit	-12347
▁metab	-12348
▁süpür	-12349
▁tasarı	-12350
▁başarıya	-12351
▁tümü	-12352
▁bulunmuştur	-12353
▁etmişlerdir	-12354
▁tesli	-12355
▁detaylar	-12356
▁robert	-12357
▁kalitesini	-12358
▁inancı	-12359
▁faaliyetlerini	-12360
▁konusunu	-12361
▁girmeye	-12362
▁rütb	-12363
▁mul	-12364
▁göstermiş	-12365
▁polonya	-12366
▁madem	-12367
▁mescid	-12368
▁sezonu	-12369
▁bireyler	-12370
leridir	-12371
▁yaramaz	-12372
▁yazarlar	-12373
▁araçların	-12374
▁federasyon	-12375
▁buydu	-12376
▁marks	-12377
ruklu	-12378
▁orda	-12379
▁güncelleme	-12380
▁baha	-12381
ekonom	-12382
▁öylece	-12383
▁saçlı	-12384
▁yanıma	-12385
▁sonsuza	-12386
▁ortağı	-12387
▁olaylara	-12388
▁aşan	-12389
▁manzara	-12390
▁çocuklarını	-12391
▁hatalı	-12392
▁yatırımcı	-12393
30,	-12394
▁gizlilik	-12395
tığımda	-12396
▁destekleyen	-12397
▁kdv	-12398
▁karışımı	-12399
▁bitcoin	-12400
▁ülkesine	-12401
atlı	-12402
▁güle	-12403
▁yerlerden	-12404
▁yalın	-12405
▁gösterg	-12406
zâde	-12407
▁yurtdışı	-12408
▁kurtarı	-12409
▁asf	-12410
▁küçül	-12411
▁siteye	-12412
▁vuk	-12413
▁ilaçlama	-12414
▁aksaray	-12415
▁fatma	-12416
lıklarını	-12417
▁hareketler	-12418
▁uygundur	-12419
şk	-12420
ıldım	-12421
▁ingiliz	-12422
▁olanağı	-12423
▁yapacağım	-12424
▁sürüş	-12425
▁helal	-12426
▁sûr	-12427
▁soyun	-12428
▁ejder	-12429
▁istiyorsunuz	-12430
▁bozukluğu	-12431
iden	-12432
▁fotoğraflar	-12433
:**	-12434
▁yeme	-12435
▁jür	-12436
▁soğan	-12437
▁koşullarda	-12438
▁yatay	-12439
▁şakir	-12440
▁döneminin	-12441
gren	-12442
▁oynama	-12443
▁metod	-12444
▁yayılan	-12445
▁katman	-12446
▁tö	-12447
bs	-12448
▁yedik	-12449
▁damat	-12450
▁kanseri	-12451
post	-12452
emeyeceği	-12453
▁devletlerin	-12454
atıyla	-12455
▁kastamonu	-12456
▁akh	-12457
▁soruya	-12458
▁biliyorsun	-12459
eceksiniz	-12460
▁hazırlamak	-12461
▁altmış	-12462
dyum	-12463
▁willi	-12464
▁açıyor	-12465
▁istifade	-12466
▁üzerlerine	-12467
▁kışın	-12468
▁gevş	-12469
▁meslektaş	-12470
aym	-12471
_**	-12472
hayat	-12473
mama	-12474
▁köyde	-12475
▁lojistik	-12476
une	-12477
▁olaya	-12478
▁yanan	-12479
▁kırgız	-12480
▁levent	-12481
oğulları	-12482
▁hunlara	-12483
▁tapınak	-12484
▁belirlenir	-12485
▁dâv	-12486
▁tasvir	-12487
▁00	-12488
▁ansızın	-12489
▁mücev	-12490
500	-12491
▁tıklayınız	-12492
▁getirmeye	-12493
▁denizin	-12494
▁yetmiş	-12495
▁adıyaman	-12496
▁birinden	-12497
30’	-12498
▁bors	-12499
▁bilimin	-12500
▁ertuğrul	-12501
eleme	-12502
▁black	-12503
▁etmekle	-12504
ehr	-12505
hael	-12506
ydılar	-12507
▁geçim	-12508
ým	-12509
▁norm	-12510
▁ambar	-12511
ledikten	-12512
▁başlattı	-12513
▁heyecanla	-12514
▁mırıldandı	-12515
▁herak	-12516
▁gelecektir	-12517
▁arındır	-12518
müs	-12519
▁kaptır	-12520
▁sadakat	-12521
▁1)	-12522
hsan	-12523
▁propaganda	-12524
▁kafası	-12525
▁ekonomisi	-12526
▁1\.	-12527
genel	-12528
▁sovyetler	-12529
▁word	-12530
▁mukad	-12531
▁yaklaştı	-12532
▁bayrağı	-12533
▁makale	-12534
▁başlangıcı	-12535
▁şeffaf	-12536
▁asılı	-12537
▁ruhun	-12538
▁bostan	-12539
▁senesinde	-12540
▁57	-12541
▁düşünmüş	-12542
▁mutluluğu	-12543
larınızda	-12544
▁vurgulan	-12545
▁konuşur	-12546
▁rahatça	-12547
▁bölümüne	-12548
▁erzincan	-12549
ılmadan	-12550
▁olunan	-12551
▁mezh	-12552
mparatoru	-12553
▁tercüm	-12554
▁geçirmiş	-12555
▁türkistan	-12556
▁kaldırıldı	-12557
▁beklenmedik	-12558
▁kası	-12559
▁eyüp	-12560
▁kapıda	-12561
▁başlama	-12562
▁arasındadır	-12563
gıt	-12564
▁ekleyin	-12565
▁arabanın	-12566
▁aa	-12567
▁avustralya	-12568
▁mimarlık	-12569
▁bölgelerinde	-12570
ting	-12571
▁haberleşme	-12572
▁sicil	-12573
▁yürürlük	-12574
▁farkındalık	-12575
▁duymuş	-12576
lev	-12577
▁yaşadık	-12578
▁soci	-12579
▁tabanc	-12580
20,	-12581
▁2\.	-12582
▁çıktık	-12583
▁yarattı	-12584
▁günkü	-12585
▁yapmakta	-12586
lesin	-12587
▁ihtiyacını	-12588
▁yapılacağı	-12589
▁alanın	-12590
▁mahsus	-12591
▁şüphel	-12592
▁yeteneği	-12593
▁avm	-12594
▁izmir	-12595
▁dağınık	-12596
▁başarısı	-12597
▁kabullen	-12598
▁ros	-12599
▁kullanıma	-12600
▁maksat	-12601
▁spr	-12602
▁gaf	-12603
▁muayen	-12604
iyetinde	-12605
▁perişan	-12606
▁istiyorsun	-12607
▁gruba	-12608
▁dağları	-12609
▁yetenekli	-12610
-100	-12611
oteles	-12612
▁rüşvet	-12613
▁bilmiyordu	-12614
▁gücün	-12615
iliğine	-12616
▁olabiliyor	-12617
▁iştah	-12618
▁resimler	-12619
▁yerlerinde	-12620
▁katılımıyla	-12621
▁otelleri	-12622
▁ford	-12623
▁naf	-12624
▁hist	-12625
▁tonu	-12626
mann	-12627
▁ilân	-12628
▁biriktir	-12629
▁köyünde	-12630
▁burjuva	-12631
▁başlatılan	-12632
▁varlıklar	-12633
▁biş	-12634
▁ortala	-12635
▁haftasında	-12636
duy	-12637
▁etkinlikler	-12638
▁söyleyebiliriz	-12639
▁james	-12640
rul	-12641
vak	-12642
▁ertel	-12643
▁göstermiştir	-12644
▁tasdik	-12645
▁çiftçi	-12646
▁derim	-12647
▁meryem	-12648
hracat	-12649
▁dinsel	-12650
▁lib	-12651
▁çayı	-12652
▁gayri	-12653
work	-12654
üsüne	-12655
▁harita	-12656
▁hayali	-12657
▁sipah	-12658
▁tüzel	-12659
▁başlayınca	-12660
ografi	-12661
▁şafak	-12662
▁kalori	-12663
▁gösteriş	-12664
▁alıştır	-12665
▁yardıma	-12666
ýz	-12667
▁alanya	-12668
▁girdiler	-12669
▁çocuklarda	-12670
▁newt	-12671
▁çakır	-12672
▁hâlde	-12673
▁bulunmadığı	-12674
▁said	-12675
▁adımlarla	-12676
▁tehdi	-12677
▁edilip	-12678
▁istediler	-12679
▁kazanma	-12680
▁usulü	-12681
abilirim	-12682
▁kütahya	-12683
▁dayat	-12684
▁ardına	-12685
▁olmayacaktır	-12686
▁olsalar	-12687
▁yenilikçi	-12688
lerimizle	-12689
▁hizmetine	-12690
▁ibar	-12691
▁mühür	-12692
▁mesafede	-12693
▁seçmen	-12694
dine	-12695
taraf	-12696
▁fethi	-12697
lığım	-12698
▁yöntemler	-12699
kiş	-12700
▁umutsuz	-12701
▁malum	-12702
omi	-12703
▁karşıy	-12704
▁kalmaya	-12705
▁bellek	-12706
▁whatsapp	-12707
▁lor	-12708
▁aleksan	-12709
bolu	-12710
▁kararın	-12711
▁tuttuğu	-12712
▁hacer	-12713
▁hesabına	-12714
▁muvaffak	-12715
▁istikamet	-12716
▁söylemeye	-12717
▁81	-12718
▁askerlerin	-12719
▁700	-12720
cumhur	-12721
▁kun	-12722
▁kutup	-12723
▁yakalandı	-12724
▁harç	-12725
▁cidd	-12726
▁yüc	-12727
▁andre	-12728
▁redde	-12729
▁inanan	-12730
1⁄	-12731
emde	-12732
duğundan	-12733
▁kadrosu	-12734
▁sormak	-12735
▁okurken	-12736
▁afet	-12737
▁içti	-12738
▁davr	-12739
▁niteliğinde	-12740
▁titreş	-12741
▁büsbütün	-12742
▁babasına	-12743
▁seviyesinde	-12744
▁geçirilen	-12745
▁belirlem	-12746
▁benziyor	-12747
▁sırası	-12748
▁özdemir	-12749
anik	-12750
▁batman	-12751
▁akciğer	-12752
▁babamın	-12753
▁yanak	-12754
medikleri	-12755
▁çıkınca	-12756
▁söze	-12757
▁bölümleri	-12758
▁pin	-12759
▁tahrip	-12760
▁burç	-12761
▁yazdım	-12762
▁okullar	-12763
ekkül	-12764
▁kaplan	-12765
▁coşku	-12766
▁esrar	-12767
▁bahçesi	-12768
▁kavur	-12769
▁tekirdağ	-12770
▁manev	-12771
▁kollarını	-12772
liyorum	-12773
▁ünit	-12774
▁zihniyet	-12775
▁mahv	-12776
▁karat	-12777
▁nesnel	-12778
▁galibiyet	-12779
▁kım	-12780
▁belirtileri	-12781
ademi	-12782
▁ss	-12783
▁kayak	-12784
▁manay	-12785
▁hiyer	-12786
▁emperyalist	-12787
▁üf	-12788
▁demet	-12789
row	-12790
▁belirlendi	-12791
edecek	-12792
▁askı	-12793
▁tersi	-12794
▁normalde	-12795
▁güver	-12796
▁kaldık	-12797
▁köprüsü	-12798
▁kablosuz	-12799
▁ebi	-12800
erson	-12801
▁diyebil	-12802
▁1999	-12803
kapı	-12804
▁cür	-12805
lukta	-12806
ederken	-12807
▁babanın	-12808
▁cemil	-12809
▁taşımaktadır	-12810
ırt	-12811
▁got	-12812
▁degil	-12813
▁programda	-12814
▁elif	-12815
▁çabucak	-12816
▁milliyetçi	-12817
▁puanı	-12818
▁ayrılık	-12819
▁coğrafy	-12820
gâbe	-12821
▁tuzak	-12822
▁gelmeden	-12823
▁müfettiş	-12824
▁olacağım	-12825
▁gelirse	-12826
▁buralarda	-12827
▁ekrana	-12828
▁adımı	-12829
▁ülkeden	-12830
▁bakıma	-12831
▁füz	-12832
▁rem	-12833
kardeş	-12834
▁gününe	-12835
madde	-12836
▁motif	-12837
dare	-12838
▁yerlerine	-12839
▁yapısını	-12840
▁yerlerini	-12841
▁kına	-12842
6’	-12843
▁konuşmasında	-12844
▁anma	-12845
▁bağlayan	-12846
limi	-12847
▁dilin	-12848
▁sürdüğü	-12849
▁tutarı	-12850
affer	-12851
cia	-12852
▁patr	-12853
▁hastalıklar	-12854
▁sahiplerinin	-12855
▁platon	-12856
▁yürümeye	-12857
▁sağlanan	-12858
▁ısın	-12859
▁başkanları	-12860
ören	-12861
▁değişmez	-12862
mamalıdır	-12863
▁plus	-12864
▁direksiyon	-12865
▁rul	-12866
▁abar	-12867
▁teşhis	-12868
▁him	-12869
▁aydır	-12870
▁yedir	-12871
▁aristoteles	-12872
▁şarkıcı	-12873
▁yaşayacak	-12874
luklar	-12875
▁dilen	-12876
▁tarafsız	-12877
▁vermiyor	-12878
10,	-12879
▁sürüp	-12880
▁kadeh	-12881
▁mobily	-12882
▁metafizik	-12883
latır	-12884
▁meal	-12885
lendiği	-12886
▁bine	-12887
▁sper	-12888
▁aşiret	-12889
▁karanlıkta	-12890
alam	-12891
▁eserin	-12892
▁çağırdı	-12893
esiydi	-12894
▁yaşandığı	-12895
▁antlaşması	-12896
▁bölgesindeki	-12897
▁memnuniyeti	-12898
▁mevs	-12899
asker	-12900
▁kendimize	-12901
▁usdu	-12902
▁doyur	-12903
▁latin	-12904
▁konforlu	-12905
leşti	-12906
▁yog	-12907
▁dalgalan	-12908
▁kın	-12909
çelik	-12910
▁geomet	-12911
▁you	-12912
▁olmamış	-12913
▁sensör	-12914
▁zeynep	-12915
▁planlanan	-12916
vân	-12917
▁hidro	-12918
oza	-12919
▁altay	-12920
▁oynar	-12921
▁felsefi	-12922
▁düzenleyen	-12923
▁helen	-12924
▁yükümlü	-12925
▁konuşması	-12926
▁sürek	-12927
▁yemekleri	-12928
▁sarışın	-12929
cular	-12930
▁pınar	-12931
▁dinler	-12932
▁fizy	-12933
▁kesildi	-12934
▁doküman	-12935
::	-12936
▁ayıran	-12937
▁tekin	-12938
▁verdiğim	-12939
emezdi	-12940
▁coğrafi	-12941
▁edinilen	-12942
ct	-12943
▁amiral	-12944
▁geçtikçe	-12945
▁gösterecek	-12946
▁arkasındaki	-12947
▁cari	-12948
▁biriyle	-12949
▁ölümüne	-12950
▁kadınla	-12951
▁tutmaya	-12952
▁arkadan	-12953
▁arıyorum	-12954
▁üstünlük	-12955
aktif	-12956
▁elit	-12957
▁demiştir	-12958
dia	-12959
▁edilmez	-12960
▁lef	-12961
▁lez	-12962
▁edebilmek	-12963
lash	-12964
▁çorap	-12965
▁hazırladı	-12966
▁sormuş	-12967
▁kanununun	-12968
▁bölük	-12969
▁ithalat	-12970
▁ihbar	-12971
▁kabile	-12972
larımdan	-12973
▁savaştan	-12974
▁xvii	-12975
genç	-12976
▁tekniği	-12977
amadığı	-12978
▁sevindir	-12979
▁düzce	-12980
▁uzmanlık	-12981
▁yeterlidir	-12982
▁taham	-12983
▁çalışacak	-12984
eyebil	-12985
▁merhabalar	-12986
▁ine	-12987
▁dizayn	-12988
▁(200	-12989
▁yükle	-12990
▁dizinin	-12991
▁arkada	-12992
▁yaklaşan	-12993
▁ülkesinde	-12994
▁bini	-12995
▁ly	-12996
▁sakal	-12997
▁unutulmaz	-12998
meyip	-12999
▁hırsızlık	-13000
▁tıklayarak	-13001
▁aut	-13002
▁konferansı	-13003
▁iştirak	-13004
isten	-13005
▁mahkemeye	-13006
▁çıkarmaya	-13007
▁arsa	-13008
▁ios	-13009
▁sorunlarını	-13010
▁atlet	-13011
▁kayyım	-13012
▁gizemli	-13013
▁bakılırsa	-13014
ğünde	-13015
▁ruslar	-13016
▁desteğini	-13017
▁konumda	-13018
▁kullanılıyor	-13019
kendi	-13020
▁zeytinyağı	-13021
abilim	-13022
▁adresinden	-13023
▁müze	-13024
▁liraya	-13025
dö	-13026
ansa	-13027
▁erol	-13028
▁çözünür	-13029
▁þ	-13030
cis	-13031
▁tekne	-13032
▁ilgilendiren	-13033
▁kaybetmiş	-13034
▁coşkun	-13035
▁dediğim	-13036
▁tarımsal	-13037
▁anlaşılıyor	-13038
▁85	-13039
▁soğu	-13040
▁bakınca	-13041
▁şartıyla	-13042
▁eskisi	-13043
▁belçika	-13044
▁iktidara	-13045
▁mevlâ	-13046
▁sivri	-13047
▁susuz	-13048
▁şöhret	-13049
▁kapasitesi	-13050
▁celal	-13051
▁portakal	-13052
deres	-13053
lenebilir	-13054
skiy	-13055
▁nenni	-13056
oya	-13057
▁ayağını	-13058
▁kurumların	-13059
ememiş	-13060
amayacağı	-13061
▁kendiniz	-13062
▁tuttur	-13063
▁zanned	-13064
imer	-13065
▁değir	-13066
▁solunum	-13067
▁yöneticiler	-13068
▁kesme	-13069
pon	-13070
▁beylik	-13071
çiliği	-13072
▁nedenini	-13073
▁açıklamak	-13074
▁hayvanları	-13075
▁topla	-13076
▁çeviri	-13077
▁org	-13078
▁yanıtladı	-13079
▁işlemlerini	-13080
ürken	-13081
▁gücüyle	-13082
▁içeriye	-13083
▁“...	-13084
mayarak	-13085
▁telefonla	-13086
▁yarısında	-13087
gele	-13088
▁1,5	-13089
get	-13090
▁güncellem	-13091
alamak	-13092
▁yaparlar	-13093
▁sürecine	-13094
▁başkasının	-13095
▁show	-13096
▁2)	-13097
▁emzir	-13098
eyr	-13099
▁bildiğiniz	-13100
▁zindan	-13101
▁66	-13102
?'	-13103
.19	-13104
▁yapmaz	-13105
▁katkısı	-13106
▁işlerine	-13107
▁sağlanır	-13108
▁belirleyen	-13109
▁âdem	-13110
▁düzeyi	-13111
ilmesinde	-13112
▁olmayıp	-13113
▁malzemesi	-13114
▁atlat	-13115
▁tansiyon	-13116
▁uğrayan	-13117
▁azgın	-13118
▁çekmeye	-13119
koz	-13120
zer	-13121
▁problemleri	-13122
▁sitesinden	-13123
▁katled	-13124
▁lübnan	-13125
▁harry	-13126
▁kullanılmış	-13127
▁okulları	-13128
▁yayını	-13129
▁ideolojik	-13130
▁bırakmış	-13131
▁nikah	-13132
▁kapıları	-13133
▁ortaokul	-13134
▁öneri	-13135
▁algıla	-13136
▁elimde	-13137
▁objektif	-13138
▁paylaştı	-13139
▁çın	-13140
▁kabiliyet	-13141
▁afrin	-13142
rını	-13143
▁350	-13144
▁arayıp	-13145
▁görüntüler	-13146
▁homur	-13147
vâ	-13148
▁batır	-13149
▁köyün	-13150
▁açısı	-13151
▁modül	-13152
▁nr	-13153
dış	-13154
▁makar	-13155
▁tanrılar	-13156
▁benzin	-13157
▁hiper	-13158
▁arkadaşlarının	-13159
▁lezz	-13160
▁uçur	-13161
▁almanca	-13162
▁başlaması	-13163
eve	-13164
eceğimi	-13165
▁fla	-13166
▁seti	-13167
▁pazarı	-13168
emeyeceğini	-13169
▁omur	-13170
▁etap	-13171
▁rön	-13172
▁düşünmüyor	-13173
▁nedenlerle	-13174
suru	-13175
▁lou	-13176
iciler	-13177
▁koordinasyon	-13178
▁yudum	-13179
▁geçirildi	-13180
▁hayalet	-13181
▁ortaçağ	-13182
▁sayılmaz	-13183
▁başkasına	-13184
▁istihbarat	-13185
▁engeller	-13186
▁çalın	-13187
hon	-13188
evler	-13189
▁step	-13190
▁öc	-13191
▁olmasaydı	-13192
▁eleştiri	-13193
▁ziyareti	-13194
▁olacağına	-13195
▁gerçekleşecek	-13196
▁niy	-13197
▁abdurrahman	-13198
▁ayni	-13199
▁ferman	-13200
▁sonucuna	-13201
▁tertip	-13202
▁22.	-13203
▁hijyen	-13204
▁ilerleme	-13205
▁karargâh	-13206
▁kelimeleri	-13207
-9	-13208
low	-13209
▁veter	-13210
▁iğrenç	-13211
▁dilini	-13212
▁müşav	-13213
▁sanatlar	-13214
▁ruhunu	-13215
▁alıyoruz	-13216
▁kullanışlı	-13217
▁ecza	-13218
▁nuaym	-13219
▁demirel	-13220
▁cemiyet	-13221
bakan	-13222
▁tanıyan	-13223
▁oluşturma	-13224
▁turları	-13225
▁bilek	-13226
▁vereceği	-13227
▁müşterilerine	-13228
▁seferi	-13229
▁fiyata	-13230
▁müdafa	-13231
▁başkanlığında	-13232
▁ılık	-13233
▁bağlar	-13234
▁modeller	-13235
▁biliyordum	-13236
lenmektedir	-13237
▁açıklanan	-13238
etz	-13239
▁beyrut	-13240
▁gelme	-13241
astik	-13242
▁kaynaş	-13243
▁verilerin	-13244
tecek	-13245
▁yönetiminin	-13246
▁zararı	-13247
▁bileşen	-13248
▁üyeli	-13249
▁taktik	-13250
▁kategori	-13251
▁yönetiminde	-13252
▁arkaya	-13253
▁doları	-13254
▁alındığında	-13255
ayir	-13256
▁ifadeyle	-13257
▁hapishan	-13258
▁konsept	-13259
ıldılar	-13260
▁dönüşü	-13261
▁anlıyor	-13262
isy	-13263
▁iftir	-13264
▁tahrik	-13265
▁tutulması	-13266
▁bulunmakta	-13267
▁belediyespor	-13268
aşehir	-13269
lanmasını	-13270
▁kıvıl	-13271
▁dilediğiniz	-13272
delen	-13273
▁püskür	-13274
▁orjinal	-13275
▁topçu	-13276
▁konsolos	-13277
▁sizce	-13278
▁istiyorlar	-13279
▁mag	-13280
▁1-2	-13281
▁farket	-13282
▁gördükleri	-13283
▁mevcu	-13284
▁faydaları	-13285
alik	-13286
▁keh	-13287
▁ünal	-13288
▁fare	-13289
▁cenk	-13290
▁eksen	-13291
neğin	-13292
âmet	-13293
ebilirler	-13294
▁tutarlı	-13295
▁ülkelerinde	-13296
▁oynuyor	-13297
▁tüketimi	-13298
▁adamlarının	-13299
▁bağı	-13300
sion	-13301
▁sınıflandır	-13302
▁portföy	-13303
▁çevresine	-13304
abd	-13305
▁seviyeye	-13306
lediklerini	-13307
▁istemeyen	-13308
thon	-13309
▁yıkım	-13310
malıydı	-13311
▁hoşuma	-13312
▁hâlinde	-13313
▁çatlak	-13314
▁yürüyen	-13315
▁cihazlar	-13316
▁vücuda	-13317
▁belirlenmiş	-13318
▁ihtiyacımız	-13319
▁1950	-13320
kincisi	-13321
▁ücretli	-13322
▁bölgeleri	-13323
+1	-13324
▁tamamlayan	-13325
dad	-13326
▁görmesi	-13327
▁kapısına	-13328
hit	-13329
üsünün	-13330
▁galer	-13331
▁alınıp	-13332
▁maked	-13333
▁kanuni	-13334
▁doğrultu	-13335
▁beraberlik	-13336
▁parçacık	-13337
▁yanlarında	-13338
▁intern	-13339
▁çerçeve	-13340
▁kahramanmaraş	-13341
▁tapu	-13342
▁fizi	-13343
▁tekel	-13344
▁ülkelere	-13345
ekt	-13346
▁apaçık	-13347
ıklar	-13348
▁videosu	-13349
▁gözde	-13350
▁mücevher	-13351
▁tamamlandı	-13352
▁şiiri	-13353
▁ilgil	-13354
▁arzusu	-13355
▁kötülü	-13356
ls	-13357
▁pav	-13358
▁dokunul	-13359
▁düşünüyoruz	-13360
ûh	-13361
▁oldug	-13362
▁tartışmalar	-13363
▁takı	-13364
▁avlu	-13365
▁yetişen	-13366
ılıyorum	-13367
▁kaydır	-13368
▁olduğunuzu	-13369
▁yaya	-13370
▁vadisi	-13371
esk	-13372
▁mevlana	-13373
abilme	-13374
▁kalmamış	-13375
vo	-13376
▁yatağa	-13377
▁tahliye	-13378
▁yes	-13379
ünüze	-13380
alist	-13381
▁köşesinde	-13382
▁tedbirler	-13383
▁veh	-13384
▁geceler	-13385
▁olasılığı	-13386
▁zorunluluk	-13387
▁frekans	-13388
▁uçan	-13389
▁kont	-13390
▁kenan	-13391
▁peşine	-13392
▁olabildiğince	-13393
▁trib	-13394
▁72	-13395
▁öğrenin	-13396
▁elektro	-13397
▁ürünlerinin	-13398
▁peşin	-13399
▁afganistan	-13400
▁ulaştırma	-13401
▁araştırmaya	-13402
▁keb	-13403
▁güldür	-13404
▁ziyaretçi	-13405
▁bulunmamaktadır	-13406
▁ida	-13407
▁otelde	-13408
âsı	-13409
jo	-13410
▁geçtikten	-13411
cilere	-13412
▁oturur	-13413
▁çalışmış	-13414
▁şiirler	-13415
hani	-13416
▁olimpiyat	-13417
▁başlıkları	-13418
▁müess	-13419
2016	-13420
dari	-13421
▁izi	-13422
▁elçiler	-13423
▁fikirleri	-13424
▁yıldızlar	-13425
▁mesai	-13426
▁muzaffer	-13427
▁torun	-13428
▁parfüm	-13429
uan	-13430
▁nazım	-13431
▁dengeli	-13432
▁sikiş	-13433
▁önemsiz	-13434
▁çağı	-13435
yeş	-13436
cd	-13437
kıs	-13438
▁keçi	-13439
atları	-13440
müyordu	-13441
sinler	-13442
▁sayısal	-13443
▁kızını	-13444
▁mg	-13445
ekon	-13446
▁william	-13447
▁düm	-13448
▁matba	-13449
▁polisin	-13450
/24	-13451
sır	-13452
king	-13453
âmi	-13454
▁nitelikte	-13455
▁ücretleri	-13456
mezdi	-13457
▁yapmaktan	-13458
▁personelin	-13459
▁hanı	-13460
▁muamel	-13461
▁uykuya	-13462
▁balon	-13463
▁uefa	-13464
▁neb	-13465
▁yapısal	-13466
▁yetkisi	-13467
▁dolandırıcı	-13468
zon	-13469
▁kentinde	-13470
ılmaması	-13471
▁ız	-13472
mparatorluk	-13473
▁öküz	-13474
▁orgazm	-13475
▁kapattı	-13476
▁hazırlanıyor	-13477
▁nispet	-13478
▁gördüğünü	-13479
asay	-13480
eneğini	-13481
▁:))	-13482
▁yazarak	-13483
▁düşünüp	-13484
▁baskısı	-13485
uta	-13486
▁editör	-13487
▁muhabir	-13488
▁kalmamıştı	-13489
▁sermayenin	-13490
▁tarla	-13491
gim	-13492
▁yaratır	-13493
▁yon	-13494
▁sorul	-13495
▁yüksekokulu	-13496
ava	-13497
▁üçte	-13498
▁sağlamış	-13499
▁hon	-13500
▁uygulanacak	-13501
sonra	-13502
▁kağıdı	-13503
▁tot	-13504
▁mürekk	-13505
▁sınırlarını	-13506
▁ehli	-13507
▁sellem	-13508
▁ocağı	-13509
▁konumunda	-13510
alığa	-13511
▁kandil	-13512
▁koşulu	-13513
▁çalışmayı	-13514
▁düzene	-13515
▁görevlileri	-13516
▁çalıştığını	-13517
tüsü	-13518
▁vis	-13519
▁incelemek	-13520
▁ziyaretçiler	-13521
hol	-13522
veç	-13523
▁mans	-13524
▁barındıran	-13525
▁hemşir	-13526
tekin	-13527
▁sağlayabil	-13528
non	-13529
▁kpss	-13530
▁yarısını	-13531
▁havaalan	-13532
▁valiliği	-13533
▁arar	-13534
▁çıktılar	-13535
mb	-13536
▁tesisi	-13537
▁ticareti	-13538
▁teknolojinin	-13539
▁kalkın	-13540
▁kamuoyu	-13541
▁habersiz	-13542
▁geçmiştir	-13543
▁rehberlik	-13544
▁makineleri	-13545
▁bitim	-13546
,_	-13547
▁villa	-13548
▁denildi	-13549
zle	-13550
▁yurd	-13551
▁akışı	-13552
▁ilâ	-13553
küç	-13554
▁dikt	-13555
▁brezilya	-13556
▁okullarda	-13557
▁rahim	-13558
▁seferber	-13559
ja	-13560
oker	-13561
▁katlan	-13562
ああああ	-13563
▁elin	-13564
▁betim	-13565
▁durgun	-13566
▁örgütlen	-13567
▁hissediyordu	-13568
▁politikalar	-13569
▁sağlayarak	-13570
elenen	-13571
▁alanındaki	-13572
▁>>>	-13573
▁komb	-13574
▁seslendir	-13575
▁tahr	-13576
▁müstak	-13577
▁görülecek	-13578
lamasına	-13579
▁sıralar	-13580
▁63	-13581
▁bakarken	-13582
▁prol	-13583
▁pürüz	-13584
▁oğluna	-13585
▁zaferi	-13586
▁ps	-13587
▁kalor	-13588
▁durumdur	-13589
▁nut	-13590
lular	-13591
▁gerçekleştiren	-13592
kadir	-13593
▁şişman	-13594
▁→	-13595
▁katolik	-13596
▁halep	-13597
▁vuran	-13598
▁bav	-13599
▁yargıtay	-13600
ızda	-13601
▁özcan	-13602
▁tedavisinde	-13603
▁havanın	-13604
▁kutusu	-13605
▁sıcaklığı	-13606
▁adları	-13607
▁şuur	-13608
▁tabanlı	-13609
▁kıyısında	-13610
▁ikisini	-13611
▁savaşlar	-13612
▁birlikleri	-13613
ymp	-13614
▁oral	-13615
▁gülümseyerek	-13616
▁devasa	-13617
▁ciğer	-13618
▁artarak	-13619
▁haydar	-13620
▁maksadı	-13621
▁bulunduğumuz	-13622
▁ilişkilerini	-13623
olas	-13624
▁hend	-13625
uer	-13626
▁_"	-13627
lamasını	-13628
▁sürülen	-13629
▁kak	-13630
diyse	-13631
lemesine	-13632
▁suriyeli	-13633
hac	-13634
▁gitmesi	-13635
▁ziyarete	-13636
▁diğerine	-13637
▁etmesine	-13638
▁alevi	-13639
▁05	-13640
mizî	-13641
▁çıldır	-13642
▁sevgiler	-13643
▁yönetmeliği	-13644
▁merteb	-13645
diğimde	-13646
▁kilisesi	-13647
▁edilmesine	-13648
▁ulaşmış	-13649
▁şartlarda	-13650
ayip	-13651
▁tipik	-13652
▁gösteriyordu	-13653
▁iddialı	-13654
▁silik	-13655
▁çıktım	-13656
ruh	-13657
âret	-13658
▁içme	-13659
dekiler	-13660
▁saraya	-13661
▁içsel	-13662
▁jose	-13663
▁prensi	-13664
off	-13665
▁dediğini	-13666
▁yağm	-13667
ruğu	-13668
▁lavab	-13669
▁yapılar	-13670
▁gelirler	-13671
▁iniş	-13672
▁çarşı	-13673
▁dersiniz	-13674
▁coşk	-13675
▁dere	-13676
▁planları	-13677
▁birbiri	-13678
▁talip	-13679
▁topladı	-13680
▁cı	-13681
▁katma	-13682
▁ahiret	-13683
oluk	-13684
melerinin	-13685
▁yaşından	-13686
müz	-13687
▁ال	-13688
▁şal	-13689
▁zenginlik	-13690
▁çember	-13691
▁arayarak	-13692
▁etrafına	-13693
▁bölümünün	-13694
▁dibinde	-13695
▁seramik	-13696
▁23.	-13697
▁inen	-13698
layalım	-13699
▁küçücük	-13700
▁taar	-13701
▁adayların	-13702
▁gözlerine	-13703
▁düzenlemeler	-13704
▁nda	-13705
▁bayağı	-13706
▁dinledi	-13707
▁sahasında	-13708
üğü	-13709
▁gerçeğe	-13710
▁gelebilecek	-13711
▁yurtdışında	-13712
ilince	-13713
▁yerleşik	-13714
▁bağdaş	-13715
▁yarışı	-13716
▁danışmanı	-13717
▁görmedim	-13718
▁asfalt	-13719
▁yukarıya	-13720
wood	-13721
▁dun	-13722
▁loc	-13723
▁dikiş	-13724
▁vadede	-13725
▁suikast	-13726
malarından	-13727
▁azı	-13728
sünüz	-13729
▁bulunacak	-13730
▁olursanız	-13731
▁verebil	-13732
▁kadınlarda	-13733
▁ilişkiye	-13734
▁yazılımı	-13735
zav	-13736
▁yaşıyoruz	-13737
yür	-13738
anne	-13739
▁üstündeki	-13740
ms	-13741
aynı	-13742
şler	-13743
▁tibet	-13744
▁adi	-13745
▁bill	-13746
▁verit	-13747
▁unsuru	-13748
▁uzaklık	-13749
▁dilinde	-13750
▁fikrini	-13751
/200	-13752
▁erdir	-13753
▁güvence	-13754
ilmeli	-13755
▁dileriz	-13756
amayacağını	-13757
▁olmayabilir	-13758
▁ozan	-13759
▁taraflı	-13760
▁ağacın	-13761
eros	-13762
▁eşyaları	-13763
▁toplamak	-13764
▁çocuklarına	-13765
▁sıyr	-13766
▁elimizde	-13767
ciye	-13768
▁sistemde	-13769
▁burayı	-13770
▁59	-13771
▁sû	-13772
▁muş	-13773
▁kuyruk	-13774
▁parametr	-13775
▁özelliklere	-13776
▁utanç	-13777
rini	-13778
▁(10	-13779
▁ülkemize	-13780
▁kalç	-13781
▁seçildi	-13782
▁edilmek	-13783
anıyla	-13784
▁olunur	-13785
cay	-13786
▁zül	-13787
▁ilki	-13788
▁yürürken	-13789
▁abone	-13790
▁hızır	-13791
▁destekli	-13792
▁yaklaşımı	-13793
▁salg	-13794
▁bahan	-13795
▁tutulan	-13796
▁görkemli	-13797
▁hissediyorum	-13798
▁kayın	-13799
▁başının	-13800
way	-13801
civert	-13802
▁kadır	-13803
dakiler	-13804
▁duyunca	-13805
.00’	-13806
iskop	-13807
▁telif	-13808
▁görüyordu	-13809
▁muhtelif	-13810
▁kitabını	-13811
▁zannet	-13812
▁takın	-13813
▁yürütme	-13814
▁ortaklık	-13815
▁ilçesine	-13816
▁gazeteciler	-13817
▁yapanlar	-13818
▁3\.	-13819
karah	-13820
▁öldürülen	-13821
▁cab	-13822
ecekler	-13823
▁çiv	-13824
▁komis	-13825
özellikle	-13826
▁düşündük	-13827
▁kalka	-13828
▁hicret	-13829
▁hürmet	-13830
▁gla	-13831
▁önünü	-13832
▁sistemler	-13833
▁sami	-13834
▁anlaşmaya	-13835
▁görevine	-13836
▁şaka	-13837
▁nezdinde	-13838
▁akş	-13839
▁dille	-13840
▁herşeyi	-13841
izin	-13842
▁meksika	-13843
fon	-13844
▁pist	-13845
▁keder	-13846
vay	-13847
▁reisi	-13848
size	-13849
▁kant	-13850
▁kayıtsız	-13851
▁akademi	-13852
oterapi	-13853
▁67	-13854
▁city	-13855
▁world	-13856
▁çorum	-13857
▁odaklan	-13858
▁vermeyen	-13859
▁sıkıntısı	-13860
▁kürek	-13861
▁diyebilirim	-13862
▁merkeze	-13863
▁element	-13864
▁yatıştır	-13865
ica	-13866
▁şır	-13867
alamaya	-13868
▁tefsîr	-13869
▁ambulans	-13870
amızdan	-13871
bran	-13872
ileceği	-13873
▁dedikodu	-13874
▁pencereden	-13875
▁kaldılar	-13876
pazarı	-13877
▁getirmiştir	-13878
▁**_	-13879
▁gra	-13880
▁sahası	-13881
▁üstünden	-13882
küp	-13883
▁cik	-13884
▁görüşünü	-13885
ğil	-13886
▁ltd	-13887
▁şifre	-13888
▁korkuyor	-13889
▁menderes	-13890
▁5/3	-13891
▁değerlendirmek	-13892
▁benimsen	-13893
▁atmaya	-13894
▁memlek	-13895
▁güzergah	-13896
▁çalışmalarında	-13897
▁gömül	-13898
▁başaran	-13899
▁eksiklik	-13900
▁olduğun	-13901
lig	-13902
▁sanmıyorum	-13903
-17	-13904
sec	-13905
▁miyiz	-13906
▁kurtulmuş	-13907
▁görevliler	-13908
▁operatör	-13909
▁yüzy	-13910
▁uygulamak	-13911
▁görülmüştür	-13912
aht	-13913
▁levh	-13914
▁çeşme	-13915
▁korumaya	-13916
▁etkileşim	-13917
▁daral	-13918
▁bulamaz	-13919
▁altıncı	-13920
nar	-13921
▁koştur	-13922
▁çevreye	-13923
▁ödülleri	-13924
▁psikoloji	-13925
ımar	-13926
▁tembel	-13927
ella	-13928
▁görmedi	-13929
▁bedenin	-13930
lacaktır	-13931
▁dünyaca	-13932
▁kesilmiş	-13933
▁gerekirdi	-13934
▁ortasına	-13935
▁annenin	-13936
▁kabart	-13937
▁davranışı	-13938
mağı	-13939
▁kasaba	-13940
▁kalarak	-13941
▁yenik	-13942
▁cim	-13943
▁meta	-13944
▁volkan	-13945
▁hıristiy	-13946
▁yrd	-13947
▁mert	-13948
▁yurti	-13949
▁eşitlik	-13950
▁federal	-13951
▁dibine	-13952
hz	-13953
syö	-13954
▁hül	-13955
amadım	-13956
▁sefere	-13957
▁ödüllendir	-13958
▁içgü	-13959
mezler	-13960
▁azdır	-13961
larınızla	-13962
[{	-13963
▁terakki	-13964
▁yapılmalıdır	-13965
-14	-13966
▁müc	-13967
▁ırmak	-13968
ılmasında	-13969
▁berg	-13970
▁diri	-13971
mün	-13972
▁î	-13973
▁notu	-13974
▁olmamız	-13975
▁bütünleş	-13976
▁ağaçların	-13977
lüğünün	-13978
▁çiling	-13979
▁davanın	-13980
▁çıkabilir	-13981
▁hareketsiz	-13982
▁kardeşinin	-13983
.6	-13984
▁güçlerin	-13985
peri	-13986
▁gidin	-13987
▁koşu	-13988
fone	-13989
▁olurum	-13990
▁içlerinde	-13991
▁duyum	-13992
▁170	-13993
öğren	-13994
▁fuat	-13995
▁aygıt	-13996
▁kurmaya	-13997
cağın	-13998
▁toplandı	-13999
▁romalı	-14000
▁yahya	-14001
▁zıp	-14002
lanıyordu	-14003
▁dışından	-14004
▁yazımızda	-14005
▁rock	-14006
▁polat	-14007
▁seçimlerde	-14008
stro	-14009
▁yeg	-14010
devamı	-14011
▁torunu	-14012
▁geleceğin	-14013
▁sıkıntılı	-14014
▁verilmesini	-14015
▁üçlü	-14016
illeus	-14017
▁tutuklandı	-14018
▁görüntüleri	-14019
▁mensu	-14020
âhib	-14021
örneğin	-14022
▁okuyup	-14023
▁yemiş	-14024
▁görüştü	-14025
▁yöneten	-14026
şti	-14027
lid	-14028
▁eğitmen	-14029
▁beklediği	-14030
sene	-14031
▁anlaşıldı	-14032
▁bazında	-14033
▁emel	-14034
▁öneriler	-14035
00’	-14036
▁seg	-14037
▁kıvr	-14038
▁spek	-14039
▁kullanmayı	-14040
▁meras	-14041
▁kimler	-14042
▁başbakanlık	-14043
▁sing	-14044
eron	-14045
▁küs	-14046
▁kralın	-14047
▁toplayıp	-14048
▁oluşturmaktadır	-14049
ğımız	-14050
▁öldürür	-14051
▁levin	-14052
▁kolaylık	-14053
▁yaptırmak	-14054
▁olayda	-14055
▁paralar	-14056
▁havaalanı	-14057
▁minimum	-14058
▁içmek	-14059
▁umudu	-14060
▁icat	-14061
▁gemileri	-14062
iğinin	-14063
▁verecektir	-14064
eyan	-14065
▁açıklamasında	-14066
hed	-14067
▁önlemler	-14068
iymiş	-14069
▁babasını	-14070
avrup	-14071
▁alıyorum	-14072
▁kalkar	-14073
larıma	-14074
▁şölen	-14075
▁bağışıklık	-14076
tih	-14077
▁61	-14078
versi	-14079
▁kürk	-14080
▁asistan	-14081
▁fragmanı	-14082
▁yapmalı	-14083
▁videoyu	-14084
ılmamış	-14085
▁karada	-14086
▁anlayan	-14087
▁grubunun	-14088
ûb	-14089
▁bölümünden	-14090
▁ümmü	-14091
▁soğutma	-14092
üyoruz	-14093
▁boşanma	-14094
▁kurumun	-14095
▁bb	-14096
▁aydan	-14097
ceğiniz	-14098
▁bedensel	-14099
▁davranışlar	-14100
▁kullandığımız	-14101
cas	-14102
▁fırç	-14103
▁ordusunu	-14104
▁oktay	-14105
▁savur	-14106
▁michael	-14107
▁doğduğu	-14108
▁duymak	-14109
▁çalışmada	-14110
▁tarihçi	-14111
▁dra	-14112
▁hut	-14113
▁gözlü	-14114
▁eda	-14115
▁okş	-14116
▁kama	-14117
▁tahlil	-14118
▁seçimler	-14119
▁yurdu	-14120
port	-14121
▁düşündür	-14122
▁üze	-14123
▁hasret	-14124
▁motivasyon	-14125
olat	-14126
▁madrid	-14127
▁bilinci	-14128
mana	-14129
▁stüd	-14130
▁ödemek	-14131
▁bakınız	-14132
▁karabük	-14133
▁oluyoruz	-14134
iyonu	-14135
▁metni	-14136
▁girdim	-14137
osunun	-14138
▁işlemini	-14139
▁gömle	-14140
▁geceyi	-14141
rezzak	-14142
▁özeti	-14143
▁tanrıç	-14144
▁gözlerim	-14145
▁out	-14146
saspor	-14147
calı	-14148
▁evlerine	-14149
▁allâh	-14150
▁saygılı	-14151
▁çalışmasını	-14152
▁müşterilerimize	-14153
▁kuzu	-14154
▁miting	-14155
▁çözmek	-14156
uri	-14157
▁ölçekli	-14158
▁aralarındaki	-14159
▁kot	-14160
▁68	-14161
tle	-14162
mayınca	-14163
▁amca	-14164
▁imha	-14165
▁hazreti	-14166
cm	-14167
▁kayboldu	-14168
▁araştırmacı	-14169
▁sabun	-14170
▁abdil	-14171
▁tanır	-14172
▁8,	-14173
▁geli	-14174
▁ıslah	-14175
▁ideoloj	-14176
emedim	-14177
unuzda	-14178
cih	-14179
▁nuh	-14180
▁litre	-14181
▁mukav	-14182
▁almakta	-14183
▁ikiz	-14184
▁programının	-14185
içe	-14186
▁psikolog	-14187
▁çiçekler	-14188
▁köye	-14189
▁seans	-14190
▁köşk	-14191
▁dışa	-14192
▁fr	-14193
▁amp	-14194
▁işkenc	-14195
▁şahsiyet	-14196
▁göndermek	-14197
lamıyorum	-14198
iğine	-14199
▁konusuna	-14200
▁sütun	-14201
larlar	-14202
▁öldüğü	-14203
▁sevinirim	-14204
▁sonlandır	-14205
▁akademisyen	-14206
▁hedefe	-14207
rarı	-14208
▁biter	-14209
▁fl	-14210
laşır	-14211
▁muaf	-14212
▁nihat	-14213
luğundan	-14214
▁niyetli	-14215
▁işlevi	-14216
▁bulabilir	-14217
▁bulunarak	-14218
oş	-14219
lun	-14220
▁kozmetik	-14221
▁akademisi	-14222
▁barışı	-14223
▁yapmam	-14224
▁denizde	-14225
▁talepleri	-14226
▁menz	-14227
▁yılbaşı	-14228
▁esirg	-14229
▁varıp	-14230
▁arayüz	-14231
emis	-14232
küçük	-14233
▁milletvekilleri	-14234
osuna	-14235
ileştir	-14236
▁metot	-14237
mazsa	-14238
▁kararının	-14239
▁söyleyeyim	-14240
▁özkan	-14241
tiklerini	-14242
▁çerçevede	-14243
▁belirtiyor	-14244
▁karlı	-14245
▁ilerledi	-14246
▁noktalar	-14247
dikçe	-14248
▁kumar	-14249
▁yükü	-14250
▁süreyle	-14251
hik	-14252
▁konten	-14253
▁big	-14254
▁berbat	-14255
▁içeride	-14256
▁sizlerde	-14257
aklık	-14258
▁anası	-14259
▁katılmış	-14260
fakat	-14261
▁kösem	-14262
▁odadan	-14263
▁çıktığında	-14264
▁alarm	-14265
▁ürettiği	-14266
▁mücadelede	-14267
ımla	-14268
▁kuvveti	-14269
▁getirdiler	-14270
▁abdest	-14271
▁adamların	-14272
▁topraklar	-14273
▁kullanıcıları	-14274
bâ	-14275
alp	-14276
▁thy	-14277
▁sihir	-14278
▁çıkıyordu	-14279
▁gecede	-14280
▁elimizden	-14281
▁motorlu	-14282
▁kapağı	-14283
emiyorum	-14284
▁kesik	-14285
▁uğradı	-14286
▁blo	-14287
▁yüreğ	-14288
▁söylenir	-14289
▁amacımız	-14290
▁açılacak	-14291
ilebilecek	-14292
▁tutma	-14293
▁tunç	-14294
ılırdı	-14295
▁iso	-14296
▁zel	-14297
ramanı	-14298
▁muhatap	-14299
▁mesajları	-14300
▁gidelim	-14301
memi	-14302
▁saçlarını	-14303
▁dine	-14304
▁verilerine	-14305
▁süslü	-14306
▁dolaşım	-14307
▁kurallara	-14308
▁satran	-14309
▁alırlar	-14310
ıyorsunuz	-14311
▁allahü	-14312
ınızdaki	-14313
▁açıkçası	-14314
▁kültürünün	-14315
gara	-14316
ifi	-14317
▁kıdem	-14318
▁sultanı	-14319
▁bakımlı	-14320
▁huzurunda	-14321
▁sahiplerine	-14322
▁kaçıp	-14323
▁fonksiyonu	-14324
▁kurallarına	-14325
▁aranan	-14326
ğindeki	-14327
▁olmamak	-14328
all	-14329
vaz	-14330
▁korur	-14331
viz	-14332
▁martin	-14333
▁programını	-14334
▁ışıl	-14335
▁aileleri	-14336
▁bitkiler	-14337
▁çalışkan	-14338
▁müjde	-14339
▁aklını	-14340
▁sultanın	-14341
▁karşılığını	-14342
▁kullandıkları	-14343
mese	-14344
▁kazanıyor	-14345
edisi	-14346
▁evliy	-14347
▁getirilmiş	-14348
▁mücadelenin	-14349
▁bire	-14350
iba	-14351
anam	-14352
▁ilgilidir	-14353
ilar	-14354
▁but	-14355
ancak	-14356
▁enj	-14357
▁pekiştir	-14358
▁desc	-14359
▁konuşmayı	-14360
ingen	-14361
▁boğazı	-14362
▁sıraya	-14363
latıcı	-14364
▁bölgeyi	-14365
▁zeyd	-14366
▁havlu	-14367
▁sevgilisi	-14368
▁sms	-14369
▁eller	-14370
▁hattâ	-14371
eceğinizi	-14372
▁soyundan	-14373
▁saz	-14374
▁note	-14375
▁seda	-14376
alayan	-14377
cağımı	-14378
▁ceset	-14379
hm	-14380
▁yıpran	-14381
▁kurarak	-14382
▁vatandaşı	-14383
cc	-14384
▁kenarına	-14385
▁çöktü	-14386
ngilizler	-14387
inizdeki	-14388
▁maltepe	-14389
▁üretmek	-14390
▁çalışmaktadır	-14391
▁konulan	-14392
▁krallık	-14393
sizce	-14394
▁gözüne	-14395
▁kitâb	-14396
▁çuv	-14397
▁biliniyor	-14398
▁reaksiyon	-14399
▁bazılarının	-14400
leydi	-14401
▁dilde	-14402
▁âdeta	-14403
▁evlerin	-14404
▁yaşlarında	-14405
herkes	-14406
▁kullanımına	-14407
▁büyücü	-14408
▁etmemiş	-14409
eciler	-14410
▁tesbit	-14411
▁karşılaştı	-14412
▁hizmetini	-14413
▁şişe	-14414
▁iseniz	-14415
▁şükran	-14416
▁sitemizden	-14417
▁veteriner	-14418
▁kullanıyorum	-14419
yıldı	-14420
▁karşınıza	-14421
▁teması	-14422
▁geçmişe	-14423
▁1.5	-14424
efendi	-14425
▁havalandır	-14426
ric	-14427
▁aradı	-14428
▁müsait	-14429
▁göründü	-14430
ladıklarını	-14431
izma	-14432
lov	-14433
▁güce	-14434
eyt	-14435
▁tirmizî	-14436
olay	-14437
uluğa	-14438
stantin	-14439
▁dönemlerinde	-14440
▁tarl	-14441
▁çıkararak	-14442
▁99	-14443
▁ağası	-14444
▁güzeldi	-14445
▁adayları	-14446
▁kapılarını	-14447
yön	-14448
▁yırt	-14449
▁doğar	-14450
▁bahane	-14451
▁önü	-14452
▁cezayir	-14453
emm	-14454
▁böyledir	-14455
▁faaliyetler	-14456
kanlı	-14457
lib	-14458
abilirsin	-14459
▁sıh	-14460
▁sapan	-14461
▁çınar	-14462
ildikten	-14463
▁düşmesi	-14464
▁düşüncenin	-14465
kart	-14466
▁neydi	-14467
▁62	-14468
▁paraya	-14469
ness	-14470
▁sınıfta	-14471
ero	-14472
▁iğne	-14473
▁burhan	-14474
▁kokulu	-14475
anak	-14476
▁fış	-14477
▁tamiri	-14478
▁teslimat	-14479
olun	-14480
▁gönderme	-14481
▁istemiyordu	-14482
▁açıklayan	-14483
▁tayf	-14484
▁yanınızda	-14485
▁çekmiş	-14486
▁çözümleri	-14487
▁malları	-14488
▁çekirde	-14489
▁lord	-14490
▁istisna	-14491
▁animasyon	-14492
yeşil	-14493
▁eğitimini	-14494
▁(18	-14495
▁mana	-14496
▁seçimlerinde	-14497
▁yüzbaşı	-14498
▁anabilim	-14499
▁düşündüğü	-14500
▁çeyre	-14501
▁isteriz	-14502
larý	-14503
▁yağma	-14504
▁dağılı	-14505
lass	-14506
▁dilekç	-14507
▁açıklık	-14508
▁görünümü	-14509
▁3-4	-14510
▁kesint	-14511
▁bakmaya	-14512
▁yürüten	-14513
▁başlangıc	-14514
riye	-14515
organ	-14516
▁okuyor	-14517
▁sım	-14518
▁boğaziçi	-14519
▁göstermesi	-14520
▁sulh	-14521
▁cevaplar	-14522
▁param	-14523
▁akıntı	-14524
▁sınıfın	-14525
uzel	-14526
dalar	-14527
▁sundu	-14528
▁görünmez	-14529
▁maddelerin	-14530
▁ikil	-14531
▁anlattığı	-14532
▁temelini	-14533
▁kuruluşlar	-14534
ew	-14535
fte	-14536
▁koyuyor	-14537
▁tahammül	-14538
▁krip	-14539
▁etrafa	-14540
▁dayanır	-14541
meyle	-14542
▁yararlanmak	-14543
▁dram	-14544
▁esasen	-14545
▁kentte	-14546
▁eksi	-14547
▁tahir	-14548
▁göçebe	-14549
▁çalan	-14550
ahmet	-14551
▁ehliyet	-14552
bus	-14553
▁atas	-14554
▁gidiyorum	-14555
▁yapıları	-14556
ncil	-14557
melerde	-14558
▁içindeydi	-14559
boy	-14560
▁gününü	-14561
▁kılıcı	-14562
▁savaşları	-14563
▁listesinde	-14564
▁akhilleus	-14565
▁kabak	-14566
▁egemenlik	-14567
▁periyo	-14568
▁fazladır	-14569
ky	-14570
▁kaçmak	-14571
▁kahramanı	-14572
▁kolaydır	-14573
gusu	-14574
jung	-14575
▁projede	-14576
▁madam	-14577
▁geliri	-14578
▁müsteşar	-14579
fran	-14580
▁karaca	-14581
▁hamza	-14582
▁yansım	-14583
▁takılan	-14584
▁görülebil	-14585
▁söylerken	-14586
çilere	-14587
▁koyuldu	-14588
bazı	-14589
▁prosed	-14590
▁plakalı	-14591
eng	-14592
ction	-14593
ûlü	-14594
▁fert	-14595
▁sinop	-14596
▁şehircilik	-14597
▁yukar	-14598
▁nör	-14599
▁indirdi	-14600
▁iletişimi	-14601
buğ	-14602
▁zât	-14603
▁şerit	-14604
▁açacak	-14605
▁gülüş	-14606
tıyordu	-14607
▁sanıyorum	-14608
▁ağaçlar	-14609
▁kraliçe	-14610
▁benzersiz	-14611
▁girit	-14612
▁öğretmenleri	-14613
▁üniversiteler	-14614
▁tram	-14615
▁inç	-14616
▁istersen	-14617
▁toplanmış	-14618
run	-14619
▁parasını	-14620
▁kalmadan	-14621
mith	-14622
▁olaydan	-14623
▁ulaşır	-14624
▁anıms	-14625
▁etmektir	-14626
izde	-14627
▁dosyaları	-14628
▁marmar	-14629
▁felsefenin	-14630
▁erkan	-14631
▁şifa	-14632
lie	-14633
▁düzensiz	-14634
leştirilmiş	-14635
▁kıvılcım	-14636
▁bilgisini	-14637
▁makamında	-14638
▁hayatlarını	-14639
▁çarptı	-14640
▁dakikalık	-14641
▁görevden	-14642
▁ilm	-14643
ılmasıyla	-14644
▁elleriyle	-14645
▁teyz	-14646
▁gerçekleri	-14647
▁los	-14648
lallah	-14649
▁hurma	-14650
▁eman	-14651
▁with	-14652
▁firav	-14653
▁tavrı	-14654
▁gemiler	-14655
▁cazip	-14656
odal	-14657
diğinin	-14658
▁branş	-14659
▁çapraz	-14660
eceğimizi	-14661
▁oluşturulması	-14662
▁spa	-14663
▁semer	-14664
▁merkezde	-14665
▁harbiye	-14666
mın	-14667
▁sgk	-14668
▁lenin	-14669
▁öğrencilerinin	-14670
cili	-14671
▁ashab	-14672
▁isparta	-14673
▁çalışmalarda	-14674
▁hükümetinin	-14675
ida	-14676
▁politikaları	-14677
era	-14678
▁aff	-14679
▁dağlar	-14680
rich	-14681
laştı	-14682
▁suna	-14683
▁davul	-14684
▁hû	-14685
▁rec	-14686
▁cenev	-14687
▁jim	-14688
▁karayol	-14689
▁beklerken	-14690
▁olabilirler	-14691
▁md	-14692
mene	-14693
▁cihazları	-14694
▁görmemiş	-14695
▁değişiyor	-14696
▁ayaklan	-14697
şeh	-14698
▁mösyö	-14699
▁demirtaş	-14700
▁abdurrezzak	-14701
▁öğün	-14702
▁onayı	-14703
▁bursaspor	-14704
▁jet	-14705
▁ayına	-14706
▁acayip	-14707
▁avantajlı	-14708
▁5-	-14709
▁uçurum	-14710
▁sema	-14711
▁alınca	-14712
▁çankaya	-14713
▁işsizlik	-14714
▁fabrikası	-14715
▁kürdistan	-14716
eleyen	-14717
▁tanıdığı	-14718
▁üstesinden	-14719
melere	-14720
dünüz	-14721
▁adap	-14722
▁olmakta	-14723
▁hp	-14724
tabii	-14725
▁yönündeki	-14726
▁batıya	-14727
▁ron	-14728
▁büyüklüğü	-14729
▁olduğunca	-14730
▁görerek	-14731
▁yolunun	-14732
▁sorulara	-14733
berr	-14734
▁beg	-14735
üsün	-14736
▁ilkesi	-14737
▁almasını	-14738
▁gözlerle	-14739
▁herkesten	-14740
▁bitmiş	-14741
bes	-14742
zar	-14743
▁bakıyorum	-14744
▁beyoğlu	-14745
▁köpük	-14746
▁bağlama	-14747
▁atıf	-14748
▁felâ	-14749
▁ibarettir	-14750
▁kesip	-14751
▁yapılırken	-14752
▁kağ	-14753
▁toplamı	-14754
▁boğa	-14755
şür	-14756
▁saatlerde	-14757
▁ciddiye	-14758
)'	-14759
▁360	-14760
▁anon	-14761
▁çalar	-14762
▁talebinde	-14763
ilmeden	-14764
▁şampiyonlar	-14765
▁77	-14766
▁gitme	-14767
ilmemiş	-14768
▁temizlen	-14769
▁sili	-14770
▁uysal	-14771
ağan	-14772
▁yaşaya	-14773
şev	-14774
dayet	-14775
▁olayla	-14776
▁takibi	-14777
▁dolaşan	-14778
▁kazası	-14779
taur	-14780
▁toy	-14781
▁müslümanlara	-14782
▁görmezden	-14783
▁koyul	-14784
▁dedikleri	-14785
▁maddesine	-14786
▁ekranda	-14787
▁homurdan	-14788
▁1998	-14789
▁ödü	-14790
▁noktadan	-14791
▁inandır	-14792
▁çıkarıldı	-14793
▁komit	-14794
kr	-14795
▁peri	-14796
▁poşet	-14797
▁göksel	-14798
▁yarımada	-14799
gue	-14800
▁padişaha	-14801
▁vermekte	-14802
▁ifadeleri	-14803
oksi	-14804
▁112	-14805
▁metabol	-14806
▁sky	-14807
▁işlere	-14808
stedi	-14809
▁kötüye	-14810
▁garson	-14811
▁mantığı	-14812
▁çi	-14813
▁yün	-14814
▁görmüştü	-14815
▁ucuna	-14816
▁sevgisi	-14817
keli	-14818
▁onca	-14819
▁arıt	-14820
▁yastık	-14821
▁turistik	-14822
▁kupon	-14823
▁aktaran	-14824
▁uygulamanın	-14825
cinsel	-14826
▁havale	-14827
▁evlili	-14828
▁sulama	-14829
▁kopyal	-14830
ea	-14831
▁vurul	-14832
▁andıran	-14833
▁yerleştirme	-14834
▁güzeli	-14835
▁okyanus	-14836
▁yenileme	-14837
▁taşlar	-14838
▁şeyle	-14839
▁yılını	-14840
▁yanlarına	-14841
lish	-14842
yoruz	-14843
larımda	-14844
----	-14845
▁şarkılar	-14846
araba	-14847
▁yakalamak	-14848
▁doğuştan	-14849
▁hisseder	-14850
▁chu	-14851
▁hamd	-14852
▁secde	-14853
▁balıkçı	-14854
▁astronom	-14855
▁sayısında	-14856
eld	-14857
▁sandalye	-14858
-25	-14859
osh	-14860
▁koştu	-14861
▁çıkmasına	-14862
▁fiyatlarla	-14863
▁rok	-14864
▁kiz	-14865
▁chris	-14866
▁nim	-14867
▁sözün	-14868
▁askere	-14869
▁hatası	-14870
emiyordu	-14871
▁pansiyon	-14872
eyince	-14873
▁fedakâr	-14874
▁talimatı	-14875
▁çabası	-14876
▁oyuncuları	-14877
▁çeşidi	-14878
diğinizde	-14879
lant	-14880
çekmece	-14881
▁istismar	-14882
erkek	-14883
▁girerken	-14884
▁bira	-14885
▁imparatorluk	-14886
▁prov	-14887
▁mesajlar	-14888
▁tanrısı	-14889
▁öldürdü	-14890
▁hort	-14891
▁andır	-14892
▁sokaklarda	-14893
▁yazdık	-14894
▁birisinin	-14895
▁iğn	-14896
▁belle	-14897
▁eylemi	-14898
▁alamaz	-14899
▁tahmini	-14900
▁buluşma	-14901
eet	-14902
▁tarihî	-14903
▁burc	-14904
▁yapmanın	-14905
▁işlerinde	-14906
ettür	-14907
▁suları	-14908
▁yetkililer	-14909
▁sarık	-14910
▁şükrü	-14911
▁hakiki	-14912
▁kasted	-14913
▁yalova	-14914
▁ihtiyacım	-14915
▁olmazdı	-14916
▁görebilir	-14917
▁olsam	-14918
▁dönmesi	-14919
▁oranının	-14920
▁piyade	-14921
▁dâr	-14922
▁konuşul	-14923
▁gelene	-14924
▁sorunlara	-14925
▁çinlilerin	-14926
▁tri	-14927
sama	-14928
▁aradığınız	-14929
▁hassasiyet	-14930
▁olabilmektedir	-14931
▁yeraltı	-14932
▁universit	-14933
▁hareketinin	-14934
▁halid	-14935
▁bildiren	-14936
▁yapısına	-14937
▁hamle	-14938
▁sağlamaya	-14939
trol	-14940
▁tükür	-14941
[...]
