<unk>	0
<s>	0
</s>	0
<pad>	0
<sep>	0
ar	-0
er	-1
▁b	-2
an	-3
in	-4
▁k	-5
en	-6
▁d	-7
ın	-8
▁s	-9
ir	-10
il	-11
▁y	-12
al	-13
▁g	-14
ak	-15
▁o	-16
▁t	-17
lar	-18
▁i	-19
▁v	-20
el	-21
ek	-22
ma	-23
▁h	-24
et	-25
la	-26
▁a	-27
un	-28
da	-29
de	-30
ler	-31
▁m	-32
▁ve	-33
or	-34
es	-35
▁bir	-36
iy	-37
im	-38
em	-39
iz	-40
ır	-41
at	-42
ik	-43
▁ç	-44
on	-45
ur	-46
ay	-47
ed	-48
ün	-49
▁ol	-50
as	-51
lı	-52
▁ya	-53
ul	-54
ey	-55
▁p	-56
ür	-57
▁ö	-58
is	-59
am	-60
dı	-61
iş	-62
▁de	-63
le	-64
▁f	-65
ış	-66
ıl	-67
aş	-68
▁bu	-69
it	-70
▁n	-71
▁da	-72
▁il	-73
dan	-74
um	-75
▁al	-76
▁ş	-77
ız	-78
li	-79
ım	-80
▁gö	-81
▁ka	-82
ya	-83
ık	-84
ların	-85
di	-86
▁iç	-87
st	-88
du	-89
▁ar	-90
üz	-91
ok	-92
ini	-93
ab	-94
ce	-95
ine	-96
▁r	-97
lan	-98
ında	-99
den	-100
inde	-101
▁e	-102
ol	-103
▁sa	-104
▁yap	-105
ları	-106
▁an	-107
az	-108
▁u	-109
▁c	-110
ük	-111
▁z	-112
▁baş	-113
mas	-114
yor	-115
▁1	-116
esi	-117
ti	-118
iler	-119
üm	-120
leri	-121
▁için	-122
mak	-123
ta	-124
ğı	-125
eler	-126
tı	-127
dır	-128
alar	-129
ını	-130
iyor	-131
▁kar	-132
▁gör	-133
▁et	-134
▁2	-135
ev	-136
▁son	-137
ül	-138
uş	-139
▁ed	-140
ra	-141
ği	-142
ca	-143
▁ile	-144
cak	-145
inin	-146
▁bil	-147
ına	-148
dir	-149
uz	-150
▁gel	-151
oğ	-152
te	-153
▁ay	-154
ut	-155
iye	-156
lik	-157
▁ver	-158
▁ger	-159
bil	-160
▁ön	-161
ıs	-162
ah	-163
üş	-164
eç	-165
ec	-166
tir	-167
uk	-168
us	-169
▁kon	-170
▁en	-171
ön	-172
mek	-173
▁in	-174
▁oldu	-175
lık	-176
▁tar	-177
ib	-178
larak	-179
mış	-180
▁(	-181
af	-182
tır	-183
ez	-184
..	-185
len	-186
▁değ	-187
iniz	-188
ip	-189
ha	-190
▁olarak	-191
▁ma	-192
▁kur	-193
cı	-194
tan	-195
man	-196
▁iş	-197
unu	-198
ından	-199
ması	-200
▁kal	-201
▁yer	-202
▁“	-203
▁or	-204
▁çok	-205
▁on	-206
üy	-207
▁olan	-208
edi	-209
miş	-210
ro	-211
▁kad	-212
▁her	-213
▁ko	-214
▁gün	-215
anı	-216
laş	-217
▁tür	-218
öy	-219
▁bul	-220
▁bel	-221
se	-222
lay	-223
▁ken	-224
lem	-225
▁daha	-226
lu	-227
ibi	-228
eş	-229
▁kul	-230
op	-231
▁el	-232
▁ist	-233
▁aç	-234
ki	-235
ının	-236
▁var	-237
ası	-238
eni	-239
▁öz	-240
▁olduğ	-241
ih	-242
▁yıl	-243
▁yar	-244
imiz	-245
▁ak	-246
▁geç	-247
eye	-248
ağ	-249
me	-250
▁sür	-251
▁uy	-252
san	-253
ap	-254
▁gibi	-255
lerin	-256
aki	-257
▁çık	-258
alı	-259
ken	-260
eki	-261
ama	-262
▁çal	-263
▁kullan	-264
aman	-265
▁türk	-266
isi	-267
▁yaş	-268
...	-269
ıyor	-270
sa	-271
▁üz	-272
ili	-273
ka	-274
▁l	-275
yon	-276
▁par	-277
yla	-278
ör	-279
ecek	-280
▁çalış	-281
▁dev	-282
üt	-283
bilir	-284
▁hal	-285
▁ben	-286
▁doğ	-287
▁tek	-288
▁20	-289
ci	-290
▁üzer	-291
eden	-292
▁yan	-293
▁ek	-294
▁ama	-295
ğr	-296
▁ne	-297
▁3	-298
▁düş	-299
▁top	-300
daki	-301
▁büy	-302
▁say	-303
ru	-304
▁yön	-305
eli	-306
▁kay	-307
▁pro	-308
▁gerek	-309
eb	-310
eri	-311
▁kadar	-312
let	-313
met	-314
▁bak	-315
abil	-316
▁zaman	-317
os	-318
▁sağ	-319
lü	-320
▁bun	-321
▁dur	-322
▁"	-323
ılı	-324
eh	-325
▁yaz	-326
lama	-327
▁gen	-328
▁karş	-329
ımız	-330
ist	-331
lam	-332
inden	-333
▁sonra	-334
▁ü	-335
▁mü	-336
unda	-337
▁bulun	-338
▁er	-339
öz	-340
ilm	-341
▁bo	-342
ilen	-343
iyet	-344
leş	-345
▁sor	-346
iç	-347
iyle	-348
ers	-349
tur	-350
ece	-351
▁ev	-352
▁gü	-353
▁es	-354
▁hay	-355
gi	-356
aya	-357
uy	-358
▁kap	-359
av	-360
ark	-361
▁oy	-362
ılan	-363
▁ola	-364
lara	-365
▁kend	-366
▁hak	-367
ınız	-368
dığ	-369
▁dön	-370
id	-371
▁kat	-372
▁büyük	-373
asında	-374
▁eğ	-375
arak	-376
öl	-377
ad	-378
men	-379
▁taraf	-380
maya	-381
ep	-382
larını	-383
if	-384
▁ad	-385
ten	-386
ter	-387
▁yeni	-388
dım	-389
▁as	-390
▁biz	-391
dığı	-392
▁uz	-393
▁sah	-394
▁ür	-395
▁özel	-396
om	-397
▁yak	-398
may	-399
arı	-400
▁uyg	-401
ot	-402
▁öğr	-403
▁siz	-404
ğini	-405
cu	-406
edir	-407
yi	-408
nin	-409
▁şek	-410
deki	-411
▁den	-412
malar	-413
▁şey	-414
▁do	-415
▁yüz	-416
lerini	-417
▁san	-418
ede	-419
imi	-420
▁mu	-421
▁at	-422
▁har	-423
çek	-424
▁sev	-425
ic	-426
▁ise	-427
▁değil	-428
▁böl	-429
▁der	-430
▁mer	-431
▁yol	-432
▁4	-433
ans	-434
ef	-435
▁karşı	-436
erek	-437
▁ok	-438
▁tem	-439
▁gir	-440
▁insan	-441
sel	-442
▁mil	-443
▁tak	-444
tr	-445
bul	-446
▁hem	-447
▁ki	-448
▁bağ	-449
00	-450
▁belir	-451
▁söy	-452
bir	-453
▁gerçek	-454
▁kiş	-455
▁dün	-456
dür	-457
▁ser	-458
eleri	-459
ıp	-460
▁düz	-461
▁yük	-462
makta	-463
ada	-464
▁alan	-465
▁-	-466
kin	-467
▁başk	-468
▁201	-469
ısı	-470
▁veya	-471
muş	-472
▁bur	-473
▁göre	-474
elik	-475
▁di	-476
▁açık	-477
dü	-478
▁5	-479
▁ort	-480
siniz	-481
▁tarih	-482
▁yok	-483
▁göz	-484
esinde	-485
lere	-486
ster	-487
larda	-488
▁has	-489
▁söz	-490
acak	-491
sun	-492
ne	-493
▁türkiye	-494
ğu	-495
▁ayr	-496
▁alt	-497
oc	-498
▁ce	-499
▁önem	-500
uyor	-501
▁su	-502
▁haz	-503
▁ilg	-504
▁yet	-505
eyi	-506
mesi	-507
▁aş	-508
▁ilk	-509
aç	-510
der	-511
ram	-512
iv	-513
▁durum	-514
tedir	-515
▁olduğu	-516
enin	-517
lığı	-518
▁em	-519
▁fark	-520
cağ	-521
▁düşün	-522
▁tarafından	-523
▁edil	-524
tür	-525
▁göster	-526
nın	-527
tık	-528
▁ter	-529
▁iyi	-530
▁sır	-531
eyen	-532
▁kan	-533
nı	-534
▁tüm	-535
tu	-536
ran	-537
▁az	-538
dık	-539
una	-540
▁kor	-541
▁şekil	-542
▁19	-543
üs	-544
▁olma	-545
▁hiç	-546
▁hiz	-547
▁seç	-548
▁mo	-549
▁çek	-550
est	-551
abilir	-552
larının	-553
si	-554
lat	-555
dur	-556
etir	-557
etim	-558
▁tan	-559
▁değiş	-560
▁iz	-561
▁ada	-562
▁hizmet	-563
iyat	-564
▁öl	-565
art	-566
▁bilg	-567
▁kaz	-568
fa	-569
maktadır	-570
ğer	-571
▁öğren	-572
lığ	-573
eti	-574
▁oluş	-575
diği	-576
öyle	-577
▁getir	-578
▁hat	-579
▁ül	-580
re	-581
mektedir	-582
daş	-583
▁tut	-584
ht	-585
▁eğit	-586
▁is	-587
ileri	-588
▁kurul	-589
▁diye	-590
liği	-591
▁ağ	-592
▁w	-593
tik	-594
▁duy	-595
▁neden	-596
ara	-597
▁bin	-598
larına	-599
▁olduğunu	-600
▁yay	-601
han	-602
▁dem	-603
aber	-604
▁kö	-605
ıla	-606
▁bas	-607
▁av	-608
▁taş	-609
siz	-610
▁şekilde	-611
▁kıs	-612
lah	-613
anın	-614
▁etti	-615
▁genel	-616
up	-617
ven	-618
unun	-619
▁iki	-620
▁güz	-621
aret	-622
esine	-623
▁sav	-624
sı	-625
▁içinde	-626
▁kim	-627
▁değer	-628
dece	-629
▁ör	-630
sız	-631
▁hayat	-632
asyon	-633
▁devam	-634
▁mes	-635
▁ün	-636
usu	-637
▁dış	-638
alık	-639
▁sat	-640
▁geliş	-641
ça	-642
ıcı	-643
▁aynı	-644
ocuk	-645
▁önce	-646
▁ban	-647
çe	-648
raf	-649
ütün	-650
▁6	-651
ımı	-652
▁ülk	-653
esini	-654
▁sonu	-655
▁güzel	-656
aları	-657
▁hakk	-658
▁faz	-659
lerde	-660
tar	-661
▁sahip	-662
▁baz	-663
▁diğer	-664
▁ab	-665
olo	-666
▁ot	-667
▁birlik	-668
▁zor	-669
ayan	-670
▁olur	-671
lerinin	-672
meye	-673
tü	-674
▁önemli	-675
lerine	-676
▁mal	-677
▁çocuk	-678
▁başla	-679
▁sen	-680
▁bey	-681
▁dedi	-682
ret	-683
▁ilgili	-684
▁yapıl	-685
▁tes	-686
leştir	-687
iyorum	-688
▁bek	-689
▁ancak	-690
▁arasında	-691
▁şu	-692
▁düzen	-693
▁kes	-694
hal	-695
lardan	-696
ünü	-697
istem	-698
ye	-699
kez	-700
maz	-701
kü	-702
▁sal	-703
▁kendi	-704
▁tab	-705
▁doğru	-706
▁sit	-707
▁fazla	-708
▁j	-709
▁üst	-710
larında	-711
ındaki	-712
na	-713
dik	-714
▁gelen	-715
▁sistem	-716
▁eğitim	-717
ilik	-718
▁alın	-719
▁hazır	-720
lendir	-721
stan	-722
ünde	-723
▁merkez	-724
sek	-725
ac	-726
▁konuş	-727
▁kit	-728
▁boy	-729
▁devlet	-730
▁nas	-731
▁im	-732
▁bütün	-733
▁oyun	-734
▁konu	-735
▁ede	-736
gün	-737
▁dil	-738
▁kr	-739
▁eş	-740
mıştır	-741
▁7	-742
▁güven	-743
▁hav	-744
del	-745
alan	-746
ğin	-747
oloj	-748
uv	-749
▁dik	-750
likle	-751
ri	-752
tığı	-753
▁fak	-754
ayı	-755
▁bölg	-756
dar	-757
▁dönem	-758
üyor	-759
por	-760
ledi	-761
▁ayrı	-762
▁içer	-763
▁tel	-764
▁etk	-765
ğiniz	-766
▁çıkar	-767
▁dav	-768
▁ürün	-769
▁kız	-770
▁yat	-771
▁tekn	-772
▁bah	-773
▁şeh	-774
▁arka	-775
▁yardım	-776
▁sadece	-777
▁önc	-778
▁birlikte	-779
ebilir	-780
▁am	-781
stanbul	-782
larla	-783
▁kam	-784
▁böyle	-785
▁saat	-786
emiz	-787
ıy	-788
▁olmak	-789
üp	-790
ildi	-791
▁kazan	-792
▁farklı	-793
▁uygu	-794
ide	-795
▁kom	-796
▁mak	-797
▁so	-798
miştir	-799
rup	-800
▁ulaş	-801
▁kadın	-802
▁han	-803
bet	-804
▁mad	-805
▁yapılan	-806
▁git	-807
▁haf	-808
▁can	-809
▁te	-810
▁eden	-811
▁nasıl	-812
luk	-813
▁yüksek	-814
cel	-815
ilerin	-816
▁mut	-817
.”	-818
▁görün	-819
▁görev	-820
▁çev	-821
yal	-822
ğimiz	-823
▁gön	-824
▁10	-825
▁olacak	-826
gram	-827
▁kü	-828
▁8	-829
▁sek	-830
▁bunun	-831
mi	-832
▁sık	-833
lerinde	-834
olu	-835
▁karar	-836
tığ	-837
tör	-838
ley	-839
kan	-840
bu	-841
20	-842
▁sun	-843
▁tama	-844
malı	-845
dığını	-846
ika	-847
eket	-848
▁dünya	-849
▁tas	-850
üne	-851
ırak	-852
▁man	-853
▁başka	-854
▁bit	-855
masını	-856
▁iliş	-857
▁gaz	-858
ulu	-859
▁bazı	-860
▁güç	-861
▁sı	-862
▁onun	-863
▁tur	-864
▁din	-865
▁bile	-866
eme	-867
▁res	-868
kat	-869
▁bırak	-870
lak	-871
oz	-872
▁li	-873
gu	-874
▁beled	-875
ğü	-876
▁gid	-877
▁yür	-878
▁üç	-879
nun	-880
▁uzun	-881
▁eder	-882
▁haber	-883
▁met	-884
▁bölüm	-885
masına	-886
▁iht	-887
▁üzerine	-888
iyon	-889
cek	-890
▁kır	-891
ğim	-892
▁halk	-893
▁proj	-894
layan	-895
▁bulunan	-896
lerden	-897
dem	-898
▁kaç	-899
▁la	-900
▁başkanı	-901
▁arkadaş	-902
atı	-903
cü	-904
▁,	-905
gil	-906
▁mi	-907
▁program	-908
emek	-909
▁benim	-910
hur	-911
orm	-912
▁savaş	-913
esinin	-914
ıt	-915
▁ik	-916
▁tam	-917
sal	-918
ulan	-919
▁etm	-920
▁işlem	-921
▁biri	-922
▁hep	-923
net	-924
og	-925
ahat	-926
▁fir	-927
▁‘	-928
▁un	-929
▁olduk	-930
▁yönet	-931
▁tr	-932
ebil	-933
▁cum	-934
iyoruz	-935
▁tah	-936
ivers	-937
mayı	-938
lük	-939
▁adam	-940
▁fa	-941
indeki	-942
iyas	-943
iversit	-944
iyordu	-945
▁üy	-946
▁uygun	-947
isinde	-948
▁9	-949
ünkü	-950
▁bar	-951
▁küç	-952
▁düny	-953
larımız	-954
▁hareket	-955
duğu	-956
▁olması	-957
liğ	-958
▁muh	-959
lerinden	-960
laya	-961
tal	-962
▁ah	-963
▁başkan	-964
ağı	-965
larından	-966
▁kas	-967
▁hız	-968
gel	-969
▁pol	-970
▁şim	-971
▁kav	-972
ilmesi	-973
▁anlam	-974
▁fiyat	-975
▁üniversit	-976
▁ey	-977
▁hük	-978
▁mev	-979
▁dikkat	-980
ket	-981
▁sar	-982
▁mah	-983
mayan	-984
sin	-985
lerle	-986
▁teş	-987
okt	-988
aba	-989
▁hakkında	-990
▁üzere	-991
▁çünkü	-992
▁geçir	-993
bar	-994
▁üzerinde	-995
lum	-996
ver	-997
▁sos	-998
ber	-999
▁mar	-1000
edik	-1001
▁ber	-1002
rak	-1003
▁ren	-1004
▁bay	-1005
çi	-1006
▁görüş	-1007
usunda	-1008
uma	-1009
▁belirt	-1010
▁film	-1011
▁art	-1012
▁'	-1013
▁genç	-1014
mıştı	-1015
elim	-1016
kı	-1017
▁olay	-1018
▁oluştur	-1019
▁ses	-1020
▁dest	-1021
▁kabul	-1022
rar	-1023
ban	-1024
dum	-1025
▁müdür	-1026
ıldı	-1027
▁#	-1028
▁allah	-1029
van	-1030
▁bunu	-1031
▁yas	-1032
dim	-1033
▁koy	-1034
▁ul	-1035
▁seb	-1036
baş	-1037
▁destek	-1038
sam	-1039
▁bugün	-1040
▁pay	-1041
▁orta	-1042
▁geldi	-1043
▁yor	-1044
▁15	-1045
işim	-1046
unuz	-1047
▁yine	-1048
gan	-1049
ing	-1050
lanan	-1051
▁küçük	-1052
▁onu	-1053
elerin	-1054
▁sağlık	-1055
▁çalışmalar	-1056
▁çöz	-1057
▁yaşam	-1058
▁kendis	-1059
▁:	-1060
çı	-1061
▁cumhur	-1062
▁artık	-1063
mez	-1064
▁ortaya	-1065
▁etmek	-1066
acı	-1067
yı	-1068
▁200	-1069
▁kayn	-1070
çok	-1071
▁tal	-1072
▁kolay	-1073
▁şir	-1074
acağ	-1075
ılır	-1076
▁dolay	-1077
▁gönder	-1078
▁hast	-1079
▁tasar	-1080
▁hiçbir	-1081
ni	-1082
lantı	-1083
▁yayın	-1084
▁bilgi	-1085
manın	-1086
ümüz	-1087
be	-1088
▁kurum	-1089
▁kül	-1090
gı	-1091
▁0	-1092
▁sorun	-1093
▁fakat	-1094
▁yakın	-1095
▁yani	-1096
ge	-1097
ort	-1098
▁plan	-1099
suz	-1100
tım	-1101
eniz	-1102
▁ihtiy	-1103
▁yaklaş	-1104
▁mey	-1105
oğlu	-1106
▁gerçekleştir	-1107
▁kol	-1108
ig	-1109
▁diy	-1110
▁ayrıca	-1111
▁bilin	-1112
▁sonr	-1113
▁sab	-1114
ilir	-1115
▁pr	-1116
▁çeş	-1117
▁mek	-1118
▁yal	-1119
▁ail	-1120
▁cev	-1121
▁eski	-1122
▁ziy	-1123
▁tamam	-1124
mız	-1125
abilirsiniz	-1126
aştır	-1127
▁sosyal	-1128
▁mem	-1129
asına	-1130
leme	-1131
▁ifa	-1132
▁sak	-1133
▁öğrenc	-1134
."	-1135
▁yılında	-1136
sik	-1137
ladı	-1138
▁erk	-1139
cağı	-1140
lenen	-1141
▁ro	-1142
▁başar	-1143
▁millet	-1144
kes	-1145
▁hemen	-1146
yan	-1147
za	-1148
▁sonuç	-1149
▁üret	-1150
lamak	-1151
müş	-1152
gin	-1153
▁os	-1154
▁ask	-1155
▁yarat	-1156
▁tat	-1157
▁per	-1158
ılması	-1159
▁pek	-1160
lerimiz	-1161
▁ifade	-1162
lo	-1163
▁kişi	-1164
▁araştır	-1165
umuz	-1166
▁yen	-1167
▁ard	-1168
▁mas	-1169
▁yerine	-1170
▁abd	-1171
▁ho	-1172
▁bakan	-1173
▁öy	-1174
istan	-1175
madan	-1176
duğ	-1177
▁toplum	-1178
▁rahat	-1179
onom	-1180
urt	-1181
▁–	-1182
▁burada	-1183
▁fır	-1184
▁müz	-1185
▁hes	-1186
▁hüküm	-1187
▁birçok	-1188
▁özellikle	-1189
▁le	-1190
▁his	-1191
▁12	-1192
tif	-1193
▁telef	-1194
▁ulus	-1195
ırım	-1196
▁vardır	-1197
▁kir	-1198
eğ	-1199
aj	-1200
▁kısa	-1201
he	-1202
▁olabilir	-1203
lıyor	-1204
per	-1205
),	-1206
▁olmuş	-1207
▁tav	-1208
▁tanı	-1209
kara	-1210
▁kültür	-1211
det	-1212
▁ediyor	-1213
ekli	-1214
atan	-1215
▁kitap	-1216
min	-1217
▁bana	-1218
▁gelir	-1219
▁telefon	-1220
▁sur	-1221
ınır	-1222
▁müş	-1223
rı	-1224
▁benz	-1225
▁şimdi	-1226
▁paz	-1227
▁çağ	-1228
▁diz	-1229
▁çeşit	-1230
▁eğer	-1231
▁terc	-1232
▁deniz	-1233
▁spor	-1234
▁araç	-1235
siyon	-1236
mem	-1237
meler	-1238
bol	-1239
▁yağ	-1240
su	-1241
▁bizim	-1242
ov	-1243
üc	-1244
▁kil	-1245
lâ	-1246
▁geri	-1247
▁istedi	-1248
pr	-1249
ılacak	-1250
inizi	-1251
▁ch	-1252
kün	-1253
▁dir	-1254
eg	-1255
▁mı	-1256
doğ	-1257
▁ardından	-1258
ince	-1259
▁anlat	-1260
▁edilen	-1261
lemek	-1262
▁sey	-1263
▁sil	-1264
▁görül	-1265
▁osman	-1266
▁yönetim	-1267
▁günü	-1268
mişti	-1269
▁üc	-1270
uru	-1271
bi	-1272
▁madde	-1273
▁oda	-1274
-1	-1275
▁biraz	-1276
▁geçen	-1277
▁ona	-1278
ılmış	-1279
uluk	-1280
sil	-1281
▁sanat	-1282
▁anlaş	-1283
▁ac	-1284
▁kontr	-1285
uh	-1286
oğraf	-1287
▁paylaş	-1288
▁değerlendir	-1289
▁18	-1290
▁kez	-1291
unca	-1292
amaz	-1293
tin	-1294
▁ders	-1295
nek	-1296
▁kah	-1297
▁bağlı	-1298
▁uç	-1299
leyen	-1300
▁avrup	-1301
▁kalit	-1302
▁inan	-1303
▁yanı	-1304
sanız	-1305
▁bor	-1306
▁herkes	-1307
vi	-1308
tim	-1309
undan	-1310
ali	-1311
ışı	-1312
▁otur	-1313
▁kaynak	-1314
▁vur	-1315
▁kork	-1316
▁oyn	-1317
asını	-1318
▁olsun	-1319
▁konusunda	-1320
▁gül	-1321
edef	-1322
▁dair	-1323
▁şirket	-1324
201	-1325
▁kı	-1326
▁ekonom	-1327
▁boz	-1328
ehir	-1329
▁altında	-1330
▁yapan	-1331
▁birbir	-1332
ilere	-1333
▁erkek	-1334
▁verdi	-1335
▁öğret	-1336
▁%	-1337
▁okul	-1338
▁11	-1339
nde	-1340
fen	-1341
dak	-1342
▁çar	-1343
din	-1344
ünün	-1345
▁bab	-1346
ayet	-1347
ch	-1348
▁uzak	-1349
bilirsiniz	-1350
▁sınır	-1351
dın	-1352
ıntı	-1353
▁temiz	-1354
ba	-1355
▁kontrol	-1356
▁serv	-1357
▁dah	-1358
▁kut	-1359
▁müm	-1360
maları	-1361
▁ankara	-1362
▁ağır	-1363
▁hedef	-1364
par	-1365
▁bilim	-1366
kinci	-1367
landır	-1368
▁size	-1369
▁çevr	-1370
▁prof	-1371
▁olup	-1372
▁id	-1373
▁başv	-1374
▁koş	-1375
lim	-1376
▁ner	-1377
▁|	-1378
▁lis	-1379
uyu	-1380
manız	-1381
▁temel	-1382
edim	-1383
▁geliştir	-1384
▁men	-1385
▁model	-1386
▁aşağı	-1387
▁renk	-1388
▁vak	-1389
iyi	-1390
▁zar	-1391
▁avrupa	-1392
▁siyas	-1393
▁kapsam	-1394
▁merkezi	-1395
▁tekrar	-1396
▁fot	-1397
▁içerisinde	-1398
oy	-1399
▁yüzde	-1400
▁isim	-1401
▁para	-1402
tem	-1403
▁iti	-1404
▁milyon	-1405
tiği	-1406
▁köy	-1407
▁süre	-1408
eceği	-1409
▁boş	-1410
▁dö	-1411
▁rek	-1412
▁dönüş	-1413
▁söyledi	-1414
▁[	-1415
nız	-1416
▁yaptığı	-1417
▁ziyaret	-1418
▁çoğ	-1419
laştır	-1420
▁seçim	-1421
ğinde	-1422
▁beş	-1423
▁med	-1424
ınıf	-1425
▁adı	-1426
▁po	-1427
ân	-1428
ıda	-1429
aşa	-1430
▁vatan	-1431
▁ait	-1432
▁teknoloj	-1433
▁oğ	-1434
teş	-1435
com	-1436
ici	-1437
sunuz	-1438
lardı	-1439
▁tercih	-1440
ılım	-1441
ngil	-1442
larınız	-1443
▁sok	-1444
▁sel	-1445
▁st	-1446
▁ücret	-1447
▁bildir	-1448
▁soru	-1449
deş	-1450
▁mec	-1451
▁zamanda	-1452
▁müca	-1453
ilmiş	-1454
▁gazet	-1455
▁anla	-1456
▁/	-1457
▁kaldır	-1458
▁ayak	-1459
arası	-1460
▁yaşan	-1461
abı	-1462
▁değişik	-1463
▁tic	-1464
sın	-1465
▁sektör	-1466
▁13	-1467
erj	-1468
medi	-1469
▁gez	-1470
▁şehir	-1471
pan	-1472
▁başladı	-1473
▁dr	-1474
▁indir	-1475
▁mümkün	-1476
▁çin	-1477
▁incel	-1478
▁kesin	-1479
▁mücadel	-1480
asının	-1481
ekk	-1482
▁ilişk	-1483
▁sin	-1484
▁ir	-1485
▁beni	-1486
▁oldukça	-1487
▁engel	-1488
esinden	-1489
ünden	-1490
ternet	-1491
▁yalnız	-1492
▁meydan	-1493
▁cam	-1494
ade	-1495
aların	-1496
▁tl	-1497
▁çalışma	-1498
bak	-1499
▁vardı	-1500
gın	-1501
ğa	-1502
▁belediye	-1503
▁şah	-1504
▁takım	-1505
▁dak	-1506
umu	-1507
▁beraber	-1508
ve	-1509
ıyorum	-1510
ent	-1511
▁hâ	-1512
▁14	-1513
▁sul	-1514
umlu	-1515
▁etkin	-1516
▁buna	-1517
▁istem	-1518
▁geniş	-1519
▁sınıf	-1520
isini	-1521
▁16	-1522
▁tük	-1523
▁yapmak	-1524
▁adet	-1525
▁kem	-1526
▁çalışan	-1527
▁pazar	-1528
▁gereken	-1529
erli	-1530
▁değildir	-1531
lk	-1532
▁maç	-1533
duk	-1534
▁yeniden	-1535
aliyet	-1536
lek	-1537
▁dok	-1538
üsü	-1539
alt	-1540
▁veren	-1541
▁elek	-1542
▁du	-1543
▁tarihi	-1544
▁oluyor	-1545
las	-1546
▁belediy	-1547
▁hafta	-1548
▁cin	-1549
▁gi	-1550
nda	-1551
▁değiştir	-1552
▁tabi	-1553
▁hey	-1554
▁mik	-1555
).	-1556
larıyla	-1557
▁biç	-1558
▁yapı	-1559
ğe	-1560
▁1.	-1561
▁gal	-1562
....	-1563
▁af	-1564
▁â	-1565
▁bes	-1566
▁sıra	-1567
▁ana	-1568
ant	-1569
▁grup	-1570
şa	-1571
düğ	-1572
lardır	-1573
▁yemek	-1574
▁saç	-1575
▁pat	-1576
▁alış	-1577
▁örg	-1578
vet	-1579
▁özellik	-1580
▁teknik	-1581
▁dol	-1582
▁part	-1583
eği	-1584
▁hava	-1585
▁asker	-1586
hangi	-1587
▁kür	-1588
▁2018	-1589
▁giriş	-1590
fer	-1591
▁aras	-1592
▁teda	-1593
▁nokt	-1594
▁konusu	-1595
▁ih	-1596
▁karış	-1597
▁meh	-1598
▁olmayan	-1599
▁ham	-1600
meden	-1601
▁öyle	-1602
▁ip	-1603
▁elde	-1604
izm	-1605
ecektir	-1606
leriyle	-1607
▁yüksel	-1608
▁faaliyet	-1609
▁hiss	-1610
▁çözüm	-1611
▁fay	-1612
▁yav	-1613
ğine	-1614
▁yoğ	-1615
ari	-1616
med	-1617
masının	-1618
▁üniversitesi	-1619
▁yorum	-1620
▁bi	-1621
▁fotoğraf	-1622
▁ilet	-1623
lüğü	-1624
▁17	-1625
▁suç	-1626
▁parç	-1627
▁30	-1628
▁itibar	-1629
▁oku	-1630
▁des	-1631
ilerini	-1632
.1	-1633
elere	-1634
▁dör	-1635
▁ço	-1636
▁bakım	-1637
▁herhangi	-1638
▁*	-1639
▁sultan	-1640
▁oran	-1641
▁uzman	-1642
▁kardeş	-1643
▁yöntem	-1644
▁dayan	-1645
▁asl	-1646
▁takip	-1647
▁bal	-1648
isinin	-1649
▁mez	-1650
▁özg	-1651
▁kurulu	-1652
▁üzerinden	-1653
eyin	-1654
▁saldır	-1655
▁of	-1656
▁re	-1657
eyim	-1658
isyon	-1659
▁çiz	-1660
yo	-1661
elerini	-1662
▁gerekir	-1663
▁ara	-1664
▁şöyle	-1665
iyeti	-1666
▁kuş	-1667
unuyor	-1668
▁elektr	-1669
▁toplantı	-1670
▁ortak	-1671
alım	-1672
can	-1673
▁(1	-1674
for	-1675
▁sizin	-1676
▁ku	-1677
▁devr	-1678
▁kalk	-1679
▁cevap	-1680
▁teh	-1681
▁ölüm	-1682
▁dar	-1683
▁rus	-1684
▁oto	-1685
▁gec	-1686
▁dan	-1687
▁rağ	-1688
ısında	-1689
âr	-1690
▁belg	-1691
▁müs	-1692
meyi	-1693
▁organ	-1694
▁tep	-1695
▁hatta	-1696
ime	-1697
imde	-1698
▁ölç	-1699
▁çıkan	-1700
▁ann	-1701
malıdır	-1702
ıma	-1703
▁demek	-1704
ilerine	-1705
▁cih	-1706
▁fik	-1707
alet	-1708
kaç	-1709
50	-1710
▁enerj	-1711
▁kaf	-1712
▁unut	-1713
▁num	-1714
alama	-1715
sınız	-1716
lis	-1717
▁hastan	-1718
▁zat	-1719
▁osmanlı	-1720
▁dal	-1721
▁ora	-1722
do	-1723
▁ilç	-1724
▁parti	-1725
▁adr	-1726
▁for	-1727
nsan	-1728
▁öde	-1729
▁satış	-1730
▁kara	-1731
lamaya	-1732
▁ruh	-1733
▁bize	-1734
ınca	-1735
▁rağmen	-1736
▁yatırım	-1737
▁sayf	-1738
elerde	-1739
▁amaç	-1740
▁vatandaş	-1741
000	-1742
iştir	-1743
▁fil	-1744
▁yaşa	-1745
▁.	-1746
landı	-1747
inci	-1748
ıyla	-1749
▁olsa	-1750
iydi	-1751
kil	-1752
▁gider	-1753
▁nit	-1754
▁sez	-1755
bo	-1756
▁gerekli	-1757
▁ali	-1758
▁alman	-1759
▁mark	-1760
imizin	-1761
muz	-1762
▁beb	-1763
▁ordu	-1764
efer	-1765
sat	-1766
▁kıy	-1767
alarda	-1768
▁almak	-1769
▁gece	-1770
ke	-1771
şam	-1772
▁şekl	-1773
▁hatır	-1774
▁adım	-1775
sen	-1776
▁don	-1777
tiv	-1778
▁mahal	-1779
▁mahk	-1780
itik	-1781
▁det	-1782
▁yönelik	-1783
▁davran	-1784
ıyoruz	-1785
▁hızlı	-1786
▁ikinci	-1787
▁um	-1788
▁2.	-1789
üman	-1790
ılıyor	-1791
ekkür	-1792
br	-1793
▁veril	-1794
▁milli	-1795
▁yarar	-1796
ize	-1797
mı	-1798
▁cen	-1799
üb	-1800
▁çeşitli	-1801
▁dolayı	-1802
▁dışında	-1803
▁uygulan	-1804
ıyordu	-1805
▁şart	-1806
esiyle	-1807
▁ister	-1808
▁öner	-1809
▁doğal	-1810
▁yanında	-1811
taş	-1812
▁nedeniyle	-1813
▁yardımcı	-1814
▁hesap	-1815
▁aslında	-1816
ift	-1817
▁birkaç	-1818
▁yık	-1819
▁...	-1820
▁paşa	-1821
lül	-1822
▁amacı	-1823
▁derece	-1824
▁yolu	-1825
▁malz	-1826
▁yapar	-1827
elen	-1828
▁sına	-1829
▁giz	-1830
▁örnek	-1831
▁belki	-1832
▁kuv	-1833
ira	-1834
cut	-1835
leye	-1836
▁vide	-1837
▁ta	-1838
▁24	-1839
▁ker	-1840
ısından	-1841
eceğini	-1842
▁öğretmen	-1843
▁giy	-1844
▁uluslar	-1845
▁edin	-1846
mesini	-1847
▁gar	-1848
▁nak	-1849
sta	-1850
▁pey	-1851
▁aldı	-1852
▁boyunca	-1853
▁üretim	-1854
▁ihtiyaç	-1855
▁uğr	-1856
▁hik	-1857
▁kurt	-1858
▁yurt	-1859
▁sürdür	-1860
▁yaban	-1861
▁sıcak	-1862
taj	-1863
uvar	-1864
▁sam	-1865
▁bat	-1866
▁toplam	-1867
doğan	-1868
meyen	-1869
ukuk	-1870
of	-1871
▁kuruluş	-1872
ale	-1873
▁kayıt	-1874
▁aday	-1875
▁temsil	-1876
▁onlar	-1877
▁sınav	-1878
▁aydın	-1879
▁ortam	-1880
▁öldür	-1881
▁x	-1882
▁sebep	-1883
tiğini	-1884
isine	-1885
end	-1886
▁olabil	-1887
▁sürekli	-1888
üf	-1889
▁mevcut	-1890
mer	-1891
▁fin	-1892
▁kendini	-1893
bat	-1894
luluk	-1895
▁karşılaş	-1896
▁zaten	-1897
▁türlü	-1898
▁pu	-1899
rah	-1900
▁otel	-1901
▁sem	-1902
▁dost	-1903
dıkları	-1904
dül	-1905
▁iy	-1906
▁mis	-1907
okr	-1908
▁gerçekleş	-1909
ırken	-1910
▁eser	-1911
▁amer	-1912
ala	-1913
▁may	-1914
▁kullanıcı	-1915
po	-1916
▁sahibi	-1917
▁güvenlik	-1918
▁hayvan	-1919
▁hukuk	-1920
▁iler	-1921
▁yoğun	-1922
▁bunlar	-1923
▁sonunda	-1924
▁hun	-1925
▁anda	-1926
▁iddi	-1927
▁ilişkin	-1928
▁kamu	-1929
▁yum	-1930
mir	-1931
▁mağ	-1932
▁teşekkür	-1933
▁canlı	-1934
▁web	-1935
enek	-1936
mat	-1937
▁çocu	-1938
ğın	-1939
▁internet	-1940
▁kötü	-1941
▁rap	-1942
anıyor	-1943
▁belli	-1944
onu	-1945
▁sol	-1946
▁ederek	-1947
meli	-1948
▁yaklaşık	-1949
▁hoş	-1950
laması	-1951
fi	-1952
dığımız	-1953
yet	-1954
sak	-1955
afa	-1956
matik	-1957
▁kab	-1958
cağını	-1959
▁sig	-1960
▁25	-1961
uştur	-1962
▁yuk	-1963
kanı	-1964
▁durumda	-1965
mel	-1966
diler	-1967
▁kalan	-1968
▁bayan	-1969
▁hangi	-1970
ydı	-1971
▁anad	-1972
ast	-1973
30	-1974
ho	-1975
▁toprak	-1976
eci	-1977
mam	-1978
▁gerçekten	-1979
▁ekip	-1980
▁isteyen	-1981
▁zarar	-1982
masında	-1983
▁soğ	-1984
▁yazı	-1985
▁dört	-1986
▁akıl	-1987
▁net	-1988
▁halinde	-1989
▁tık	-1990
▁ettiği	-1991
▁nef	-1992
▁ap	-1993
▁bundan	-1994
ngiliz	-1995
imize	-1996
lış	-1997
▁tasarım	-1998
lanmış	-1999
▁ateş	-2000
▁cihaz	-2001
▁edecek	-2002
▁doğr	-2003
▁yo	-2004
▁gelecek	-2005
inize	-2006
▁sayesinde	-2007
▁uluslararası	-2008
▁geçmiş	-2009
rik	-2010
luğu	-2011
▁düşünc	-2012
▁kelim	-2013
▁yarış	-2014
lin	-2015
▁pers	-2016
gen	-2017
yar	-2018
▁bilgis	-2019
▁gru	-2020
▁geçti	-2021
▁tanım	-2022
▁başarı	-2023
▁cumhurbaş	-2024
▁detay	-2025
▁mesel	-2026
▁sistemi	-2027
elerinin	-2028
▁verilen	-2029
▁zen	-2030
▁açıklama	-2031
▁çift	-2032
▁müşter	-2033
▁uygulama	-2034
alarında	-2035
▁beyaz	-2036
▁rapor	-2037
▁karak	-2038
mesine	-2039
▁güneş	-2040
▁edilm	-2041
▁rak	-2042
▁istiyor	-2043
ilerinin	-2044
▁silah	-2045
▁ele	-2046
▁it	-2047
▁çıktı	-2048
oktor	-2049
▁bank	-2050
▁str	-2051
▁anadolu	-2052
ırı	-2053
▁aşk	-2054
cısı	-2055
menin	-2056
▁zorunda	-2057
▁yerde	-2058
▁fen	-2059
izi	-2060
▁yaptı	-2061
luğ	-2062
▁demir	-2063
▁kullanıl	-2064
lilik	-2065
▁gök	-2066
lendi	-2067
▁must	-2068
şte	-2069
▁onların	-2070
▁val	-2071
▁kuz	-2072
▁mehmet	-2073
ısıyla	-2074
pit	-2075
▁sabah	-2076
▁tart	-2077
lüğ	-2078
eştir	-2079
fet	-2080
üst	-2081
▁mot	-2082
gam	-2083
▁kuru	-2084
▁edildi	-2085
gun	-2086
▁şark	-2087
dr	-2088
▁hale	-2089
cer	-2090
ator	-2091
▁yabancı	-2092
ga	-2093
▁dünyanın	-2094
▁savun	-2095
▁if	-2096
▁şi	-2097
▁bilgisay	-2098
▁erdoğan	-2099
tay	-2100
▁kapsamında	-2101
▁se	-2102
▁örgüt	-2103
emez	-2104
▁yapılacak	-2105
▁kuvvet	-2106
/1	-2107
▁yazar	-2108
▁böylece	-2109
meleri	-2110
▁doktor	-2111
▁dağı	-2112
eder	-2113
▁fut	-2114
ser	-2115
▁cid	-2116
▁kims	-2117
esel	-2118
▁cez	-2119
atür	-2120
ben	-2121
▁yüzden	-2122
emi	-2123
türk	-2124
▁vermek	-2125
dığım	-2126
▁fel	-2127
▁yere	-2128
ınızı	-2129
düğü	-2130
▁tarihinde	-2131
▁no	-2132
tesi	-2133
▁insanlar	-2134
▁to	-2135
?”	-2136
▁ıs	-2137
▁kendisine	-2138
▁ba	-2139
▁araştırma	-2140
▁ark	-2141
tep	-2142
ışık	-2143
▁terör	-2144
▁talep	-2145
talya	-2146
lıkla	-2147
iliği	-2148
fak	-2149
imizi	-2150
▁örne	-2151
▁makin	-2152
▁servis	-2153
▁vaz	-2154
▁güçlü	-2155
▁adına	-2156
▁mustafa	-2157
yum	-2158
▁2017	-2159
isk	-2160
▁21	-2161
▁olacaktır	-2162
lerdir	-2163
▁olmaz	-2164
▁ticaret	-2165
âh	-2166
▁min	-2167
ati	-2168
▁ha	-2169
▁meydana	-2170
üncü	-2171
▁bilgiler	-2172
mayacak	-2173
▁resim	-2174
▁yaptığ	-2175
▁soy	-2176
amız	-2177
bur	-2178
üğ	-2179
her	-2180
▁altın	-2181
▁polis	-2182
▁dahil	-2183
inc	-2184
▁konuda	-2185
▁199	-2186
madı	-2187
▁diyor	-2188
lamalar	-2189
▁tamamen	-2190
▁kent	-2191
▁yukarı	-2192
evi	-2193
▁oper	-2194
▁yanlış	-2195
▁akşam	-2196
şehir	-2197
▁the	-2198
irler	-2199
▁sp	-2200
▁belediyesi	-2201
-2	-2202
▁tartış	-2203
▁mesaj	-2204
layarak	-2205
▁özgür	-2206
▁arab	-2207
▁key	-2208
ren	-2209
▁sırasında	-2210
▁götür	-2211
▁yürüt	-2212
▁müh	-2213
bah	-2214
▁bulunduğu	-2215
▁pan	-2216
▁>	-2217
▁hastalık	-2218
dük	-2219
▁müsl	-2220
▁açısından	-2221
anlar	-2222
▁tespit	-2223
▁mus	-2224
od	-2225
▁arasındaki	-2226
▁person	-2227
iri	-2228
▁sanay	-2229
miyor	-2230
▁geliyor	-2231
lığını	-2232
ku	-2233
▁dos	-2234
▁siv	-2235
▁kişinin	-2236
▁etkil	-2237
slam	-2238
elerine	-2239
teki	-2240
lanması	-2241
▁nis	-2242
▁tip	-2243
▁politik	-2244
▁piyas	-2245
▁yoktur	-2246
▁onları	-2247
▁efen	-2248
▁sonucu	-2249
dığında	-2250
▁şeklinde	-2251
▁işlet	-2252
iran	-2253
▁başarılı	-2254
▁beklen	-2255
tül	-2256
▁sayılı	-2257
▁halde	-2258
▁mutlu	-2259
▁bilgisayar	-2260
▁acı	-2261
▁çer	-2262
larım	-2263
▁oyuncu	-2264
▁nedenle	-2265
▁kasım	-2266
▁soh	-2267
▁söylem	-2268
ğiz	-2269
▁kanun	-2270
▁nes	-2271
▁kilo	-2272
zmir	-2273
▁kapı	-2274
vek	-2275
▁fet	-2276
▁bağım	-2277
▁nok	-2278
mal	-2279
▁diş	-2280
▁fat	-2281
liyor	-2282
▁list	-2283
▁ülkemiz	-2284
▁kullanım	-2285
▁kaybet	-2286
dığınız	-2287
ilerek	-2288
▁and	-2289
▁başına	-2290
▁futbol	-2291
▁sözleş	-2292
▁müzik	-2293
kar	-2294
▁100	-2295
yıl	-2296
▁mutlak	-2297
parator	-2298
▁kapat	-2299
.0	-2300
teri	-2301
dız	-2302
ormal	-2303
▁bunların	-2304
mamız	-2305
go	-2306
▁olun	-2307
▁ödül	-2308
▁sizi	-2309
▁arz	-2310
▁nerede	-2311
▁ekonomik	-2312
▁yaptır	-2313
▁temmuz	-2314
amak	-2315
▁del	-2316
amp	-2317
mekte	-2318
lerce	-2319
▁müslüman	-2320
siy	-2321
▁iletişim	-2322
▁stan	-2323
▁yıldır	-2324
▁teslim	-2325
▁çat	-2326
▁artır	-2327
▁yaptık	-2328
▁arada	-2329
asyonu	-2330
▁tesis	-2331
▁22	-2332
▁dakika	-2333
▁malzem	-2334
▁video	-2335
▁sefer	-2336
▁sohbet	-2337
▁dek	-2338
ısını	-2339
üle	-2340
▁cil	-2341
▁tarif	-2342
▁tay	-2343
mey	-2344
▁aracı	-2345
▁derin	-2346
▁verdiği	-2347
▁durumu	-2348
▁esas	-2349
▁fer	-2350
▁düşünüyor	-2351
eceğiniz	-2352
▁sebeb	-2353
anlı	-2354
▁kullanılan	-2355
▁ileri	-2356
bn	-2357
▁günlük	-2358
▁pen	-2359
▁eylül	-2360
layacak	-2361
emin	-2362
alara	-2363
osu	-2364
▁izin	-2365
▁düşman	-2366
atik	-2367
rin	-2368
▁mart	-2369
▁gay	-2370
▁haline	-2371
▁başvuru	-2372
tıyor	-2373
gamber	-2374
zım	-2375
▁pak	-2376
▁orada	-2377
ıldığı	-2378
▁senin	-2379
▁katılım	-2380
▁şeyi	-2381
bay	-2382
▁yeş	-2383
▁cumhuriyet	-2384
liğini	-2385
▁yılı	-2386
▁içine	-2387
▁satın	-2388
lığın	-2389
▁3.	-2390
▁gür	-2391
▁bağlantı	-2392
elerinde	-2393
▁konuştu	-2394
▁etmiş	-2395
imin	-2396
▁günümüz	-2397
alarını	-2398
▁insanların	-2399
▁demokr	-2400
olojik	-2401
va	-2402
▁dağ	-2403
ana	-2404
▁hen	-2405
▁kart	-2406
ate	-2407
.)	-2408
▁co	-2409
▁tekli	-2410
▁yıllık	-2411
▁aktar	-2412
lulu	-2413
▁seviy	-2414
▁us	-2415
▁23	-2416
▁hayır	-2417
▁fayd	-2418
▁güncel	-2419
omo	-2420
▁aldığı	-2421
▁merak	-2422
▁şeyler	-2423
isel	-2424
▁not	-2425
▁sorum	-2426
say	-2427
▁huz	-2428
▁zengin	-2429
▁def	-2430
lanır	-2431
▁mobil	-2432
▁yıldız	-2433
▁inşa	-2434
▁50	-2435
ger	-2436
▁fran	-2437
elikle	-2438
▁tüket	-2439
▁ekim	-2440
▁bizi	-2441
▁basın	-2442
dıktan	-2443
▁doğu	-2444
str	-2445
▁milletvek	-2446
geç	-2447
ebilirsiniz	-2448
▁peygamber	-2449
ünüz	-2450
▁fr	-2451
▁ocak	-2452
şı	-2453
▁verir	-2454
▁cep	-2455
▁resmi	-2456
▁adlı	-2457
▁sevg	-2458
▁önceki	-2459
lacak	-2460
▁hükümet	-2461
lığa	-2462
▁aralık	-2463
▁işaret	-2464
▁boğ	-2465
▁anal	-2466
ılma	-2467
▁itibaren	-2468
atif	-2469
▁ekran	-2470
▁tehlik	-2471
▁enerji	-2472
▁bl	-2473
▁başvur	-2474
▁sezon	-2475
▁benzer	-2476
▁be	-2477
▁işi	-2478
amaya	-2479
▁varsa	-2480
▁düzenlenen	-2481
gar	-2482
muştur	-2483
üyle	-2484
ladığı	-2485
▁gerekiyor	-2486
▁bayram	-2487
▁prob	-2488
taki	-2489
ullah	-2490
abilecek	-2491
▁süreç	-2492
▁isten	-2493
▁komut	-2494
▁hayal	-2495
one	-2496
▁müdürlüğü	-2497
ısına	-2498
▁anlay	-2499
allah	-2500
▁form	-2501
▁oluşan	-2502
▁2016	-2503
atürk	-2504
▁yavaş	-2505
▁ceza	-2506
▁güney	-2507
▁çarp	-2508
ina	-2509
▁öğ	-2510
line	-2511
▁yana	-2512
▁çevir	-2513
▁edilir	-2514
▁şaş	-2515
▁motor	-2516
▁koşul	-2517
▁kayb	-2518
▁mücadele	-2519
▁hır	-2520
ene	-2521
▁ünlü	-2522
10	-2523
▁idar	-2524
▁kok	-2525
▁altına	-2526
▁ahmet	-2527
▁mahall	-2528
▁beri	-2529
▁normal	-2530
tiler	-2531
▁dolayısıyla	-2532
▁çiç	-2533
▁keş	-2534
ğinden	-2535
oloji	-2536
.201	-2537
▁sitesi	-2538
▁tarz	-2539
esyon	-2540
▁mon	-2541
▁açı	-2542
▁aile	-2543
▁boyut	-2544
▁idi	-2545
▁ülke	-2546
▁br	-2547
▁dam	-2548
ansız	-2549
▁merh	-2550
▁kurtul	-2551
çev	-2552
▁haziran	-2553
cılık	-2554
▁bebek	-2555
▁önünde	-2556
ia	-2557
▁bahs	-2558
▁alınan	-2559
▁kişiler	-2560
ite	-2561
▁tör	-2562
▁aks	-2563
altı	-2564
▁mük	-2565
▁çab	-2566
izyon	-2567
▁birliği	-2568
▁elektrik	-2569
▁ciddi	-2570
ılabilir	-2571
▁memnun	-2572
▁yoksa	-2573
▁mayıs	-2574
▁düzey	-2575
▁eğlen	-2576
▁uc	-2577
masından	-2578
▁ic	-2579
▁kuzey	-2580
▁28	-2581
▁başlan	-2582
▁27	-2583
ımıza	-2584
▁eksik	-2585
▁hed	-2586
▁bakanlığı	-2587
▁kredi	-2588
▁kimse	-2589
▁beğ	-2590
lamaz	-2591
▁direk	-2592
▁sana	-2593
▁günde	-2594
▁şüp	-2595
▁rol	-2596
▁kılı	-2597
veriş	-2598
▁emin	-2599
▁meş	-2600
▁onlara	-2601
▁problem	-2602
▁kendisi	-2603
▁medya	-2604
har	-2605
ital	-2606
ile	-2607
▁26	-2608
adan	-2609
▁yaşayan	-2610
izik	-2611
▁ettik	-2612
▁birey	-2613
alarının	-2614
▁eg	-2615
▁amacıyla	-2616
▁etkinlik	-2617
▁go	-2618
▁ez	-2619
enler	-2620
▁ilan	-2621
▁personel	-2622
▁reklam	-2623
▁bahç	-2624
▁mekan	-2625
▁ayır	-2626
▁sayısı	-2627
mıyor	-2628
son	-2629
▁dolu	-2630
▁uyar	-2631
lıklı	-2632
▁tec	-2633
▁şid	-2634
ınıza	-2635
▁balık	-2636
▁pas	-2637
▁başında	-2638
ton	-2639
▁sırada	-2640
▁huzur	-2641
▁danış	-2642
▁siy	-2643
lenmesi	-2644
▁bol	-2645
sk	-2646
▁meslek	-2647
▁dolar	-2648
▁bahis	-2649
▁esn	-2650
▁yeşil	-2651
▁katkı	-2652
amet	-2653
▁mıs	-2654
▁miktar	-2655
ılabil	-2656
▁atatürk	-2657
2,	-2658
▁batı	-2659
▁40	-2660
▁kanal	-2661
rafik	-2662
▁yun	-2663
▁fon	-2664
inç	-2665
ens	-2666
deniz	-2667
gör	-2668
▁numar	-2669
▁od	-2670
▁değişiklik	-2671
meniz	-2672
hu	-2673
üler	-2674
ess	-2675
etler	-2676
▁yeterli	-2677
ıştır	-2678
dam	-2679
▁başbak	-2680
▁proje	-2681
asından	-2682
▁bazen	-2683
▁izle	-2684
ücü	-2685
▁yeri	-2686
▁istiyorum	-2687
▁süt	-2688
▁kendine	-2689
▁mur	-2690
uar	-2691
ersiz	-2692
▁kendisini	-2693
▁deneyim	-2694
?"	-2695
▁kısm	-2696
▁alır	-2697
▁yandan	-2698
▁henüz	-2699
▁bulunmaktadır	-2700
▁alma	-2701
▁içeri	-2702
▁öğrenciler	-2703
▁esc	-2704
▁birinci	-2705
hi	-2706
▁sıkıntı	-2707
▁fakül	-2708
▁araya	-2709
▁düşük	-2710
▁olmadığını	-2711
▁ücretsiz	-2712
▁birleş	-2713
üme	-2714
▁sonuc	-2715
ülen	-2716
▁duvar	-2717
ılmaz	-2718
▁kaş	-2719
▁sonrası	-2720
▁türkçe	-2721
▁bulunuyor	-2722
ımızı	-2723
▁kaliteli	-2724
▁puan	-2725
1,	-2726
▁çay	-2727
▁güc	-2728
▁29	-2729
▁etik	-2730
▁yapıyor	-2731
eyle	-2732
▁sizlere	-2733
imli	-2734
▁başlayan	-2735
▁hafif	-2736
▁eylem	-2737
ledik	-2738
▁defa	-2739
▁trans	-2740
▁çan	-2741
▁kum	-2742
▁end	-2743
▁meclis	-2744
▁müdürü	-2745
▁kemal	-2746
▁test	-2747
egor	-2748
mızı	-2749
▁escort	-2750
▁dönemde	-2751
▁nisan	-2752
▁tedav	-2753
▁ii	-2754
ımda	-2755
▁yerleş	-2756
▁kural	-2757
▁yetk	-2758
▁ted	-2759
▁hizmeti	-2760
ümü	-2761
▁nokta	-2762
▁rusya	-2763
acaktır	-2764
acağı	-2765
▁mahkem	-2766
▁bulundu	-2767
elerden	-2768
▁programı	-2769
▁teb	-2770
▁ef	-2771
dern	-2772
▁psik	-2773
▁çocuğ	-2774
▁duygu	-2775
▁yüzyıl	-2776
▁insanın	-2777
▁cumhurbaşkanı	-2778
▁kurtar	-2779
▁rah	-2780
▁tıp	-2781
▁çoğu	-2782
▁sayı	-2783
▁anne	-2784
yız	-2785
▁rad	-2786
▁hisset	-2787
▁lim	-2788
▁gitti	-2789
▁sokak	-2790
▁buluş	-2791
emiş	-2792
lenmiş	-2793
▁pet	-2794
▁fırsat	-2795
▁beden	-2796
▁karşısında	-2797
▁mutlaka	-2798
▁tedavi	-2799
▁ağr	-2800
ova	-2801
ücu	-2802
▁kavram	-2803
▁nedir	-2804
▁çerçev	-2805
gr	-2806
onik	-2807
▁chp	-2808
▁şiddet	-2809
▁görmek	-2810
▁şar	-2811
3,	-2812
▁olmadığı	-2813
▁ayar	-2814
▁kâ	-2815
▁sip	-2816
▁taşı	-2817
asi	-2818
▁şamp	-2819
ök	-2820
sim	-2821
▁cem	-2822
▁etkili	-2823
▁girişim	-2824
▁far	-2825
▁buy	-2826
▁sanayi	-2827
▁nüf	-2828
ıyı	-2829
▁kararı	-2830
▁kampan	-2831
5,	-2832
▁gol	-2833
mparator	-2834
düm	-2835
büs	-2836
lisi	-2837
▁tanrı	-2838
▁sap	-2839
ğinin	-2840
▁siyasi	-2841
▁zev	-2842
▁başlat	-2843
▁değerli	-2844
lanma	-2845
abet	-2846
▁uğ	-2847
qu	-2848
mar	-2849
▁haft	-2850
gaz	-2851
▁otomo	-2852
▁şiir	-2853
▁pad	-2854
▁bakanı	-2855
amı	-2856
▁kral	-2857
esiz	-2858
▁bed	-2859
▁doldur	-2860
▁dile	-2861
▁sürec	-2862
forman	-2863
▁ilaç	-2864
▁eb	-2865
▁durumunda	-2866
▁sağlıklı	-2867
▁bunları	-2868
▁evet	-2869
stik	-2870
ucu	-2871
lığına	-2872
▁şans	-2873
lüyor	-2874
▁alıyor	-2875
▁emek	-2876
▁kış	-2877
mayın	-2878
▁olursa	-2879
▁sene	-2880
▁_	-2881
▁barış	-2882
▁altı	-2883
gisi	-2884
▁dışarı	-2885
▁poz	-2886
kın	-2887
▁nakl	-2888
▁olmuştur	-2889
işah	-2890
▁muht	-2891
ons	-2892
▁aray	-2893
▁karakter	-2894
▁sarı	-2895
▁davet	-2896
▁ediyorum	-2897
yen	-2898
▁tu	-2899
▁aya	-2900
hat	-2901
▁temsilc	-2902
▁gerektiğini	-2903
▁derne	-2904
▁gem	-2905
bal	-2906
▁saf	-2907
▁yalnızca	-2908
▁olmaya	-2909
duğunu	-2910
▁performan	-2911
▁onay	-2912
▁dünyada	-2913
▁öğrenci	-2914
▁dök	-2915
no	-2916
▁yapma	-2917
▁hüc	-2918
▁seni	-2919
▁zih	-2920
▁piş	-2921
▁davranış	-2922
▁had	-2923
▁zey	-2924
alarına	-2925
▁görüyor	-2926
yas	-2927
lıklar	-2928
▁imz	-2929
▁heyec	-2930
▁beğen	-2931
▁tez	-2932
▁kitab	-2933
▁deste	-2934
dikleri	-2935
to	-2936
▁düğ	-2937
.2	-2938
lenme	-2939
▁day	-2940
▁mim	-2941
▁—	-2942
▁sonrasında	-2943
▁edilmesi	-2944
▁ib	-2945
▁kategor	-2946
▁doğum	-2947
”,	-2948
rac	-2949
▁köp	-2950
siye	-2951
▁antalya	-2952
▁mül	-2953
▁naz	-2954
▁vücu	-2955
istik	-2956
▁ces	-2957
▁tarım	-2958
ilendir	-2959
ediler	-2960
▁alacak	-2961
ilmiştir	-2962
asıyla	-2963
ımızın	-2964
▁modern	-2965
▁kamer	-2966
ımızda	-2967
▁edebil	-2968
▁yönetic	-2969
.,	-2970
▁lider	-2971
▁bula	-2972
ilecek	-2973
▁köş	-2974
co	-2975
▁fi	-2976
▁ten	-2977
▁padişah	-2978
nu	-2979
▁suriye	-2980
tığını	-2981
4,	-2982
▁fikir	-2983
dev	-2984
▁plat	-2985
▁güm	-2986
liğin	-2987
▁şer	-2988
▁stand	-2989
etik	-2990
▁bitir	-2991
ele	-2992
▁mühend	-2993
▁yapılması	-2994
leriniz	-2995
▁süp	-2996
▁neler	-2997
▁kaldı	-2998
▁198	-2999
▁borç	-3000
▁2015	-3001
▁firmalar	-3002
▁roman	-3003
▁örneğin	-3004
▁lisans	-3005
lenir	-3006
▁lüt	-3007
ima	-3008
!”	-3009
seniz	-3010
▁teklif	-3011
▁üçüncü	-3012
yüz	-3013
lerdi	-3014
▁sert	-3015
▁bağımsız	-3016
memiş	-3017
liler	-3018
▁fizik	-3019
▁hizmetleri	-3020
▁fes	-3021
▁esk	-3022
uklu	-3023
▁hap	-3024
▁oyunu	-3025
rek	-3026
▁seçenek	-3027
▁yansı	-3028
▁alışveriş	-3029
▁ni	-3030
niyet	-3031
▁müda	-3032
ekim	-3033
▁eğitimi	-3034
▁biçimde	-3035
▁şüph	-3036
▁kadro	-3037
tey	-3038
mada	-3039
▁lig	-3040
▁işte	-3041
akk	-3042
▁hac	-3043
▁basit	-3044
▁zam	-3045
▁tor	-3046
stos	-3047
ısının	-3048
▁ettir	-3049
▁eleştir	-3050
▁önüne	-3051
▁yerleştir	-3052
best	-3053
,”	-3054
car	-3055
diğini	-3056
9,	-3057
▁milyar	-3058
▁öğretim	-3059
▁hz	-3060
▁sonraki	-3061
▁alanında	-3062
▁hikay	-3063
▁rahatsız	-3064
▁ağu	-3065
▁asla	-3066
edeki	-3067
8,	-3068
▁kıl	-3069
kır	-3070
▁edece	-3071
▁sayıda	-3072
▁birden	-3073
▁operasyon	-3074
▁eve	-3075
▁başta	-3076
▁na	-3077
yse	-3078
▁amerika	-3079
▁büyükşehir	-3080
mür	-3081
lıkları	-3082
▁cinsel	-3083
elidir	-3084
▁almanya	-3085
▁çiçek	-3086
uç	-3087
7,	-3088
▁alanı	-3089
▁yeter	-3090
atör	-3091
▁sağlar	-3092
esyonel	-3093
dal	-3094
▁ürünleri	-3095
▁göç	-3096
6,	-3097
▁genellikle	-3098
mu	-3099
esindeki	-3100
aray	-3101
▁reh	-3102
▁tatlı	-3103
▁taz	-3104
lediği	-3105
▁yetiş	-3106
kur	-3107
▁şampiyon	-3108
▁uyan	-3109
▁felse	-3110
▁namaz	-3111
▁tuz	-3112
▁görüntü	-3113
▁sim	-3114
uyordu	-3115
▁işe	-3116
▁yazılı	-3117
çiler	-3118
▁gönül	-3119
▁kişisel	-3120
▁üstün	-3121
▁sağlamak	-3122
▁korun	-3123
gal	-3124
▁şehit	-3125
▁mektu	-3126
▁tv	-3127
▁madd	-3128
▁yapmış	-3129
▁bölümü	-3130
tuk	-3131
▁kesinlikle	-3132
,"	-3133
bel	-3134
iyan	-3135
▁bursa	-3136
imizde	-3137
60	-3138
▁profesyonel	-3139
▁oğlu	-3140
▁azal	-3141
▁takdir	-3142
▁hus	-3143
liğe	-3144
40	-3145
▁parça	-3146
▁teşkil	-3147
▁alarak	-3148
▁tabii	-3149
▁olmas	-3150
▁ge	-3151
▁ayında	-3152
umsuz	-3153
▁başbakan	-3154
işi	-3155
▁askeri	-3156
ps	-3157
zi	-3158
▁ağustos	-3159
▁gösteren	-3160
ze	-3161
▁yada	-3162
his	-3163
▁tatil	-3164
▁alıp	-3165
▁ikti	-3166
▁31	-3167
tere	-3168
▁(2	-3169
▁göl	-3170
▁şik	-3171
▁ışık	-3172
yacak	-3173
▁etraf	-3174
▁yazılım	-3175
▁risk	-3176
▁teknoloji	-3177
▁yapacak	-3178
▁mel	-3179
▁vazgeç	-3180
▁bon	-3181
▁saldırı	-3182
ulması	-3183
▁arası	-3184
▁üyesi	-3185
▁çalışmaları	-3186
▁dosy	-3187
▁zorun	-3188
▁ton	-3189
▁aylık	-3190
tern	-3191
iliyor	-3192
▁etmeye	-3193
cılar	-3194
▁tecr	-3195
▁yönetimi	-3196
eyici	-3197
▁yaşanan	-3198
▁arama	-3199
▁salon	-3200
▁yola	-3201
▁aj	-3202
▁yolc	-3203
▁bakış	-3204
ınızda	-3205
▁müşteri	-3206
ılmıştır	-3207
ko	-3208
▁imk	-3209
▁hoc	-3210
/2	-3211
zz	-3212
imleri	-3213
▁şarkı	-3214
dat	-3215
▁lazım	-3216
▁nur	-3217
▁yerinde	-3218
▁öne	-3219
elerle	-3220
▁almış	-3221
lamış	-3222
▁yürüy	-3223
▁konum	-3224
▁ilgi	-3225
▁edip	-3226
▁birisi	-3227
▁red	-3228
▁uçak	-3229
▁hala	-3230
▁kırmızı	-3231
▁dışı	-3232
▁bilgileri	-3233
▁yaparak	-3234
▁çevre	-3235
▁serbest	-3236
▁adres	-3237
öğr	-3238
ult	-3239
ayıf	-3240
▁ederim	-3241
▁yaşında	-3242
▁milletvekili	-3243
sini	-3244
sem	-3245
▁sanki	-3246
▁siyah	-3247
▁mor	-3248
yap	-3249
▁asıl	-3250
eksiyon	-3251
▁soğuk	-3252
▁duyg	-3253
▁pla	-3254
ebilecek	-3255
form	-3256
](	-3257
▁yerel	-3258
layıp	-3259
▁dakik	-3260
▁hastalı	-3261
fe	-3262
▁pop	-3263
▁zira	-3264
▁çocuklar	-3265
etin	-3266
▁yü	-3267
mur	-3268
▁yapılır	-3269
▁arap	-3270
▁prens	-3271
anız	-3272
▁edeb	-3273
▁standart	-3274
ck	-3275
▁giden	-3276
▁erken	-3277
▁bö	-3278
▁bölge	-3279
▁kalp	-3280
▁sayın	-3281
▁taşın	-3282
arken	-3283
▁ide	-3284
▁elbet	-3285
▁peş	-3286
▁üm	-3287
rol	-3288
▁tahmin	-3289
▁4.	-3290
▁zayıf	-3291
▁ulusal	-3292
▁2014	-3293
▁orman	-3294
▁samsun	-3295
▁gelin	-3296
▁veriyor	-3297
▁değildi	-3298
▁öncelikle	-3299
fat	-3300
▁taşıma	-3301
▁:)	-3302
▁hepsi	-3303
▁gizli	-3304
ner	-3305
▁por	-3306
▁yıllar	-3307
▁hüs	-3308
▁elem	-3309
nam	-3310
▁bilir	-3311
▁baskı	-3312
▁edilmiş	-3313
liğinde	-3314
brıs	-3315
▁aşağıdaki	-3316
▁konut	-3317
▁çap	-3318
tak	-3319
cağız	-3320
arım	-3321
azı	-3322
▁yayım	-3323
ise	-3324
ğan	-3325
▁lo	-3326
▁karan	-3327
iyim	-3328
ham	-3329
▁fiyatları	-3330
▁alanda	-3331
▁mühendis	-3332
▁şubat	-3333
▁sül	-3334
rahim	-3335
▁tavsiye	-3336
▁kop	-3337
▁́	-3338
uldu	-3339
▁gazi	-3340
▁üye	-3341
hale	-3342
▁düşür	-3343
▁«	-3344
▁saygı	-3345
▁şiş	-3346
atej	-3347
raman	-3348
▁arttır	-3349
elerinden	-3350
▁online	-3351
kim	-3352
tek	-3353
▁gören	-3354
eğin	-3355
▁yanıt	-3356
▁ölçü	-3357
etici	-3358
▁kahv	-3359
ediği	-3360
▁artış	-3361
▁)	-3362
cık	-3363
▁komisyon	-3364
▁si	-3365
▁dokun	-3366
undaki	-3367
larınızı	-3368
▁turizm	-3369
▁gelmiş	-3370
▁yapabil	-3371
kenin	-3372
▁sipar	-3373
▁etme	-3374
▁otomobil	-3375
▁evde	-3376
▁gelenek	-3377
sizlik	-3378
mamış	-3379
▁döneminde	-3380
▁girdi	-3381
▁başlar	-3382
▁yoktu	-3383
▁yardımcısı	-3384
▁ödeme	-3385
lamaları	-3386
emmel	-3387
▁muham	-3388
▁mısır	-3389
▁bec	-3390
▁gerekmektedir	-3391
▁amel	-3392
▁sağlayan	-3393
▁yetiştir	-3394
▁kadınlar	-3395
▁akl	-3396
cil	-3397
▁hakkı	-3398
umak	-3399
▁böy	-3400
▁park	-3401
tt	-3402
▁ondan	-3403
▁zevk	-3404
▁sağlan	-3405
▁saray	-3406
▁yapacağ	-3407
artesi	-3408
layın	-3409
▁belirten	-3410
meni	-3411
▁yeme	-3412
▁odası	-3413
nan	-3414
▁taşıy	-3415
▁vurgu	-3416
▁aley	-3417
▁stratej	-3418
▁hayata	-3419
▁döv	-3420
rail	-3421
yer	-3422
▁**	-3423
leyerek	-3424
▁yararlan	-3425
ngilizce	-3426
▁içi	-3427
pa	-3428
evizyon	-3429
▁olduğuna	-3430
▁kullanarak	-3431
▁öden	-3432
▁devleti	-3433
▁op	-3434
ded	-3435
▁taleb	-3436
var	-3437
sas	-3438
▁nin	-3439
ulur	-3440
esin	-3441
erken	-3442
ata	-3443
▁biliyor	-3444
▁sayfa	-3445
▁ref	-3446
ýn	-3447
▁söylüyor	-3448
▁organiz	-3449
▁kapalı	-3450
▁kıbrıs	-3451
▁dahi	-3452
▁koca	-3453
▁adan	-3454
iği	-3455
2.	-3456
▁paket	-3457
▁bür	-3458
▁olumsuz	-3459
yım	-3460
ildiği	-3461
emen	-3462
maktan	-3463
ii	-3464
▁eşit	-3465
dıklarını	-3466
▁hin	-3467
asa	-3468
▁?	-3469
▁mill	-3470
▁kanı	-3471
▁tok	-3472
▁verildi	-3473
▁dolaş	-3474
▁grubu	-3475
▁197	-3476
▁karıştır	-3477
▁kürt	-3478
▁derneği	-3479
bey	-3480
▁banka	-3481
antaj	-3482
▁müt	-3483
▁kahraman	-3484
▁fab	-3485
▁hazırlan	-3486
▁gördüğ	-3487
▁firma	-3488
▁tutar	-3489
sur	-3490
▁dis	-3491
book	-3492
▁mükemmel	-3493
▁ağaç	-3494
▁kons	-3495
▁toplu	-3496
▁şeker	-3497
▁ihtiyac	-3498
liğine	-3499
▁belirtti	-3500
bin	-3501
ire	-3502
▁toplumsal	-3503
elt	-3504
▁sitemiz	-3505
▁çor	-3506
dılar	-3507
dikten	-3508
▁ata	-3509
▁arac	-3510
▁hanım	-3511
▁tır	-3512
▁hayatını	-3513
▁keyif	-3514
▁ortadan	-3515
3.	-3516
muyor	-3517
▁marka	-3518
▁şif	-3519
▁istediğiniz	-3520
▁mod	-3521
▁doğrudan	-3522
lâm	-3523
▁hol	-3524
▁çıkış	-3525
▁ifad	-3526
▁duyur	-3527
▁##	-3528
ulmuş	-3529
▁ned	-3530
▁akıllı	-3531
▁siyaset	-3532
▁emniyet	-3533
▁kendilerine	-3534
▁kazandır	-3535
cilik	-3536
▁fakültesi	-3537
adem	-3538
ngiltere	-3539
▁ters	-3540
▁verilm	-3541
▁vergi	-3542
ılış	-3543
▁yaşlı	-3544
▁adalet	-3545
▁edebiyat	-3546
▁kup	-3547
işleri	-3548
▁gr	-3549
▁süper	-3550
▁vakit	-3551
▁uğraş	-3552
▁anlamda	-3553
▁dedim	-3554
çak	-3555
▁memur	-3556
▁detaylı	-3557
▁etmektedir	-3558
lerim	-3559
▁yatak	-3560
▁aşırı	-3561
usunu	-3562
▁amerik	-3563
5.	-3564
ml	-3565
sinin	-3566
▁katıl	-3567
larımızın	-3568
▁kılıç	-3569
▁kla	-3570
süz	-3571
ağa	-3572
**	-3573
▁•	-3574
▁projesi	-3575
▁sona	-3576
▁yunan	-3577
▁sermay	-3578
lerinizi	-3579
1.	-3580
spor	-3581
mm	-3582
▁cad	-3583
▁eşy	-3584
▁anay	-3585
▁olmasına	-3586
▁rab	-3587
ılarak	-3588
▁diren	-3589
▁rast	-3590
▁herkesin	-3591
brahim	-3592
▁finans	-3593
▁sine	-3594
▁ayn	-3595
üstü	-3596
▁yıllarda	-3597
ogle	-3598
▁derec	-3599
▁vit	-3600
ındır	-3601
▁sonucunda	-3602
▁cüm	-3603
▁baba	-3604
▁bilinen	-3605
emeye	-3606
▁elbette	-3607
▁sahn	-3608
▁gerektir	-3609
lçe	-3610
mail	-3611
12	-3612
▁platform	-3613
▁atan	-3614
▁hasta	-3615
▁nedeni	-3616
▁yapıldı	-3617
▁kitabı	-3618
▁yasak	-3619
▁olduğundan	-3620
▁yapım	-3621
▁kök	-3622
▁isimli	-3623
▁fransız	-3624
▁\	-3625
▁söylen	-3626
▁car	-3627
▁peki	-3628
▁sivil	-3629
anan	-3630
▁neredeyse	-3631
▁kans	-3632
▁ucuz	-3633
▁tit	-3634
▁oyna	-3635
terek	-3636
▁yaygın	-3637
▁vüc	-3638
▁yapmaya	-3639
üny	-3640
▁adını	-3641
▁cilt	-3642
▁gıda	-3643
ündeki	-3644
▁açıklamada	-3645
edek	-3646
▁büt	-3647
eyecek	-3648
abz	-3649
▁kişilik	-3650
-3	-3651
▁sahiptir	-3652
▁koc	-3653
▁ayrıntı	-3654
▁fransa	-3655
▁ediyoruz	-3656
tepe	-3657
inizin	-3658
▁port	-3659
gıç	-3660
çin	-3661
▁60	-3662
▁hd	-3663
▁sorumlu	-3664
dek	-3665
▁gur	-3666
▁üzerindeki	-3667
▁varlık	-3668
hay	-3669
imler	-3670
tis	-3671
▁gide	-3672
▁hasan	-3673
▁tören	-3674
▁karşılık	-3675
ğıt	-3676
şi	-3677
▁diyerek	-3678
▁tane	-3679
▁belirli	-3680
ğında	-3681
▁zaf	-3682
ğını	-3683
80	-3684
▁bağır	-3685
▁çelik	-3686
▁vb	-3687
▁festiv	-3688
▁lütfen	-3689
▁buraya	-3690
lasyon	-3691
iyorlar	-3692
▁enf	-3693
▁nitelik	-3694
rim	-3695
▁eur	-3696
▁odak	-3697
▁danışman	-3698
▁hesab	-3699
▁ülkenin	-3700
▁civ	-3701
▁televizyon	-3702
▁kısmı	-3703
ayla	-3704
▁akadem	-3705
▁vücut	-3706
▁va	-3707
▁2013	-3708
▁ince	-3709
lit	-3710
▁bet	-3711
▁sunuyor	-3712
yu	-3713
▁cer	-3714
arlar	-3715
▁mahallesi	-3716
▁sorunu	-3717
▁dey	-3718
▁iddia	-3719
▁gücü	-3720
şey	-3721
▁alb	-3722
▁işbir	-3723
düz	-3724
kon	-3725
▁oldukları	-3726
▁elb	-3727
▁mağaz	-3728
▁olmalı	-3729
başı	-3730
sp	-3731
▁harek	-3732
19	-3733
▁tanış	-3734
▁savaşı	-3735
▁google	-3736
▁harika	-3737
▁prot	-3738
▁fener	-3739
4.	-3740
laşma	-3741
▁muhammed	-3742
▁güvenli	-3743
zzet	-3744
▁kulüb	-3745
▁bununla	-3746
vel	-3747
▁kod	-3748
▁koruma	-3749
▁köpr	-3750
▁küt	-3751
▁suyu	-3752
▁jo	-3753
lığının	-3754
▁lin	-3755
▁lira	-3756
▁performans	-3757
erseniz	-3758
▁istek	-3759
▁geçerli	-3760
lari	-3761
▁ism	-3762
▁yalan	-3763
larımızı	-3764
▁sipariş	-3765
▁böyl	-3766
tarı	-3767
▁seyahat	-3768
▁günlerde	-3769
▁vek	-3770
▁anlayış	-3771
▁özellikleri	-3772
▁+	-3773
▁etkisi	-3774
▁ins	-3775
▁kus	-3776
hp	-3777
▁tiyat	-3778
▁yanına	-3779
▁mün	-3780
▁sağlam	-3781
▁misaf	-3782
diğim	-3783
urken	-3784
▁düzenlem	-3785
ât	-3786
▁birik	-3787
▁yedi	-3788
layabil	-3789
▁olumlu	-3790
▁biçim	-3791
▁vermiş	-3792
▁süresi	-3793
...]	-3794
▁özelliği	-3795
▁site	-3796
▁başkanlığı	-3797
▁şaşır	-3798
▁sürede	-3799
ısız	-3800
srail	-3801
▁murat	-3802
▁hu	-3803
▁karşılı	-3804
lığıyla	-3805
alim	-3806
▁ürünler	-3807
▁aklı	-3808
▁rez	-3809
▁mir	-3810
▁anlamına	-3811
ij	-3812
▁öncesi	-3813
▁kampany	-3814
▁&	-3815
erler	-3816
▁fayda	-3817
▁=	-3818
dit	-3819
▁kör	-3820
▁eriş	-3821
▁anah	-3822
▁geçtiğimiz	-3823
▁bilm	-3824
▁1,	-3825
▁giren	-3826
▁çoğun	-3827
▁hab	-3828
kal	-3829
▁temin	-3830
▁uzat	-3831
▁üniversite	-3832
biliriz	-3833
▁uygula	-3834
▁şef	-3835
bahçe	-3836
iki	-3837
ımın	-3838
kk	-3839
▁doğan	-3840
▁yılda	-3841
diğimiz	-3842
▁koru	-3843
inal	-3844
▁dünyaya	-3845
▁oranı	-3846
▁yerini	-3847
▁önceden	-3848
tılar	-3849
▁buz	-3850
rem	-3851
15	-3852
▁katıldı	-3853
▁bende	-3854
leyin	-3855
eceğiz	-3856
nden	-3857
▁şen	-3858
▁lan	-3859
▁demiş	-3860
▁heyecan	-3861
▁getiren	-3862
▁harit	-3863
▁yapılmış	-3864
illa	-3865
desi	-3866
▁suy	-3867
▁devletin	-3868
▁2012	-3869
▁sağla	-3870
iyer	-3871
şu	-3872
ırlar	-3873
▁otobüs	-3874
▁günümüzde	-3875
kel	-3876
madığı	-3877
▁çalışıyor	-3878
▁kulak	-3879
▁boya	-3880
▁cm	-3881
▁ısı	-3882
▁kendilerini	-3883
▁servisi	-3884
▁tiyatro	-3885
ilebilir	-3886
▁veri	-3887
ust	-3888
▁olmadan	-3889
▁kızı	-3890
▁akp	-3891
▁pil	-3892
▁avantaj	-3893
▁ağz	-3894
▁beşik	-3895
▁mesaf	-3896
▁5.	-3897
alardan	-3898
eyman	-3899
▁eh	-3900
cusu	-3901
▁depr	-3902
▁olanlar	-3903
▁giderek	-3904
//	-3905
urum	-3906
▁kalın	-3907
eral	-3908
ikat	-3909
▁okun	-3910
▁new	-3911
▁yumuş	-3912
▁süs	-3913
▁birer	-3914
▁ust	-3915
slâm	-3916
▁işç	-3917
red	-3918
▁içerik	-3919
▁kişilerin	-3920
▁belirtilen	-3921
hane	-3922
▁emir	-3923
▁zek	-3924
▁aktif	-3925
racat	-3926
biz	-3927
▁hayatı	-3928
▁nüfus	-3929
▁içindeki	-3930
masıyla	-3931
rika	-3932
▁km	-3933
▁yaşındaki	-3934
▁düzenlen	-3935
-0	-3936
▁düştü	-3937
▁buyur	-3938
▁tablo	-3939
▁metin	-3940
gü	-3941
▁35	-3942
dun	-3943
▁konuşma	-3944
ndan	-3945
sev	-3946
25	-3947
........	-3948
▁sh	-3949
▁etmesi	-3950
▁ortalama	-3951
▁kullanımı	-3952
▁vah	-3953
▁usul	-3954
ciler	-3955
▁grub	-3956
▁tecrüb	-3957
▁yetkil	-3958
▁düzenli	-3959
▁trabz	-3960
▁faiz	-3961
ly	-3962
▁itir	-3963
▁yiye	-3964
▁şub	-3965
▁merhaba	-3966
▁bitk	-3967
▁olmasını	-3968
▁göğ	-3969
7.	-3970
▁bilinç	-3971
▁kadının	-3972
▁kapas	-3973
dığına	-3974
lerimizi	-3975
▁çağır	-3976
dağ	-3977
▁okuy	-3978
▁kaymak	-3979
▁deng	-3980
://	-3981
öğretim	-3982
▁yüzünden	-3983
zu	-3984
▁modelleri	-3985
iğ	-3986
▁seks	-3987
▁çocukların	-3988
▁suret	-3989
yaz	-3990
▁ep	-3991
▁kaydet	-3992
âm	-3993
köy	-3994
8.	-3995
6.	-3996
▁gelip	-3997
▁tev	-3998
▁çak	-3999
▁hızla	-4000
▁becer	-4001
layıcı	-4002
atas	-4003
23	-4004
▁umut	-4005
▁imza	-4006
lili	-4007
▁binlerce	-4008
▁trafik	-4009
▁denetim	-4010
▁iken	-4011
ıza	-4012
▁me	-4013
▁donan	-4014
▁belirterek	-4015
▁oysa	-4016
▁geçiş	-4017
▁müşteriler	-4018
▁bence	-4019
▁atı	-4020
▁yaralan	-4021
diğiniz	-4022
▁analiz	-4023
▁sakin	-4024
▁birinin	-4025
▁mezun	-4026
▁[...]	-4027
▁hür	-4028
▁gelişim	-4029
▁kimi	-4030
▁önemlidir	-4031
kul	-4032
sına	-4033
▁iktidar	-4034
▁otomatik	-4035
▁ob	-4036
▁hit	-4037
ete	-4038
aka	-4039
▁süleyman	-4040
▁\-	-4041
▁yenil	-4042
9.	-4043
▁bilimsel	-4044
▁irak	-4045
▁terk	-4046
▁rest	-4047
uyorum	-4048
▁dekor	-4049
▁haberleri	-4050
▁van	-4051
mut	-4052
irken	-4053
▁kaçır	-4054
▁ameliyat	-4055
▁ayı	-4056
mesinin	-4057
▁demektir	-4058
▁depo	-4059
▁yılın	-4060
▁korku	-4061
▁çeken	-4062
orta	-4063
▁yarı	-4064
▁sün	-4065
▁ödem	-4066
dip	-4067
▁pencer	-4068
muştu	-4069
▁’	-4070
▁partisi	-4071
ılıp	-4072
▁şeyin	-4073
▁olduğumuz	-4074
▁kamp	-4075
▁görür	-4076
90	-4077
▁üs	-4078
▁soruştur	-4079
ation	-4080
▁hakim	-4081
sında	-4082
▁elektronik	-4083
▁selam	-4084
▁nih	-4085
▁elinde	-4086
▁olanak	-4087
▁ömer	-4088
▁erz	-4089
▁ağrı	-4090
▁mimar	-4091
▁birim	-4092
▁ye	-4093
▁sağlayacak	-4094
▁imkan	-4095
▁mür	-4096
▁verecek	-4097
bek	-4098
arında	-4099
ây	-4100
▁büny	-4101
etleri	-4102
dün	-4103
▁komp	-4104
▁alım	-4105
▁mektup	-4106
▁devrim	-4107
cağım	-4108
▁birini	-4109
▁rum	-4110
70	-4111
▁nefes	-4112
▁çıkıyor	-4113
▁toz	-4114
▁üstüne	-4115
sını	-4116
cebook	-4117
▁dönemi	-4118
ws	-4119
▁öt	-4120
▁babası	-4121
▁ayakk	-4122
lığında	-4123
▁yılmaz	-4124
onya	-4125
▁dizi	-4126
xt	-4127
iklet	-4128
▁transfer	-4129
acağız	-4130
liş	-4131
▁tutuk	-4132
▁fatih	-4133
▁bekl	-4134
▁tap	-4135
des	-4136
▁doğrult	-4137
▁bom	-4138
▁bulunur	-4139
▁özen	-4140
▁öte	-4141
ersin	-4142
▁toplan	-4143
▁bakımından	-4144
▁hediye	-4145
▁iyice	-4146
ceği	-4147
▁bunlardan	-4148
▁rüz	-4149
lemeye	-4150
▁zeytin	-4151
▁yarg	-4152
▁buradan	-4153
▁başlıyor	-4154
reti	-4155
▁tarihli	-4156
▁kalma	-4157
âl	-4158
▁taşıyan	-4159
ksiyon	-4160
▁beşiktaş	-4161
▁filmi	-4162
▁con	-4163
▁adana	-4164
▁sistemleri	-4165
▁yıldırım	-4166
▁istih	-4167
▁kavuş	-4168
fı	-4169
▁yatır	-4170
▁diler	-4171
▁sunu	-4172
▁araba	-4173
▁şun	-4174
▁görsel	-4175
ura	-4176
atasaray	-4177
▁uygulamalar	-4178
▁biy	-4179
▁sevgi	-4180
▁geb	-4181
▁makam	-4182
memek	-4183
▁ajans	-4184
mo	-4185
▁sinir	-4186
▁insanları	-4187
abilmek	-4188
▁yakalan	-4189
leyici	-4190
dukları	-4191
▁yaşama	-4192
makla	-4193
▁savunma	-4194
▁maliyet	-4195
▁avuk	-4196
▁sorumluluk	-4197
▁jan	-4198
âb	-4199
iber	-4200
▁sordu	-4201
ilerden	-4202
larındaki	-4203
▁ticari	-4204
distan	-4205
▁ışı	-4206
▁görüntül	-4207
▁evren	-4208
acağını	-4209
emesi	-4210
tuğ	-4211
▁yaşamak	-4212
▁bölgede	-4213
ünüyor	-4214
▁konak	-4215
alarından	-4216
▁win	-4217
▁hüseyin	-4218
▁muhal	-4219
▁anlama	-4220
▁alabilirsiniz	-4221
▁renkli	-4222
▁sevgil	-4223
▁feder	-4224
▁cuma	-4225
▁acil	-4226
▁kursu	-4227
▁halkın	-4228
▁restor	-4229
▁zamanlarda	-4230
▁güvenilir	-4231
▁işin	-4232
malarını	-4233
anda	-4234
▁konya	-4235
▁500	-4236
ülü	-4237
▁durdur	-4238
müştür	-4239
lıkta	-4240
▁alk	-4241
▁parçası	-4242
▁roma	-4243
▁hissed	-4244
▁th	-4245
okul	-4246
▁temizlik	-4247
▁çatış	-4248
▁geril	-4249
▁duyar	-4250
▁eğlenc	-4251
▁tanıt	-4252
▁kere	-4253
liy	-4254
▁gözlem	-4255
▁bölgesinde	-4256
▁anti	-4257
▁fonksiyon	-4258
sh	-4259
▁ilgilen	-4260
nak	-4261
cının	-4262
▁diyar	-4263
▁ihtim	-4264
▁rece	-4265
amış	-4266
▁ilçesinde	-4267
▁kayna	-4268
▁düşünüyorum	-4269
▁sik	-4270
▁getirdi	-4271
ag	-4272
eceğimiz	-4273
▁zorunlu	-4274
ond	-4275
▁takımı	-4276
ınar	-4277
▁ülkede	-4278
inizde	-4279
▁istik	-4280
diye	-4281
onun	-4282
▁işlemi	-4283
▁mutfak	-4284
▁tanın	-4285
alay	-4286
▁dini	-4287
▁şikayet	-4288
▁süren	-4289
45	-4290
▁ilişki	-4291
▁tad	-4292
▁blog	-4293
▁oyunları	-4294
day	-4295
▁sö	-4296
▁lezzet	-4297
▁dönüştür	-4298
▁gençlik	-4299
▁söyleyen	-4300
isinden	-4301
▁şık	-4302
▁niyet	-4303
▁konfer	-4304
▁32	-4305
▁altern	-4306
isiyle	-4307
luluğu	-4308
▁dip	-4309
▁vol	-4310
▁yerli	-4311
.000	-4312
▁olağan	-4313
▁kabil	-4314
▁değeri	-4315
▁almaya	-4316
usuna	-4317
▁köpek	-4318
▁bahset	-4319
▁arkadaşlar	-4320
sey	-4321
▁kıya	-4322
▁sevin	-4323
tacak	-4324
▁cas	-4325
mekten	-4326
▁çö	-4327
▁önlem	-4328
so	-4329
▁ihtiyacı	-4330
vik	-4331
▁istedik	-4332
▁unsur	-4333
▁ürünü	-4334
▁sahib	-4335
tion	-4336
usal	-4337
▁konser	-4338
▁misafir	-4339
mediği	-4340
▁yağmur	-4341
▁geldiği	-4342
tel	-4343
▁kurulan	-4344
nün	-4345
▁galatasaray	-4346
▁komutan	-4347
▁başken	-4348
bb	-4349
▁araz	-4350
▁iyil	-4351
▁içeren	-4352
▁	-4353
▁zamanı	-4354
▁düşünce	-4355
ori	-4356
▁ex	-4357
▁değişim	-4358
▁yahu	-4359
ese	-4360
nternet	-4361
''	-4362
teşem	-4363
▁yönlendir	-4364
▁çıkart	-4365
▁yem	-4366
▁gerçe	-4367
are	-4368
▁bez	-4369
99	-4370
▁yaparken	-4371
iter	-4372
▁deney	-4373
▁diyen	-4374
▁sebebi	-4375
çer	-4376
▁başlangıç	-4377
▁hücr	-4378
▁kli	-4379
▁facebook	-4380
▁»	-4381
▁vad	-4382
▁kullanılır	-4383
▁sanatçı	-4384
▁geçer	-4385
▁süreci	-4386
▁80	-4387
memiz	-4388
▁moda	-4389
▁zafer	-4390
▁sonuna	-4391
▁uyum	-4392
▁pozisyon	-4393
▁birbirinden	-4394
▁bazıları	-4395
▁alına	-4396
sit	-4397
▁açıkladı	-4398
ilmektedir	-4399
▁açıkla	-4400
▁hazırlık	-4401
▁ettiğini	-4402
▁doğrultusunda	-4403
▁birbirine	-4404
▁olmuştu	-4405
▁eşi	-4406
gul	-4407
▁ney	-4408
ınızın	-4409
▁alternatif	-4410
▁bozuk	-4411
yeni	-4412
▁aşağıda	-4413
▁güzellik	-4414
▁tedbir	-4415
▁tehdit	-4416
▁şa	-4417
▁sk	-4418
▁kişiye	-4419
▁efendi	-4420
▁maden	-4421
▁hakları	-4422
▁cumhuriyeti	-4423
▁göm	-4424
lç	-4425
▁katılan	-4426
▁yargı	-4427
▁sorgu	-4428
▁çeki	-4429
▁kısım	-4430
▁ufak	-4431
▁boğaz	-4432
▁kanunu	-4433
▁ilişkiler	-4434
▁istediği	-4435
luluğ	-4436
▁yör	-4437
dy	-4438
liğinin	-4439
▁yarım	-4440
▁alg	-4441
▁ayrıl	-4442
▁hâlâ	-4443
▁asya	-4444
../	-4445
▁öngör	-4446
embe	-4447
▁ülkemizde	-4448
▁hazırlanan	-4449
▁recep	-4450
▁çekti	-4451
▁olacağını	-4452
▁2011	-4453
▁dep	-4454
▁hassas	-4455
▁sabit	-4456
▁ı	-4457
▁olduğunuz	-4458
mos	-4459
▁tw	-4460
nik	-4461
▁sus	-4462
▁yürür	-4463
▁sonuçları	-4464
▁duruş	-4465
▁yasal	-4466
▁fık	-4467
▁kurumsal	-4468
▁kel	-4469
eliği	-4470
▁sessiz	-4471
▁muhteşem	-4472
▁endiş	-4473
▁önümüz	-4474
▁70	-4475
▁bulundur	-4476
areti	-4477
▁işle	-4478
iyiz	-4479
▁edilmiştir	-4480
▁kalite	-4481
▁görülen	-4482
](../	-4483
▁coğraf	-4484
▁felsef	-4485
▁ekib	-4486
doğu	-4487
▁rakam	-4488
▁kadınların	-4489
jital	-4490
▁bankası	-4491
▁pazarlama	-4492
leyip	-4493
▁sizler	-4494
▁kapan	-4495
▁yel	-4496
▁ramaz	-4497
eceğim	-4498
▁''	-4499
▁kalmış	-4500
▁metre	-4501
▁yapımı	-4502
▁kesim	-4503
▁çerçevesinde	-4504
maması	-4505
▁ır	-4506
▁sıv	-4507
▁kuma	-4508
▁kıv	-4509
▁kalb	-4510
▁günün	-4511
▁yarın	-4512
▁mit	-4513
▁sözleri	-4514
▁dikkate	-4515
lardaki	-4516
▁nakliyat	-4517
▁yapabilir	-4518
▁açılış	-4519
▁kaynağı	-4520
▁kapasit	-4521
18	-4522
leyecek	-4523
▁nem	-4524
▁gidip	-4525
int	-4526
▁bis	-4527
▁kriz	-4528
▁mesela	-4529
▁tanıtım	-4530
▁endü	-4531
tematik	-4532
adet	-4533
▁bölgesi	-4534
▁belirlen	-4535
▁bugüne	-4536
▁ofis	-4537
tıcı	-4538
▁kayıp	-4539
▁fu	-4540
diy	-4541
▁mavi	-4542
zat	-4543
▁yoluyla	-4544
ino	-4545
biy	-4546
▁kanıt	-4547
▁onunla	-4548
ınma	-4549
▁ec	-4550
jen	-4551
keti	-4552
bor	-4553
lanıyor	-4554
hen	-4555
▁dağıt	-4556
▁klasik	-4557
▁gündem	-4558
▁acaba	-4559
▁görünüyor	-4560
▁ettim	-4561
sv	-4562
▁fenerbahçe	-4563
▁üstünde	-4564
▁ismi	-4565
▁kalab	-4566
▁ani	-4567
▁etmiştir	-4568
▁muhaf	-4569
ülebilir	-4570
▁daire	-4571
üldü	-4572
▁lir	-4573
▁kurban	-4574
▁yaşadığı	-4575
▁boyu	-4576
▁almaktadır	-4577
▁üyeleri	-4578
▁çalıştır	-4579
▁ant	-4580
ığ	-4581
yip	-4582
ğimi	-4583
▁zir	-4584
▁bekliyor	-4585
▁ederken	-4586
▁tun	-4587
span	-4588
manızı	-4589
lerken	-4590
▁fiyatı	-4591
lıdır	-4592
▁gümüş	-4593
ayım	-4594
▁sağlığı	-4595
istiyan	-4596
▁htt	-4597
ilmez	-4598
▁metal	-4599
▁maddi	-4600
▁yerden	-4601
▁aralarında	-4602
▁lok	-4603
▁36	-4604
▁açılan	-4605
▁ur	-4606
▁ulaştır	-4607
vey	-4608
▁azalt	-4609
▁ölçüde	-4610
▁jap	-4611
lal	-4612
▁birleştir	-4613
▁45	-4614
▁şük	-4615
▁organizasyon	-4616
▁etki	-4617
21	-4618
--	-4619
duğumuz	-4620
▁hadis	-4621
▁çalışması	-4622
▁uygulaması	-4623
lanmıştır	-4624
▁cumhurbaşkan	-4625
kırı	-4626
meyecek	-4627
▁takdirde	-4628
▁yürüyüş	-4629
▁hil	-4630
▁2010	-4631
-4	-4632
▁olmalıdır	-4633
▁dijital	-4634
▁ilav	-4635
▁eklen	-4636
uf	-4637
ard	-4638
▁yur	-4639
-201	-4640
▁kimlik	-4641
▁yukarıda	-4642
▁hediy	-4643
▁üretic	-4644
▁husus	-4645
▁”	-4646
▁çocuğun	-4647
▁denet	-4648
▁mikro	-4649
▁uyku	-4650
▁vermeye	-4651
larımıza	-4652
▁yangın	-4653
▁arzu	-4654
:00	-4655
larca	-4656
▁onur	-4657
isiniz	-4658
▁anahtar	-4659
▁koç	-4660
!"	-4661
cam	-4662
▁kurs	-4663
\.	-4664
▁herkese	-4665
▁araştırmalar	-4666
ros	-4667
▁196	-4668
▁benzeri	-4669
adı	-4670
▁imkân	-4671
▁cok	-4672
▁döndü	-4673
▁gösterir	-4674
.00	-4675
▁firmamız	-4676
▁tra	-4677
▁vs	-4678
sızlık	-4679
▁evden	-4680
▁başı	-4681
▁geleneksel	-4682
sızın	-4683
gre	-4684
imden	-4685
abiliyor	-4686
▁etkilen	-4687
▁hel	-4688
les	-4689
tanın	-4690
▁parmak	-4691
▁hekim	-4692
▁mic	-4693
yol	-4694
▁şehr	-4695
▁büyüm	-4696
▁yolda	-4697
▁bask	-4698
▁tef	-4699
▁he	-4700
▁fabrik	-4701
dığından	-4702
dil	-4703
▁öğrencilerin	-4704
▁yolcu	-4705
▁teşvik	-4706
pt	-4707
▁alındı	-4708
▁büyü	-4709
oto	-4710
▁geçici	-4711
▁kaçın	-4712
ane	-4713
▁sof	-4714
▁itibariyle	-4715
▁desteği	-4716
▁33	-4717
▁6.	-4718
▁gülüm	-4719
▁adeta	-4720
▁insanı	-4721
▁çel	-4722
▁kültürel	-4723
▁kullanmak	-4724
▁şeri	-4725
▁darbe	-4726
▁edebilirsiniz	-4727
▁genelde	-4728
▁inşaat	-4729
▁edebilir	-4730
▁ilginç	-4731
oyu	-4732
▁yaptıkları	-4733
ry	-4734
▁neh	-4735
▁popüler	-4736
uyucu	-4737
▁meml	-4738
ğına	-4739
▁işler	-4740
▁öf	-4741
▁mezar	-4742
▁kanser	-4743
▁üstelik	-4744
11	-4745
ker	-4746
aseb	-4747
▁örgütü	-4748
müyor	-4749
▁sevgili	-4750
aca	-4751
▁pişir	-4752
▁yetkili	-4753
▁kurumu	-4754
▁cel	-4755
▁euro	-4756
▁pkk	-4757
▁yenilik	-4758
▁kalır	-4759
▁alınması	-4760
▁sözc	-4761
▁amerikan	-4762
▁tim	-4763
kir	-4764
tez	-4765
▁söylemek	-4766
▁cami	-4767
▁işçi	-4768
▁doğa	-4769
ang	-4770
▁okuma	-4771
▁açıdan	-4772
▁sonsuz	-4773
▁selç	-4774
sul	-4775
▁görevi	-4776
▁sanırım	-4777
▁yaşay	-4778
leşme	-4779
▁ramazan	-4780
türkiye	-4781
▁eğil	-4782
▁bedel	-4783
ola	-4784
rü	-4785
▁takv	-4786
▁bilgilendir	-4787
hone	-4788
▁konuk	-4789
html	-4790
ore	-4791
▁yüzey	-4792
cisi	-4793
▁aktiv	-4794
▁gib	-4795
müştü	-4796
uc	-4797
▁iptal	-4798
,5	-4799
▁kıyafet	-4800
anet	-4801
şlet	-4802
▁gördük	-4803
▁90	-4804
▁topra	-4805
▁sigort	-4806
ub	-4807
▁yiyecek	-4808
▁kolayca	-4809
▁düşen	-4810
▁diyet	-4811
▁tayyip	-4812
▁uğur	-4813
▁ekonomi	-4814
▁işlemleri	-4815
▁kimsenin	-4816
itir	-4817
▁sıf	-4818
▁kullandı	-4819
iner	-4820
▁mali	-4821
▁app	-4822
▁sıkı	-4823
işehir	-4824
sup	-4825
▁değerlendirme	-4826
▁sırt	-4827
stit	-4828
▁kendimi	-4829
manı	-4830
▁tepki	-4831
▁avukat	-4832
▁taban	-4833
▁olası	-4834
3)	-4835
▁konferans	-4836
/201	-4837
▁pap	-4838
has	-4839
▁belgesi	-4840
▁anlamı	-4841
▁tutan	-4842
otel	-4843
ray	-4844
▁adamın	-4845
deri	-4846
▁karşılaştır	-4847
imizden	-4848
▁inanç	-4849
▁gitmek	-4850
▁adamı	-4851
▁muk	-4852
▁ri	-4853
▁maaş	-4854
ord	-4855
lerimizin	-4856
maktay	-4857
▁vir	-4858
▁dili	-4859
▁inanıyor	-4860
▁yönel	-4861
▁faydalan	-4862
▁modeli	-4863
ula	-4864
▁şube	-4865
ks	-4866
▁vez	-4867
rum	-4868
▁ayakkabı	-4869
şallah	-4870
▁duruma	-4871
▁manz	-4872
▁bulan	-4873
▁gelince	-4874
gesi	-4875
▁şeyh	-4876
▁dür	-4877
uzu	-4878
inda	-4879
▁yaşat	-4880
▁mutluluk	-4881
uyoruz	-4882
▁dük	-4883
▁sir	-4884
şet	-4885
rat	-4886
tah	-4887
▁bağış	-4888
▁sesi	-4889
▁aldım	-4890
ron	-4891
ordin	-4892
alarla	-4893
▁egemen	-4894
▁koltuk	-4895
▁galib	-4896
▁zamanında	-4897
▁taşım	-4898
▁ihracat	-4899
▁olduklarını	-4900
ıyorlar	-4901
▁halı	-4902
▁nik	-4903
▁durumlarda	-4904
▁refer	-4905
▁sağlıyor	-4906
▁gazetec	-4907
▁günah	-4908
▁yaklaşım	-4909
▁çıkmış	-4910
▁rü	-4911
▁yapısı	-4912
▁kaybol	-4913
masın	-4914
▁faktör	-4915
esef	-4916
▁(1)	-4917
▁fuar	-4918
▁hastanesi	-4919
▁görünüm	-4920
▁memleket	-4921
tadır	-4922
▁anı	-4923
arya	-4924
▁müst	-4925
▁dilek	-4926
▁insanlara	-4927
ayacak	-4928
▁teor	-4929
▁serg	-4930
▁bilen	-4931
▁verilir	-4932
▁evlilik	-4933
▁gazete	-4934
amik	-4935
ıb	-4936
▁noktada	-4937
▁başını	-4938
▁esnaf	-4939
tıkları	-4940
▁ettiler	-4941
▁nesn	-4942
▁ediliyor	-4943
▁kanunun	-4944
ülmesi	-4945
alandır	-4946
▁olmaktadır	-4947
▁zamanlar	-4948
okulu	-4949
▁saha	-4950
▁gördü	-4951
▁sevk	-4952
şık	-4953
▁amac	-4954
▁beyan	-4955
gs	-4956
▁sözü	-4957
▁ölü	-4958
▁fiziksel	-4959
düğünü	-4960
sine	-4961
▁kumaş	-4962
ılmasını	-4963
▁pratik	-4964
isa	-4965
▁küresel	-4966
bakır	-4967
▁halkı	-4968
▁bahar	-4969
▁gözalt	-4970
res	-4971
▁kalem	-4972
▁düğün	-4973
▁çağr	-4974
▁kağıt	-4975
▁ideal	-4976
▁yir	-4977
▁dans	-4978
ydi	-4979
▁akr	-4980
▁est	-4981
olog	-4982
▁besin	-4983
yalı	-4984
▁efend	-4985
▁parlak	-4986
35	-4987
ann	-4988
▁com	-4989
▁vitam	-4990
▁kenar	-4991
mü	-4992
mesiyle	-4993
▁malzeme	-4994
▁!	-4995
anti	-4996
ısınız	-4997
▁beyin	-4998
gah	-4999
▁hoca	-5000
git	-5001
▁gittik	-5002
▁bulut	-5003
acağım	-5004
▁mat	-5005
▁radyo	-5006
▁dedik	-5007
▁ulaşabilirsiniz	-5008
▁34	-5009
▁maz	-5010
32	-5011
akkale	-5012
▁mantık	-5013
▁hapis	-5014
▁malat	-5015
yaş	-5016
melidir	-5017
dows	-5018
▁inc	-5019
ıklı	-5020
▁yedek	-5021
▁amaçlı	-5022
▁rehber	-5023
▁dernek	-5024
▁toplumun	-5025
▁gidiyor	-5026
pe	-5027
duğum	-5028
▁siteleri	-5029
▁kutsal	-5030
yasal	-5031
fik	-5032
bon	-5033
▁tarihleri	-5034
▁bulmak	-5035
istin	-5036
▁rekabet	-5037
▁gereği	-5038
▁güvenliği	-5039
liliği	-5040
▁haklı	-5041
▁gösteriyor	-5042
▁gerektiği	-5043
▁nam	-5044
▁şirketi	-5045
▁yolunda	-5046
▁uğra	-5047
▁kayded	-5048
tansiy	-5049
▁hi	-5050
▁plak	-5051
ılmasına	-5052
▁sendik	-5053
▁ça	-5054
▁deri	-5055
▁kongr	-5056
▁incelen	-5057
▁yah	-5058
▁olamaz	-5059
▁ran	-5060
▁kilomet	-5061
▁uçuş	-5062
roid	-5063
illi	-5064
sör	-5065
▁aşa	-5066
▁albüm	-5067
▁sunul	-5068
▁çök	-5069
▁muhtem	-5070
lıktan	-5071
üye	-5072
▁karab	-5073
▁neş	-5074
▁bül	-5075
▁rakip	-5076
▁ven	-5077
▁gerekç	-5078
.[	-5079
▁ris	-5080
▁kartı	-5081
ex	-5082
mesinde	-5083
ceğini	-5084
▁rej	-5085
▁tasarımı	-5086
ıf	-5087
erv	-5088
▁başlamış	-5089
▁mevzu	-5090
▁bı	-5091
▁mülk	-5092
çisi	-5093
ülür	-5094
▁bulunma	-5095
▁hâkim	-5096
▁karadeniz	-5097
ilerinden	-5098
▁kilis	-5099
▁uyarı	-5100
smail	-5101
▁niş	-5102
▁kendisinin	-5103
▁hâl	-5104
▁iade	-5105
▁katı	-5106
▁çekil	-5107
▁potansiy	-5108
ledim	-5109
tın	-5110
▁faydalı	-5111
▁yenilen	-5112
▁sertif	-5113
▁yerlerde	-5114
4)	-5115
▁adlandır	-5116
▁işgal	-5117
▁esir	-5118
ıldığında	-5119
▁güçlendir	-5120
-5	-5121
▁edilecek	-5122
▁altyap	-5123
▁gösterdi	-5124
▁ahlak	-5125
▁turk	-5126
▁eleman	-5127
land	-5128
▁gerekti	-5129
▁kıymet	-5130
▁düzelt	-5131
kesi	-5132
usuf	-5133
▁bireysel	-5134
▁yapabilirsiniz	-5135
uluğ	-5136
lemiş	-5137
▁dava	-5138
▁ağız	-5139
▁kahvaltı	-5140
.2018	-5141
▁dalg	-5142
▁evi	-5143
▁çam	-5144
▁darb	-5145
sü	-5146
yle	-5147
▁evlen	-5148
yak	-5149
/0	-5150
▁sigorta	-5151
▁rahmet	-5152
▁rüya	-5153
▁hali	-5154
ilerle	-5155
▁makal	-5156
rag	-5157
seri	-5158
▁sever	-5159
sy	-5160
▁ilave	-5161
▁futbolcu	-5162
ûl	-5163
▁koordin	-5164
alığı	-5165
▁görüşmeler	-5166
▁imal	-5167
▁işleri	-5168
▁izlen	-5169
▁sermaye	-5170
▁mhp	-5171
asındaki	-5172
▁derecede	-5173
▁gelişmeler	-5174
medik	-5175
demir	-5176
▁imkanı	-5177
▁özgürlük	-5178
▁karşılan	-5179
▁karma	-5180
▁havalim	-5181
▁abdullah	-5182
▁ekmek	-5183
▁söyleye	-5184
▁istif	-5185
▁mini	-5186
▁bunlara	-5187
▁log	-5188
lerindeki	-5189
▁istiyorsanız	-5190
▁paylaşım	-5191
▁vererek	-5192
▁dönüşüm	-5193
▁arş	-5194
▁vali	-5195
▁harekete	-5196
▁yurtdı	-5197
▁düşünür	-5198
teyiz	-5199
▁matematik	-5200
▁şeye	-5201
▁tepk	-5202
▁görebil	-5203
▁taraftar	-5204
▁olmayacak	-5205
▁yayınları	-5206
▁vel	-5207
▁sergil	-5208
▁karşıya	-5209
▁fazlası	-5210
▁tho	-5211
▁vermektedir	-5212
",	-5213
▁yitir	-5214
▁direktör	-5215
▁sinema	-5216
ığı	-5217
leyic	-5218
36	-5219
▁kelime	-5220
▁yumuşak	-5221
emedi	-5222
tic	-5223
▁konuşan	-5224
▁som	-5225
ock	-5226
adaki	-5227
▁yaprak	-5228
lor	-5229
utu	-5230
...”	-5231
▁etiketler	-5232
▁türü	-5233
▁kırık	-5234
ud	-5235
▁zinc	-5236
▁bütç	-5237
▁bahsed	-5238
▁yaratıcı	-5239
mamak	-5240
▁yetenek	-5241
▁kaps	-5242
tum	-5243
▁bilgisi	-5244
ılmaktadır	-5245
▁planı	-5246
melik	-5247
▁feth	-5248
▁pa	-5249
▁yüce	-5250
▁azından	-5251
▁7.	-5252
▁esnasında	-5253
unuzu	-5254
▁enstit	-5255
kaya	-5256
▁birinc	-5257
▁kullanan	-5258
▁başlı	-5259
▁gözaltına	-5260
▁yakından	-5261
kâr	-5262
▁;	-5263
14	-5264
▁değin	-5265
▁pah	-5266
otik	-5267
▁seyir	-5268
zan	-5269
mis	-5270
▁kulüp	-5271
tüsü	-5272
▁biridir	-5273
▁geldiğini	-5274
diniz	-5275
▁getirmek	-5276
▁ilçe	-5277
▁hata	-5278
▁karanlık	-5279
▁hayran	-5280
▁önümüzdeki	-5281
evet	-5282
▁ithal	-5283
cin	-5284
▁pir	-5285
emeyen	-5286
▁özgü	-5287
▁sözleşme	-5288
▁ahmed	-5289
▁harf	-5290
▁kargo	-5291
▁paris	-5292
▁maddesi	-5293
giz	-5294
▁kiralama	-5295
▁noktası	-5296
▁şehrin	-5297
lus	-5298
▁çağrı	-5299
▁kusur	-5300
sav	-5301
▁gelece	-5302
ity	-5303
▁korumak	-5304
▁özet	-5305
▁sağlaya	-5306
▁şunu	-5307
▁kızıl	-5308
▁çocukları	-5309
▁antr	-5310
▁nev	-5311
▁coş	-5312
▁diyarbakır	-5313
▁erkekler	-5314
bas	-5315
▁final	-5316
24	-5317
75	-5318
text	-5319
▁yumur	-5320
▁içinden	-5321
▁istiyoruz	-5322
▁gelişmiş	-5323
▁gayet	-5324
▁haberler	-5325
▁olmadı	-5326
fo	-5327
▁petrol	-5328
▁denk	-5329
▁vic	-5330
▁çanakkale	-5331
▁günler	-5332
▁sorunları	-5333
▁sebebiyle	-5334
ysa	-5335
▁hazırla	-5336
▁vası	-5337
▁tuş	-5338
diklerini	-5339
ruf	-5340
▁uzay	-5341
▁verg	-5342
antep	-5343
▁sız	-5344
▁demokratik	-5345
16	-5346
▁rabb	-5347
▁baktı	-5348
dular	-5349
39	-5350
▁riv	-5351
▁eşya	-5352
ilmesini	-5353
▁sü	-5354
▁cenaz	-5355
cağına	-5356
▁yusuf	-5357
▁edilebilir	-5358
▁windows	-5359
▁farkında	-5360
wn	-5361
▁hunlar	-5362
▁aykırı	-5363
▁derg	-5364
▁vi	-5365
▁falan	-5366
▁cerrah	-5367
▁köyü	-5368
▁lu	-5369
▁aracılığıyla	-5370
▁şeyleri	-5371
îr	-5372
▁yerler	-5373
▁yolculuk	-5374
▁sekiz	-5375
aat	-5376
▁müdürlüğ	-5377
tığımız	-5378
▁bonus	-5379
masyon	-5380
▁bağlan	-5381
▁alak	-5382
▁müdahale	-5383
▁ortamda	-5384
rama	-5385
▁önde	-5386
▁çocuğu	-5387
▁üretimi	-5388
▁egz	-5389
▁300	-5390
lüğe	-5391
▁bilgiye	-5392
▁bulama	-5393
▁netic	-5394
▁hayatta	-5395
azam	-5396
▁alışkan	-5397
▁akdeniz	-5398
▁sekret	-5399
▁çizg	-5400
▁beklent	-5401
▁android	-5402
▁bayrak	-5403
ilerde	-5404
▁disip	-5405
▁bina	-5406
denin	-5407
▁gurur	-5408
▁nesil	-5409
eyerek	-5410
rom	-5411
▁trabzon	-5412
▁halen	-5413
▁sta	-5414
▁thomas	-5415
▁mensup	-5416
ograf	-5417
▁hindistan	-5418
▁cumartesi	-5419
▁isterseniz	-5420
▁eline	-5421
▁ceph	-5422
▁olmayı	-5423
tl	-5424
diven	-5425
ris	-5426
▁ordusu	-5427
amıyor	-5428
▁ligi	-5429
▁ww	-5430
▁anayasa	-5431
▁lisesi	-5432
▁incelem	-5433
log	-5434
▁benden	-5435
▁attı	-5436
veren	-5437
aza	-5438
▁gördüm	-5439
▁sunan	-5440
şe	-5441
▁mahkeme	-5442
▁okur	-5443
▁ediyordu	-5444
▁gecik	-5445
▁çıkacak	-5446
▁cennet	-5447
▁isyan	-5448
▁sorunun	-5449
▁kiralık	-5450
▁kitl	-5451
▁yılından	-5452
▁adayı	-5453
ack	-5454
itter	-5455
▁kilit	-5456
▁tıpkı	-5457
mes	-5458
▁tüketic	-5459
▁yazık	-5460
▁okulu	-5461
yken	-5462
98	-5463
▁·	-5464
▁ulaşım	-5465
▁şö	-5466
▁sahil	-5467
▁verilmesi	-5468
asız	-5469
▁len	-5470
▁satı	-5471
▁yayınlanan	-5472
▁istan	-5473
▁bizler	-5474
tuğu	-5475
▁jandar	-5476
▁tanr	-5477
▁olacağı	-5478
▁anlatan	-5479
▁edildiği	-5480
▁elini	-5481
▁delik	-5482
led	-5483
▁cins	-5484
▁yöntemi	-5485
▁kimyasal	-5486
▁nihayet	-5487
usuz	-5488
▁usta	-5489
38	-5490
▁göğüs	-5491
▁ekipleri	-5492
▁cüml	-5493
▁yaşar	-5494
▁erişim	-5495
▁post	-5496
emizde	-5497
▁kullanma	-5498
▁kaydetti	-5499
▁kalıcı	-5500
▁ülkeler	-5501
paşa	-5502
-6	-5503
▁gazetesi	-5504
▁söyler	-5505
▁bakın	-5506
▁###	-5507
gat	-5508
▁sabır	-5509
irim	-5510
▁işbirliği	-5511
▁sürücü	-5512
▁kaçak	-5513
▁aziz	-5514
▁tipi	-5515
▁başlayacak	-5516
▁antik	-5517
yaj	-5518
▁zemin	-5519
eceksiniz	-5520
▁haş	-5521
▁nez	-5522
▁mevcuttur	-5523
pat	-5524
▁emekli	-5525
▁elbis	-5526
▁kalabalık	-5527
▁ast	-5528
▁meclisi	-5529
▁hip	-5530
▁kred	-5531
▁olduğum	-5532
▁kazanç	-5533
▁zihin	-5534
▁hatt	-5535
▁evr	-5536
iyorsunuz	-5537
▁teşekkürler	-5538
▁sonuçlar	-5539
▁yüküm	-5540
▁suretiyle	-5541
unç	-5542
▁nö	-5543
▁bölümünde	-5544
▁beslenme	-5545
22	-5546
▁şunları	-5547
▁taraftan	-5548
17	-5549
alesef	-5550
▁kütüp	-5551
▁cesaret	-5552
▁ulu	-5553
▁meyv	-5554
▁olmaktan	-5555
.’	-5556
▁görünce	-5557
▁kuy	-5558
▁keyifli	-5559
▁istanbul	-5560
▁38	-5561
▁masa	-5562
▁telefonu	-5563
▁tehlikeli	-5564
▁milliyet	-5565
▁fetö	-5566
▁tutul	-5567
▁sayede	-5568
▁bilet	-5569
▁hayırlı	-5570
landa	-5571
▁sön	-5572
▁ru	-5573
▁yıllardır	-5574
▁öm	-5575
▁kahve	-5576
▁yönetmeli	-5577
isyen	-5578
paz	-5579
):	-5580
▁güne	-5581
▁sözler	-5582
▁iphone	-5583
▁çey	-5584
▁görmüş	-5585
▁sigara	-5586
▁hatırlat	-5587
şap	-5588
▁alabil	-5589
▁link	-5590
▁sıvı	-5591
▁doç	-5592
usunun	-5593
▁garanti	-5594
▁dua	-5595
▁oranında	-5596
lukla	-5597
▁kulübü	-5598
▁kaya	-5599
th	-5600
▁dosya	-5601
ılacağı	-5602
leki	-5603
▁alev	-5604
▁tedavisi	-5605
▁kaymakam	-5606
▁arasına	-5607
rop	-5608
▁www	-5609
▁hisse	-5610
ağın	-5611
▁zirv	-5612
▁oraya	-5613
▁genelinde	-5614
▁olayı	-5615
▁hayatın	-5616
▁geriye	-5617
▁ilah	-5618
▁oldum	-5619
▁kov	-5620
▁açma	-5621
▁polit	-5622
▁barındır	-5623
▁alınır	-5624
▁muhab	-5625
▁bakalım	-5626
sinde	-5627
▁açtı	-5628
▁dikkatli	-5629
▁meyve	-5630
▁tasarruf	-5631
▁bağımlı	-5632
▁muay	-5633
▁indirim	-5634
▁toh	-5635
▁annesi	-5636
ull	-5637
▁sivas	-5638
▁dayalı	-5639
iyel	-5640
▁ra	-5641
▁arasından	-5642
▁akın	-5643
ilip	-5644
▁olunca	-5645
▁oradan	-5646
▁yasa	-5647
ahh	-5648
▁bileş	-5649
satı	-5650
▁yuvar	-5651
tifak	-5652
▁verme	-5653
ışın	-5654
çu	-5655
▁kemik	-5656
▁uzan	-5657
▁günden	-5658
▁alınacak	-5659
▁tamamlan	-5660
▁itiraz	-5661
▁garip	-5662
▁ebu	-5663
▁alanları	-5664
▁bünyesinde	-5665
▁malatya	-5666
▁banyo	-5667
▁mersin	-5668
▁olaylar	-5669
tam	-5670
tor	-5671
slan	-5672
hn	-5673
▁37	-5674
▁rezerv	-5675
▁derken	-5676
▁dışişleri	-5677
▁belirlenen	-5678
▁silahlı	-5679
▁atık	-5680
vin	-5681
ump	-5682
▁şahıs	-5683
▁mümkündür	-5684
▁uygulamaları	-5685
ere	-5686
larımı	-5687
ıldığını	-5688
▁kolaylaştır	-5689
elerek	-5690
lerimize	-5691
lılar	-5692
▁halka	-5693
ona	-5694
kap	-5695
ışma	-5696
▁maçı	-5697
▁emr	-5698
iyetini	-5699
▁je	-5700
:)	-5701
menizi	-5702
▁ekibi	-5703
▁gerekse	-5704
▁demokrasi	-5705
▁maalesef	-5706
▁selim	-5707
▁raporu	-5708
▁firması	-5709
▁makyaj	-5710
▁geliştirme	-5711
▁gayret	-5712
drum	-5713
▁yorgun	-5714
kun	-5715
maktır	-5716
nşa	-5717
▁panel	-5718
▁yönünde	-5719
▁temas	-5720
▁2009	-5721
rük	-5722
▁verim	-5723
▁benimle	-5724
▁gündeme	-5725
▁birine	-5726
▁tb	-5727
▁edilmektedir	-5728
▁sığın	-5729
▁tanesi	-5730
▁fo	-5731
▁konularda	-5732
▁alınarak	-5733
▁iman	-5734
▁sınırlı	-5735
lemesi	-5736
▁duran	-5737
▁kapital	-5738
▁müf	-5739
▁kaza	-5740
▁dü	-5741
▁8.	-5742
▁gündüz	-5743
▁artan	-5744
▁dudak	-5745
▁bulabilirsiniz	-5746
▁erzurum	-5747
duğunuz	-5748
▁tren	-5749
▁efsan	-5750
▁âlem	-5751
▁yüzü	-5752
mil	-5753
▁ihtimal	-5754
▁nec	-5755
▁şifr	-5756
udi	-5757
malarına	-5758
▁çik	-5759
▁numaralı	-5760
▁denir	-5761
▁yapıldığı	-5762
▁rob	-5763
âlâ	-5764
▁pam	-5765
▁seven	-5766
▁sürece	-5767
▁babam	-5768
▁gözleri	-5769
▁taht	-5770
▁maruz	-5771
▁sektöründe	-5772
▁eskişehir	-5773
▁işlev	-5774
▁cema	-5775
▁açıkça	-5776
▁çalışır	-5777
34	-5778
▁ümit	-5779
▁ph	-5780
ısal	-5781
▁afrika	-5782
▁gemi	-5783
▁civarında	-5784
▁şahin	-5785
▁yapın	-5786
▁hakikat	-5787
▁koz	-5788
▁yönetmen	-5789
elli	-5790
tüm	-5791
▁fan	-5792
▁uyumlu	-5793
▁ahşap	-5794
▁2008	-5795
▁kazanan	-5796
▁kendinizi	-5797
27	-5798
ji	-5799
▁anlatıyor	-5800
▁gaziantep	-5801
ceğim	-5802
▁festival	-5803
▁seçen	-5804
▁rengi	-5805
▁bizzat	-5806
▁doy	-5807
▁yaptım	-5808
▁yeten	-5809
▁meden	-5810
▁hastalığı	-5811
şek	-5812
▁defter	-5813
▁kuran	-5814
▁gördüğü	-5815
▁ege	-5816
▁stat	-5817
▁mac	-5818
▁çabuk	-5819
los	-5820
▁şeref	-5821
ebilmek	-5822
▁mahkemesi	-5823
▁sadr	-5824
▁lam	-5825
▁tir	-5826
▁yirmi	-5827
tc	-5828
▁yumurta	-5829
liye	-5830
▁evin	-5831
▁yükselt	-5832
▁qu	-5833
▁vücud	-5834
▁elinden	-5835
▁çil	-5836
▁kayseri	-5837
andan	-5838
▁mesleki	-5839
▁biliyorum	-5840
tikten	-5841
▁senar	-5842
▁düzeyde	-5843
▁anında	-5844
ansiyon	-5845
▁eğlenceli	-5846
▁haberi	-5847
▁alanlar	-5848
▁salonu	-5849
▁kırk	-5850
pek	-5851
▁hemş	-5852
landığı	-5853
▁şair	-5854
▁bisiklet	-5855
▁kötül	-5856
▁hakan	-5857
▁havuz	-5858
▁bacak	-5859
▁bölün	-5860
ts	-5861
▁salı	-5862
▁deli	-5863
▁yetersiz	-5864
▁gözden	-5865
▁verimli	-5866
▁oyunlar	-5867
▁sıfır	-5868
▁makinesi	-5869
yabil	-5870
▁başlıklı	-5871
▁utan	-5872
▁merkezinde	-5873
▁lük	-5874
larken	-5875
▁kısı	-5876
▁öncelik	-5877
mekle	-5878
imle	-5879
▁çekici	-5880
▁apple	-5881
▁kapak	-5882
▁gözük	-5883
▁yapıp	-5884
▁seri	-5885
▁makine	-5886
âz	-5887
▁miktarda	-5888
▁oğl	-5889
▁pazartesi	-5890
lg	-5891
iti	-5892
ai	-5893
▁2,	-5894
▁önemi	-5895
elendir	-5896
▁öncesinde	-5897
ilmesine	-5898
▁bizans	-5899
▁uzmanı	-5900
▁44	-5901
▁cinayet	-5902
▁adresi	-5903
▁kullandığı	-5904
▁hareketi	-5905
kas	-5906
▁seviye	-5907
▁şehri	-5908
▁yaptığımız	-5909
▁sm	-5910
37	-5911
▁zul	-5912
mesinden	-5913
▁prote	-5914
ebek	-5915
▁karşılıklı	-5916
atın	-5917
▁yolları	-5918
▁toplantısı	-5919
şleri	-5920
▁tanık	-5921
▁set	-5922
▁olsay	-5923
▁verici	-5924
▁hatırla	-5925
▁antren	-5926
26	-5927
.'	-5928
▁yapılabil	-5929
▁öp	-5930
▁mm	-5931
▁damar	-5932
▁uzaklaş	-5933
▁mahalle	-5934
▁etmez	-5935
▁150	-5936
▁zorluk	-5937
▁cezası	-5938
▁irade	-5939
▁omuz	-5940
rip	-5941
yiz	-5942
▁gerçekleşen	-5943
mad	-5944
▁düşünül	-5945
▁sizleri	-5946
”.	-5947
▁aydınlat	-5948
▁milletvekil	-5949
ibe	-5950
▁katılımcı	-5951
▁aslan	-5952
▁sef	-5953
isiz	-5954
▁gelmesi	-5955
▁kanat	-5956
imet	-5957
▁yönetmelik	-5958
meyin	-5959
▁yunanistan	-5960
▁bodrum	-5961
▁kamera	-5962
▁aksine	-5963
▁buldu	-5964
▁hasar	-5965
▁endüstr	-5966
▁devamı	-5967
▁sunulan	-5968
fed	-5969
eleriyle	-5970
▁psikolojik	-5971
▁hizmetler	-5972
▁malzemeleri	-5973
okol	-5974
▁lond	-5975
itesi	-5976
▁kurtuluş	-5977
▁olgun	-5978
iyo	-5979
ruk	-5980
▁alıcı	-5981
▁lak	-5982
memesi	-5983
▁sürü	-5984
▁teker	-5985
▁dalı	-5986
▁kalıp	-5987
melerini	-5988
▁kıyas	-5989
▁siyasal	-5990
▁çıkıp	-5991
▁hükümdar	-5992
▁bayramı	-5993
▁ailesi	-5994
▁unutul	-5995
▁sürük	-5996
eğe	-5997
▁tarifi	-5998
▁arkasında	-5999
▁sc	-6000
▁komşu	-6001
cılığı	-6002
▁iv	-6003
▁deprem	-6004
▁bastır	-6005
▁üstü	-6006
▁ikisi	-6007
▁jandarma	-6008
▁sebeple	-6009
▁195	-6010
▁oğul	-6011
▁vakfı	-6012
▁daima	-6013
▁diplo	-6014
▁arşiv	-6015
arik	-6016
▁bitki	-6017
▁kocaeli	-6018
dava	-6019
▁vefat	-6020
letişim	-6021
tip	-6022
▁mesle	-6023
▁günleri	-6024
▁sembol	-6025
▁konfor	-6026
▁bozul	-6027
▁süreli	-6028
▁bulunması	-6029
▁kariyer	-6030
▁39	-6031
▁konuyu	-6032
▁kardeşi	-6033
▁hor	-6034
▁olmaları	-6035
▁karşın	-6036
▁ras	-6037
▁ettikleri	-6038
ato	-6039
▁devir	-6040
atistik	-6041
▁görülür	-6042
▁mehmed	-6043
▁tüketim	-6044
▁twitter	-6045
▁sonradan	-6046
▁yüzlerce	-6047
▁geldiğinde	-6048
ww	-6049
ph	-6050
▁kısıt	-6051
▁hikây	-6052
▁çıkarı	-6053
▁sporcu	-6054
▁dola	-6055
▁farkı	-6056
▁olmasa	-6057
▁garant	-6058
▁kullanılması	-6059
▁turn	-6060
▁dakikada	-6061
▁aşkın	-6062
ýr	-6063
▁istis	-6064
▁görevlendir	-6065
▁alkol	-6066
enizi	-6067
▁söylemiş	-6068
ife	-6069
▁fas	-6070
▁sorunlar	-6071
▁rö	-6072
▁öv	-6073
▁kullanı	-6074
▁basket	-6075
▁zehir	-6076
48	-6077
▁cal	-6078
46	-6079
hak	-6080
▁mecbur	-6081
ああ	-6082
▁olurdu	-6083
▁yürü	-6084
▁zamanla	-6085
▁hacı	-6086
isin	-6087
▁forum	-6088
uncu	-6089
uydu	-6090
tıktan	-6091
▁beklem	-6092
▁masraf	-6093
▁hü	-6094
▁doğur	-6095
▁anlattı	-6096
▁oluşturan	-6097
▁yılları	-6098
▁2000	-6099
▁okum	-6100
▁diledi	-6101
▁güler	-6102
▁mevsim	-6103
▁plastik	-6104
likleri	-6105
▁tamir	-6106
mede	-6107
▁tahta	-6108
▁yaşıyor	-6109
▁evinde	-6110
▁hariç	-6111
âyet	-6112
▁denilen	-6113
ğının	-6114
▁bilmiyorum	-6115
▁nefret	-6116
▁iii	-6117
▁olmaması	-6118
▁sanal	-6119
fil	-6120
▁altını	-6121
▁yağı	-6122
▁edir	-6123
▁organize	-6124
▁kula	-6125
▁gözler	-6126
▁tazmin	-6127
▁politika	-6128
▁ücreti	-6129
▁gümrük	-6130
▁kutu	-6131
melerin	-6132
▁ürünün	-6133
▁ömür	-6134
▁olduğunda	-6135
▁rüy	-6136
▁ortada	-6137
▁önder	-6138
28	-6139
zer	-6140
▁süredir	-6141
▁alması	-6142
▁akademik	-6143
▁çalışmalarını	-6144
▁48	-6145
ong	-6146
▁boyun	-6147
▁ailen	-6148
▁melek	-6149
▁düzenleme	-6150
▁silin	-6151
▁tuv	-6152
▁kararlı	-6153
▁vas	-6154
üyordu	-6155
▁vakıf	-6156
▁korkunç	-6157
31	-6158
▁sahne	-6159
▁gözlerini	-6160
▁onlardan	-6161
dıkça	-6162
▁mahmut	-6163
▁karay	-6164
▁oyunc	-6165
▁mide	-6166
ie	-6167
çeri	-6168
gini	-6169
▁protokol	-6170
▁tavır	-6171
ung	-6172
erk	-6173
sis	-6174
▁ederiz	-6175
imini	-6176
▁belge	-6177
▁yapmanız	-6178
▁olmakla	-6179
▁aşama	-6180
▁koyu	-6181
▁kodu	-6182
pg	-6183
▁ikin	-6184
▁mağdur	-6185
▁fe	-6186
▁çizgi	-6187
▁müdahal	-6188
ğinizi	-6189
▁oyunun	-6190
▁yaralı	-6191
ds	-6192
▁kendileri	-6193
▁şekli	-6194
▁zorlu	-6195
▁verdim	-6196
ette	-6197
▁getirdiği	-6198
▁belirtildi	-6199
▁vesil	-6200
▁ayakta	-6201
riyet	-6202
▁insana	-6203
▁leh	-6204
maların	-6205
▁çır	-6206
▁bulur	-6207
ilebil	-6208
▁terörist	-6209
▁gelmiştir	-6210
ılmıştı	-6211
bahar	-6212
▁geride	-6213
▁evvel	-6214
lığından	-6215
▁arayan	-6216
▁akış	-6217
▁adıyla	-6218
nü	-6219
▁abdül	-6220
▁neyse	-6221
▁gı	-6222
▁bulaş	-6223
▁topluluk	-6224
▁çekin	-6225
▁hele	-6226
top	-6227
▁göstermek	-6228
▁hıristiyan	-6229
ding	-6230
▁algı	-6231
▁hur	-6232
▁perş	-6233
bilirim	-6234
▁ulaşmak	-6235
▁montaj	-6236
▁arkadaşı	-6237
▁büyüme	-6238
▁grafik	-6239
▁etmişti	-6240
▁çalışmak	-6241
www	-6242
▁çuk	-6243
▁çıl	-6244
▁göstermektedir	-6245
kay	-6246
▁labor	-6247
▁0,	-6248
▁gu	-6249
▁öğrencileri	-6250
▁yapılıyor	-6251
▁lâ	-6252
▁kek	-6253
split	-6254
▁ifadelerini	-6255
▁rektör	-6256
▁kaybetti	-6257
▁doğrusu	-6258
▁filmin	-6259
ft	-6260
osk	-6261
▁gürül	-6262
şamba	-6263
▁baştan	-6264
95	-6265
▁muhalef	-6266
▁atöl	-6267
▁istihdam	-6268
ste	-6269
▁disiplin	-6270
içi	-6271
val	-6272
▁tabak	-6273
▁genişlet	-6274
elle	-6275
▁bedava	-6276
▁evine	-6277
▁döviz	-6278
▁değilim	-6279
dön	-6280
▁komisyonu	-6281
▁valisi	-6282
▁şeyden	-6283
mus	-6284
▁karışık	-6285
▁sürpr	-6286
▁yolunu	-6287
üzel	-6288
▁çekir	-6289
▁filistin	-6290
▁dönemin	-6291
dî	-6292
tığında	-6293
▁numarası	-6294
▁gidecek	-6295
▁tbmm	-6296
▁rüzgar	-6297
lilerin	-6298
nce	-6299
▁olağanüstü	-6300
▁mete	-6301
▁sığ	-6302
▁çalışmaya	-6303
▁keyf	-6304
▁harca	-6305
▁anlayışı	-6306
▁konus	-6307
▁klima	-6308
▁çekim	-6309
▁soruşturma	-6310
▁oynan	-6311
bür	-6312
▁yürüm	-6313
▁..	-6314
▁yerleri	-6315
emektedir	-6316
ustur	-6317
▁q	-6318
▁türkler	-6319
ell	-6320
▁lek	-6321
▁hükümeti	-6322
gaç	-6323
araj	-6324
▁mater	-6325
▁üyelik	-6326
eyn	-6327
▁kaydı	-6328
▁macer	-6329
▁gelerek	-6330
lanarak	-6331
▁saati	-6332
luğun	-6333
▁aksi	-6334
▁55	-6335
▁fit	-6336
▁yapması	-6337
amayan	-6338
▁saniye	-6339
▁görünen	-6340
▁tavsiy	-6341
cağınız	-6342
mini	-6343
lanacak	-6344
▁söyley	-6345
▁sunum	-6346
sının	-6347
▁ürünlerin	-6348
▁tü	-6349
47	-6350
▁caz	-6351
▁eskiden	-6352
▁kurmak	-6353
▁edici	-6354
barı	-6355
▁tutum	-6356
▁koyun	-6357
▁kafa	-6358
▁ertesi	-6359
▁sandal	-6360
▁sertifik	-6361
▁bizlere	-6362
▁yılının	-6363
▁bugünkü	-6364
▁tey	-6365
bank	-6366
▁giyim	-6367
▁öldü	-6368
▁hikmet	-6369
▁seyret	-6370
▁edilerek	-6371
▁mol	-6372
▁full	-6373
▁köylü	-6374
▁çarşamba	-6375
stagram	-6376
▁firmaları	-6377
▁anlar	-6378
▁öğrenmek	-6379
▁kısaca	-6380
▁yakal	-6381
▁gelmektedir	-6382
veya	-6383
▁finansal	-6384
▁uygulanan	-6385
▁perşembe	-6386
yim	-6387
abak	-6388
▁sözcük	-6389
▁çav	-6390
▁uyuştur	-6391
ick	-6392
▁titr	-6393
▁uyandır	-6394
▁satılık	-6395
nşaat	-6396
▁örneği	-6397
gül	-6398
▁hakkındaki	-6399
▁çağdaş	-6400
▁yeryüz	-6401
izmin	-6402
eddin	-6403
▁cevabı	-6404
ildiğini	-6405
▁lideri	-6406
▁gençler	-6407
▁alabilir	-6408
▁açıklaması	-6409
▁geçiyor	-6410
▁yönde	-6411
▁sakın	-6412
▁gelişme	-6413
▁nitekim	-6414
▁donanım	-6415
▁birşey	-6416
▁ırk	-6417
▁bildirdi	-6418
oft	-6419
▁hid	-6420
org	-6421
▁açıldı	-6422
lup	-6423
▁yazdığı	-6424
▁laborat	-6425
▁olmanın	-6426
▁göze	-6427
abileceği	-6428
▁sch	-6429
▁hakkını	-6430
▁kampanya	-6431
▁anlaya	-6432
▁potansiyel	-6433
idi	-6434
▁ca	-6435
suzluk	-6436
duktan	-6437
▁ısrar	-6438
▁durumun	-6439
▁bro	-6440
▁ayda	-6441
▁lise	-6442
▁pi	-6443
▁başarısız	-6444
medim	-6445
▁sıradan	-6446
pro	-6447
▁koku	-6448
▁materyal	-6449
lamayı	-6450
▁1/	-6451
▁veli	-6452
▁oluşur	-6453
▁hepsini	-6454
▁birleşik	-6455
▁şanlı	-6456
▁raf	-6457
▁kaptan	-6458
anıp	-6459
şlem	-6460
▁dünyayı	-6461
örü	-6462
tığım	-6463
▁kamyon	-6464
malısınız	-6465
▁niteli	-6466
▁seçenekleri	-6467
▁dokuz	-6468
▁ayrıntılı	-6469
▁tayin	-6470
nci	-6471
▁kaynakları	-6472
▁duruyor	-6473
▁apart	-6474
sün	-6475
▁engelli	-6476
▁etmeyi	-6477
▁alanlarda	-6478
▁çiğ	-6479
▁zah	-6480
▁anlaşma	-6481
▁kullanılabilir	-6482
▁play	-6483
▁fırsatı	-6484
▁şartları	-6485
▁pal	-6486
▁aran	-6487
▁yoksul	-6488
▁sisteminin	-6489
▁şirketin	-6490
▁merdiven	-6491
▁kayde	-6492
kür	-6493
▁süreçte	-6494
▁ehl	-6495
alıyor	-6496
▁büyüy	-6497
▁uygulam	-6498
ceğiz	-6499
▁endek	-6500
▁akses	-6501
▁muhaseb	-6502
▁edirne	-6503
▁sizlerle	-6504
ğimizi	-6505
▁http	-6506
▁anlamak	-6507
100	-6508
▁işit	-6509
ûr	-6510
▁atilla	-6511
ndeki	-6512
tük	-6513
▁öldürül	-6514
▁trump	-6515
▁verilecek	-6516
▁tablet	-6517
▁sorular	-6518
▁hastalıkları	-6519
▁kazandı	-6520
▁şak	-6521
▁alay	-6522
sından	-6523
and	-6524
▁seçimi	-6525
ciğer	-6526
▁açıklamalar	-6527
▁projeler	-6528
▁digit	-6529
▁kişiyi	-6530
▁lit	-6531
▁pis	-6532
lerdeki	-6533
ates	-6534
▁dayanıklı	-6535
▁tedarik	-6536
▁etiket	-6537
çilik	-6538
.5	-6539
▁taşımak	-6540
göl	-6541
ork	-6542
▁olabilirsiniz	-6543
13	-6544
balaj	-6545
▁budur	-6546
▁çekmek	-6547
▁kalacak	-6548
▁gösterdiği	-6549
▁delil	-6550
hayır	-6551
halde	-6552
▁görüyoruz	-6553
▁sakarya	-6554
ğla	-6555
▁düzgün	-6556
▁2007	-6557
▁orhan	-6558
emli	-6559
▁gene	-6560
▁65	-6561
dınız	-6562
▁olama	-6563
▁metrek	-6564
▁sadrazam	-6565
▁çıktığı	-6566
ükle	-6567
▁porno	-6568
▁duygusal	-6569
▁yıkama	-6570
▁taze	-6571
eter	-6572
▁rahatlıkla	-6573
▁yansıt	-6574
▁ederler	-6575
▁burun	-6576
cev	-6577
abilen	-6578
▁dum	-6579
▁gelişen	-6580
▁ödülü	-6581
▁açan	-6582
▁dörd	-6583
▁gram	-6584
▁nar	-6585
▁kısmını	-6586
▁turist	-6587
takım	-6588
▁canlandır	-6589
▁icra	-6590
▁ibaret	-6591
talyan	-6592
▁festivali	-6593
▁iğ	-6594
▁hotel	-6595
▁tıkan	-6596
▁masaj	-6597
▁başladım	-6598
▁gereksin	-6599
▁koleksiyon	-6600
▁miktarı	-6601
▁çıkardı	-6602
▁bos	-6603
isindeki	-6604
▁zincir	-6605
▁caddesi	-6606
▁erdem	-6607
▁ente	-6608
▁yuv	-6609
▁yapmayı	-6610
▁peyn	-6611
▁kıyı	-6612
96	-6613
▁altındaki	-6614
▁beslen	-6615
aydı	-6616
mec	-6617
▁olabilecek	-6618
▁gev	-6619
▁isterim	-6620
alel	-6621
▁vade	-6622
▁emlak	-6623
ğeri	-6624
▁beklenen	-6625
ebi	-6626
▁bizimle	-6627
gut	-6628
▁yeterince	-6629
▁iyileştir	-6630
acağınız	-6631
▁başlama	-6632
▁imzalan	-6633
▁ima	-6634
▁sınırları	-6635
▁tarafında	-6636
▁ceb	-6637
spanya	-6638
▁araçları	-6639
▁londra	-6640
amızda	-6641
▁değişikliği	-6642
ester	-6643
mediğini	-6644
▁emre	-6645
▁almıştır	-6646
▁imparator	-6647
▁idare	-6648
▁sürpriz	-6649
hissel	-6650
ünce	-6651
▁vizyon	-6652
▁göv	-6653
▁nereye	-6654
2)	-6655
▁buğ	-6656
onlar	-6657
▁öfk	-6658
▁gayrim	-6659
▁ambalaj	-6660
▁diyal	-6661
▁gezi	-6662
▁tarafı	-6663
▁devamlı	-6664
▁üretilen	-6665
▁amir	-6666
▁york	-6667
▁küf	-6668
▁tüy	-6669
▁estetik	-6670
▁krem	-6671
▁karşımıza	-6672
▁gam	-6673
leyebil	-6674
▁oğlum	-6675
beri	-6676
▁kader	-6677
▁suyun	-6678
▁ermeni	-6679
▁sizden	-6680
1)	-6681
▁oluşum	-6682
▁şimdiden	-6683
▁ci	-6684
▁hamil	-6685
▁muhar	-6686
▁bulunduğunu	-6687
▁dışına	-6688
▁kuvvetli	-6689
luğunu	-6690
▁beyler	-6691
▁söyledik	-6692
▁kutlu	-6693
▁cevab	-6694
şen	-6695
dağı	-6696
▁traf	-6697
▁bileti	-6698
▁za	-6699
▁çekiyor	-6700
▁hocam	-6701
▁vicdan	-6702
▁sünnet	-6703
▁manevi	-6704
ılmaya	-6705
▁bulgar	-6706
▁etken	-6707
▁döner	-6708
▁şartı	-6709
▁gücünü	-6710
ıydı	-6711
▁istedim	-6712
masi	-6713
▁çevresinde	-6714
larınıza	-6715
▁haftada	-6716
ment	-6717
▁süz	-6718
▁etrafında	-6719
▁ninni	-6720
▁versiyon	-6721
▁bölgeye	-6722
▁400	-6723
▁dergisi	-6724
▁doktora	-6725
▁zer	-6726
nsanlar	-6727
▁tarzı	-6728
leyebilirsiniz	-6729
▁bakır	-6730
▁bakımı	-6731
▁temsilcisi	-6732
▁babasının	-6733
▁varol	-6734
▁kore	-6735
▁düşüş	-6736
▁cemaat	-6737
▁asit	-6738
için	-6739
likler	-6740
▁sürecinde	-6741
daha	-6742
▁burası	-6743
▁mekaniz	-6744
▁bağlam	-6745
ys	-6746
▁anlamlı	-6747
▁görevli	-6748
unuza	-6749
▁hayli	-6750
▁bm	-6751
vat	-6752
ılmak	-6753
▁geldik	-6754
ağını	-6755
azi	-6756
▁saatlerinde	-6757
▁çığ	-6758
▁ortasında	-6759
unuzun	-6760
▁heyet	-6761
ob	-6762
▁stres	-6763
ladım	-6764
▁kadını	-6765
peryal	-6766
▁medeniyet	-6767
▁10.	-6768
▁kalkınma	-6769
emiyor	-6770
▁laf	-6771
lıyorum	-6772
▁zararlı	-6773
▁rivayet	-6774
▁dediler	-6775
▁yiy	-6776
▁ag	-6777
▁zamana	-6778
▁kib	-6779
türü	-6780
▁blok	-6781
▁tarihinden	-6782
▁müte	-6783
▁yemeği	-6784
▁pahalı	-6785
▁mail	-6786
▁örgütün	-6787
▁çukur	-6788
▁orij	-6789
▁parlam	-6790
▁tohum	-6791
▁çalıştı	-6792
▁turnuv	-6793
abileceğiniz	-6794
rın	-6795
▁bıraktı	-6796
▁teşkilat	-6797
mara	-6798
▁niye	-6799
▁fıkr	-6800
▁onlarla	-6801
▁kızın	-6802
▁çant	-6803
▁1/1	-6804
▁kuşat	-6805
▁gelmişti	-6806
▁köprü	-6807
▁bekleyen	-6808
▁programları	-6809
▁hitap	-6810
▁buradaki	-6811
ende	-6812
▁canım	-6813
▁sömür	-6814
▁ülkemizin	-6815
▁dairesi	-6816
▁tali	-6817
▁dekorasyon	-6818
▁ziyade	-6819
▁istediğini	-6820
▁kalmak	-6821
oda	-6822
▁gibidir	-6823
emem	-6824
▁yapılmaktadır	-6825
▁sec	-6826
33	-6827
▁bakar	-6828
ediğini	-6829
▁alana	-6830
▁duyarlı	-6831
▁karbon	-6832
▁başladığı	-6833
▁bizde	-6834
▁meşhur	-6835
▁pe	-6836
kusuz	-6837
▁konular	-6838
▁oyuncak	-6839
lişk	-6840
▁lüks	-6841
▁yerlere	-6842
▁9.	-6843
göz	-6844
▁konuya	-6845
▁kaldığı	-6846
97	-6847
▁karşısına	-6848
▁anayas	-6849
▁çocuklara	-6850
▁enfeksiyon	-6851
▁icin	-6852
mparatorluğu	-6853
tre	-6854
▁herhalde	-6855
▁col	-6856
▁eğlence	-6857
ndir	-6858
▁sınavı	-6859
▁müsa	-6860
▁aksesuar	-6861
diğinde	-6862
▁havalimanı	-6863
▁gönüllü	-6864
▁yaptığını	-6865
▁aracın	-6866
▁başlamıştı	-6867
▁keşfet	-6868
▁perde	-6869
▁fatur	-6870
▁keskin	-6871
posta	-6872
▁yumurt	-6873
eceğine	-6874
▁bakanlık	-6875
▁kuvvetleri	-6876
▁enflasyon	-6877
caya	-6878
▁milletin	-6879
▁diyorum	-6880
▁soruları	-6881
▁hazret	-6882
liğiyle	-6883
larınızın	-6884
▁okumak	-6885
▁saatleri	-6886
▁akar	-6887
▁kültürü	-6888
▁liste	-6889
▁sayg	-6890
▁47	-6891
▁robot	-6892
▁bulabil	-6893
▁özür	-6894
lanabilir	-6895
▁bitti	-6896
▁dondur	-6897
▁ilişkileri	-6898
▁uyuşturucu	-6899
▁ikram	-6900
▁çöp	-6901
▁yalı	-6902
▁girer	-6903
▁atak	-6904
▁kontrolü	-6905
luğa	-6906
▁oynay	-6907
▁nakliye	-6908
▁pozit	-6909
▁deh	-6910
▁çadır	-6911
▁dördüncü	-6912
▁gözet	-6913
▁köken	-6914
▁tebrik	-6915
çın	-6916
ırıl	-6917
mayıp	-6918
▁katıldığı	-6919
▁listesi	-6920
vanı	-6921
eğini	-6922
▁kullanıcılar	-6923
amadı	-6924
▁veriler	-6925
▁dünyası	-6926
▁dert	-6927
▁ebû	-6928
kit	-6929
▁sunduğu	-6930
▁getirir	-6931
▁anlamında	-6932
▁bıçak	-6933
▁oranda	-6934
▁numara	-6935
sever	-6936
▁çıkması	-6937
▁uyu	-6938
▁doku	-6939
▁bizden	-6940
▁fikr	-6941
▁ittifak	-6942
uşu	-6943
▁kitabın	-6944
▁hunların	-6945
▁gezeg	-6946
▁satışa	-6947
ebiliyor	-6948
▁yahut	-6949
▁yukarıdaki	-6950
▁heykel	-6951
5)	-6952
daroğlu	-6953
böl	-6954
▁lay	-6955
▁fed	-6956
▁horm	-6957
▁eseri	-6958
emizin	-6959
▁aşık	-6960
ülecek	-6961
▁çaba	-6962
▁egzersiz	-6963
▁üstlen	-6964
▁yapıyoruz	-6965
amam	-6966
ûm	-6967
▁birbirlerine	-6968
alya	-6969
▁tescil	-6970
▁yavru	-6971
▁olayları	-6972
▁kerim	-6973
▁olanı	-6974
▁basketbol	-6975
fir	-6976
▁aleyhissel	-6977
▁sesli	-6978
▁arkadaşları	-6979
................	-6980
yat	-6981
▁satır	-6982
henn	-6983
▁bulma	-6984
▁santr	-6985
soy	-6986
▁öğrencilere	-6987
▁hamur	-6988
anları	-6989
▁işyer	-6990
▁ölen	-6991
▁kapısı	-6992
und	-6993
▁aktivit	-6994
ami	-6995
çileri	-6996
▁kendime	-6997
▁uzaktan	-6998
▁öğrenme	-6999
▁ayet	-7000
▁kg	-7001
oper	-7002
▁edeceğiz	-7003
▁seksi	-7004
▁mobilya	-7005
▁star	-7006
▁müzak	-7007
▁şimdiye	-7008
sc	-7009
atçı	-7010
▁pamuk	-7011
▁05	-7012
▁uk	-7013
▁varlığı	-7014
-10	-7015
▁kavg	-7016
▁sunmaktadır	-7017
▁izlemek	-7018
▁dediği	-7019
das	-7020
▁katli	-7021
▁kütüphan	-7022
▁sistemin	-7023
teydi	-7024
bert	-7025
▁bulunmak	-7026
▁düzenlediği	-7027
▁denizli	-7028
▁profil	-7029
▁yavuz	-7030
çilerin	-7031
▁hic	-7032
▁gönl	-7033
▁gerekirse	-7034
▁boru	-7035
▁hakem	-7036
▁yemin	-7037
▁değişen	-7038
▁millî	-7039
▁görevini	-7040
▁eli	-7041
tüs	-7042
▁dürüst	-7043
▁pom	-7044
▁seviyorum	-7045
▁zem	-7046
▁birtakım	-7047
▁etkileri	-7048
▁dünyadaki	-7049
▁kilometre	-7050
▁inti	-7051
lon	-7052
▁olduğunun	-7053
ınıyor	-7054
▁tac	-7055
düs	-7056
▁görevl	-7057
▁ermen	-7058
▁inceleme	-7059
esto	-7060
▁prim	-7061
▁kupası	-7062
zam	-7063
▁şiddetli	-7064
▁bomb	-7065
6)	-7066
ff	-7067
▁yu	-7068
▁türkç	-7069
üyü	-7070
▁biliyoruz	-7071
▁ağa	-7072
▁keç	-7073
▁sis	-7074
▁ibadet	-7075
▁yoluna	-7076
▁farklılık	-7077
▁stok	-7078
▁muz	-7079
▁yı	-7080
▁kaşığı	-7081
amayacak	-7082
▁dizisi	-7083
▁avustur	-7084
bit	-7085
▁yetişkin	-7086
▁olayın	-7087
yurt	-7088
▁dom	-7089
▁stratejik	-7090
▁şüphesiz	-7091
▁vatandaşlar	-7092
madım	-7093
▁tom	-7094
▁federasyonu	-7095
▁tıb	-7096
şim	-7097
pi	-7098
▁unutmayın	-7099
urk	-7100
cuk	-7101
▁ekipman	-7102
▁esen	-7103
▁vezir	-7104
▁karşılığı	-7105
▁azer	-7106
cıların	-7107
▁fikri	-7108
umuzun	-7109
▁kartal	-7110
▁başlaya	-7111
▁samsung	-7112
▁nereden	-7113
▁ayrım	-7114
▁arslan	-7115
▁geçirmek	-7116
▁hesabı	-7117
▁manisa	-7118
▁kendisinden	-7119
utma	-7120
ozof	-7121
masız	-7122
▁alırken	-7123
hem	-7124
▁yardımı	-7125
we	-7126
▁arda	-7127
▁olmazsa	-7128
▁ov	-7129
▁aleyh	-7130
umuzu	-7131
▁sürüyor	-7132
▁hayatına	-7133
özel	-7134
▁bahçeli	-7135
uhaf	-7136
▁karn	-7137
▁boşan	-7138
darı	-7139
▁komutanı	-7140
▁enstitüsü	-7141
▁uf	-7142
hep	-7143
▁arkadaşım	-7144
▁büyükel	-7145
gazi	-7146
▁baktığ	-7147
▁bütçe	-7148
▁42	-7149
▁meb	-7150
▁şeytan	-7151
enkul	-7152
▁verebilir	-7153
ith	-7154
sağ	-7155
▁tarihte	-7156
indan	-7157
▁market	-7158
▁paralel	-7159
▁annem	-7160
▁hükm	-7161
▁öykü	-7162
▁payı	-7163
▁medy	-7164
▁iletişime	-7165
mıştım	-7166
imizle	-7167
▁sahte	-7168
amaş	-7169
▁eşlik	-7170
▁dönüp	-7171
▁1-	-7172
▁olmuyor	-7173
ülmüş	-7174
▁bilinc	-7175
▁ötürü	-7176
▁yakıt	-7177
mıyorum	-7178
.10	-7179
bun	-7180
ânı	-7181
▁kayıtlı	-7182
44	-7183
lanmaktadır	-7184
sus	-7185
▁durak	-7186
▁bilmiyor	-7187
▁kasab	-7188
▁anlatır	-7189
▁şem	-7190
iya	-7191
▁eşliğinde	-7192
gulan	-7193
▁sektörü	-7194
▁sep	-7195
▁kapsamlı	-7196
tikleri	-7197
▁uzaklaştır	-7198
▁koruyucu	-7199
▁başkent	-7200
▁aylarında	-7201
▁yakış	-7202
▁verilmiştir	-7203
allı	-7204
▁kedi	-7205
abiliriz	-7206
▁ayağa	-7207
▁miras	-7208
▁işletme	-7209
arlık	-7210
▁bardak	-7211
▁konuyla	-7212
▁kalitesi	-7213
▁teknolojisi	-7214
▁akım	-7215
irli	-7216
▁kimseye	-7217
▁tarihsel	-7218
▁dışındaki	-7219
▁kimin	-7220
▁dağıtım	-7221
▁seyr	-7222
▁üyeler	-7223
▁duyduğu	-7224
▁denize	-7225
▁tahsil	-7226
▁salih	-7227
▁kamuoy	-7228
▁eklem	-7229
▁orijinal	-7230
▁üzeri	-7231
▁yurtdış	-7232
sizin	-7233
▁tuvalet	-7234
▁john	-7235
▁teâlâ	-7236
▁yil	-7237
▁akla	-7238
name	-7239
▁kitapları	-7240
duğunda	-7241
▁başından	-7242
▁katkıda	-7243
▁müzesi	-7244
▁şaşkın	-7245
▁emperyal	-7246
▁halil	-7247
▁ti	-7248
▁cis	-7249
tılı	-7250
▁maçında	-7251
▁evrensel	-7252
hiş	-7253
▁birinde	-7254
▁kazanmak	-7255
▁karşılığında	-7256
▁otor	-7257
▁girmiş	-7258
▁general	-7259
▁özgün	-7260
▁bölgenin	-7261
▁projenin	-7262
çılık	-7263
▁tamamı	-7264
▁hdp	-7265
▁çatı	-7266
▁gerçeği	-7267
tas	-7268
▁diğeri	-7269
▁250	-7270
nel	-7271
▁işini	-7272
▁çıkarak	-7273
▁reis	-7274
▁bölümde	-7275
▁görme	-7276
▁plaj	-7277
▁teknolojik	-7278
▁kıla	-7279
▁hürriyet	-7280
▁46	-7281
liydi	-7282
▁varsay	-7283
▁asan	-7284
▁çavuş	-7285
▁alanına	-7286
▁plana	-7287
bab	-7288
▁3,	-7289
baycan	-7290
tiy	-7291
▁ağırlık	-7292
ektif	-7293
▁denem	-7294
▁randev	-7295
▁geçerek	-7296
▁yıla	-7297
▁göst	-7298
anların	-7299
▁aldık	-7300
▁yapılmıştır	-7301
▁ölçek	-7302
kah	-7303
▁görünür	-7304
▁2019	-7305
0,	-7306
eyip	-7307
▁yetki	-7308
▁organik	-7309
▁lik	-7310
şak	-7311
manıza	-7312
▁alet	-7313
uki	-7314
▁denen	-7315
▁çalışmalarına	-7316
▁sizde	-7317
▁vergisi	-7318
▁zeki	-7319
dv	-7320
▁korunması	-7321
▁slog	-7322
▁protein	-7323
▁alınmış	-7324
▁haksız	-7325
▁bilgilere	-7326
▁ihal	-7327
▁konuları	-7328
alarıyla	-7329
▁fı	-7330
▁böylelikle	-7331
eyebilirsiniz	-7332
cik	-7333
▁açıklam	-7334
lüğünü	-7335
tp	-7336
▁değerleri	-7337
▁vil	-7338
▁gitmiş	-7339
▁halkının	-7340
▁cezalandır	-7341
▁belirgin	-7342
▁herkesi	-7343
lerimi	-7344
▁casino	-7345
▁kale	-7346
▁sonuçta	-7347
▁danışmanlık	-7348
▁isteyenler	-7349
ich	-7350
▁muam	-7351
▁rüzg	-7352
tes	-7353
ersiniz	-7354
▁görülmektedir	-7355
▁türkmen	-7356
▁arif	-7357
tab	-7358
▁uydur	-7359
▁çamaş	-7360
▁eşsiz	-7361
▁büyüt	-7362
▁karın	-7363
▁kalıyor	-7364
işle	-7365
▁şok	-7366
▁hafız	-7367
▁minik	-7368
▁geçmek	-7369
▁kurtu	-7370
sm	-7371
liğinden	-7372
▁selçuklu	-7373
▁filozof	-7374
salar	-7375
▁kaybı	-7376
▁instagram	-7377
▁yürek	-7378
ilmişti	-7379
burg	-7380
▁anlatım	-7381
▁kurulmuş	-7382
▁yılına	-7383
▁özellikler	-7384
▁sağlanması	-7385
▁şarj	-7386
onsor	-7387
▁misiniz	-7388
▁sayılır	-7389
itasyon	-7390
▁ilçesi	-7391
esir	-7392
utube	-7393
▁oruç	-7394
▁uydu	-7395
▁bekleniyor	-7396
▁rot	-7397
eydi	-7398
▁tutun	-7399
ilmelidir	-7400
▁talimat	-7401
▁camii	-7402
▁120	-7403
▁yüzüne	-7404
▁boşluk	-7405
avv	-7406
▁bilmek	-7407
eğine	-7408
▁sesle	-7409
fan	-7410
▁gayrimenkul	-7411
▁cehenn	-7412
▁işık	-7413
▁satışı	-7414
ağına	-7415
▁tıbbi	-7416
▁mühendisliği	-7417
▁chat	-7418
▁kısmında	-7419
raç	-7420
urfa	-7421
▁sayısının	-7422
▁balkan	-7423
▁bayanlar	-7424
raz	-7425
-8	-7426
▁yöntemleri	-7427
▁yüklen	-7428
▁olgu	-7429
▁görünüş	-7430
▁tavuk	-7431
▁vadeli	-7432
▁atmos	-7433
lgili	-7434
▁gülüms	-7435
▁düşündüğ	-7436
▁medyum	-7437
▁tuhaf	-7438
▁topu	-7439
mit	-7440
▁sınıfı	-7441
▁tüp	-7442
▁evrak	-7443
▁istenen	-7444
▁sov	-7445
üyük	-7446
▁taahh	-7447
▁tarihine	-7448
9)	-7449
▁zihn	-7450
▁görüşme	-7451
▁hepimiz	-7452
▁çetin	-7453
▁gelmez	-7454
▁muhtemelen	-7455
ax	-7456
▁dersi	-7457
▁faaliyetleri	-7458
▁sitesinde	-7459
▁obj	-7460
▁mevki	-7461
▁testi	-7462
▁formu	-7463
gn	-7464
▁başa	-7465
sar	-7466
enk	-7467
▁çıkma	-7468
▁olsaydı	-7469
7)	-7470
▁noktasında	-7471
▁umarım	-7472
▁devamını	-7473
▁sahipleri	-7474
▁kişilere	-7475
▁kurş	-7476
gari	-7477
▁kep	-7478
▁dönemlerde	-7479
ice	-7480
lý	-7481
▁başlamıştır	-7482
▁alımı	-7483
▁vasıt	-7484
▁eti	-7485
▁dor	-7486
▁yardımıyla	-7487
ârî	-7488
▁kaybeden	-7489
ecik	-7490
▁$	-7491
▁lastik	-7492
▁burs	-7493
▁gecesi	-7494
çağı	-7495
▁varmış	-7496
▁bayra	-7497
▁ülkelerin	-7498
▁hani	-7499
▁malzemeler	-7500
▁korkut	-7501
▁lev	-7502
▁hattı	-7503
▁sy	-7504
▁rezervasyon	-7505
▁vermesi	-7506
▁air	-7507
▁tabgaç	-7508
▁geleceği	-7509
▁şahit	-7510
▁gözü	-7511
îm	-7512
▁rica	-7513
akat	-7514
▁şam	-7515
▁gerçekleşti	-7516
▁itibarı	-7517
.11	-7518
▁sıcaklık	-7519
ört	-7520
adi	-7521
ğiyle	-7522
▁kaba	-7523
alılar	-7524
▁konseyi	-7525
▁yazıyor	-7526
likten	-7527
âde	-7528
▁adamları	-7529
▁başkenti	-7530
▁giderken	-7531
▁biber	-7532
▁öğle	-7533
▁zik	-7534
▁eyalet	-7535
▁elbise	-7536
lerinize	-7537
▁toplantıda	-7538
▁bebe	-7539
liyoruz	-7540
▁şap	-7541
▁sponsor	-7542
▁değişken	-7543
▁şirketleri	-7544
▁yararlı	-7545
▁bran	-7546
abilirler	-7547
▁sn	-7548
▁edenler	-7549
▁kurucu	-7550
▁resimleri	-7551
▁idari	-7552
▁peygamberimiz	-7553
▁semt	-7554
ılığı	-7555
stil	-7556
▁rev	-7557
▁yoldan	-7558
▁rekor	-7559
ıplak	-7560
▁gününde	-7561
▁başkanlık	-7562
▁sevinç	-7563
▁dolandır	-7564
▁düzel	-7565
▁akrab	-7566
▁2006	-7567
▁by	-7568
▁maçta	-7569
▁kriter	-7570
aa	-7571
▁geçirdi	-7572
▁karmaşık	-7573
kender	-7574
▁yazıcı	-7575
kö	-7576
▁toptan	-7577
▁hukuki	-7578
▁yağış	-7579
▁kılıçdaroğlu	-7580
65	-7581
graf	-7582
▁demokras	-7583
▁beklet	-7584
▁otuz	-7585
▁gönderilen	-7586
▁uygulamaya	-7587
▁özlem	-7588
▁kurulum	-7589
esince	-7590
▁tatmin	-7591
ımdan	-7592
▁önemlisi	-7593
ınd	-7594
kz	-7595
aladı	-7596
▁uyarınca	-7597
▁sakat	-7598
ımızdan	-7599
fez	-7600
▁katk	-7601
▁ikna	-7602
▁kullanılarak	-7603
▁taksit	-7604
▁hayatında	-7605
oks	-7606
▁marmara	-7607
▁gökyüz	-7608
▁yüzyılda	-7609
▁amaçla	-7610
til	-7611
▁odaları	-7612
▁düzenlendi	-7613
▁liman	-7614
iret	-7615
press	-7616
▁trak	-7617
▁muc	-7618
▁kılav	-7619
▁yüzünü	-7620
▁devreye	-7621
aket	-7622
▁bahçe	-7623
▁çalıştığı	-7624
▁âyet	-7625
în	-7626
lım	-7627
▁yerinden	-7628
api	-7629
▁tüketici	-7630
▁samimi	-7631
▁cor	-7632
ng	-7633
larsa	-7634
▁sürüm	-7635
devlet	-7636
▁sizlerin	-7637
▁dinamik	-7638
▁okula	-7639
▁gidiş	-7640
▁öteki	-7641
▁müzi	-7642
▁hollanda	-7643
emeyecek	-7644
çuk	-7645
▁yönetici	-7646
▁bilimleri	-7647
ges	-7648
lası	-7649
▁istemez	-7650
▁üni	-7651
▁subay	-7652
▁pant	-7653
▁atıyor	-7654
▁sizinle	-7655
▁şubesi	-7656
ach	-7657
▁semp	-7658
▁azerbaycan	-7659
▁hastane	-7660
▁cengiz	-7661
▁çıkarmak	-7662
▁kesi	-7663
▁kadına	-7664
▁sovyet	-7665
espor	-7666
▁kocaman	-7667
▁dâh	-7668
▁anım	-7669
ğimde	-7670
▁posta	-7671
▁bölgesel	-7672
▁teklifi	-7673
▁ordusun	-7674
lülük	-7675
▁kitaplar	-7676
▁ettiğimiz	-7677
▁we	-7678
▁konaklama	-7679
iyetle	-7680
▁felsefe	-7681
▁metro	-7682
▁başlık	-7683
▁müthiş	-7684
ısındaki	-7685
▁bekledi	-7686
not	-7687
irt	-7688
beyaz	-7689
▁75	-7690
▁yapılabilir	-7691
▁çapında	-7692
▁düşünceler	-7693
▁somut	-7694
▁örgü	-7695
-7	-7696
▁yayımlanan	-7697
▁yıllarında	-7698
▁yazarı	-7699
▁fre	-7700
▁41	-7701
kam	-7702
▁musunuz	-7703
▁derhal	-7704
▁yerleşim	-7705
benim	-7706
▁sistemine	-7707
▁inanılmaz	-7708
▁gebelik	-7709
▁sanık	-7710
▁rız	-7711
▁kongre	-7712
▁çoğunlukla	-7713
▁müd	-7714
▁getirildi	-7715
▁gölg	-7716
▁dinlen	-7717
▁kolaylıkla	-7718
▁fakir	-7719
laşması	-7720
▁intik	-7721
linik	-7722
▁komün	-7723
▁altyapı	-7724
eğer	-7725
esidir	-7726
▁projeleri	-7727
▁temizliği	-7728
▁gidece	-7729
▁hazin	-7730
tıp	-7731
▁gergin	-7732
▁girip	-7733
gâh	-7734
▁gibiydi	-7735
▁sistemini	-7736
▁köl	-7737
▁gönderdi	-7738
ılırken	-7739
▁tutmak	-7740
▁iklim	-7741
▁merkezine	-7742
▁yürürlüğe	-7743
▁yahudi	-7744
▁duru	-7745
malıyız	-7746
▁my	-7747
▁maliye	-7748
ûn	-7749
▁adli	-7750
▁boyutu	-7751
▁eşyalar	-7752
▁verilmiş	-7753
▁sayfada	-7754
▁sinan	-7755
ary	-7756
▁referans	-7757
▁yazın	-7758
▁yapay	-7759
▁bildirildi	-7760
▁11.	-7761
▁istasyon	-7762
ilmeye	-7763
▁muhafaza	-7764
emize	-7765
▁nükle	-7766
▁iyileş	-7767
▁eng	-7768
▁araçlar	-7769
▁edecektir	-7770
▁haftalık	-7771
lıyoruz	-7772
▁kadir	-7773
▁desen	-7774
▁ölümü	-7775
tıklarını	-7776
▁yazma	-7777
▁olmasının	-7778
▁ettiğiniz	-7779
▁çim	-7780
laç	-7781
▁kaybed	-7782
!..	-7783
▁stil	-7784
▁epey	-7785
uluyor	-7786
dis	-7787
▁suya	-7788
▁piyasa	-7789
▁ülkeye	-7790
▁tarafa	-7791
ure	-7792
ani	-7793
dıköy	-7794
▁pozitif	-7795
lasman	-7796
▁olanların	-7797
▁filmleri	-7798
▁tartışma	-7799
▁sitemizde	-7800
cal	-7801
▁pilot	-7802
▁asansör	-7803
▁arkasından	-7804
▁zamanın	-7805
hid	-7806
▁ga	-7807
▁piyasaya	-7808
▁irti	-7809
juv	-7810
▁yarattığı	-7811
▁topar	-7812
▁ortadoğu	-7813
▁sunar	-7814
▁işletim	-7815
likte	-7816
▁edit	-7817
▁savaşın	-7818
▁çeliş	-7819
mesin	-7820
▁190	-7821
▁nöbet	-7822
layınız	-7823
▁ilanı	-7824
ses	-7825
▁tüf	-7826
▁acel	-7827
▁ısıt	-7828
▁sinyal	-7829
▁sözleşmesi	-7830
abilmesi	-7831
zin	-7832
▁beton	-7833
▁yazan	-7834
▁çırp	-7835
▁yapış	-7836
stra	-7837
▁kullanıyor	-7838
▁alakalı	-7839
▁bırakıp	-7840
sten	-7841
▁razı	-7842
▁maksim	-7843
’’	-7844
▁ülkelerde	-7845
dere	-7846
oğol	-7847
nas	-7848
▁cah	-7849
dilik	-7850
▁kağı	-7851
▁zamandır	-7852
▁ismini	-7853
▁kullanılabil	-7854
▁buluştur	-7855
ilmek	-7856
düler	-7857
▁anket	-7858
çısı	-7859
▁suçlu	-7860
▁istiyordu	-7861
▁içecek	-7862
zaman	-7863
▁platformu	-7864
▁hakaret	-7865
▁ailenin	-7866
▁sunucu	-7867
▁müj	-7868
▁döndür	-7869
▁topla	-7870
▁resm	-7871
sviç	-7872
gelen	-7873
üğü	-7874
▁varlığını	-7875
▁zorla	-7876
uyan	-7877
▁arıyor	-7878
▁şarap	-7879
▁(2)	-7880
yaspor	-7881
▁karaman	-7882
▁getiriyor	-7883
▁vekil	-7884
▁yaşamını	-7885
▁neticesinde	-7886
▁savcı	-7887
▁yolun	-7888
pet	-7889
▁led	-7890
anızı	-7891
▁ilim	-7892
▁olmasın	-7893
▁etkileş	-7894
▁saatte	-7895
▁istatistik	-7896
▁harc	-7897
▁skor	-7898
▁yang	-7899
▁hang	-7900
alik	-7901
uzun	-7902
▁yürütülen	-7903
▁öbür	-7904
don	-7905
▁sadık	-7906
▁işlemler	-7907
▁mum	-7908
▁kopar	-7909
malara	-7910
▁tırman	-7911
▁meydanı	-7912
use	-7913
▁seviş	-7914
▁dostluk	-7915
cum	-7916
▁düzeni	-7917
▁sınırsız	-7918
mik	-7919
▁yargılan	-7920
▁japon	-7921
▁ölçüm	-7922
▁protesto	-7923
▁atöly	-7924
▁kurumlar	-7925
▁oğuz	-7926
▁2-	-7927
▁gösteri	-7928
8)	-7929
▁japonya	-7930
▁inşallah	-7931
▁direkt	-7932
▁milyonlarca	-7933
▁bırakın	-7934
▁otop	-7935
▁imar	-7936
▁toplantısında	-7937
▁ziraat	-7938
rosoft	-7939
jan	-7940
▁hr	-7941
dedi	-7942
▁sağlamaktadır	-7943
▁bülent	-7944
▁açığa	-7945
iyeli	-7946
▁yarışma	-7947
▁aldır	-7948
▁asgari	-7949
42	-7950
▁sanıyor	-7951
▁avusturya	-7952
▁çıkmak	-7953
▁olmasından	-7954
▁girmek	-7955
▁buton	-7956
▁göçmen	-7957
▁boşal	-7958
▁koşulları	-7959
▁aynen	-7960
▁oluşturmak	-7961
▁rady	-7962
▁taşıyor	-7963
emiyorum	-7964
▁lezzetli	-7965
▁baraj	-7966
▁çür	-7967
▁hadi	-7968
▁yüzyılın	-7969
▁zeytinya	-7970
▁sars	-7971
▁tebliğ	-7972
iliğin	-7973
▁tün	-7974
▁değişiklikler	-7975
▁içerir	-7976
▁maddesinin	-7977
▁açar	-7978
melerine	-7979
▁vazgeçilmez	-7980
▁göreve	-7981
▁yağlı	-7982
▁arabistan	-7983
elif	-7984
▁kemer	-7985
▁verdik	-7986
▁staj	-7987
▁niçin	-7988
▁türklerin	-7989
itler	-7990
▁kurdu	-7991
▁macar	-7992
▁gözyaş	-7993
▁oynanan	-7994
▁amatör	-7995
übe	-7996
▁izledi	-7997
ýþ	-7998
omet	-7999
.(	-8000
sür	-8001
yani	-8002
▁üzül	-8003
▁beklemek	-8004
inizden	-8005
▁bedeli	-8006
rad	-8007
▁düşer	-8008
bağ	-8009
uluğu	-8010
▁seo	-8011
▁durumuna	-8012
▁suudi	-8013
▁vitamin	-8014
▁sade	-8015
▁profes	-8016
▁kralı	-8017
▁fın	-8018
▁seçilen	-8019
ilerinde	-8020
▁esnek	-8021
▁gazeteci	-8022
ileriyle	-8023
▁teknolojileri	-8024
▁reç	-8025
▁ajansı	-8026
▁üzün	-8027
▁fırın	-8028
▁şe	-8029
▁parkı	-8030
dığın	-8031
▁izleyen	-8032
ebilen	-8033
▁mühendislik	-8034
▁kızar	-8035
▁masal	-8036
emizi	-8037
!!	-8038
▁ai	-8039
yorum	-8040
ülasyon	-8041
▁bulacak	-8042
▁oluşturur	-8043
▁olmasıdır	-8044
▁bizleri	-8045
▁sayfası	-8046
▁geliyordu	-8047
▁düzenlenecek	-8048
skender	-8049
▁ihmal	-8050
▁maddeler	-8051
▁sic	-8052
▁herşey	-8053
▁albay	-8054
lab	-8055
▁limon	-8056
▁manzar	-8057
▁frag	-8058
▁kaçınılmaz	-8059
cav	-8060
labil	-8061
▁içeriği	-8062
▁katil	-8063
49	-8064
▁reform	-8065
olik	-8066
▁kendinize	-8067
▁fig	-8068
▁metr	-8069
▁değilse	-8070
tiğimiz	-8071
lendirme	-8072
▁duv	-8073
▁inci	-8074
▁reddet	-8075
▁youtube	-8076
▁caf	-8077
▁bilimler	-8078
▁forma	-8079
▁ispat	-8080
▁yükselen	-8081
▁iyilik	-8082
▁etmekte	-8083
▁domat	-8084
▁nadir	-8085
▁hatun	-8086
▁bakımdan	-8087
▁toplamda	-8088
▁cey	-8089
▁gran	-8090
▁gittim	-8091
wer	-8092
▁sürüc	-8093
ağının	-8094
▁olayların	-8095
izasyon	-8096
▁uzanan	-8097
▁alanlarında	-8098
▁içten	-8099
atlar	-8100
ive	-8101
▁kablo	-8102
▁turgut	-8103
▁kıt	-8104
▁glo	-8105
kiralama	-8106
ilirken	-8107
▁yarısı	-8108
▁arı	-8109
▁verilmektedir	-8110
▁kötülük	-8111
▁parlament	-8112
uyorlar	-8113
▁trend	-8114
▁verin	-8115
▁kızlar	-8116
▁bilişim	-8117
ld	-8118
▁yaralandı	-8119
..."	-8120
▁kıp	-8121
▁vekili	-8122
▁milletler	-8123
▁ked	-8124
▁yapmaktadır	-8125
▁çir	-8126
usun	-8127
ilecektir	-8128
önü	-8129
▁digiturk	-8130
▁kalkış	-8131
▁sözcü	-8132
▁şof	-8133
▁getirilen	-8134
layabilirsiniz	-8135
▁deneme	-8136
ash	-8137
▁cerrahi	-8138
yeri	-8139
▁ita	-8140
ağında	-8141
▁gor	-8142
▁sözünü	-8143
▁noktaya	-8144
labilir	-8145
▁kadıköy	-8146
▁öyl	-8147
▁hatay	-8148
▁verip	-8149
▁zorundadır	-8150
▁oluşturduğu	-8151
▁hızlandır	-8152
▁ihale	-8153
▁parçaları	-8154
cilerin	-8155
▁tarafta	-8156
▁görmez	-8157
▁selçuk	-8158
▁aldıkları	-8159
▁ekledi	-8160
▁oluyordu	-8161
▁personeli	-8162
tro	-8163
▁cümle	-8164
▁moğol	-8165
▁logo	-8166
▁kategorisinde	-8167
▁tencer	-8168
iyesi	-8169
▁gülen	-8170
▁eks	-8171
▁ilgilendir	-8172
▁nükleer	-8173
buki	-8174
abilmektedir	-8175
larımızla	-8176
ılışı	-8177
evî	-8178
söz	-8179
taç	-8180
▁bag	-8181
▁01	-8182
▁2005	-8183
▁vatandaşların	-8184
zade	-8185
▁alçak	-8186
▁geçmişte	-8187
▁koydu	-8188
▁yapacağı	-8189
▁fuarı	-8190
▁öğrenildi	-8191
▁alp	-8192
▁serisi	-8193
▁yaptığım	-8194
alarca	-8195
▁dönen	-8196
▁meşgul	-8197
masıdır	-8198
▁mekân	-8199
▁odaklı	-8200
▁arma	-8201
▁bası	-8202
▁gelişimi	-8203
29	-8204
▁dükkan	-8205
▁eserleri	-8206
▁bolu	-8207
▁çözümü	-8208
▁hizmete	-8209
▁ikili	-8210
▁dostu	-8211
dığının	-8212
▁oturan	-8213
▁toplanan	-8214
▁yıldan	-8215
▁cüz	-8216
▁düşünen	-8217
▁muğla	-8218
ümde	-8219
izmi	-8220
iyete	-8221
▁isteği	-8222
gk	-8223
▁istikrar	-8224
▁şehirde	-8225
▁sök	-8226
▁kâr	-8227
endi	-8228
▁pişman	-8229
▁ulaştı	-8230
▁küp	-8231
▁aldığını	-8232
▁sindir	-8233
▁kumandan	-8234
ux	-8235
eyiz	-8236
3’	-8237
dini	-8238
▁bekliyoruz	-8239
▁gösterilen	-8240
iliğinden	-8241
▁şanlıurfa	-8242
▁istediğim	-8243
miyorum	-8244
▁kudüs	-8245
lub	-8246
▁@	-8247
madığını	-8248
ilya	-8249
ikal	-8250
▁hazırlanmış	-8251
▁yazdı	-8252
▁muhalefet	-8253
amıyorum	-8254
▁talebi	-8255
▁devletleri	-8256
aşı	-8257
▁yaratan	-8258
▁balıkesir	-8259
▁kanaat	-8260
diğin	-8261
▁arız	-8262
▁insanlık	-8263
▁lat	-8264
▁loj	-8265
▁terim	-8266
▁ömr	-8267
▁ste	-8268
▁değişimi	-8269
▁partner	-8270
▁önlemek	-8271
▁seçeneği	-8272
▁meşru	-8273
tv	-8274
▁isimler	-8275
▁çalışırken	-8276
▁bakanlar	-8277
▁1000	-8278
▁siteniz	-8279
▁tehlike	-8280
▁12.	-8281
umuza	-8282
▁öztürk	-8283
▁bakarak	-8284
▁şirketler	-8285
▁vize	-8286
▁sürdü	-8287
▁yerin	-8288
▁telek	-8289
▁almayı	-8290
▁oynamak	-8291
▁söylediği	-8292
▁birimi	-8293
oni	-8294
ndaki	-8295
▁hayatının	-8296
▁kaynaklanan	-8297
dinde	-8298
zen	-8299
▁put	-8300
▁büyüsü	-8301
ülebil	-8302
▁şartlar	-8303
▁dilim	-8304
▁seminer	-8305
▁afyon	-8306
▁yapılandır	-8307
▁aram	-8308
▁bozukluk	-8309
ılacaktır	-8310
▁yücel	-8311
▁kullanmaya	-8312
▁geliştirmek	-8313
▁oturma	-8314
▁layık	-8315
▁müziği	-8316
▁yaşamış	-8317
▁gereksiz	-8318
▁mevzuat	-8319
▁vermeden	-8320
lıyordu	-8321
▁çamaşır	-8322
işe	-8323
▁kazak	-8324
▁dâhil	-8325
ano	-8326
▁başlıca	-8327
yük	-8328
▁ric	-8329
▁maksimum	-8330
▁aldığım	-8331
▁burjuv	-8332
▁oturum	-8333
dig	-8334
▁randevu	-8335
▁taahhüt	-8336
▁ediyorlar	-8337
▁titiz	-8338
▁venedik	-8339
▁çalışıyoruz	-8340
çılar	-8341
▁politikası	-8342
▁yapıştır	-8343
▁öğrenim	-8344
▁sex	-8345
▁yoksun	-8346
▁aşamasında	-8347
▁içerisine	-8348
▁bla	-8349
leniyor	-8350
▁abon	-8351
▁pantol	-8352
▁düşündü	-8353
▁mâ	-8354
▁sisteme	-8355
▁depolama	-8356
▁astr	-8357
▁tâ	-8358
app	-8359
▁parayı	-8360
ırda	-8361
▁kısac	-8362
ünc	-8363
niz	-8364
▁sıfat	-8365
mışlar	-8366
▁ın	-8367
▁izni	-8368
▁tıklayın	-8369
??	-8370
▁bilgilerin	-8371
▁kendimizi	-8372
▁dib	-8373
lidir	-8374
▁alama	-8375
▁sorunsuz	-8376
41	-8377
osman	-8378
▁döş	-8379
▁adil	-8380
▁kendinden	-8381
▁çılgın	-8382
▁havada	-8383
lusu	-8384
▁belgeler	-8385
▁erkeklerin	-8386
▁sadak	-8387
▁ortamı	-8388
▁yolculuğ	-8389
.»	-8390
büyük	-8391
▁izlem	-8392
▁gereklidir	-8393
▁isimleri	-8394
2’	-8395
▁tersine	-8396
▁haric	-8397
cell	-8398
▁çıplak	-8399
▁tarihe	-8400
çası	-8401
lediler	-8402
▁oyunda	-8403
▁konulu	-8404
▁tutuklu	-8405
▁nice	-8406
▁verileri	-8407
je	-8408
▁geçip	-8409
▁yanıl	-8410
▁diliyorum	-8411
▁mesajı	-8412
▁imam	-8413
▁şerif	-8414
lil	-8415
arş	-8416
brek	-8417
onspor	-8418
▁referan	-8419
▁üretici	-8420
▁amas	-8421
▁dünyasında	-8422
lçesi	-8423
▁çı	-8424
dunuz	-8425
▁farkınd	-8426
ayın	-8427
amın	-8428
▁yazdır	-8429
▁körfez	-8430
▁sözlü	-8431
▁şansı	-8432
şin	-8433
▁yükleme	-8434
▁kombi	-8435
▁char	-8436
▁kandır	-8437
▁rüyada	-8438
▁harp	-8439
▁fakült	-8440
uyla	-8441
▁merkezleri	-8442
▁etkiler	-8443
▁örnekleri	-8444
▁yakında	-8445
▁ört	-8446
▁beraberinde	-8447
▁işten	-8448
▁etmeden	-8449
▁poli	-8450
ruz	-8451
▁kapıyı	-8452
▁ihlal	-8453
▁alem	-8454
▁kurşun	-8455
▁58	-8456
âye	-8457
luğunda	-8458
▁kongresi	-8459
▁sıç	-8460
▁konusundaki	-8461
▁çarpış	-8462
▁etsin	-8463
▁mosk	-8464
▁ikiye	-8465
▁dub	-8466
▁sürdürülebilir	-8467
▁balkon	-8468
▁sandık	-8469
istler	-8470
▁<	-8471
▁cezaev	-8472
▁maddenin	-8473
▁yazılmış	-8474
▁burcu	-8475
▁tokat	-8476
▁43	-8477
▁günümüze	-8478
▁ödey	-8479
ebileceği	-8480
▁murad	-8481
tığınız	-8482
▁ilerleyen	-8483
▁biliyordu	-8484
malarının	-8485
▁planda	-8486
▁hastanın	-8487
▁restoran	-8488
▁ukray	-8489
▁musa	-8490
ğimizde	-8491
▁arayış	-8492
▁musun	-8493
▁600	-8494
▁lar	-8495
▁atmosfer	-8496
▁belirsiz	-8497
▁başak	-8498
▁elli	-8499
▁cemal	-8500
acılık	-8501
▁--	-8502
▁doğalgaz	-8503
▁açıl	-8504
▁vakti	-8505
miz	-8506
ted	-8507
azığ	-8508
▁tavan	-8509
▁savaşa	-8510
▁birincisi	-8511
▁riski	-8512
▁açmak	-8513
▁tarihinin	-8514
▁istemiş	-8515
▁kaşık	-8516
▁tekstil	-8517
▁rey	-8518
▁boyn	-8519
▁ilişkisi	-8520
▁kritik	-8521
ırdı	-8522
▁tırnak	-8523
▁yab	-8524
▁inanc	-8525
▁tazminat	-8526
▁onarım	-8527
▁aldığımız	-8528
▁hev	-8529
▁sarayı	-8530
aklı	-8531
nc	-8532
mektir	-8533
▁aşam	-8534
mece	-8535
▁çeşitleri	-8536
▁konse	-8537
▁resmen	-8538
▁girdiği	-8539
▁kurumları	-8540
▁kokusu	-8541
▁yazısı	-8542
laşmış	-8543
▁hedefi	-8544
▁takımın	-8545
yolu	-8546
▁rit	-8547
▁rejim	-8548
▁işken	-8549
▁medyada	-8550
▁misyon	-8551
▁olurken	-8552
umun	-8553
sor	-8554
▁kelimeler	-8555
▁microsoft	-8556
tra	-8557
▁başladılar	-8558
▁bük	-8559
▁böcek	-8560
▁bağlıdır	-8561
▁bilge	-8562
akal	-8563
▁çif	-8564
▁fabrika	-8565
▁kef	-8566
set	-8567
▁planlama	-8568
▁arapça	-8569
kent	-8570
portaj	-8571
▁ilham	-8572
sviçre	-8573
▁seviyede	-8574
▁girecek	-8575
▁başlığı	-8576
▁disk	-8577
▁yaptığınız	-8578
▁eren	-8579
dro	-8580
▁çeyrek	-8581
gb	-8582
▁paylaşmak	-8583
▁tasavv	-8584
▁artar	-8585
▁arkadaşlık	-8586
▁kaplı	-8587
▁sebze	-8588
htm	-8589
▁sho	-8590
▁firmaların	-8591
▁bakıldığında	-8592
imp	-8593
▁kk	-8594
▁kin	-8595
▁kılın	-8596
▁buhar	-8597
▁direktörü	-8598
▁yuvarlak	-8599
▁idam	-8600
▁ayrılan	-8601
▁satıcı	-8602
baz	-8603
▁mağlup	-8604
df	-8605
▁09	-8606
▁olabileceğini	-8607
▁müraca	-8608
▁gun	-8609
▁sekreter	-8610
kül	-8611
▁kaleme	-8612
▁altından	-8613
▁atom	-8614
▁itiraf	-8615
▁sözlerini	-8616
iyye	-8617
▁bekir	-8618
şah	-8619
▁elektrikli	-8620
▁buğday	-8621
ildiğinde	-8622
▁denli	-8623
:0	-8624
▁kalmadı	-8625
▁etmeniz	-8626
▁anlamıyla	-8627
rit	-8628
▁geçtiği	-8629
▁py	-8630
▁başarılar	-8631
▁divan	-8632
▁tarihten	-8633
çinde	-8634
▁kombin	-8635
ght	-8636
▁oynayan	-8637
▁görebilirsiniz	-8638
▁turan	-8639
▁içe	-8640
▁dalga	-8641
▁fiyatlar	-8642
▁görülüyor	-8643
▁ram	-8644
▁onlarca	-8645
▁tank	-8646
▁yaşamı	-8647
▁‘’	-8648
şletme	-8649
▁rom	-8650
▁rıza	-8651
▁komik	-8652
▁kuruluşları	-8653
▁katal	-8654
leyse	-8655
▁konsol	-8656
▁fah	-8657
▁küm	-8658
▁ihraç	-8659
▁çözümler	-8660
▁oldular	-8661
▁şuan	-8662
vers	-8663
▁deplasman	-8664
▁nolu	-8665
mosyon	-8666
değer	-8667
birliği	-8668
▁midir	-8669
▁atılan	-8670
▁durumlar	-8671
▁peşinde	-8672
▁vaj	-8673
▁kardeşim	-8674
▁öğrencisi	-8675
▁ingil	-8676
▁wil	-8677
▁mp	-8678
ena	-8679
▁valide	-8680
▁böbrek	-8681
ünür	-8682
ss	-8683
▁prog	-8684
▁kars	-8685
▁evleri	-8686
▁istemiyor	-8687
▁açıklan	-8688
66	-8689
▁misin	-8690
isti	-8691
▁hastaneye	-8692
▁kazı	-8693
▁sözlerine	-8694
nav	-8695
▁hükümetin	-8696
▁aşı	-8697
▁okuyucu	-8698
▁soylu	-8699
▁istifa	-8700
▁etmem	-8701
▁çoktan	-8702
▁minim	-8703
▁muhasebe	-8704
dığınızda	-8705
▁deneyimli	-8706
▁attığı	-8707
▁bakmak	-8708
▁görüldüğü	-8709
lenerek	-8710
ızı	-8711
vent	-8712
idor	-8713
▁ağab	-8714
▁yazılan	-8715
▁firmanın	-8716
▁kurduğu	-8717
▁kuralları	-8718
▁açıklandı	-8719
▁sesini	-8720
▁aradan	-8721
▁hain	-8722
▁engin	-8723
▁bilinçli	-8724
▁pc	-8725
▁bakıyor	-8726
dk	-8727
▁tamamla	-8728
▁değerler	-8729
delik	-8730
▁inf	-8731
▁tadını	-8732
▁dolarlık	-8733
▁nişan	-8734
▁yapılarak	-8735
▁19.	-8736
▁oyuna	-8737
▁davası	-8738
▁hareketli	-8739
▁yunus	-8740
dünya	-8741
lamayacak	-8742
▁kullanıcıların	-8743
▁röportaj	-8744
▁harcam	-8745
▁lt	-8746
▁elden	-8747
hisar	-8748
▁etek	-8749
▁zamanlı	-8750
▁soya	-8751
▁evlat	-8752
▁sıklıkla	-8753
ulacak	-8754
▁efendim	-8755
▁üskü	-8756
biye	-8757
▁max	-8758
▁cesur	-8759
▁vakt	-8760
▁trabzonspor	-8761
▁töreni	-8762
▁duş	-8763
▁durumunu	-8764
▁açtığı	-8765
▁cenaze	-8766
▁sayılan	-8767
▁tesisat	-8768
▁itaat	-8769
▁gıd	-8770
▁sark	-8771
▁kadınları	-8772
▁sektörünün	-8773
▁iştir	-8774
▁ülkeleri	-8775
yaman	-8776
▁nazar	-8777
▁diğerleri	-8778
▁telekom	-8779
ish	-8780
▁unvan	-8781
▁sergi	-8782
oter	-8783
▁tamamladı	-8784
▁bilinmeyen	-8785
▁holding	-8786
▁sevdiği	-8787
leştirme	-8788
▁berek	-8789
▁patent	-8790
▁doğuş	-8791
▁geçecek	-8792
▁kaplama	-8793
tüğü	-8794
▁gelebilir	-8795
▁tahsis	-8796
▁virüs	-8797
▁devrimci	-8798
▁ergen	-8799
▁ardı	-8800
ırt	-8801
▁2004	-8802
▁kuruluşu	-8803
▁promosyon	-8804
▁odalar	-8805
▁diyecek	-8806
▁patates	-8807
▁https	-8808
43	-8809
cavüz	-8810
▁müddet	-8811
▁yorumlar	-8812
▁uyuş	-8813
▁ilgisi	-8814
▁bilmeyen	-8815
▁okuyan	-8816
▁öncü	-8817
▁ret	-8818
▁gönderildi	-8819
▁kullanır	-8820
melisiniz	-8821
▁lazer	-8822
ğinizde	-8823
▁görmeye	-8824
▁istenilen	-8825
▁dergi	-8826
▁durdu	-8827
▁teşeb	-8828
ğrul	-8829
▁tc	-8830
▁markası	-8831
▁iktis	-8832
▁olursunuz	-8833
{{	-8834
▁hüz	-8835
▁kolları	-8836
âd	-8837
yası	-8838
▁deneyimi	-8839
oğu	-8840
çocuk	-8841
▁oluşturulan	-8842
all	-8843
rib	-8844
▁şüpheli	-8845
▁hızı	-8846
▁domates	-8847
▁performansı	-8848
▁arazi	-8849
▁ord	-8850
▁ötesinde	-8851
▁buzdo	-8852
▁çirkin	-8853
▁umu	-8854
▁sahipliği	-8855
▁hormon	-8856
lüt	-8857
▁kucak	-8858
▁modül	-8859
▁ikamet	-8860
▁ifadesi	-8861
▁bam	-8862
▁limit	-8863
▁ceviz	-8864
▁bölümünü	-8865
abi	-8866
▁kusursuz	-8867
▁geçtik	-8868
sveç	-8869
ço	-8870
▁sag	-8871
▁tezgah	-8872
▁piyan	-8873
▁dayanan	-8874
maktaydı	-8875
▁biçimi	-8876
▁sih	-8877
▁basınç	-8878
78	-8879
▁aklıma	-8880
tiş	-8881
▁dinin	-8882
düğünde	-8883
▁gelmek	-8884
▁ayrıc	-8885
mazlar	-8886
▁evli	-8887
ısın	-8888
▁klinik	-8889
▁zav	-8890
▁lav	-8891
-15	-8892
alarak	-8893
uel	-8894
osiklet	-8895
▁ayrıldı	-8896
▁olacaktı	-8897
▁krizi	-8898
▁dedek	-8899
▁itibarıyla	-8900
▁hek	-8901
▁ışığı	-8902
stri	-8903
▁şikâyet	-8904
ülerek	-8905
▁açıp	-8906
▁geçiren	-8907
▁anlatı	-8908
▁elazığ	-8909
▁ihtiyaçlarını	-8910
▁rahatsızlık	-8911
▁berlin	-8912
▁gerekçesiyle	-8913
▁mesele	-8914
▁hayret	-8915
▁parma	-8916
▁senden	-8917
▁gelecekte	-8918
▁vermiştir	-8919
▁güçleri	-8920
▁tıkanık	-8921
▁dökül	-8922
▁muayene	-8923
▁bilgilerini	-8924
▁dönemine	-8925
▁niz	-8926
▁serin	-8927
▁hikaye	-8928
haz	-8929
▁pik	-8930
▁sunmak	-8931
▁ekstra	-8932
▁kaygı	-8933
▁artı	-8934
▁mükelle	-8935
▁olacağız	-8936
▁ortamında	-8937
▁sergilen	-8938
▁olanları	-8939
▁hissettir	-8940
▁hayvanlar	-8941
▁özal	-8942
bütün	-8943
▁etkinlikleri	-8944
▁doğdu	-8945
▁resul	-8946
▁devre	-8947
▁meselesi	-8948
ebir	-8949
▁yiğ	-8950
▁belgeleri	-8951
▁masum	-8952
▁fazlasıyla	-8953
▁emanet	-8954
üç	-8955
spanyol	-8956
▁askerlik	-8957
▁geldim	-8958
nes	-8959
▁müsabak	-8960
▁çalışmaların	-8961
▁kısmen	-8962
▁yaşamın	-8963
sed	-8964
▁kaynaklı	-8965
▁mekke	-8966
▁cihazı	-8967
▁büyüklüğ	-8968
dası	-8969
▁yara	-8970
▁fatura	-8971
▁tüc	-8972
▁demişti	-8973
▁eminim	-8974
ticaret	-8975
▁mutf	-8976
▁öğretmenler	-8977
▁vurgulayan	-8978
edikleri	-8979
▁haram	-8980
▁format	-8981
▁muhtar	-8982
jinal	-8983
:5	-8984
▁sayısını	-8985
▁gerçi	-8986
ref	-8987
▁analizi	-8988
▁dünyasının	-8989
▁çinli	-8990
▁sağladığı	-8991
▁sırf	-8992
▁şeylerin	-8993
▁peynir	-8994
▁adnan	-8995
▁efendimiz	-8996
▁moskova	-8997
▁bölgedeki	-8998
smet	-8999
▁şimdilik	-9000
zı	-9001
▁edilemez	-9002
▁kurucusu	-9003
)’	-9004
▁bağdat	-9005
açık	-9006
▁ilti	-9007
▁herş	-9008
▁istedikleri	-9009
▁kömür	-9010
pınar	-9011
mül	-9012
▁dinle	-9013
sınıf	-9014
▁soluk	-9015
▁elma	-9016
▁vitamini	-9017
▁heyeti	-9018
▁viz	-9019
▁kanlı	-9020
▁yılların	-9021
▁santral	-9022
çişleri	-9023
ington	-9024
▁kırım	-9025
▁nor	-9026
▁toplama	-9027
▁oynadığı	-9028
▁ağac	-9029
lini	-9030
▁damla	-9031
-20	-9032
▁donat	-9033
▁düşmüş	-9034
▁rep	-9035
▁zan	-9036
1’	-9037
ral	-9038
▁global	-9039
▁dışarıda	-9040
▁ağırlıklı	-9041
.200	-9042
▁geçirdiği	-9043
▁anılan	-9044
▁cadde	-9045
sir	-9046
▁güçlük	-9047
▁tüken	-9048
▁verdikleri	-9049
▁anlatmak	-9050
arka	-9051
▁dersleri	-9052
çü	-9053
▁kurma	-9054
ğım	-9055
▁mezunu	-9056
▁programına	-9057
▁temsilcileri	-9058
▁uygulanır	-9059
▁hazine	-9060
▁köşe	-9061
▁etmel	-9062
▁20.	-9063
düş	-9064
▁izleyic	-9065
▁kurulması	-9066
▁koridor	-9067
▁inanıyorum	-9068
ebilmesi	-9069
pss	-9070
▁sunuyoruz	-9071
▁aman	-9072
▁motosiklet	-9073
lana	-9074
▁görüldü	-9075
▁tecavüz	-9076
▁gördüğünüz	-9077
▁görevlisi	-9078
ladılar	-9079
▁irtibat	-9080
▁diyanet	-9081
▁4,	-9082
▁sektörde	-9083
▁ulaşan	-9084
▁gerçekte	-9085
nsanların	-9086
▁senaryo	-9087
▁verdiğini	-9088
berg	-9089
▁mühim	-9090
mp	-9091
▁muhalif	-9092
▁alışkanlık	-9093
▁ilanları	-9094
▁duygusu	-9095
danın	-9096
▁görevleri	-9097
mun	-9098
▁davut	-9099
▁ray	-9100
▁adaylar	-9101
eğinin	-9102
▁fındık	-9103
68	-9104
▁dayanışma	-9105
▁üreten	-9106
▁tetik	-9107
▁yollar	-9108
▁dönük	-9109
▁hop	-9110
▁dışarıdan	-9111
ont	-9112
iyetin	-9113
▁hemde	-9114
▁birlikt	-9115
▁yükseldi	-9116
▁mc	-9117
▁menfa	-9118
▁kalmıştı	-9119
▁haberdar	-9120
▁olduğumu	-9121
▁etkinliği	-9122
▁önemini	-9123
oli	-9124
▁eğilim	-9125
ılacağını	-9126
▁sancak	-9127
bugün	-9128
hoş	-9129
kale	-9130
▁şan	-9131
▁büro	-9132
▁parsel	-9133
▁verdiğimiz	-9134
▁eliyle	-9135
▁gerektiren	-9136
larımızda	-9137
ülük	-9138
gir	-9139
▁3-	-9140
▁düşünmek	-9141
▁bekliyorum	-9142
▁dolap	-9143
▁beyn	-9144
▁özelliklerini	-9145
▁real	-9146
▁üyelerinin	-9147
{{{	-9148
▁kira	-9149
▁mülte	-9150
▁yut	-9151
▁kavga	-9152
leyebilir	-9153
çağ	-9154
▁aittir	-9155
▁kud	-9156
▁sevilen	-9157
▁mıdır	-9158
lerinizin	-9159
larıdır	-9160
hai	-9161
▁muv	-9162
▁sevdik	-9163
▁öğrencinin	-9164
ns	-9165
▁başlayarak	-9166
▁oyuncular	-9167
▁nın	-9168
▁türkü	-9169
▁oksi	-9170
▁çevrim	-9171
▁bildirim	-9172
▁duyulan	-9173
▁rüş	-9174
▁meme	-9175
lamanın	-9176
▁hareketleri	-9177
tülü	-9178
gur	-9179
▁laboratuvar	-9180
lamıyor	-9181
▁kaynaklar	-9182
▁oluşturul	-9183
▁rolü	-9184
▁yazmak	-9185
▁başsav	-9186
▁getirerek	-9187
▁rehberi	-9188
▁tarihin	-9189
▁ilahi	-9190
odu	-9191
▁08	-9192
▁pür	-9193
▁galip	-9194
▁maçın	-9195
mışlardır	-9196
▁başladık	-9197
▁yaşamaya	-9198
▁haliyle	-9199
larımın	-9200
had	-9201
▁gittikçe	-9202
dığımı	-9203
▁om	-9204
▁avcı	-9205
çık	-9206
▁ış	-9207
▁hastalar	-9208
▁öğüt	-9209
▁almıştı	-9210
▁arke	-9211
▁şiirleri	-9212
sos	-9213
ınızdan	-9214
▁muhtemel	-9215
tti	-9216
▁hırsız	-9217
▁alerj	-9218
▁boşalt	-9219
▁muaz	-9220
▁etmedi	-9221
-19	-9222
metik	-9223
▁trt	-9224
▁hukuku	-9225
▁başrol	-9226
▁açıklamalarda	-9227
▁birde	-9228
▁apartman	-9229
▁ebev	-9230
▁zon	-9231
▁borsa	-9232
▁kıymetli	-9233
arda	-9234
umuzda	-9235
▁edemez	-9236
▁bilgiyi	-9237
▁galax	-9238
▁sarf	-9239
sti	-9240
memişti	-9241
▁tol	-9242
▁buh	-9243
▁temizleme	-9244
▁olursak	-9245
▁kararlar	-9246
▁(%	-9247
▁onar	-9248
▁hücum	-9249
▁dikkati	-9250
▁bardağı	-9251
▁ila	-9252
▁timur	-9253
▁taşır	-9254
duklarını	-9255
▁bürokr	-9256
▁atış	-9257
ılırsa	-9258
▁yapacağız	-9259
io	-9260
5’	-9261
▁ettiğim	-9262
▁endüstriyel	-9263
▁bildiği	-9264
▁kuram	-9265
ılmalıdır	-9266
▁gre	-9267
▁arist	-9268
▁oranları	-9269
▁süresince	-9270
tıkça	-9271
▁sitede	-9272
▁referandum	-9273
akkak	-9274
▁okumaya	-9275
▁galaxy	-9276
▁işlen	-9277
▁farkına	-9278
▁problemi	-9279
▁fırat	-9280
vir	-9281
▁kâğıt	-9282
▁kenti	-9283
▁baya	-9284
▁duyurdu	-9285
▁benims	-9286
▁buldum	-9287
▁yapıldığını	-9288
▁kabar	-9289
▁solu	-9290
▁pul	-9291
▁çekip	-9292
▁duyul	-9293
▁vermez	-9294
▁adamlar	-9295
başka	-9296
▁müdürlük	-9297
▁başarıyla	-9298
!)	-9299
▁vazif	-9300
▁toplumu	-9301
mazlık	-9302
▁yatırımcı	-9303
▁ihan	-9304
▁ailesinin	-9305
load	-9306
▁hij	-9307
▁dahilinde	-9308
▁odasına	-9309
▁buzdolab	-9310
▁serp	-9311
▁mardin	-9312
▁entegre	-9313
layı	-9314
▁yıllarca	-9315
▁kısacası	-9316
▁söyleyerek	-9317
nşallah	-9318
▁tanıma	-9319
▁yolla	-9320
▁parçalan	-9321
▁kuşkusuz	-9322
▁hint	-9323
:30	-9324
▁pres	-9325
▁dönüm	-9326
▁ukrayna	-9327
olojisi	-9328
▁etkisini	-9329
▁fiil	-9330
▁olurlar	-9331
▁seçkin	-9332
▁binası	-9333
▁konf	-9334
▁hayvancılık	-9335
▁mantar	-9336
▁kişiden	-9337
▁au	-9338
▁13.	-9339
abileceğini	-9340
lanmaya	-9341
▁mütte	-9342
inizle	-9343
ayn	-9344
pagan	-9345
▁tecrübe	-9346
▁ucu	-9347
▁kaydeden	-9348
▁katlı	-9349
▁gelsin	-9350
▁etkileyen	-9351
ew	-9352
▁aslı	-9353
▁kime	-9354
▁edildiğini	-9355
▁duyuru	-9356
▁rüzgâr	-9357
yid	-9358
▁kanalı	-9359
▁ruhu	-9360
▁bü	-9361
▁birleşmiş	-9362
▁hangisi	-9363
▁kızım	-9364
▁sektörün	-9365
▁sorunların	-9366
▁açılması	-9367
htiy	-9368
▁gb	-9369
▁ağrısı	-9370
200	-9371
▁imalat	-9372
▁kimya	-9373
oğul	-9374
▁what	-9375
▁işleme	-9376
▁yi	-9377
ebilmektedir	-9378
▁fav	-9379
▁yüklü	-9380
note	-9381
▁sıkıştır	-9382
▁şahs	-9383
▁barbar	-9384
▁redded	-9385
▁giys	-9386
▁çekerek	-9387
▁kıskan	-9388
▁bölgelerde	-9389
▁tarihlerinde	-9390
kem	-9391
▁yapıyorum	-9392
asın	-9393
▁öyk	-9394
bölüm	-9395
▁teşkilatı	-9396
▁basamak	-9397
▁intihar	-9398
▁havay	-9399
▁etmeleri	-9400
▁şirketlerin	-9401
▁kitapta	-9402
▁olas	-9403
▁yönlü	-9404
▁şev	-9405
▁yöneticisi	-9406
▁derler	-9407
▁kalması	-9408
landığını	-9409
▁ruhsat	-9410
enni	-9411
▁düşünerek	-9412
vil	-9413
▁deyişle	-9414
maktayız	-9415
▁02	-9416
▁âlim	-9417
hiz	-9418
▁yakalay	-9419
▁yönünden	-9420
▁müslümanlar	-9421
▁uygulanması	-9422
layabilir	-9423
▁işletmeler	-9424
veni	-9425
ulus	-9426
▁katılmak	-9427
▁kavramı	-9428
▁kentin	-9429
▁namazı	-9430
▁dediğimiz	-9431
▁vuruş	-9432
iyordum	-9433
▁kuşak	-9434
▁olabileceği	-9435
ışıklık	-9436
▁vesile	-9437
▁otomotiv	-9438
oyun	-9439
▁kapsamda	-9440
▁blu	-9441
▁þ	-9442
coin	-9443
▁sıkış	-9444
▁tecrübeli	-9445
▁tespiti	-9446
▁gri	-9447
▁haç	-9448
▁yorumları	-9449
▁unu	-9450
▁brez	-9451
▁zihinsel	-9452
▁şüphe	-9453
▁mimari	-9454
▁artıyor	-9455
▁verdiler	-9456
▁veriyoruz	-9457
▁pembe	-9458
▁gençlerin	-9459
▁öğretmenleri	-9460
▁lif	-9461
ým	-9462
▁ms	-9463
▁gerekiyordu	-9464
▁amerikalı	-9465
ect	-9466
tayız	-9467
miyordu	-9468
alamak	-9469
▁filmler	-9470
▁bulunmayan	-9471
unt	-9472
bunu	-9473
▁nil	-9474
▁olimp	-9475
4’	-9476
ebe	-9477
▁tuğ	-9478
larımızdan	-9479
▁oyla	-9480
▁mükellef	-9481
▁bot	-9482
▁maddeleri	-9483
▁nelerdir	-9484
▁zann	-9485
▁emeklilik	-9486
▁işine	-9487
▁aklına	-9488
▁okulda	-9489
▁antrenman	-9490
▁dog	-9491
▁siteler	-9492
eyebilir	-9493
ıra	-9494
▁merhamet	-9495
▁ayşe	-9496
▁değerini	-9497
hiç	-9498
etli	-9499
▁oturup	-9500
▁merkezli	-9501
▁konularında	-9502
▁kablos	-9503
win	-9504
▁sürer	-9505
▁motoru	-9506
▁ök	-9507
ûmet	-9508
▁istemiyorum	-9509
oid	-9510
▁deyip	-9511
▁güzer	-9512
ýz	-9513
▁adama	-9514
dükten	-9515
▁olmanız	-9516
faiye	-9517
leşmiş	-9518
▁bitkisel	-9519
▁mağaza	-9520
▁00	-9521
▁sonbahar	-9522
▁ihtiyaçları	-9523
▁müracaat	-9524
▁abi	-9525
cen	-9526
gay	-9527
▁reng	-9528
tezi	-9529
▁sürdürüyor	-9530
▁kavuştur	-9531
▁bilgilendirme	-9532
▁yıkan	-9533
▁propagan	-9534
▁nitelikli	-9535
▁kade	-9536
▁komutanlığı	-9537
▁detayları	-9538
ürler	-9539
▁saptan	-9540
▁amasya	-9541
▁konunun	-9542
▁belgesel	-9543
aban	-9544
aydın	-9545
▁ili	-9546
▁kis	-9547
▁erdi	-9548
▁sözde	-9549
▁down	-9550
cunun	-9551
▁yep	-9552
▁yed	-9553
menize	-9554
▁trafi	-9555
▁okyan	-9556
▁bebeğin	-9557
nâ	-9558
▁nakit	-9559
▁ülkeyi	-9560
ümin	-9561
▁grubun	-9562
▁zır	-9563
▁solun	-9564
▁saltan	-9565
▁paketi	-9566
ılıyordu	-9567
▁49	-9568
▁programında	-9569
▁hücre	-9570
▁filmde	-9571
▁vermişti	-9572
▁paramet	-9573
rut	-9574
tüel	-9575
▁mücadelesi	-9576
▁muhakkak	-9577
▁birbirini	-9578
ever	-9579
▁yiğit	-9580
▁başlay	-9581
▁gittiği	-9582
▁turkcell	-9583
▁kenara	-9584
▁gas	-9585
▁ket	-9586
▁tabir	-9587
▁gerçekleştirdi	-9588
▁güreş	-9589
▁kadınlara	-9590
▁diyordu	-9591
▁anlata	-9592
▁gelmeye	-9593
▁burak	-9594
▁parçalar	-9595
▁kos	-9596
olar	-9597
enlerin	-9598
operatif	-9599
▁oz	-9600
▁getirmiş	-9601
▁pasap	-9602
▁emri	-9603
▁arttı	-9604
▁ecz	-9605
▁coğrafya	-9606
▁pasta	-9607
▁toprağa	-9608
▁göstererek	-9609
▁180	-9610
▁sevdiğim	-9611
▁tüccar	-9612
▁geçmesi	-9613
▁2002	-9614
▁fotoğrafları	-9615
▁aşağıya	-9616
▁boyutlu	-9617
▁geleni	-9618
▁yarışması	-9619
▁hazırladığı	-9620
▁çet	-9621
lanıp	-9622
▁yönelt	-9623
▁konul	-9624
▁kuruş	-9625
▁tesad	-9626
▁çeker	-9627
▁başlandı	-9628
▁emeği	-9629
▁haftası	-9630
▁avu	-9631
▁mekanik	-9632
▁ingiliz	-9633
▁salonunda	-9634
▁paş	-9635
lav	-9636
▁ihtiyacınız	-9637
tive	-9638
▁öylesine	-9639
▁müslümanların	-9640
ışlı	-9641
ncel	-9642
▁açıklamaya	-9643
▁arkasına	-9644
▁başkanımız	-9645
luğunun	-9646
▁belirlendi	-9647
▁2/	-9648
▁rize	-9649
▁oynat	-9650
▁sesleri	-9651
ranı	-9652
▁buda	-9653
▁yapmıştır	-9654
▁cinsiyet	-9655
▁çöl	-9656
▁geliştirilen	-9657
▁çıkmıştır	-9658
▁saatlik	-9659
▁çocukluk	-9660
barat	-9661
▁baskın	-9662
osunu	-9663
▁nic	-9664
tiğim	-9665
▁bulgaristan	-9666
▁trav	-9667
76	-9668
);	-9669
▁hatip	-9670
bana	-9671
▁atar	-9672
▁dk	-9673
▁standar	-9674
▁padişahın	-9675
▁menü	-9676
▁girerek	-9677
▁enerjisi	-9678
ayıp	-9679
.2017	-9680
▁vurguladı	-9681
▁yapılacaktır	-9682
ünüzü	-9683
lanmaz	-9684
âv	-9685
▁operatör	-9686
▁hususunda	-9687
▁aldat	-9688
▁kırsal	-9689
▁noktaları	-9690
▁kampanyası	-9691
▁hum	-9692
akende	-9693
▁ileride	-9694
▁edilecektir	-9695
▁dul	-9696
▁keşfed	-9697
▁memnuniyet	-9698
▁dede	-9699
▁atmak	-9700
▁kalmaz	-9701
▁edilmelidir	-9702
▁kitle	-9703
iliğe	-9704
▁frank	-9705
▁takdim	-9706
▁tercüme	-9707
▁kendiliğinden	-9708
▁medi	-9709
▁dinlem	-9710
▁dilerim	-9711
▁yaşandı	-9712
▁|--	-9713
şimdi	-9714
▁aptal	-9715
▁edelim	-9716
▁kimseler	-9717
sah	-9718
▁üzüm	-9719
hap	-9720
▁tik	-9721
▁başardı	-9722
ril	-9723
▁sorumluluğ	-9724
▁sitenin	-9725
▁kurtulmak	-9726
urdu	-9727
▁şur	-9728
ney	-9729
memiştir	-9730
ersen	-9731
▁keşke	-9732
▁kktc	-9733
▁yöneticileri	-9734
▁çaresiz	-9735
▁düşündüm	-9736
haf	-9737
▁etmesini	-9738
▁(19	-9739
▁geçin	-9740
âk	-9741
▁up	-9742
▁ihtimali	-9743
acaksınız	-9744
▁etkisiyle	-9745
▁keşif	-9746
▁aniden	-9747
▁atarak	-9748
▁piyasada	-9749
▁inter	-9750
▁sevimli	-9751
▁belirtmek	-9752
▁miz	-9753
çal	-9754
▁kendisiyle	-9755
▁haklarını	-9756
▁belirlenmesi	-9757
▁gelişmeleri	-9758
▁adında	-9759
▁sorgulama	-9760
▁mih	-9761
▁sofr	-9762
▁toplumda	-9763
▁haftanın	-9764
▁turu	-9765
85	-9766
▁ayının	-9767
▁vücudun	-9768
▁fren	-9769
emedim	-9770
▁server	-9771
▁mineral	-9772
▁tarafına	-9773
▁wat	-9774
▁sözlük	-9775
▁tuttu	-9776
▁düzenledi	-9777
▁hepimizin	-9778
▁işlerini	-9779
dp	-9780
▁partinin	-9781
▁kararını	-9782
▁muhabbet	-9783
▁değiştirme	-9784
ebiliriz	-9785
▁aramak	-9786
▁sekreteri	-9787
lenin	-9788
▁fıs	-9789
▁bunda	-9790
▁oyuncusu	-9791
▁yoğurt	-9792
▁erkeğin	-9793
▁çinliler	-9794
yn	-9795
▁fazlasını	-9796
▁kıyasla	-9797
inip	-9798
▁galiba	-9799
▁iftar	-9800
▁aracılığı	-9801
▁anıt	-9802
▁tutk	-9803
lişkin	-9804
âil	-9805
▁sw	-9806
▁çekilen	-9807
▁milleti	-9808
▁bölgeler	-9809
kân	-9810
▁yayınlandı	-9811
▁sıralarda	-9812
▁zeh	-9813
▁yıp	-9814
▁görüp	-9815
mayacaktır	-9816
▁yapılmasına	-9817
tiz	-9818
▁imkansız	-9819
esun	-9820
ümüzü	-9821
adam	-9822
abalar	-9823
▁kullanıldığı	-9824
▁kurab	-9825
▁hepsinin	-9826
▁satan	-9827
▁opsiyon	-9828
▁öncelikli	-9829
feri	-9830
▁genetik	-9831
▁hastanede	-9832
▁sayfasında	-9833
gerçek	-9834
▁ilerlem	-9835
amızı	-9836
▁çanta	-9837
▁war	-9838
▁sebz	-9839
▁halini	-9840
▁insanlarla	-9841
▁lamb	-9842
tüğ	-9843
▁deyim	-9844
▁faydası	-9845
▁değiştirmek	-9846
▁şehirler	-9847
▁almadan	-9848
▁ellerini	-9849
▁tet	-9850
lop	-9851
▁kanada	-9852
▁kentsel	-9853
▁bırakmak	-9854
▁keyfini	-9855
âf	-9856
▁bağırsak	-9857
▁getirilmesi	-9858
▁hizmetlerini	-9859
▁eserler	-9860
▁bankalar	-9861
▁peter	-9862
▁şoför	-9863
laj	-9864
▁gölü	-9865
▁çoğunluğu	-9866
▁ayın	-9867
▁tanınan	-9868
âs	-9869
iriz	-9870
▁fedak	-9871
▁çıkmaya	-9872
▁yaptıklarını	-9873
▁cild	-9874
▁çikola	-9875
▁refah	-9876
▁ettiklerini	-9877
ilde	-9878
maktadırlar	-9879
▁mahkûm	-9880
▁çoğal	-9881
ood	-9882
ılda	-9883
▁pantolon	-9884
▁5,	-9885
▁bulmuş	-9886
▁elindeki	-9887
▁maddesinde	-9888
inler	-9889
▁taşıt	-9890
▁hükûmet	-9891
▁uşak	-9892
▁kalkan	-9893
▁çen	-9894
▁super	-9895
▁nefis	-9896
▁sosy	-9897
baba	-9898
cın	-9899
▁sayısız	-9900
▁çözül	-9901
▁topa	-9902
▁sağladı	-9903
▁çorb	-9904
kırım	-9905
▁yanından	-9906
▁ruhsal	-9907
amanın	-9908
▁olmay	-9909
guldak	-9910
▁bulgu	-9911
▁mr	-9912
lâh	-9913
▁daim	-9914
▁huzurlu	-9915
maraş	-9916
▁filtr	-9917
▁suresi	-9918
▁ekme	-9919
▁denizi	-9920
▁bud	-9921
▁gökhan	-9922
▁üsküdar	-9923
▁sürdüren	-9924
emişti	-9925
▁ustası	-9926
efa	-9927
osun	-9928
▁destan	-9929
rd	-9930
▁gerilim	-9931
tün	-9932
▁içerisindeki	-9933
▁geleceğini	-9934
hk	-9935
▁gan	-9936
▁düşünün	-9937
▁![	-9938
▁kullanılacak	-9939
',	-9940
lgi	-9941
▁yetmez	-9942
▁gönderdiği	-9943
▁yeğ	-9944
▁üste	-9945
▁görüyorum	-9946
▁çocuğa	-9947
▁depresyon	-9948
beral	-9949
▁görüşü	-9950
▁yurttaş	-9951
▁yazılar	-9952
▁seviyesi	-9953
gon	-9954
bre	-9955
▁cat	-9956
leşen	-9957
▁miydi	-9958
▁başkalarının	-9959
▁çalışanları	-9960
▁eğitime	-9961
▁alkış	-9962
▁söyle	-9963
▁benzet	-9964
▁ebeveyn	-9965
▁tadı	-9966
▁dolara	-9967
▁işareti	-9968
▁eksiksiz	-9969
▁sad	-9970
▁çelebi	-9971
urlar	-9972
▁geleceğe	-9973
▁öyleyse	-9974
▁halkla	-9975
tisiz	-9976
▁geçerlidir	-9977
zir	-9978
▁bilinmektedir	-9979
▁defalarca	-9980
▁müzaker	-9981
▁yetin	-9982
▁ateşli	-9983
naz	-9984
▁cd	-9985
▁anlaşması	-9986
ras	-9987
tahya	-9988
▁haykır	-9989
laştırma	-9990
▁askerî	-9991
▁kaymakamı	-9992
▁artması	-9993
▁sağlayacaktır	-9994
yın	-9995
▁yetkin	-9996
▁münaseb	-9997
▁hükümleri	-9998
malarda	-9999
▁yaptırım	-10000
▁adlandırılan	-10001
▁yabgu	-10002
▁bağlantısından	-10003
▁gecenin	-10004
▁meg	-10005
▁kayg	-10006
ysanız	-10007
▁isminin	-10008
▁aşamada	-10009
▁diyorlar	-10010
▁devletler	-10011
ああああ	-10012
ayi	-10013
▁kudret	-10014
▁ürünlerini	-10015
isar	-10016
▁perakende	-10017
▁baktım	-10018
▁jen	-10019
▁yaşta	-10020
▁katliam	-10021
diki	-10022
▁lojistik	-10023
çinin	-10024
▁tütün	-10025
▁prensip	-10026
▁tarifleri	-10027
▁yoz	-10028
lm	-10029
▁reg	-10030
▁gözle	-10031
▁başlamak	-10032
▁kimdir	-10033
▁klav	-10034
elek	-10035
▁kolu	-10036
▁şekeri	-10037
▁karşıt	-10038
▁oluşmaktadır	-10039
beş	-10040
etice	-10041
navut	-10042
▁kasa	-10043
iyse	-10044
ned	-10045
ald	-10046
▁ışın	-10047
▁nato	-10048
▁diyebiliriz	-10049
▁girişi	-10050
▁2003	-10051
▁zarf	-10052
▁şampiyonası	-10053
▁artışı	-10054
con	-10055
▁dikkatle	-10056
▁mav	-10057
▁yapıt	-10058
ug	-10059
▁ihtil	-10060
▁vahşi	-10061
▁teminat	-10062
▁taşımacılık	-10063
▁öğretmeni	-10064
▁başvurusu	-10065
▁kazanmış	-10066
▁seçin	-10067
▁giyin	-10068
▁topluma	-10069
laki	-10070
▁düşmanı	-10071
buğ	-10072
▁taşınmaz	-10073
lemektedir	-10074
lerimizde	-10075
▁söndür	-10076
▁menfaat	-10077
pas	-10078
].	-10079
▁koordinatör	-10080
▁adem	-10081
▁nimet	-10082
▁sıkça	-10083
foot	-10084
▁haritası	-10085
▁çıkaran	-10086
▁dönüyor	-10087
▁müsteş	-10088
cesi	-10089
eğince	-10090
▁toplantıya	-10091
barek	-10092
7’	-10093
▁endüstri	-10094
▁%100	-10095
▁çoban	-10096
▁yaşına	-10097
▁yazmış	-10098
▁profesör	-10099
▁bulup	-10100
▁reak	-10101
▁yepyeni	-10102
▁bilmez	-10103
▁başbakanı	-10104
▁renkler	-10105
▁arıza	-10106
▁15.	-10107
▁kole	-10108
epe	-10109
▁fal	-10110
▁güneşin	-10111
▁sosyalist	-10112
edd	-10113
memektedir	-10114
▁bör	-10115
▁muhtaç	-10116
▁gereğince	-10117
▁ümmet	-10118
amıza	-10119
▁indi	-10120
▁fev	-10121
▁koltuğ	-10122
▁yapabilecek	-10123
▁yaşadıkları	-10124
▁aldığınız	-10125
▁vasıtasıyla	-10126
▁avustr	-10127
▁kooperatif	-10128
▁göstergesi	-10129
▁veda	-10130
▁kpss	-10131
rid	-10132
▁programın	-10133
▁hamile	-10134
▁hayati	-10135
▁wor	-10136
▁direnç	-10137
bunun	-10138
▁kalbi	-10139
▁otopark	-10140
▁tekir	-10141
▁yükseköğretim	-10142
▁mesut	-10143
▁flor	-10144
▁mesafe	-10145
culuk	-10146
▁yüzme	-10147
▁aralar	-10148
miştim	-10149
▁neg	-10150
▁bulundukları	-10151
▁türb	-10152
üsünde	-10153
▁patlama	-10154
ikler	-10155
▁çalışmalarının	-10156
▁araçların	-10157
▁koyup	-10158
çının	-10159
▁maliyeti	-10160
luğuna	-10161
▁salat	-10162
▁sigortası	-10163
▁söylenen	-10164
▁çıkarma	-10165
▁pomp	-10166
eğiyle	-10167
nsanın	-10168
▁yaşadığımız	-10169
▁ley	-10170
▁önündeki	-10171
▁aldılar	-10172
▁bahse	-10173
▁56	-10174
▁detaylar	-10175
▁zeka	-10176
idin	-10177
▁uzmanlar	-10178
▁gündür	-10179
▁akşamı	-10180
▁kısmına	-10181
▁evrim	-10182
tının	-10183
landırma	-10184
wa	-10185
▁cevabını	-10186
daresi	-10187
▁anlatmaya	-10188
▁konuşmak	-10189
▁kelimesi	-10190
▁okuya	-10191
▁dilerseniz	-10192
izme	-10193
▁frek	-10194
▁doğrul	-10195
▁işçiler	-10196
▁varoluş	-10197
▁adresine	-10198
▁çekme	-10199
nis	-10200
▁söyledim	-10201
▁çalışanların	-10202
▁takvim	-10203
▁tema	-10204
▁ağacı	-10205
▁yönden	-10206
▁zamanki	-10207
▁nehri	-10208
▁zekâ	-10209
▁talih	-10210
▁bulunmuş	-10211
▁2-3	-10212
▁1980	-10213
▁ceket	-10214
▁doğumlu	-10215
▁girişimi	-10216
▁cehennem	-10217
▁tesisleri	-10218
▁bilinir	-10219
▁muharrem	-10220
▁yetkilileri	-10221
▁best	-10222
kurmay	-10223
▁alındığı	-10224
ümüzde	-10225
▁grupları	-10226
▁siteye	-10227
▁tıklayınız	-10228
▁sahada	-10229
▁çıkmaz	-10230
▁sınava	-10231
▁host	-10232
ûlullah	-10233
▁adası	-10234
▁yanındaki	-10235
▁sırasıyla	-10236
▁verirken	-10237
▁bankacılık	-10238
▁türden	-10239
▁ke	-10240
▁mahkum	-10241
▁kılavuz	-10242
9’	-10243
itim	-10244
▁sempoz	-10245
▁büyüklük	-10246
▁kaldım	-10247
▁sanatı	-10248
▁yans	-10249
▁karşılamak	-10250
faf	-10251
▁viy	-10252
cim	-10253
▁uğrat	-10254
▁nehir	-10255
▁adıyaman	-10256
▁getirecek	-10257
▁cephe	-10258
▁giriyor	-10259
▁uyk	-10260
parta	-10261
▁bomba	-10262
▁sigortalı	-10263
▁yapılmasını	-10264
▁puanı	-10265
▁seninle	-10266
▁kullanın	-10267
▁buçuk	-10268
▁bakter	-10269
dışı	-10270
_0	-10271
▁kadı	-10272
▁emret	-10273
▁söyleş	-10274
▁edebiyatı	-10275
the	-10276
▁yapacağınız	-10277
▁etnik	-10278
▁jam	-10279
▁dersler	-10280
▁yapıya	-10281
▁ekleyin	-10282
ebî	-10283
▁kalıntı	-10284
▁haberine	-10285
▁17.	-10286
ilmesinin	-10287
gis	-10288
içe	-10289
mıyordu	-10290
▁strateji	-10291
deler	-10292
yordu	-10293
▁kazanır	-10294
▁teknikleri	-10295
▁kare	-10296
▁çıkarılan	-10297
▁sorumlusu	-10298
▁olmaksızın	-10299
▁oluşuyor	-10300
▁klas	-10301
▁word	-10302
▁moral	-10303
images	-10304
iver	-10305
gor	-10306
▁geçmeden	-10307
zim	-10308
▁hastalığın	-10309
▁avm	-10310
▁endeksi	-10311
▁erit	-10312
▁hareketle	-10313
▁işveren	-10314
▁vat	-10315
▁yorumu	-10316
▁mutluluğ	-10317
▁duman	-10318
▁til	-10319
▁yama	-10320
▁zeyn	-10321
▁dikkatini	-10322
▁ayırt	-10323
▁türleri	-10324
leden	-10325
footnote	-10326
▁1.5	-10327
▁seh	-10328
usa	-10329
▁aşkı	-10330
▁bilmem	-10331
▁insani	-10332
▁gruplar	-10333
▁parası	-10334
elikop	-10335
▁kesintisiz	-10336
▁operasyonu	-10337
▁uygar	-10338
▁isabet	-10339
▁kuruldu	-10340
▁kuşku	-10341
▁sezonu	-10342
lot	-10343
▁seviyor	-10344
▁yaratmak	-10345
▁netice	-10346
▁gerçekleştirmek	-10347
▁yalçın	-10348
".	-10349
.12	-10350
▁hikayesi	-10351
şan	-10352
▁rakib	-10353
▁zap	-10354
▁katılımıyla	-10355
▁binanın	-10356
▁radikal	-10357
hun	-10358
▁malı	-10359
▁yenilikçi	-10360
▁ilke	-10361
▁ambul	-10362
▁57	-10363
▁kurut	-10364
▁karışım	-10365
lığımız	-10366
▁adımlar	-10367
▁kafkas	-10368
uğ	-10369
▁güncelleme	-10370
▁16.	-10371
▁şaf	-10372
▁1990	-10373
▁fidan	-10374
▁kalktı	-10375
▁mid	-10376
▁büyüyen	-10377
▁koymak	-10378
▁bors	-10379
ational	-10380
lerimizden	-10381
▁huy	-10382
▁belç	-10383
▁haned	-10384
▁toto	-10385
▁şehre	-10386
ny	-10387
▁programlar	-10388
▁ünit	-10389
bilim	-10390
▁tamamını	-10391
8’	-10392
▁takib	-10393
▁âdet	-10394
▁elçi	-10395
▁kategori	-10396
▁hamam	-10397
üsünü	-10398
▁bilginin	-10399
▁seçimleri	-10400
▁zonguldak	-10401
▁seçme	-10402
▁katılma	-10403
arac	-10404
▁ahlâ	-10405
▁termin	-10406
▁1/2	-10407
▁bant	-10408
▁çub	-10409
▁nerde	-10410
▁devletinin	-10411
▁olabiliyor	-10412
▁cap	-10413
▁artırmak	-10414
▁kalitesini	-10415
▁izmir	-10416
▁doz	-10417
üminyum	-10418
ordu	-10419
▁kanseri	-10420
▁tesli	-10421
▁mö	-10422
değ	-10423
▁izleme	-10424
▁çalışarak	-10425
ting	-10426
▁noktasına	-10427
▁farz	-10428
▁çekirdek	-10429
uan	-10430
▁avuç	-10431
▁kılan	-10432
▁sürüş	-10433
▁mermer	-10434
▁kana	-10435
▁neye	-10436
▁yurtdışı	-10437
▁metaf	-10438
itan	-10439
▁bron	-10440
▁parf	-10441
şir	-10442
eyecektir	-10443
▁aydınlatma	-10444
▁iyisi	-10445
laşan	-10446
▁sahibinin	-10447
▁bkz	-10448
▁hom	-10449
▁okudum	-10450
▁usb	-10451
tiğiniz	-10452
▁olacaksınız	-10453
▁`	-10454
▁kazanım	-10455
ily	-10456
▁66	-10457
pol	-10458
liliğini	-10459
meliyiz	-10460
▁giydir	-10461
▁saygın	-10462
▁bitcoin	-10463
bik	-10464
sapp	-10465
▁kadarıyla	-10466
▁teşebbüs	-10467
tuğrul	-10468
▁mülkiyet	-10469
▁borc	-10470
▁diyelim	-10471
▁tasarlanmış	-10472
amızın	-10473
▁rul	-10474
▁aklım	-10475
▁birebir	-10476
▁korum	-10477
batı	-10478
▁çikolata	-10479
▁geliştirilmesi	-10480
▁merhabalar	-10481
▁sürgün	-10482
▁helikop	-10483
stem	-10484
▁savaşta	-10485
▁kablosuz	-10486
▁çekiş	-10487
ağından	-10488
▁sürecek	-10489
▁karakteri	-10490
▁gro	-10491
▁yaptılar	-10492
▁anma	-10493
▁düşüncesi	-10494
cy	-10495
▁zarif	-10496
▁anlık	-10497
▁varan	-10498
▁anneler	-10499
▁halbuki	-10500
▁galibiyet	-10501
vert	-10502
kız	-10503
▁odada	-10504
ddi	-10505
▁sarım	-10506
▁topluluğu	-10507
▁kurtarma	-10508
▁aksiyon	-10509
▁figür	-10510
siyle	-10511
▁oranla	-10512
tınız	-10513
▁asır	-10514
ularak	-10515
▁satılan	-10516
losu	-10517
▁coğrafy	-10518
▁deyince	-10519
▁diyabet	-10520
▁afgan	-10521
▁kapsayan	-10522
celi	-10523
▁kimseyi	-10524
▁duyan	-10525
▁komitesi	-10526
▁pasaport	-10527
▁uğruna	-10528
▁çıkardığı	-10529
▁hissede	-10530
▁hristiyan	-10531
▁sensör	-10532
▁atma	-10533
▁sürecinin	-10534
atlı	-10535
▁çalışmalara	-10536
▁kurtarmak	-10537
▁genelkurmay	-10538
▁okut	-10539
▁biten	-10540
teb	-10541
▁giresun	-10542
▁adresinden	-10543
▁arnavut	-10544
eyebil	-10545
▁1,5	-10546
kom	-10547
▁sordum	-10548
▁yürütül	-10549
▁havaya	-10550
alanı	-10551
şçi	-10552
▁you	-10553
▁işg	-10554
▁serdar	-10555
▁erzin	-10556
▁hissi	-10557
▁yatan	-10558
▁cevapları	-10559
▁bağlantısı	-10560
kol	-10561
▁14.	-10562
▁kanununun	-10563
▁vaat	-10564
alarımız	-10565
▁etkinlikler	-10566
▁kdv	-10567
mon	-10568
▁sandaly	-10569
▁olacağ	-10570
▁bulunuyordu	-10571
▁zulüm	-10572
▁endişe	-10573
▁alınmıştır	-10574
▁fena	-10575
▁kurgu	-10576
▁çarş	-10577
▁onda	-10578
▁kestir	-10579
üydü	-10580
▁piyasası	-10581
▁canav	-10582
▁yapmadan	-10583
-18	-10584
▁yıldön	-10585
tüye	-10586
▁nap	-10587
ınan	-10588
▁saçma	-10589
▁alek	-10590
’,	-10591
▁memnuniyeti	-10592
▁laik	-10593
▁komş	-10594
▁buyurdu	-10595
▁ty	-10596
▁çözünür	-10597
▁çektiği	-10598
▁hamilelik	-10599
▁diyalog	-10600
▁bırakarak	-10601
▁fl	-10602
▁ithalat	-10603
trik	-10604
amda	-10605
▁koya	-10606
föy	-10607
▁torun	-10608
▁kredisi	-10609
▁durumdan	-10610
ınıp	-10611
▁servet	-10612
▁bağlamda	-10613
▁orjinal	-10614
gg	-10615
▁sütü	-10616
▁kişileri	-10617
haber	-10618
▁imkânı	-10619
ebileceğini	-10620
▁ios	-10621
▁telaf	-10622
▁askerler	-10623
my	-10624
işik	-10625
ömer	-10626
shak	-10627
▁etmeyen	-10628
▁tünel	-10629
▁sınırı	-10630
hracat	-10631
▁müttefik	-10632
cası	-10633
▁meraklı	-10634
▁bilindiği	-10635
▁etkileyici	-10636
slami	-10637
mişlerdir	-10638
▁çıkarıp	-10639
▁belirlenir	-10640
dıran	-10641
aleti	-10642
▁korkusu	-10643
▁gürültü	-10644
▁sırala	-10645
▁aksaray	-10646
▁show	-10647
ankara	-10648
▁bireylerin	-10649
▁çalışmanın	-10650
▁mübarek	-10651
lüğüne	-10652
edin	-10653
▁idrar	-10654
ettin	-10655
kend	-10656
▁aa	-10657
▁gözlük	-10658
▁otelleri	-10659
▁ilaçlar	-10660
▁tüzel	-10661
▁borçlu	-10662
▁fotoğrafı	-10663
ümüzün	-10664
▁yazıyı	-10665
▁kahramanmaraş	-10666
▁yükümlülük	-10667
ıtay	-10668
▁filan	-10669
▁manas	-10670
▁ا	-10671
▁kilise	-10672
▁alüminyum	-10673
▁ferah	-10674
▁mask	-10675
▁devlete	-10676
▁demokrat	-10677
▁samim	-10678
▁eği	-10679
▁açılır	-10680
▁birikim	-10681
▁18.	-10682
au	-10683
▁gövde	-10684
▁pel	-10685
▁plus	-10686
dirler	-10687
▁şirin	-10688
▁muhat	-10689
▁üt	-10690
▁başlarında	-10691
▁federasyon	-10692
▁iri	-10693
▁nüfusu	-10694
▁nitelendir	-10695
▁(3)	-10696
lişkiler	-10697
masa	-10698
▁özerk	-10699
▁aileler	-10700
▁kilometr	-10701
▁pot	-10702
▁eri	-10703
▁kullanıma	-10704
▁ert	-10705
▁sub	-10706
low	-10707
▁çıkmıştı	-10708
▁etmiyor	-10709
larınızda	-10710
▁çamur	-10711
▁ibar	-10712
▁alar	-10713
▁çatışma	-10714
rî	-10715
▁böylesine	-10716
▁güncellem	-10717
lerince	-10718
▁yasası	-10719
▁kütahya	-10720
▁mantıklı	-10721
▁sürdürdü	-10722
▁gördüğüm	-10723
▁sop	-10724
▁yanlı	-10725
rım	-10726
▁elveriş	-10727
▁tabel	-10728
▁şehzade	-10729
▁göreceksiniz	-10730
▁kumanda	-10731
▁hastaların	-10732
ktis	-10733
▁direniş	-10734
kab	-10735
▁metab	-10736
▁sağlayabil	-10737
▁sözcüsü	-10738
iliğini	-10739
▁batılı	-10740
▁başlatılan	-10741
▁patron	-10742
▁fos	-10743
leks	-10744
▁çalışıyorum	-10745
ücük	-10746
▁asil	-10747
ilme	-10748
▁esin	-10749
▁artvin	-10750
▁şebek	-10751
neden	-10752
▁afrin	-10753
▁batman	-10754
▁derinlik	-10755
rab	-10756
temiz	-10757
▁islam	-10758
▁kararları	-10759
▁açlık	-10760
▁eğitimin	-10761
pres	-10762
▁konuşmaya	-10763
▁çekildi	-10764
▁metrekare	-10765
alisyon	-10766
▁karara	-10767
mamalıdır	-10768
▁ağı	-10769
▁şüphel	-10770
kuş	-10771
diz	-10772
▁erg	-10773
tısı	-10774
ason	-10775
▁nikah	-10776
▁cüzdan	-10777
▁buluyor	-10778
▁arıyorum	-10779
▁zorlan	-10780
▁atın	-10781
çay	-10782
▁sağlama	-10783
aşehir	-10784
▁özdemir	-10785
▁konuşmada	-10786
hil	-10787
▁bireyler	-10788
▁saldırgan	-10789
▁dolandırıcı	-10790
▁ülkesi	-10791
▁olduktan	-10792
lerse	-10793
▁edebilecek	-10794
▁poşet	-10795
▁kurulmuştur	-10796
▁sıy	-10797
▁romantik	-10798
▁eksikliği	-10799
▁prenses	-10800
▁hakkına	-10801
▁başlamadan	-10802
▁belirlemek	-10803
▁alf	-10804
▁masaya	-10805
▁şimşek	-10806
ski	-10807
acık	-10808
▁anlaşılır	-10809
▁alex	-10810
▁krist	-10811
▁fatma	-10812
versi	-10813
ledikleri	-10814
▁edeceğini	-10815
▁edilmesini	-10816
▁görüntülen	-10817
kili	-10818
▁dilekç	-10819
▁odasında	-10820
▁alacağı	-10821
▁jür	-10822
▁memuru	-10823
ümüze	-10824
▁gerçekleşecek	-10825
▁negatif	-10826
▁programa	-10827
▁sisteminde	-10828
ifor	-10829
▁past	-10830
evler	-10831
▁ressam	-10832
ita	-10833
▁2001	-10834
▁zırh	-10835
▁katar	-10836
▁ordusunun	-10837
▁tuna	-10838
ğından	-10839
▁hijyen	-10840
▁dilediğiniz	-10841
enize	-10842
▁seçmen	-10843
▁planlanan	-10844
▁geceleri	-10845
▁muhafaz	-10846
▁kısmının	-10847
ıh	-10848
▁eyüp	-10849
▁soyut	-10850
▁köle	-10851
▁çalışanlar	-10852
cıları	-10853
▁çıkmaktadır	-10854
▁programda	-10855
▁maksa	-10856
▁erzincan	-10857
▁akan	-10858
▁renkleri	-10859
▁çalıştım	-10860
▁yazıda	-10861
▁suda	-10862
▁oynama	-10863
▁dayanarak	-10864
▁annesinin	-10865
...)	-10866
▁halif	-10867
▁sürecini	-10868
▁tüz	-10869
▁harik	-10870
▁sorumluluğu	-10871
▁ederse	-10872
▁azın	-10873
▁başlangıçta	-10874
▁kaldırılması	-10875
▁gerektirir	-10876
ografi	-10877
▁fotoğraflar	-10878
▁frekans	-10879
▁85	-10880
▁başkanları	-10881
▁mimarlık	-10882
▁konumu	-10883
▁felaket	-10884
▁konsept	-10885
▁etmekten	-10886
hel	-10887
86	-10888
▁sayıları	-10889
77	-10890
hut	-10891
▁piy	-10892
▁zavallı	-10893
▁çocuklarının	-10894
▁alanya	-10895
▁yazıları	-10896
▁katılacak	-10897
ânî	-10898
▁tarımsal	-10899
dyum	-10900
▁ertuğrul	-10901
▁ayrıcalık	-10902
▁çıktığını	-10903
cinin	-10904
▁sorusuna	-10905
▁varken	-10906
▁tıklayarak	-10907
ılmasının	-10908
▁iste	-10909
dos	-10910
▁derdi	-10911
ahattin	-10912
▁sokakta	-10913
▁ortala	-10914
__	-10915
▁bulduğu	-10916
hassa	-10917
▁seviyesine	-10918
▁degil	-10919
▁fiziki	-10920
▁yükseliş	-10921
▁(201	-10922
▁kalesi	-10923
olan	-10924
▁başlayıp	-10925
kut	-10926
▁kastam	-10927
▁>>	-10928
▁eki	-10929
▁lef	-10930
▁kapitalist	-10931
▁uefa	-10932
▁kadrosu	-10933
▁badem	-10934
▁but	-10935
ilemez	-10936
▁olmadığına	-10937
▁görülebilir	-10938
ıtma	-10939
kurt	-10940
▁keyfi	-10941
▁odaya	-10942
▁gizlilik	-10943
bizim	-10944
▁whatsapp	-10945
kaz	-10946
▁800	-10947
▁baktığımızda	-10948
▁köklü	-10949
▁geçerken	-10950
▁yazarın	-10951
▁oldug	-10952
▁koalisyon	-10953
▁muazzam	-10954
▁gezin	-10955
▁düşüyor	-10956
▁muayen	-10957
▁dursun	-10958
▁kalkıp	-10959
▁hayvanların	-10960
▁işlemlerini	-10961
▁görecek	-10962
▁haricinde	-10963
▁birç	-10964
daa	-10965
ınacak	-10966
▁suyunu	-10967
▁çare	-10968
ling	-10969
▁belediyespor	-10970
▁kapının	-10971
leyiş	-10972
▁spr	-10973
▁özelliğini	-10974
▁şekillendir	-10975
lash	-10976
▁yelpaz	-10977
▁videosu	-10978
▁hesaba	-10979
mışlardı	-10980
lilere	-10981
▁etmeyin	-10982
▁tekirdağ	-10983
▁şeklindeki	-10984
▁yazılımı	-10985
▁şeffaf	-10986
▁duruyordu	-10987
.00’	-10988
▁zamandan	-10989
▁süm	-10990
▁konforlu	-10991
▁tüketimi	-10992
▁yaşı	-10993
▁fant	-10994
▁ilişkili	-10995
▁kullanışlı	-10996
/200	-10997
▁arsa	-10998
▁makale	-10999
▁koordinasyon	-11000
umda	-11001
▁içini	-11002
cem	-11003
▁çeviri	-11004
ýk	-11005
▁kabin	-11006
▁ödev	-11007
emediği	-11008
▁yıldızı	-11009
▁değiliz	-11010
▁bağlantılı	-11011
▁faş	-11012
▁reş	-11013
▁imaj	-11014
▁etmenin	-11015
▁kadem	-11016
▁izliyor	-11017
▁anahtarı	-11018
▁dağın	-11019
▁tutarı	-11020
▁yüksekokulu	-11021
▁göğs	-11022
stiklal	-11023
▁mul	-11024
cım	-11025
▁52	-11026
▁düzeyinde	-11027
insan	-11028
▁yaratık	-11029
zmit	-11030
gren	-11031
▁pren	-11032
▁neyi	-11033
▁nasip	-11034
▁sust	-11035
▁sorar	-11036
▁ster	-11037
▁şehrinde	-11038
▁elle	-11039
general	-11040
▁kolon	-11041
▁eğr	-11042
▁haberleşme	-11043
▁içindir	-11044
▁çayı	-11045
▁şiddetle	-11046
▁64	-11047
▁kalmıştır	-11048
▁boyunda	-11049
▁çıkışı	-11050
▁yapalım	-11051
▁siyen	-11052
▁olanlara	-11053
âlet	-11054
▁niteliği	-11055
▁kimliği	-11056
▁yaşadı	-11057
▁elit	-11058
▁medine	-11059
▁seti	-11060
▁vermedi	-11061
▁hy	-11062
▁bektaş	-11063
▁veriliyor	-11064
imizdeki	-11065
yoruz	-11066
▁savaşçı	-11067
larý	-11068
▁dedektif	-11069
▁unutulmaz	-11070
▁derv	-11071
idir	-11072
▁tutarak	-11073
▁denge	-11074
▁sonuca	-11075
▁vermeyi	-11076
▁veter	-11077
▁müze	-11078
▁54	-11079
▁aralı	-11080
şar	-11081
▁yapının	-11082
▁modeller	-11083
eddüt	-11084
▁rahatla	-11085
▁karaciğer	-11086
▁çektir	-11087
▁resmî	-11088
eski	-11089
▁gereksinim	-11090
emiştir	-11091
▁amp	-11092
▁black	-11093
▁değişir	-11094
▁durumları	-11095
▁zahmet	-11096
▁kronik	-11097
ekiz	-11098
▁başlattı	-11099
link	-11100
▁versin	-11101
▁heyecanlı	-11102
rus	-11103
▁faruk	-11104
gim	-11105
▁yaptıktan	-11106
▁yemekler	-11107
▁edi	-11108
liğimiz	-11109
▁aut	-11110
▁yapılacağı	-11111
▁nüfuz	-11112
▁bildiğimiz	-11113
▁karşıy	-11114
▁yöntemler	-11115
▁ambulans	-11116
▁imkânsız	-11117
▁çalışacak	-11118
▁helal	-11119
asan	-11120
▁borcu	-11121
▁çubuk	-11122
▁avustralya	-11123
▁unutma	-11124
▁fiş	-11125
▁yavrum	-11126
▁oluşturuyor	-11127
▁haftasında	-11128
▁ihanet	-11129
▁günlerinde	-11130
eleme	-11131
▁torb	-11132
▁konuşmasında	-11133
▁lakin	-11134
▁aldıktan	-11135
nönü	-11136
▁1-2	-11137
▁kavur	-11138
▁küfür	-11139
▁ömrü	-11140
onomik	-11141
▁nedenleri	-11142
▁bekler	-11143
gö	-11144
▁liraya	-11145
yok	-11146
▁pencere	-11147
▁karam	-11148
▁burn	-11149
▁kağıdı	-11150
▁liu	-11151
▁müşterilerine	-11152
▁konuşuyor	-11153
▁gördüğümüz	-11154
lamalı	-11155
devamı	-11156
▁sitesinden	-11157
▁terey	-11158
fone	-11159
▁değişti	-11160
▁hafifçe	-11161
omen	-11162
alaş	-11163
▁umur	-11164
ole	-11165
▁bırakma	-11166
cm	-11167
vis	-11168
▁ifadesini	-11169
▁yığın	-11170
▁hüzün	-11171
▁tro	-11172
▁korsan	-11173
▁rut	-11174
▁harita	-11175
▁sib	-11176
▁mütev	-11177
▁tesisi	-11178
esk	-11179
que	-11180
▁kaldırıldı	-11181
liyordu	-11182
▁nu	-11183
▁elif	-11184
▁cari	-11185
▁asf	-11186
▁nda	-11187
▁kökenli	-11188
▁diyoruz	-11189
▁yemekleri	-11190
▁vurdu	-11191
lenmiştir	-11192
▁sâ	-11193
▁üyeli	-11194
▁yelken	-11195
▁acele	-11196
▁edinilen	-11197
lhan	-11198
▁edeceği	-11199
muh	-11200
▁ödülleri	-11201
beti	-11202
▁ortaokul	-11203
hir	-11204
post	-11205
▁kabuk	-11206
▁köyünde	-11207
▁hediyeler	-11208
▁tansiyon	-11209
▁akciğer	-11210
▁ailesine	-11211
ılabilecek	-11212
▁gemisi	-11213
▁hiper	-11214
▁aktör	-11215
▁levent	-11216
▁hazırlamak	-11217
gön	-11218
▁pirinç	-11219
▁gelişmesi	-11220
▁askerleri	-11221
iyeler	-11222
lının	-11223
▁kararlaştır	-11224
▁otob	-11225
▁ziya	-11226
▁beşinci	-11227
▁ulaştırma	-11228
▁teorik	-11229
▁kıyamet	-11230
zle	-11231
▁140	-11232
▁kapasitesi	-11233
yetik	-11234
tiniz	-11235
▁açıktır	-11236
▁kurtarı	-11237
▁tereddüt	-11238
▁inkâr	-11239
▁saadet	-11240
▁taksim	-11241
ica	-11242
▁ekonomisi	-11243
▁soykırım	-11244
▁lez	-11245
oç	-11246
amin	-11247
▁fol	-11248
▁çocuklarda	-11249
▁örnekler	-11250
▁seslendir	-11251
ruklu	-11252
▁yakışık	-11253
▁gelmiyor	-11254
▁temeli	-11255
lunun	-11256
▁uzmanlık	-11257
▁kirli	-11258
▁okulun	-11259
▁benzeyen	-11260
▁izah	-11261
▁çarpıcı	-11262
▁etap	-11263
▁verildiği	-11264
iyenin	-11265
▁çorum	-11266
▁etkisiz	-11267
▁istediklerini	-11268
▁vücudum	-11269
abilim	-11270
▁yollarını	-11271
▁kayak	-11272
▁kavray	-11273
-200	-11274
▁açılmış	-11275
▁adayların	-11276
-16	-11277
işimi	-11278
inat	-11279
▁karısı	-11280
▁olu	-11281
▁ilçesine	-11282
▁veriyorum	-11283
▁çıkarken	-11284
omi	-11285
işam	-11286
ekler	-11287
kor	-11288
▁formül	-11289
88	-11290
▁ilgisini	-11291
▁cihazlar	-11292
▁harç	-11293
▁komb	-11294
▁yapama	-11295
▁kararın	-11296
▁sonuçlarını	-11297
▁coğrafi	-11298
▁güneydoğu	-11299
▁nihai	-11300
▁hatalı	-11301
▁kurallar	-11302
▁merakla	-11303
▁ülkeden	-11304
▁komünist	-11305
/24	-11306
▁tamamlandı	-11307
▁çorba	-11308
▁fikirler	-11309
inceye	-11310
ınak	-11311
mektedirler	-11312
ezid	-11313
▁kesme	-11314
▁kazanma	-11315
▁bağırdı	-11316
gusu	-11317
▁şükür	-11318
▁suriyeli	-11319
▁görüşleri	-11320
▁tanımak	-11321
-30	-11322
▁yakalandı	-11323
usundan	-11324
cumhur	-11325
ule	-11326
dor	-11327
▁ekrana	-11328
▁zeynep	-11329
▁geldiler	-11330
▁uygundur	-11331
▁fiyata	-11332
▁kre	-11333
▁hazırlanıyor	-11334
▁tatar	-11335
▁oturdu	-11336
▁bilhassa	-11337
▁jack	-11338
▁faaliyetlerini	-11339
▁tabanlı	-11340
▁soğan	-11341
▁aleyhine	-11342
▁mesci	-11343
▁miyim	-11344
▁ücretleri	-11345
▁boşa	-11346
▁miting	-11347
▁resimler	-11348
▁müslim	-11349
▁sanatlar	-11350
▁4-	-11351
lerinizde	-11352
▁durur	-11353
▁mobily	-11354
ashington	-11355
▁acımasız	-11356
▁seviyesinde	-11357
+1	-11358
▁sanı	-11359
▁ordunun	-11360
▁konsan	-11361
▁turları	-11362
▁dizayn	-11363
lediğiniz	-11364
▁gerektiğinde	-11365
▁sicil	-11366
▁portekiz	-11367
▁olimpiyat	-11368
▁karg	-11369
▁gerçekçi	-11370
▁tarihini	-11371
▁bölgesine	-11372
mişler	-11373
▁takı	-11374
▁afet	-11375
çelik	-11376
▁seans	-11377
▁motiv	-11378
▁tanrının	-11379
kti	-11380
▁mektubu	-11381
▁enter	-11382
▁aleyhi	-11383
▁sürecin	-11384
▁ayrılmış	-11385
dest	-11386
▁kaçan	-11387
▁beraberlik	-11388
by	-11389
▁görüntüler	-11390
bolu	-11391
▁saatler	-11392
▁ayna	-11393
▁araştırmaları	-11394
▁ötek	-11395
ayıcı	-11396
▁okulları	-11397
dari	-11398
▁stü	-11399
dara	-11400
▁soruyu	-11401
koz	-11402
▁koyduğu	-11403
▁saman	-11404
▁bildiğiniz	-11405
▁06	-11406
fiye	-11407
▁katman	-11408
▁boşanma	-11409
▁ala	-11410
ayeti	-11411
larımla	-11412
▁ziyaretçi	-11413
▁ayağı	-11414
55	-11415
▁dersin	-11416
▁destekleyen	-11417
dını	-11418
▁sokağa	-11419
▁kendilerinin	-11420
▁ellerinde	-11421
▁terap	-11422
▁askı	-11423
▁yürürlük	-11424
▁kastamonu	-11425
▁biyolojik	-11426
▁07	-11427
meme	-11428
▁cahil	-11429
▁aydınlık	-11430
▁istediğimiz	-11431
lanmak	-11432
▁aydır	-11433
▁farkındalık	-11434
▁yüze	-11435
()	-11436
ayrı	-11437
▁makineleri	-11438
ory	-11439
▁kendim	-11440
▁gezegen	-11441
▁harman	-11442
tuğunu	-11443
yem	-11444
▁lanet	-11445
▁böylesi	-11446
▁yazımızda	-11447
unup	-11448
▁paul	-11449
▁malum	-11450
▁gerçeklik	-11451
▁lâzım	-11452
▁özgürlüğü	-11453
▁sorusu	-11454
▁beylik	-11455
▁erol	-11456
▁ürk	-11457
▁döneme	-11458
▁yeniçeri	-11459
▁cir	-11460
▁yazının	-11461
▁sağlanan	-11462
▁düzce	-11463
irse	-11464
hab	-11465
▁püs	-11466
jik	-11467
ersek	-11468
ebileceğiniz	-11469
▁oradaki	-11470
▁devrimi	-11471
▁gezdir	-11472
▁teşhis	-11473
▁yönetmeliği	-11474
▁ölçekli	-11475
ladık	-11476
/10	-11477
▁girmesi	-11478
▁yönü	-11479
▁ışığında	-11480
▁oğlan	-11481
▁aşan	-11482
▁atlet	-11483
▁tekni	-11484
▁sevinirim	-11485
▁editör	-11486
▁niteliğinde	-11487
▁solunum	-11488
▁zeytinyağı	-11489
▁pazarı	-11490
▁açıklamasında	-11491
ix	-11492
asay	-11493
▁umum	-11494
▁mân	-11495
▁bakıp	-11496
▁kurmuş	-11497
▁bulunmamaktadır	-11498
ören	-11499
▁yatay	-11500
▁burç	-11501
▁ufuk	-11502
▁şanslı	-11503
▁şeydir	-11504
▁bart	-11505
fin	-11506
▁zordur	-11507
▁21.	-11508
▁ens	-11509
▁ss	-11510
▁müşterilerimize	-11511
▁müfet	-11512
%20	-11513
▁bırakan	-11514
▁alı	-11515
▁hayv	-11516
▁karat	-11517
▁tarafın	-11518
▁rahip	-11519
▁kavim	-11520
▁inç	-11521
oker	-11522
▁dövüş	-11523
▁pasif	-11524
▁saklı	-11525
▁devri	-11526
▁bölgesindeki	-11527
▁pınar	-11528
▁dereceye	-11529
▁belirtir	-11530
vo	-11531
▁stu	-11532
▁şudur	-11533
saspor	-11534
▁faydaları	-11535
▁ahlaki	-11536
▁arayıp	-11537
▁ürünlerinin	-11538
duğuna	-11539
▁yakala	-11540
▁portföy	-11541
▁sikiş	-11542
▁animasyon	-11543
▁oral	-11544
▁evler	-11545
▁villa	-11546
▁vaziyet	-11547
▁dişi	-11548
▁53	-11549
▁tasarı	-11550
ürken	-11551
▁kentinde	-11552
▁ihtiyacını	-11553
▁görünüyordu	-11554
▁karışımı	-11555
▁arasındadır	-11556
▁bölümüne	-11557
▁yaşandığı	-11558
ekt	-11559
kadın	-11560
▁yazmaya	-11561
▁şimdiki	-11562
▁ünal	-11563
▁arın	-11564
▁koşullar	-11565
▁verilerin	-11566
▁sağlanır	-11567
ward	-11568
▁nuri	-11569
▁mesai	-11570
▁bileşen	-11571
sol	-11572
▁kozmetik	-11573
▁tutku	-11574
alam	-11575
▁engellemek	-11576
▁biriydi	-11577
▁bireyin	-11578
▁koyan	-11579
▁ilişkilerin	-11580
▁oğlunun	-11581
nat	-11582
▁norm	-11583
▁kaldırdı	-11584
▁açıklanan	-11585
▁tümüyle	-11586
▁ağırlığı	-11587
▁yükümlü	-11588
▁bölümleri	-11589
▁dehşet	-11590
çünkü	-11591
▁suçu	-11592
▁nazım	-11593
▁angel	-11594
lerimizle	-11595
▁ortağı	-11596
▁insanlığın	-11597
▁pin	-11598
▁destekli	-11599
hz	-11600
▁hastalıklar	-11601
▁sorunlarını	-11602
oo	-11603
▁ml	-11604
erik	-11605
▁politikalar	-11606
▁uygulanacak	-11607
▁izn	-11608
astik	-11609
▁belçika	-11610
▁kitabında	-11611
▁anlayabil	-11612
▁kenarında	-11613
▁ekrem	-11614
une	-11615
lahi	-11616
▁birileri	-11617
lenmektedir	-11618
▁paranın	-11619
▁makar	-11620
▁sola	-11621
-12	-11622
▁rüt	-11623
lib	-11624
▁68	-11625
▁6,	-11626
▁abone	-11627
▁atıldı	-11628
▁kızgın	-11629
▁tabiat	-11630
rist	-11631
▁bulunmakta	-11632
▁birbirleriyle	-11633
iyorsa	-11634
▁bırakır	-11635
▁personelin	-11636
▁kullanılıyor	-11637
acağına	-11638
▁tahliye	-11639
▁minimum	-11640
▁ayrılır	-11641
▁taksi	-11642
oth	-11643
▁helikopter	-11644
▁sağa	-11645
▁tapu	-11646
▁gerçekleştiren	-11647
▁lib	-11648
▁oturt	-11649
▁rumeli	-11650
▁nat	-11651
▁kot	-11652
▁dündar	-11653
▁1)	-11654
▁sizce	-11655
kâ	-11656
▁city	-11657
sinden	-11658
▁köprüsü	-11659
▁sayısal	-11660
sunu	-11661
▁sms	-11662
▁ayni	-11663
▁bilmedi	-11664
▁biliyorsunuz	-11665
▁başladığını	-11666
▁özbek	-11667
▁arayüz	-11668
▁abdul	-11669
▁:))	-11670
▁şarkıcı	-11671
▁ödün	-11672
sch	-11673
▁out	-11674
▁çerçeve	-11675
▁viyana	-11676
▁kurumların	-11677
eliğin	-11678
▁oksijen	-11679
▁diril	-11680
▁intern	-11681
▁doları	-11682
▁ilaçlama	-11683
lediğini	-11684
▁kullanılmıştır	-11685
▁note	-11686
▁700	-11687
tarih	-11688
▁macaristan	-11689
▁bağımsızlık	-11690
tap	-11691
▁dant	-11692
▁sıralan	-11693
▁teknolojinin	-11694
▁washington	-11695
▁seviyeye	-11696
▁gelmedi	-11697
▁jean	-11698
▁gitmeye	-11699
▁seramik	-11700
▁yeniçer	-11701
▁algılan	-11702
itt	-11703
▁anlamaya	-11704
▁anlatılan	-11705
sana	-11706
▁sudan	-11707
pen	-11708
▁cemiyeti	-11709
▁brezilya	-11710
▁normalde	-11711
▁geor	-11712
▁eğitmen	-11713
abd	-11714
▁doğanın	-11715
▁dünyaca	-11716
▁gösterg	-11717
▁görüntülü	-11718
▁malzemesi	-11719
▁katma	-11720
▁farket	-11721
▁özenle	-11722
▁seçildi	-11723
▁gücünün	-11724
▁gündelik	-11725
▁düzenleyen	-11726
▁söyleyebiliriz	-11727
▁dizinin	-11728
▁konuşmalar	-11729
▁gerektiğine	-11730
▁taklit	-11731
▁şöy	-11732
▁tekin	-11733
▁tamamlayan	-11734
▁neb	-11735
▁okullar	-11736
▁muhabir	-11737
▁problemleri	-11738
riz	-11739
▁inş	-11740
cd	-11741
▁trakya	-11742
▁kalmaya	-11743
▁makul	-11744
▁yon	-11745
▁dönmek	-11746
▁çiling	-11747
▁bölgelerinde	-11748
tına	-11749
cül	-11750
kik	-11751
ou	-11752
▁surat	-11753
▁muciz	-11754
▁ücretli	-11755
▁çevresi	-11756
▁güzergah	-11757
▁halkına	-11758
▁işsiz	-11759
▁olanağı	-11760
▁yaşadık	-11761
asal	-11762
▁tedavisinde	-11763
çiliği	-11764
▁konten	-11765
▁ze	-11766
▁birbirlerini	-11767
▁verit	-11768
▁oluşturma	-11769
▁istemedi	-11770
▁manastır	-11771
▁seçilmiş	-11772
genel	-11773
▁videoyu	-11774
▁vücudu	-11775
▁önceleri	-11776
▁kaldırmak	-11777
bakan	-11778
▁kahveren	-11779
ilmi	-11780
lendiğini	-11781
emde	-11782
▁konusunu	-11783
▁kazandığı	-11784
▁fiz	-11785
▁başkanlığında	-11786
cileri	-11787
▁fırç	-11788
cc	-11789
▁mert	-11790
▁benzin	-11791
▁dünyasına	-11792
▁işlerin	-11793
▁bozkır	-11794
▁gelecektir	-11795
▁âşık	-11796
▁canı	-11797
▁direksiyon	-11798
▁ezber	-11799
▁elleri	-11800
▁motorlu	-11801
▁alıyoruz	-11802
▁yapıyorlar	-11803
ms	-11804
▁tıkla	-11805
▁vurgulan	-11806
doğru	-11807
▁otelde	-11808
▁efsane	-11809
▁şaşırtıcı	-11810
▁müşav	-11811
▁emzir	-11812
▁açarak	-11813
▁geçirilen	-11814
▁ölümünden	-11815
cağımız	-11816
ehr	-11817
▁başarıya	-11818
▁mesafede	-11819
▁derviş	-11820
▁görüntüsü	-11821
ilmesinde	-11822
▁yoğunlaş	-11823
▁wh	-11824
▁bid	-11825
▁cihazları	-11826
▁baþ	-11827
▁esmer	-11828
dö	-11829
▁andan	-11830
▁sizlerde	-11831
▁üş	-11832
▁marx	-11833
▁cik	-11834
▁hp	-11835
▁bac	-11836
▁tepe	-11837
▁adayları	-11838
▁fragmanı	-11839
▁durmadan	-11840
▁taşımaktadır	-11841
▁uzaklıkta	-11842
▁03	-11843
▁halife	-11844
▁kullanıcıları	-11845
▁tutup	-11846
mayalım	-11847
▁keşf	-11848
▁artarak	-11849
▁işlemini	-11850
▁sgk	-11851
▁içki	-11852
▁konusudur	-11853
▁bahçesi	-11854
▁koyar	-11855
▁başkası	-11856
▁81	-11857
▁anladım	-11858
▁yaşıyoruz	-11859
▁çorap	-11860
iii	-11861
▁heves	-11862
▁arayarak	-11863
▁butonuna	-11864
ademi	-11865
▁ltd	-11866
▁olmamız	-11867
▁mezhep	-11868
▁bosna	-11869
▁harcan	-11870
▁cay	-11871
dut	-11872
▁sağlayarak	-11873
▁belirtileri	-11874
67	-11875
▁mıydı	-11876
▁gelmesini	-11877
▁bilimi	-11878
▁paylaştı	-11879
aktif	-11880
▁biş	-11881
▁karabük	-11882
lant	-11883
.05	-11884
▁yurti	-11885
▁lehine	-11886
▁konudaki	-11887
▁damg	-11888
▁iskel	-11889
▁telgraf	-11890
▁kendiniz	-11891
veti	-11892
▁bellek	-11893
▁hazretleri	-11894
▁gazeteciler	-11895
▁gey	-11896
▁sigar	-11897
ikli	-11898
▁veteriner	-11899
▁taç	-11900
▁çatal	-11901
▁temelinde	-11902
iyorlardı	-11903
▁bb	-11904
▁çiftçi	-11905
▁ertel	-11906
▁hemşir	-11907
▁çözümleri	-11908
▁grev	-11909
▁salt	-11910
▁düşünüyoruz	-11911
▁başarısı	-11912
▁kürdistan	-11913
▁galer	-11914
ileş	-11915
▁özcan	-11916
nal	-11917
ülüyor	-11918
▁okumuş	-11919
▁yönetiminin	-11920
▁yargıtay	-11921
▁95	-11922
▁özü	-11923
▁farklıdır	-11924
index	-11925
▁alanın	-11926
▁oluruz	-11927
▁içme	-11928
▁kenan	-11929
▁armağan	-11930
▁ihtiyar	-11931
]](../	-11932
▁kalori	-11933
▁130	-11934
ifi	-11935
▁polonya	-11936
▁düzenlemeler	-11937
▁51	-11938
▁yüzünde	-11939
▁1999	-11940
▁branş	-11941
▁söylenebilir	-11942
▁bursaspor	-11943
▁şeylere	-11944
▁oluşu	-11945
▁parfüm	-11946
work	-11947
▁enj	-11948
▁rehberlik	-11949
png	-11950
▁mg	-11951
▁dışarıya	-11952
▁kahkah	-11953
afet	-11954
▁ellerine	-11955
▁olabilirdi	-11956
▁sarhoş	-11957
▁kafasını	-11958
▁insanlardan	-11959
▁bunlarla	-11960
▁işçilerin	-11961
▁ygs	-11962
lish	-11963
▁yapmakta	-11964
▁alıntı	-11965
vari	-11966
iyetine	-11967
▁iddialı	-11968
sosyal	-11969
▁dönmüş	-11970
▁kutusu	-11971
▁denildi	-11972
ion	-11973
ýný	-11974
▁düştüğ	-11975
▁yog	-11976
▁tekniği	-11977
ces	-11978
▁yaptırmak	-11979
▁peşinden	-11980
▁burda	-11981
güzel	-11982
▁kardeşler	-11983
▁bilerek	-11984
▁balon	-11985
▁atıl	-11986
▁plakalı	-11987
▁ipek	-11988
anıyordu	-11989
▁davanın	-11990
▁sevindir	-11991
gıcı	-11992
▁bağışıklık	-11993
bı	-11994
ayarak	-11995
limi	-11996
▁one	-11997
▁şayet	-11998
94	-11999
▁bitim	-12000
▁hükmü	-12001
▁67	-12002
▁mırıl	-12003
▁idrak	-12004
▁koyarak	-12005
▁rock	-12006
▁volkan	-12007
▁mutsuz	-12008
▁tutuyor	-12009
▁seyyid	-12010
▁barındıran	-12011
▁diyebil	-12012
▁havaalan	-12013
▁okullarda	-12014
64	-12015
eron	-12016
▁orgaz	-12017
▁kadınlarda	-12018
delen	-12019
▁gücüne	-12020
92	-12021
dol	-12022
▁gözde	-12023
▁bre	-12024
bis	-12025
▁düştüğü	-12026
▁ettikten	-12027
▁duyguları	-12028
sym	-12029
▁asfalt	-12030
▁telefondan	-12031
▁kaydedildi	-12032
işan	-12033
▁yerlerden	-12034
▁şehircilik	-12035
▁sarışın	-12036
▁derim	-12037
▁yanaş	-12038
▁meslektaş	-12039
▁olmayacaktır	-12040
▁uzakta	-12041
kiş	-12042
▁karayol	-12043
▁delikanlı	-12044
▁göstermeye	-12045
▁dinlemek	-12046
▁oktay	-12047
▁kalkın	-12048
▁1960	-12049
▁olduğumuzu	-12050
▁with	-12051
ty	-12052
▁abdur	-12053
lediklerini	-12054
▁bulunacak	-12055
▁geçmişi	-12056
▁fırtın	-12057
▁akademisyen	-12058
mayınız	-12059
ence	-12060
bire	-12061
▁sahneye	-12062
▁muvaf	-12063
▁bıraktığı	-12064
şit	-12065
pazarı	-12066
▁salladı	-12067
alığın	-12068
▁pırıl	-12069
▁güzelliği	-12070
iyen	-12071
▁keb	-12072
▁özkan	-12073
▁(200	-12074
▁ateşi	-12075
▁usulü	-12076
▁yapamaz	-12077
▁dolaylı	-12078
▁ortaklık	-12079
▁teslimat	-12080
sche	-12081
▁arındır	-12082
▁nazik	-12083
▁karşıtı	-12084
▁kupon	-12085
▁dışından	-12086
▁alanındaki	-12087
▁anabilim	-12088
deres	-12089
▁tanımı	-12090
▁metod	-12091
▁dileriz	-12092
▁papaz	-12093
ls	-12094
▁kuyu	-12095
▁trib	-12096
▁bilgin	-12097
mud	-12098
▁ıslak	-12099
▁dostum	-12100
▁konumda	-12101
▁çekilmiş	-12102
ilerimiz	-12103
▁üçünc	-12104
▁karşınıza	-12105
▁sulama	-12106
dare	-12107
▁celal	-12108
▁portakal	-12109
▁göstermiş	-12110
▁naf	-12111
beni	-12112
▁gömlek	-12113
▁tesadüf	-12114
▁valiliği	-12115
▁ülkemize	-12116
▁110	-12117
▁zihniyet	-12118
ora	-12119
▁duyu	-12120
taraf	-12121
▁makinası	-12122
▁çalışmalarında	-12123
▁yapısını	-12124
▁öneri	-12125
▁bayrağı	-12126
▁görüşmek	-12127
▁yeterlidir	-12128
▁açıyor	-12129
siklop	-12130
▁katkısı	-12131
▁sıcaklığı	-12132
30’	-12133
▁sing	-12134
▁160	-12135
▁soyun	-12136
▁öğrendim	-12137
▁kala	-12138
▁simg	-12139
▁dikiş	-12140
nut	-12141
▁bazında	-12142
▁hakik	-12143
stih	-12144
▁beh	-12145
▁söylüyorum	-12146
▁isterse	-12147
ius	-12148
▁silik	-12149
▁verilerine	-12150
ea	-12151
▁polat	-12152
▁yapılar	-12153
bs	-12154
ünüze	-12155
▁yüzlü	-12156
▁iso	-12157
dırlar	-12158
▁görmüyor	-12159
▁parametr	-12160
▁kına	-12161
▁bunca	-12162
▁kararının	-12163
▁kutup	-12164
▁ingilizce	-12165
▁molek	-12166
▁saldırıya	-12167
▁durup	-12168
▁prosed	-12169
▁turistik	-12170
box	-12171
off	-12172
▁belirlem	-12173
▁çevresindeki	-12174
▁sper	-12175
▁özeti	-12176
mark	-12177
▁atıp	-12178
▁adının	-12179
▁ışıl	-12180
▁programının	-12181
▁olursanız	-12182
▁isparta	-12183
/5	-12184
▁karı	-12185
▁liberal	-12186
▁ikincisi	-12187
▁almaz	-12188
▁yapılmalıdır	-12189
▁mısınız	-12190
▁ihbar	-12191
▁seçimlerinde	-12192
▁milliyetçi	-12193
▁soğutma	-12194
ladığımız	-12195
▁yapanlar	-12196
▁toprakları	-12197
▁edeceğim	-12198
senin	-12199
▁yılbaşı	-12200
▁ded	-12201
king	-12202
acağımız	-12203
yü	-12204
▁çalışmada	-12205
▁wal	-12206
▁mesajları	-12207
▁tutuklandı	-12208
vak	-12209
▁fransızca	-12210
▁açısı	-12211
▁zu	-12212
▁1970	-12213
▁saçları	-12214
▁projede	-12215
▁finansman	-12216
▁mars	-12217
kisi	-12218
▁sevgiler	-12219
▁ts	-12220
▁telefonla	-12221
main	-12222
▁görülebil	-12223
▁soğu	-12224
▁2)	-12225
▁şampiyonlar	-12226
▁dengeli	-12227
▁kurumun	-12228
▁okurken	-12229
▁sistemde	-12230
▁fri	-12231
▁hesabına	-12232
ja	-12233
▁bölümünden	-12234
▁yurtdışında	-12235
▁aleyhisselam	-12236
ceğiniz	-12237
▁yavaşça	-12238
▁takımları	-12239
▁fiyatlarla	-12240
▁organizasyonu	-12241
▁tercüm	-12242
▁senesinde	-12243
▁bine	-12244
rahman	-12245
▁füz	-12246
▁tuta	-12247
▁ziyareti	-12248
▁iştah	-12249
▁anlamsız	-12250
▁ölmüş	-12251
▁yarışı	-12252
▁tekne	-12253
▁yemen	-12254
eld	-12255
▁vadede	-12256
▁sük	-12257
ledir	-12258
▁geçtiğini	-12259
▁hon	-12260
▁yrd	-12261
▁izler	-12262
▁otorit	-12263
▁world	-12264
▁yalıtım	-12265
▁bürün	-12266
▁feda	-12267
▁şifre	-12268
▁oyuncuları	-12269
▁iyidir	-12270
▁talepleri	-12271
▁şartlarda	-12272
▁atmış	-12273
▁şefkat	-12274
▁objektif	-12275
▁geçirildi	-12276
▁yenilg	-12277
▁kamuoyu	-12278
▁3-4	-12279
▁big	-12280
▁soğut	-12281
▁gününe	-12282
▁hoşgör	-12283
▁yetenekli	-12284
▁öle	-12285
mamıştır	-12286
erin	-12287
▁muy	-12288
şik	-12289
▁husu	-12290
▁yakınlarında	-12291
eneğini	-12292
mesidir	-12293
▁edilmişti	-12294
▁kalor	-12295
▁seçimlerde	-12296
▁nevi	-12297
▁bozukluğu	-12298
▁belirlenmiş	-12299
sab	-12300
▁hidro	-12301
▁ediniz	-12302
▁sürecine	-12303
▁görüntüleri	-12304
▁intikam	-12305
▁çiftlik	-12306
▁kışın	-12307
▁satran	-12308
esih	-12309
▁öğrencilerinin	-12310
mt	-12311
isy	-12312
▁omur	-12313
▁pansiyon	-12314
▁sistemler	-12315
▁başlıkları	-12316
▁sitemizden	-12317
seler	-12318
▁ülkelere	-12319
▁yazıp	-12320
▁taşıdığı	-12321
▁yerlerinde	-12322
karah	-12323
▁tümü	-12324
▁yenileme	-12325
▁david	-12326
▁koruyan	-12327
▁öldürüldü	-12328
lüğün	-12329
ekte	-12330
▁koşullarda	-12331
▁sende	-12332
▁yönetiminde	-12333
▁odun	-12334
▁ayrılık	-12335
linin	-12336
▁göstermiştir	-12337
▁köf	-12338
▁kullanılmış	-12339
▁dünyadan	-12340
▁tarzda	-12341
mine	-12342
sınlar	-12343
▁geomet	-12344
▁yedik	-12345
▁başlangı	-12346
▁düşkün	-12347
-11	-12348
▁pist	-12349
▁anlaşılan	-12350
ansa	-12351
▁başlaması	-12352
▁düzeyi	-12353
▁sonlandır	-12354
▁yetkisi	-12355
▁seslen	-12356
▁seyred	-12357
▁tahmini	-12358
▁davutoğlu	-12359
▁çakır	-12360
▁sıkıcı	-12361
gür	-12362
▁olmadığından	-12363
▁eğitimini	-12364
▁kullanıyorum	-12365
▁pes	-12366
▁günkü	-12367
▁ender	-12368
▁yürüdü	-12369
▁konumunda	-12370
sika	-12371
▁kanuni	-12372
▁olamaya	-12373
▁tasavvuf	-12374
▁tüfek	-12375
oksi	-12376
▁nci	-12377
lamıştı	-12378
veç	-12379
▁civar	-12380
▁iktidarı	-12381
ıldım	-12382
ness	-12383
▁düşündük	-12384
▁görevlileri	-12385
▁topluluğ	-12386
ılmadan	-12387
▁dahası	-12388
▁düşünmüyor	-12389
▁araştırmaya	-12390
▁diyebilirim	-12391
▁duydum	-12392
▁sütun	-12393
▁kaplan	-12394
▁minnet	-12395
suna	-12396
▁öğleden	-12397
▁tsk	-12398
▁sitesine	-12399
▁yerleştirme	-12400
dört	-12401
▁nan	-12402
▁seg	-12403
▁cihan	-12404
▁bulunmuştur	-12405
liyorum	-12406
▁demet	-12407
▁iseniz	-12408
lamıştır	-12409
▁mağar	-12410
.3	-12411
▁litre	-12412
▁döneminin	-12413
▁ansiklop	-12414
▁değerlendirmek	-12415
▁notu	-12416
▁mahrum	-12417
▁ps	-12418
▁müsaade	-12419
▁dublaj	-12420
▁aktaran	-12421
▁kın	-12422
▁sahasında	-12423
▁ileriye	-12424
▁yaşayacak	-12425
▁ısın	-12426
cilere	-12427
▁sınıflandır	-12428
ladığını	-12429
▁madrid	-12430
ülüğ	-12431
▁hizmetini	-12432
kart	-12433
tığına	-12434
▁çiğn	-12435
amızdan	-12436
▁yapacağını	-12437
lir	-12438
▁]	-12439
▁havaalanı	-12440
▁hatası	-12441
▁bulduk	-12442
▁vücuda	-12443
▁almanca	-12444
▁vey	-12445
tekin	-12446
üsüne	-12447
▁öfke	-12448
port	-12449
iciler	-12450
▁suik	-12451
▁abdülham	-12452
onomi	-12453
ecekler	-12454
ava	-12455
▁demirel	-12456
▁açıkçası	-12457
▁nedenlerle	-12458
▁onayı	-12459
▁yaşından	-12460
▁özdeş	-12461
▁kuruluşlar	-12462
▁benzersiz	-12463
▁ambar	-12464
▁vatandaşı	-12465
▁çalışmayı	-12466
▁rehabil	-12467
▁biçiminde	-12468
▁konuşmasını	-12469
▁tarikat	-12470
ersem	-12471
▁ertelen	-12472
▁tarafsız	-12473
▁sahiplerinin	-12474
▁çalı	-12475
▁mahkemeye	-12476
lenebilir	-12477
▁alevi	-12478
▁tanınmış	-12479
▁târî	-12480
▁entel	-12481
▁geçit	-12482
ilmeli	-12483
▁dosyaları	-12484
dine	-12485
odafone	-12486
▁yapısal	-12487
▁taciz	-12488
▁bambaşka	-12489
▁birdenbire	-12490
▁yüzük	-12491
▁soruya	-12492
▁ebed	-12493
▁alâ	-12494
▁davranışları	-12495
lamaktadır	-12496
acaklar	-12497
▁yatırımlar	-12498
▁atama	-12499
▁(5	-12500
▁okudu	-12501
▁ilgil	-12502
▁nihat	-12503
▁önünden	-12504
▁yükle	-12505
▁nitelikte	-12506
mah	-12507
uzel	-12508
ecekti	-12509
▁fey	-12510
▁krip	-12511
▁yorul	-12512
▁takibi	-12513
▁emp	-12514
▁ayına	-12515
▁erim	-12516
▁şır	-12517
turk	-12518
▁iştirak	-12519
▁panik	-12520
▁hizmetine	-12521
▁bakımlı	-12522
bih	-12523
▁eksen	-12524
▁avantajlı	-12525
pu	-12526
oliz	-12527
▁maltepe	-12528
▁1920	-12529
▁kaldık	-12530
▁voley	-12531
▁milletvekilleri	-12532
71	-12533
ğindeki	-12534
▁rahim	-12535
▁sıralama	-12536
▁ehliyet	-12537
gıt	-12538
▁çizim	-12539
▁açılacak	-12540
▁kaldığını	-12541
▁kullanımına	-12542
▁biriktir	-12543
▁yapmalı	-12544
▁inandır	-12545
sî	-12546
▁çu	-12547
▁vadisi	-12548
▁çıkabilir	-12549
▁özelliklere	-12550
hsan	-12551
▁çem	-12552
▁aydan	-12553
▁videoları	-12554
deti	-12555
burada	-12556
sadece	-12557
▁hissetti	-12558
▁üzüntü	-12559
▁listesinde	-12560
▁fırtına	-12561
▁peşin	-12562
oca	-12563
▁planları	-12564
▁marmar	-12565
▁konuştuk	-12566
▁sahası	-12567
▁uzlaş	-12568
▁tot	-12569
siyum	-12570
▁markanın	-12571
▁yetkililer	-12572
▁konferansı	-12573
enç	-12574
▁gebze	-12575
▁üniversiteler	-12576
▁sinop	-12577
▁elektro	-12578
▁başaran	-12579
▁istikamet	-12580
acaktı	-12581
▁vermekteyiz	-12582
▁tarama	-12583
82	-12584
6’	-12585
▁katında	-12586
▁karıştırın	-12587
▁talebinde	-12588
▁uygulamak	-12589
▁evinin	-12590
▁abbas	-12591
▁kopyal	-12592
cap	-12593
▁karayolu	-12594
▁çalışmaktadır	-12595
lass	-12596
▁beye	-12597
▁neyin	-12598
▁aklın	-12599
▁eleştiri	-12600
abilme	-12601
▁bütünüyle	-12602
larin	-12603
▁edilmez	-12604
olat	-12605
▁yoğunluk	-12606
▁elverişli	-12607
▁spa	-12608
▁olaya	-12609
buğu	-12610
wood	-12611
ýnda	-12612
▁güle	-12613
sunda	-12614
▁kesint	-12615
ttihat	-12616
▁adımı	-12617
▁işkence	-12618
▁sezonun	-12619
ifa	-12620
▁enver	-12621
kitap	-12622
▁sabun	-12623
▁züm	-12624
öğren	-12625
▁taraflı	-12626
▁sürün	-12627
▁oluyoruz	-12628
▁psikiyat	-12629
unuzda	-12630
▁havaliman	-12631
▁yakışıklı	-12632
▁afganistan	-12633
▁dediğim	-12634
▁öneriler	-12635
▁çalışıyordu	-12636
ırsa	-12637
▁süreyle	-12638
▁programını	-12639
▁tabur	-12640
▁kazada	-12641
▁zararı	-12642
▁sahiplerine	-12643
▁görevine	-12644
▁anna	-12645
▁tutulması	-12646
▁açmış	-12647
ledikten	-12648
▁kızları	-12649
▁tahr	-12650
▁geçtikçe	-12651
▁bık	-12652
ılmamış	-12653
nasıl	-12654
▁üretmek	-12655
lanmasını	-12656
▁şartıyla	-12657
▁şeylerden	-12658
▁güçler	-12659
▁premi	-12660
imer	-12661
lesin	-12662
▁olunur	-12663
▁hükümlerine	-12664
lıların	-12665
▁manzara	-12666
▁doğrultu	-12667
▁önlemler	-12668
▁aramızda	-12669
▁anasay	-12670
▁ekleyip	-12671
▁bölgeleri	-12672
▁internette	-12673
▁72	-12674
▁alındığında	-12675
▁odanın	-12676
▁olmalıydı	-12677
▁harem	-12678
▁çilingir	-12679
▁havacılık	-12680
▁los	-12681
▁did	-12682
ememiş	-12683
▁tehlikeye	-12684
▁####	-12685
▁ihtiyacımız	-12686
böyle	-12687
▁küçül	-12688
▁karşısındaki	-12689
▁7,	-12690
▁felsefesi	-12691
▁yalova	-12692
▁seçimler	-12693
ettür	-12694
▁katılıyor	-12695
▁çalışmalarda	-12696
▁dosyası	-12697
▁04	-12698
▁ayıp	-12699
▁edilip	-12700
▁hayali	-12701
âne	-12702
▁master	-12703
▁sabırsız	-12704
isten	-12705
▁sürat	-12706
▁tamiri	-12707
▁menderes	-12708
▁63	-12709
▁edebilmek	-12710
▁asp	-12711
larınızla	-12712
▁edilmesine	-12713
▁öks	-12714
▁pusu	-12715
▁düşünme	-12716
hael	-12717
▁çeşme	-12718
▁kandil	-12719
▁havalandır	-12720
▁şampiyonluk	-12721
▁koşu	-12722
▁örtü	-12723
▁işleyen	-12724
▁amacımız	-12725
▁hırsızlık	-12726
▁kolaylık	-12727
▁adliy	-12728
▁noter	-12729
▁söylemişti	-12730
▁tadil	-12731
▁tedir	-12732
▁getirip	-12733
▁muaf	-12734
▁sertifika	-12735
▁katled	-12736
apur	-12737
ülis	-12738
lendiği	-12739
▁çeyre	-12740
▁cömer	-12741
▁kristal	-12742
▁şal	-12743
ürk	-12744
atları	-12745
93	-12746
▁muş	-12747
▁itfaiye	-12748
▁vef	-12749
▁doküman	-12750
▁girmeye	-12751
▁büyül	-12752
▁istemeyen	-12753
▁birbiriyle	-12754
▁bulunmadığı	-12755
▁ayv	-12756
▁elç	-12757
▁yedir	-12758
▁nemlendir	-12759
anam	-12760
▁kıdem	-12761
▁kası	-12762
▁duvara	-12763
▁demirtaş	-12764
ırız	-12765
▁kiz	-12766
mamızı	-12767
▁durmuş	-12768
▁hırs	-12769
▁sili	-12770
▁çankaya	-12771
lesi	-12772
▁erkan	-12773
▁havlu	-12774
▁hassasiyet	-12775
▁350	-12776
şti	-12777
kadir	-12778
fon	-12779
▁federal	-12780
▁ligde	-12781
pon	-12782
▁isteriz	-12783
▁ilgilendiren	-12784
▁öksür	-12785
rafa	-12786
▁vasıf	-12787
▁oynuyor	-12788
▁kendimize	-12789
▁koymuş	-12790
▁yazarak	-12791
▁ağzına	-12792
▁fizi	-12793
genç	-12794
▁şöh	-12795
▁aranan	-12796
▁ozan	-12797
▁yorgunluk	-12798
▁ülkelerinde	-12799
aspor	-12800
▁home	-12801
▁mutluluğu	-12802
▁uygulamayı	-12803
▁almanız	-12804
▁polisin	-12805
madılar	-12806
▁danışmanı	-12807
▁tasdik	-12808
▁yapmaz	-12809
,...	-12810
▁durumdur	-12811
▁diken	-12812
rul	-12813
▁ız	-12814
▁uygulamanın	-12815
▁yalvar	-12816
▁mevs	-12817
▁talima	-12818
▁seferinde	-12819
▁işlemlerinin	-12820
ideki	-12821
▁çapraz	-12822
çekmece	-12823
▁lüz	-12824
▁düşüncelerini	-12825
▁mücadelede	-12826
▁merkeze	-12827
▁verdiğim	-12828
▁ilişkiye	-12829
▁tarayıcı	-12830
▁yeteneği	-12831
▁üncü	-12832
▁vis	-12833
▁gruba	-12834
▁terörle	-12835
▁alacağınız	-12836
▁sellem	-12837
▁sitesinin	-12838
abilirim	-12839
▁teması	-12840
abo	-12841
▁download	-12842
▁(0	-12843
ınızla	-12844
▁gelinlik	-12845
▁olana	-12846
way	-12847
ileceği	-12848
▁metrekar	-12849
get	-12850
yön	-12851
▁fırında	-12852
anızda	-12853
▁engeller	-12854
▁görüşlerini	-12855
▁ağzından	-12856
▁güldür	-12857
▁yakınında	-12858
.01	-12859
▁bostan	-12860
eet	-12861
▁reaksiyon	-12862
▁çalışmasını	-12863
▁yaratı	-12864
▁yürüten	-12865
▁yarısında	-12866
üsünün	-12867
▁ekipler	-12868
stein	-12869
▁emperyalist	-12870
dom	-12871
▁vereceği	-12872
▁belirleyen	-12873
▁süpür	-12874
▁operasyonda	-12875
▁tedirgin	-12876
▁avrupalı	-12877
▁aradığınız	-12878
▁deplasmanda	-12879
▁nesne	-12880
ûd	-12881
lıklarını	-12882
▁konsolos	-12883
▁desteğini	-12884
diğince	-12885
▁giderleri	-12886
madde	-12887
▁meteor	-12888
▁selamlar	-12889
çük	-12890
▁ölümsüz	-12891
▁opt	-12892
▁çevreye	-12893
▁olayda	-12894
▁chan	-12895
▁yılını	-12896
▁gelebilecek	-12897
gov	-12898
ýl	-12899
▁edilmek	-12900
▁affet	-12901
▁başlangıcı	-12902
cay	-12903
▁havası	-12904
amadığı	-12905
anak	-12906
ardı	-12907
ford	-12908
▁alarm	-12909
gız	-12910
melerde	-12911
▁akademi	-12912
▁olaylara	-12913
▁kahverengi	-12914
▁hakkari	-12915
ğinizin	-12916
▁inceledi	-12917
▁maça	-12918
▁yazarlar	-12919
▁vermiyor	-12920
▁rı	-12921
▁kapısını	-12922
▁söylediler	-12923
eyt	-12924
ebilirler	-12925
▁yapmıştı	-12926
▁verecektir	-12927
▁miy	-12928
▁sezonunda	-12929
▁karaca	-12930
lic	-12931
eceğinden	-12932
▁heyecanla	-12933
▁odaklan	-12934
▁pv	-12935
diğine	-12936
▁antibiy	-12937
dırma	-12938
▁seferber	-12939
cia	-12940
▁casus	-12941
▁istemek	-12942
▁aileleri	-12943
▁bini	-12944
61	-12945
▁keçi	-12946
▁yararlanmak	-12947
▁fars	-12948
▁istismar	-12949
▁vodafone	-12950
▁mensu	-12951
▁politikaları	-12952
sık	-12953
▁coşkun	-12954
▁ticareti	-12955
lî	-12956
▁dayat	-12957
▁malik	-12958
▁dere	-12959
boş	-12960
▁antrenör	-12961
lköğretim	-12962
▁akademisi	-12963
▁maddesine	-12964
▁kili	-12965
▁mevlana	-12966
▁kullandığımız	-12967
▁dindar	-12968
▁kapıda	-12969
▁noktalar	-12970
▁azar	-12971
▁oluşturulması	-12972
eğinde	-12973
▁yürütme	-12974
▁çevrimiçi	-12975
▁söyleyecek	-12976
▁çarşı	-12977
▁taktik	-12978
▁zalim	-12979
ert	-12980
▁elimizden	-12981
▁müdürlüğüne	-12982
leridir	-12983
▁sunulmaktadır	-12984
▁kazası	-12985
inizdeki	-12986
▁(3	-12987
civert	-12988
▁yeterlilik	-12989
▁hizmetlerin	-12990
▁fabrikası	-12991
▁ödüllendir	-12992
ilet	-12993
▁kabak	-12994
peki	-12995
▁bav	-12996
▁pürüz	-12997
▁ilde	-12998
▁allahü	-12999
▁kameralı	-13000
izz	-13001
▁karlı	-13002
anne	-13003
▁köyde	-13004
mamıştı	-13005
▁oturmuş	-13006
▁rahatça	-13007
▁yaklaşımı	-13008
layalım	-13009
▁propaganda	-13010
üd	-13011
ikatür	-13012
nn	-13013
▁anlaşıl	-13014
▁kaybetmiş	-13015
▁önerileri	-13016
▁sırrı	-13017
▁bulunarak	-13018
▁yenik	-13019
▁durmak	-13020
▁güvence	-13021
▁mahallesinde	-13022
▁bingöl	-13023
ction	-13024
▁görmesi	-13025
▁partiler	-13026
lig	-13027
▁%50	-13028
▁siyenp	-13029
▁kurulumu	-13030
▁engelliler	-13031
▁kurulacak	-13032
▁rec	-13033
▁lirası	-13034
▁eksiklik	-13035
▁çınar	-13036
▁saltanat	-13037
latan	-13038
▁boylu	-13039
▁jon	-13040
▁delâil	-13041
duy	-13042
osh	-13043
alayan	-13044
▁olunan	-13045
▁başkaları	-13046
▁halep	-13047
▁sular	-13048
▁bağlama	-13049
▁şeyhülis	-13050
▁getirmeye	-13051
▁makamında	-13052
▁cömert	-13053
▁faaliyetler	-13054
lev	-13055
▁kaydıyla	-13056
▁sportif	-13057
ilan	-13058
▁telaş	-13059
özellikle	-13060
▁yazdım	-13061
▁albümü	-13062
dra	-13063
artma	-13064
▁düşünceleri	-13065
▁с	-13066
laz	-13067
▁değir	-13068
▁james	-13069
▁gitar	-13070
artık	-13071
▁xvi	-13072
▁suna	-13073
▁ht	-13074
▁askerin	-13075
▁adap	-13076
▁maddelerin	-13077
▁akışı	-13078
▁bildiğim	-13079
▁dakikalık	-13080
▁cisim	-13081
▁altay	-13082
▁inanan	-13083
▁savunan	-13084
▁uzunluğu	-13085
▁satranç	-13086
lileri	-13087
▁mahmud	-13088
▁ju	-13089
▁sürek	-13090
▁oluşturmaktadır	-13091
▁obez	-13092
▁zanlı	-13093
▁ortaokulu	-13094
▁ceo	-13095
▁ılık	-13096
ancak	-13097
▁başakşehir	-13098
▁istiyorsunuz	-13099
▁başkanlığına	-13100
▁baha	-13101
▁pdf	-13102
▁hareketler	-13103
ğde	-13104
alp	-13105
▁yığ	-13106
▁yalın	-13107
▁ataşehir	-13108
▁rem	-13109
üyorum	-13110
yeş	-13111
▁uygulamalı	-13112
▁sormak	-13113
▁incelemek	-13114
dd	-13115
▁bilek	-13116
▁uyanık	-13117
▁ardahan	-13118
▁flash	-13119
beyi	-13120
▁doğmuş	-13121
▁münasebet	-13122
▁motivasyon	-13123
ase	-13124
▁çerçevede	-13125
▁luk	-13126
▁hazırlama	-13127
▁hesabından	-13128
▁olacağına	-13129
▁kelimeleri	-13130
keş	-13131
▁zıt	-13132
▁bedeni	-13133
▁üyelerine	-13134
▁açıklamaları	-13135
▁bağlayan	-13136
▁mesajlar	-13137
▁mırıldan	-13138
oza	-13139
▁işsizlik	-13140
▁geçim	-13141
suru	-13142
▁kapıya	-13143
avrup	-13144
▁yoldaş	-13145
▁geli	-13146
.2016	-13147
▁öğün	-13148
▁cihazın	-13149
▁araştırmacı	-13150
----	-13151
kapı	-13152
▁dat	-13153
-25	-13154
▁olmam	-13155
▁sürül	-13156
▁garantili	-13157
▁çocuklarını	-13158
▁sıralarında	-13159
▁beklentiler	-13160
▁hoşlan	-13161
▁bölümünün	-13162
▁buluştu	-13163
▁şiirler	-13164
▁özelleştir	-13165
▁birisidir	-13166
▁telif	-13167
mb	-13168
▁madem	-13169
▁arg	-13170
malık	-13171
▁duya	-13172
eceğimizi	-13173
▁kaldırıp	-13174
▁sıkıntısı	-13175
▁akif	-13176
▁zorunludur	-13177
eller	-13178
▁kullanıcılara	-13179
▁sony	-13180
▁matba	-13181
▁manav	-13182
▁ehli	-13183
▁gelirken	-13184
âtı	-13185
▁geliri	-13186
▁altyaz	-13187
hayat	-13188
▁lüb	-13189
▁üzgün	-13190
▁7/24	-13191
▁ayakları	-13192
▁neşeli	-13193
▁başbakanlık	-13194
lıkların	-13195
▁ağzı	-13196
▁mühür	-13197
▁ikil	-13198
ıncaya	-13199
▁oranının	-13200
▁sıkıntılar	-13201
minin	-13202
▁sundu	-13203
▁vermeyen	-13204
iba	-13205
ecekleri	-13206
/12	-13207
▁prosedür	-13208
▁harcama	-13209
▁hesaplama	-13210
bül	-13211
▁anlamını	-13212
72	-13213
▁garantisi	-13214
kinden	-13215
▁kanalında	-13216
▁ösym	-13217
▁öngörülen	-13218
stro	-13219
▁periyo	-13220
▁sözleşmeli	-13221
hr	-13222
sion	-13223
gele	-13224
▁konuşması	-13225
irdi	-13226
▁raporda	-13227
▁sesler	-13228
şer	-13229
▁ağabey	-13230
▁geleceğin	-13231
düzü	-13232
▁george	-13233
▁algıla	-13234
ğinize	-13235
▁koşulu	-13236
▁tehdi	-13237
▁gelenler	-13238
▁kullanmayı	-13239
▁tesettür	-13240
trol	-13241
▁duygular	-13242
▁yanınızda	-13243
▁cemil	-13244
▁bilgisini	-13245
mıza	-13246
▁geçirmiş	-13247
edecek	-13248
▁jet	-13249
▁org	-13250
▁işyeri	-13251
ancı	-13252
dıma	-13253
▁çözmek	-13254
▁dönerek	-13255
araba	-13256
▁benziyor	-13257
▁görülecek	-13258
▁off	-13259
yıp	-13260
▁hastalarda	-13261
▁imha	-13262
▁ihrac	-13263
▁varlıklar	-13264
▁yoğur	-13265
▁önünü	-13266
▁çatlak	-13267
▁elimden	-13268
▁adi	-13269
tk	-13270
casına	-13271
▁iftir	-13272
▁hatırlatan	-13273
stat	-13274
▁tanıyan	-13275
▁çevresel	-13276
▁manev	-13277
cular	-13278
▁sayısında	-13279
▁ahlâk	-13280
▁annenin	-13281
▁herşeyi	-13282
▁sürülen	-13283
▁burc	-13284
▁taktir	-13285
aynı	-13286
▁kun	-13287
▁lg	-13288
amadım	-13289
▁tedbirler	-13290
▁prov	-13291
tecek	-13292
▁transferi	-13293
▁desteğiyle	-13294
ümün	-13295
▁yarattı	-13296
▁yönetmeni	-13297
▁asistan	-13298
▁md	-13299
▁tarla	-13300
▁eklenmiş	-13301
ella	-13302
▁ilkokul	-13303
▁sorunlara	-13304
ight	-13305
▁fırlat	-13306
▁voleybol	-13307
▁zil	-13308
▁haydar	-13309
tle	-13310
▁all	-13311
▁eklemek	-13312
▁atlı	-13313
▁karikatür	-13314
calı	-13315
▁götürdü	-13316
▁düşünmeye	-13317
▁hı	-13318
▁verirler	-13319
▁sürdüğü	-13320
▁xx	-13321
▁arkada	-13322
ydım	-13323
▁olanın	-13324
▁dim	-13325
jo	-13326
▁said	-13327
mayacağı	-13328
▁bitkiler	-13329
▁yapacağım	-13330
▁ilerleme	-13331
▁yapıları	-13332
gara	-13333
▁talimatı	-13334
▁nav	-13335
eto	-13336
▁belirtiyor	-13337
▁konusuna	-13338
▁elçisi	-13339
▁kalmadan	-13340
▁karada	-13341
▁cevaplar	-13342
▁hayvanları	-13343
müs	-13344
▁temp	-13345
▁atlat	-13346
▁kızılay	-13347
▁kendilerinden	-13348
▁yozgat	-13349
nî	-13350
ezya	-13351
▁900	-13352
iliğine	-13353
▁acent	-13354
lamayan	-13355
▁eşim	-13356
▁ölür	-13357
▁çeşidi	-13358
▁görevden	-13359
▁ayhan	-13360
▁klasör	-13361
▁arkadas	-13362
hol	-13363
▁motif	-13364
▁nakil	-13365
▁başkalarına	-13366
▁maked	-13367
▁konulan	-13368
▁şiiri	-13369
▁bakırköy	-13370
▁5-	-13371
▁tö	-13372
anıyla	-13373
▁hazırlanması	-13374
▁hasret	-13375
neğin	-13376
▁açıklayan	-13377
▁tartışmalar	-13378
▁ölüme	-13379
▁wu	-13380
▁kuyruk	-13381
▁beyoğlu	-13382
▁belirtiliyor	-13383
▁ilki	-13384
▁suçundan	-13385
▁yetişen	-13386
▁etmişlerdir	-13387
▁hâlinde	-13388
▁kâfir	-13389
▁kast	-13390
dış	-13391
▁canını	-13392
▁bulmaya	-13393
▁fikirleri	-13394
▁entegr	-13395
▁sevgilisi	-13396
▁kıskanç	-13397
▁severek	-13398
anik	-13399
▁maksat	-13400
▁haksızlık	-13401
▁doğrudur	-13402
▁ekranda	-13403
▁istihbarat	-13404
▁istil	-13405
▁takılan	-13406
▁sarımsak	-13407
▁olacağım	-13408
▁mücadelenin	-13409
▁gayri	-13410
▁melik	-13411
▁dökü	-13412
▁monte	-13413
▁sessizce	-13414
▁vermem	-13415
▁toprağı	-13416
ðý	-13417
dia	-13418
▁fetih	-13419
▁yılan	-13420
▁dinî	-13421
▁kazanıyor	-13422
▁willi	-13423
▁kapıdan	-13424
▁ellerinden	-13425
▁bulunduğumuz	-13426
▁göt	-13427
▁ürettiği	-13428
ederken	-13429
▁tahrip	-13430
▁tuzla	-13431
▁yapılırken	-13432
lamıyorum	-13433
▁yaralanan	-13434
)'	-13435
▁kapılarını	-13436
▁başlarına	-13437
ox	-13438
▁sonucuna	-13439
▁yayınlan	-13440
▁yaklaşan	-13441
ota	-13442
▁almakta	-13443
▁katılarak	-13444
▁mag	-13445
▁sadakat	-13446
▁yahud	-13447
▁yapıda	-13448
▁gülümsem	-13449
▁dağları	-13450
▁resimli	-13451
▁mezh	-13452
▁olmayabilir	-13453
▁müsait	-13454
▁112	-13455
▁fıst	-13456
dığımda	-13457
91	-13458
▁eşitlik	-13459
▁boyama	-13460
▁yayınladı	-13461
▁ilâh	-13462
ble	-13463
▁tanıtımı	-13464
▁tutma	-13465
▁iktidara	-13466
hard	-13467
▁nedense	-13468
▁bağlar	-13469
▁komedi	-13470
▁sorularını	-13471
abe	-13472
▁pos	-13473
▁burhan	-13474
▁kaçış	-13475
▁oyuncuların	-13476
▁şaşırt	-13477
▁güvenliğini	-13478
▁77	-13479
▁zel	-13480
▁yerlerini	-13481
▁şerit	-13482
▁görünümü	-13483
yıldı	-13484
▁yapısına	-13485
▁saatlerde	-13486
▁medres	-13487
▁kilisesi	-13488
▁yakınları	-13489
▁mahsus	-13490
▁valilik	-13491
cis	-13492
▁ersoy	-13493
▁sütün	-13494
▁olduğunuzu	-13495
▁dist	-13496
▁yaşantı	-13497
▁sup	-13498
▁kayıtları	-13499
▁şarkısı	-13500
▁sûr	-13501
▁fonksiyonu	-13502
▁kompoz	-13503
▁duyuyor	-13504
▁masanın	-13505
▁olabilmektedir	-13506
▁ytl	-13507
dığınızı	-13508
▁ocağı	-13509
ayir	-13510
▁ayakkab	-13511
▁tahrik	-13512
▁olmamak	-13513
▁yanımda	-13514
tun	-13515
▁foto	-13516
▁yayılan	-13517
ði	-13518
▁rok	-13519
▁kaptır	-13520
▁başlangıc	-13521
▁alık	-13522
▁istifade	-13523
▁çocuklarına	-13524
▁alıştır	-13525
▁merkezde	-13526
▁yin	-13527
▁hedefleri	-13528
▁güver	-13529
▁beğeni	-13530
▁domuz	-13531
▁önemine	-13532
▁veriyordu	-13533
▁kumar	-13534
▁gecede	-13535
▁memlek	-13536
iliyordu	-13537
▁bağı	-13538
▁siyasî	-13539
▁alanların	-13540
▁abar	-13541
emeyiz	-13542
▁hoşnut	-13543
▁tersi	-13544
▁deleg	-13545
▁deneyin	-13546
▁yöneticiler	-13547
▁yerlerine	-13548
şler	-13549
îd	-13550
▁verebilirsiniz	-13551
oğulları	-13552
ûb	-13553
▁ros	-13554
▁tonu	-13555
▁kitabını	-13556
▁yaşaya	-13557
▁kütüphane	-13558
opol	-13559
▁gözünü	-13560
▁otelin	-13561
87	-13562
lenmesine	-13563
▁spek	-13564
▁çıktık	-13565
sâ	-13566
▁toy	-13567
▁anon	-13568
▁kışkır	-13569
▁tanıdık	-13570
▁ped	-13571
▁esrar	-13572
▁çevirdi	-13573
rev	-13574
▁aşiret	-13575
hey	-13576
▁şakir	-13577
▁sokul	-13578
▁başvuruları	-13579
▁boğaziçi	-13580
▁dilin	-13581
▁görülmüştür	-13582
▁bakıyordu	-13583
▁zorunluluk	-13584
şeh	-13585
erkek	-13586
▁yır	-13587
▁değişiyor	-13588
.09	-13589
▁amiral	-13590
lemesine	-13591
belki	-13592
▁kurarak	-13593
▁yapmaktan	-13594
▁azgın	-13595
▁psikolog	-13596
ciye	-13597
imdeki	-13598
▁oğulları	-13599
▁sayfalar	-13600
▁bereket	-13601
▁tutmaya	-13602
▁soruyor	-13603
▁ine	-13604
▁niy	-13605
▁alınıp	-13606
koşa	-13607
▁üyeliği	-13608
boy	-13609
dav	-13610
▁efendiler	-13611
▁iğr	-13612
.4	-13613
ımızla	-13614
▁sırası	-13615
▁gününü	-13616
▁müstak	-13617
▁törenle	-13618
▁şampiyonu	-13619
▁kılıf	-13620
▁sandalye	-13621
▁görk	-13622
▁kapağı	-13623
py	-13624
▁devletlerin	-13625
▁baskısı	-13626
▁iniş	-13627
▁istiyorlar	-13628
hed	-13629
kiler	-13630
▁coşku	-13631
▁karşılaşma	-13632
organ	-13633
▁danışma	-13634
▁fazladır	-13635
▁oturuyor	-13636
karahisar	-13637
▁doğruya	-13638
▁ısır	-13639
▁gelmeden	-13640
▁minibüs	-13641
▁tutulan	-13642
affer	-13643
mann	-13644
▁lens	-13645
▁denizcilik	-13646
ee	-13647
▁göndermek	-13648
▁evrenin	-13649
▁hizmetlere	-13650
▁dersiniz	-13651
▁çalışmış	-13652
▁eğitimleri	-13653
▁çalışkan	-13654
▁dönemlerinde	-13655
▁ves	-13656
▁forex	-13657
▁projeye	-13658
▁yüc	-13659
▁susuz	-13660
http	-13661
▁dalgalan	-13662
▁havuzu	-13663
▁ayıran	-13664
▁rasyon	-13665
▁destekler	-13666
geb	-13667
▁sessizlik	-13668
▁cazip	-13669
lallah	-13670
▁azdır	-13671
seni	-13672
▁antibiyotik	-13673
▁tul	-13674
ento	-13675
▁sabaha	-13676
▁etkileşim	-13677
▁türkistan	-13678
▁başlattığı	-13679
▁ilişkilerini	-13680
▁mıy	-13681
▁fare	-13682
::	-13683
▁yönündeki	-13684
▁riskini	-13685
▁king	-13686
▁cı	-13687
▁târîh	-13688
▁tenis	-13689
▁yakalama	-13690
▁eşyaları	-13691
▁nüs	-13692
▁meal	-13693
gue	-13694
▁ameliyatı	-13695
▁verdiğiniz	-13696
▁şarkıları	-13697
▁kurallarına	-13698
▁izi	-13699
▁hoşuna	-13700
▁biliniyor	-13701
▁tiyatrosu	-13702
▁hizmetin	-13703
▁gelirse	-13704
▁korur	-13705
▁boşuna	-13706
▁yaparlar	-13707
▁çalıştığını	-13708
viz	-13709
▁ölümüne	-13710
▁yeryüzünde	-13711
▁gizemli	-13712
▁fla	-13713
▁titreş	-13714
ınızdaki	-13715
emeyeceği	-13716
▁çalın	-13717
▁taham	-13718
▁meksika	-13719
▁eksi	-13720
▁babanın	-13721
▁ruhunu	-13722
▁sonuçlarına	-13723
▁62	-13724
▁birimleri	-13725
▁salg	-13726
▁unsuru	-13727
▁birlikleri	-13728
▁birinden	-13729
▁çıkarılması	-13730
▁kalitede	-13731
▁mühendisi	-13732
▁dikt	-13733
▁meryem	-13734
▁magaz	-13735
▁ailelerin	-13736
?’	-13737
▁onaylı	-13738
▁çavuşoğlu	-13739
▁internetten	-13740
akki	-13741
▁siber	-13742
▁idiler	-13743
▁termal	-13744
dyo	-13745
▁psikoloji	-13746
▁power	-13747
▁dağılı	-13748
▁ulaşmış	-13749
▁beklenmedik	-13750
zav	-13751
▁start	-13752
▁kaleci	-13753
▁uzmanları	-13754
ric	-13755
▁vatandaşın	-13756
▁tuzak	-13757
▁sergisi	-13758
▁(10	-13759
▁yıllara	-13760
▁pilav	-13761
▁thy	-13762
▁öğretmenliği	-13763
lığınca	-13764
▁gösterecek	-13765
taur	-13766
▁gösteriş	-13767
▁tuttur	-13768
89	-13769
▁yastık	-13770
▁aramaya	-13771
▁kararnam	-13772
▁olabilmek	-13773
▁koyuyor	-13774
▁zanned	-13775
63	-13776
▁himay	-13777
▁etmekle	-13778
▁değişiklikleri	-13779
iyorsun	-13780
▁gaf	-13781
▁yayını	-13782
▁düzenlenmesi	-13783
▁ofisi	-13784
ılmalı	-13785
nar	-13786
-17	-13787
zar	-13788
▁haklar	-13789
▁soruların	-13790
▁yerleşik	-13791
çilere	-13792
▁metaboliz	-13793
▁ikisinin	-13794
▁duygularını	-13795
▁hikâye	-13796
▁özge	-13797
osunun	-13798
▁çözüme	-13799
▁aktardı	-13800
▁güvenle	-13801
▁ifadeleri	-13802
▁liralık	-13803
▁küs	-13804
▁yanda	-13805
▁inancı	-13806
▁işlemlerin	-13807
▁ceylan	-13808
yeşil	-13809
ahmet	-13810
▁ej	-13811
.07	-13812
▁antlaş	-13813
▁müjde	-13814
▁arkadan	-13815
▁anlaşmaya	-13816
▁göstermesi	-13817
dına	-13818
tane	-13819
▁ihsan	-13820
stır	-13821
ilebilecek	-13822
cinsel	-13823
▁düşmesi	-13824
▁çağrısı	-13825
lacaktır	-13826
▁müzakere	-13827
▁ateşe	-13828
kendi	-13829
▁lezz	-13830
▁ödemek	-13831
taydı	-13832
▁merkezinin	-13833
stedi	-13834
▁yıkım	-13835
▁sorulara	-13836
▁ekranı	-13837
▁broş	-13838
stal	-13839
▁macera	-13840
▁nezdinde	-13841
▁çekmeye	-13842
oya	-13843
▁(4	-13844
▁etmesine	-13845
▁sıfatı	-13846
opi	-13847
▁ardında	-13848
nur	-13849
▁tasarımları	-13850
▁havale	-13851
▁arttırmak	-13852
?»	-13853
▁iğne	-13854
▁admin	-13855
▁özelliklerine	-13856
▁beklediği	-13857
otu	-13858
▁şöval	-13859
▁ülkelerden	-13860
▁sorul	-13861
▁olumsuzluk	-13862
▁cim	-13863
▁yönetmeliğin	-13864
▁hâlde	-13865
▁tasarlanan	-13866
▁burayı	-13867
▁bakıma	-13868
▁pendik	-13869
▁arar	-13870
▁üçlü	-13871
▁3’	-13872
▁geçmişti	-13873
▁başvurular	-13874
▁katılımı	-13875
▁1950	-13876
▁kobi	-13877
▁şifa	-13878
▁gidin	-13879
▁bulaşık	-13880
▁muhafız	-13881
ıyorlardı	-13882
▁sıraya	-13883
▁nizam	-13884
▁99	-13885
▁kaçağı	-13886
▁kibar	-13887
▁hastası	-13888
ciliği	-13889
ilasyon	-13890
?'	-13891
▁çıkarmaya	-13892
seydi	-13893
▁beykoz	-13894
{{{1	-13895
▁tru	-13896
leşmesi	-13897
▁kıvam	-13898
▁şükran	-13899
▁telefonun	-13900
ısıra	-13901
▁dönüşü	-13902
▁paralar	-13903
▁olabildiğince	-13904
▁english	-13905
hy	-13906
▁liderlik	-13907
örneğin	-13908
▁eserin	-13909
▁170	-13910
▁küçüm	-13911
▁kısır	-13912
▁muamel	-13913
radı	-13914
▁hatalar	-13915
▁fiyatlarını	-13916
hani	-13917
otek	-13918
▁rön	-13919
▁cildi	-13920
▁hün	-13921
▁topçu	-13922
▁sami	-13923
▁kalarak	-13924
▁pekiştir	-13925
▁360	-13926
▁kimler	-13927
ymış	-13928
▁elemanı	-13929
amayacağı	-13930
müz	-13931
▁kuzu	-13932
▁oteli	-13933
fice	-13934
▁yakası	-13935
▁çıkarır	-13936
▁listesine	-13937
▁bulabilir	-13938
▁olurum	-13939
▁şab	-13940
▁geceler	-13941
▁listede	-13942
▁hükümdarı	-13943
▁öc	-13944
▁rehabilitasyon	-13945
▁gözünde	-13946
▁yöne	-13947
fr	-13948
▁sonraları	-13949
▁cidd	-13950
▁dışa	-13951
▁ülkesinde	-13952
▁kıza	-13953
fot	-13954
▁59	-13955
▁sağlamaya	-13956
▁cek	-13957
▁pakistan	-13958
rarı	-13959
▁yapmam	-13960
▁binali	-13961
▁fonu	-13962
▁devamında	-13963
▁vuran	-13964
▁osmanlılar	-13965
raniye	-13966
ildikten	-13967
▁harizm	-13968
▁yüksekliği	-13969
▁güçsüz	-13970
▁çoğunluk	-13971
▁barışı	-13972
▁kurallara	-13973
▁yanısıra	-13974
▁kapıları	-13975
▁fethi	-13976
▁dv	-13977
başkan	-13978
▁müşterilerin	-13979
▁metot	-13980
duğundan	-13981
ydu	-13982
▁yükü	-13983
▁paslanmaz	-13984
▁hül	-13985
▁ford	-13986
1]	-13987
▁bonusu	-13988
▁hunlara	-13989
▁coşk	-13990
▁bilinci	-13991
.06	-13992
▁versiyonu	-13993
▁nun	-13994
▁batır	-13995
▁takıma	-13996
▁ortalık	-13997
▁şafak	-13998
▁şükrü	-13999
▁gelene	-14000
-14	-14001
amıyordu	-14002
▁uğrayan	-14003
▁mürekk	-14004
teyim	-14005
▁gölge	-14006
orit	-14007
▁dille	-14008
ılmasında	-14009
▁mam	-14010
▁canavar	-14011
istir	-14012
esif	-14013
▁aygıt	-14014
▁bilimin	-14015
tığın	-14016
▁ünvan	-14017
alısınız	-14018
▁cezaevi	-14019
▁çalışın	-14020
▁michael	-14021
▁açabilir	-14022
▁yöresel	-14023
▁dükkân	-14024
▁olmamış	-14025
uli	-14026
▁fıkra	-14027
cesine	-14028
▁antlaşması	-14029
▁köyün	-14030
▁buluşma	-14031
▁standartları	-14032
kıs	-14033
tamam	-14034
vri	-14035
▁üf	-14036
▁öğrenin	-14037
▁kurtulmuş	-14038
▁ülkedeki	-14039
▁о	-14040
▁orda	-14041
indedir	-14042
▁mb	-14043
▁çıkarıldı	-14044
▁levh	-14045
▁tâbi	-14046
▁kaybo	-14047
▁istisna	-14048
▁bır	-14049
▁kentte	-14050
▁yüre	-14051
▁redde	-14052
▁saygılı	-14053
▁grubunun	-14054
▁doğrultuda	-14055
▁döküm	-14056
▁projesinin	-14057
▁ky	-14058
▁%10	-14059
▁61	-14060
▁tuşuna	-14061
▁müsteşar	-14062
izin	-14063
▁hedefleyen	-14064
▁adından	-14065
▁bırakmıyor	-14066
▁gittiğini	-14067
▁buralarda	-14068
▁eskisi	-14069
▁nasil	-14070
ozan	-14071
era	-14072
▁plâ	-14073
▁yumruk	-14074
▁yıpran	-14075
▁ziyarete	-14076
▁latin	-14077
▁huzuruna	-14078
▁büyüklüğü	-14079
▁adımları	-14080
▁alıyorum	-14081
▁kalsiyum	-14082
▁dilde	-14083
▁bire	-14084
cistan	-14085
larımdan	-14086
▁hiçbiri	-14087
▁tanıyor	-14088
▁andre	-14089
▁sıh	-14090
▁hareketin	-14091
zon	-14092
▁doyur	-14093
▁yıldızlı	-14094
▁(4)	-14095
▁olayla	-14096
▁giyen	-14097
▁devasa	-14098
▁hükmünde	-14099
▁guzel	-14100
▁karşıyaka	-14101
▁dinlenme	-14102
▁sınıfta	-14103
ct	-14104
sünüz	-14105
▁tutarlı	-14106
▁devred	-14107
▁çağı	-14108
▁sorumludur	-14109
ript	-14110
▁çalıştık	-14111
▁birliktelik	-14112
/4	-14113
▁zenginlik	-14114
▁gazze	-14115
▁got	-14116
▁rüşvet	-14117
▁belgelen	-14118
erg	-14119
▁ederdi	-14120
▁yazdık	-14121
▁verilmesini	-14122
avrupa	-14123
▁bok	-14124
▁uçan	-14125
▁otele	-14126
yür	-14127
▁milletimizin	-14128
▁suikast	-14129
▁zirvesi	-14130
.02	-14131
▁tram	-14132
▁bilecik	-14133
▁hapishan	-14134
▁havanın	-14135
▁işlerine	-14136
▁kafe	-14137
▁ziyaretçiler	-14138
▁köşesinde	-14139
▁sınırlarını	-14140
▁tekel	-14141
ekkül	-14142
▁damat	-14143
▁kullanıcının	-14144
▁kursları	-14145
▁gra	-14146
▁dilini	-14147
▁türkleri	-14148
▁korumaya	-14149
▁bölgeyi	-14150
▁görülmesi	-14151
▁kolaydır	-14152
▁sulu	-14153
▁merce	-14154
▁oynanacak	-14155
▁2.5	-14156
dýr	-14157
▁ucunda	-14158
▁olasılığı	-14159
▁bürosu	-14160
▁mukad	-14161
▁toprağın	-14162
▁sıkıntılı	-14163
▁dokunul	-14164
▁kurulduğu	-14165
▁şişli	-14166
▁müess	-14167
▁dra	-14168
▁mücev	-14169
▁geliştirilmiş	-14170
▁başıma	-14171
.....	-14172
▁elimde	-14173
▁presti	-14174
▁caiz	-14175
▁yalıt	-14176
olsun	-14177
▁tesir	-14178
▁klip	-14179
madık	-14180
▁1998	-14181
▁haydi	-14182
▁vermekte	-14183
▁muhatap	-14184
▁uğramış	-14185
ileştir	-14186
▁dinler	-14187
▁sonsuza	-14188
▁yapmanın	-14189
▁öğrencilerine	-14190
▁işlevsel	-14191
▁kuruma	-14192
▁gençlere	-14193
▁yapmaları	-14194
melerinin	-14195
▁oturduğu	-14196
▁fuat	-14197
.04	-14198
▁bölgesinin	-14199
-2018	-14200
▁açacak	-14201
▁çekiliş	-14202
ğil	-14203
▁sağlamış	-14204
▁mümin	-14205
▁sunuluyor	-14206
▁ekleyerek	-14207
▁rakibi	-14208
hav	-14209
▁varlığın	-14210
▁yarısını	-14211
▁askerlerin	-14212
eve	-14213
▁aylarda	-14214
▁tutanak	-14215
▁çekirde	-14216
▁hiyer	-14217
▁ödü	-14218
▁bazlı	-14219
▁loc	-14220
▁iletişimi	-14221
▁ocağ	-14222
▁bahan	-14223
▁bill	-14224
enizde	-14225
istanbul	-14226
▁geçebilirsiniz	-14227
▁8,	-14228
▁üstünlük	-14229
▁kayın	-14230
▁muzaffer	-14231
ruh	-14232
statistik	-14233
▁step	-14234
▁olmayıp	-14235
▁gerçeğe	-14236
▁aletleri	-14237
▁etmektir	-14238
▁orgazm	-14239
▁mevdu	-14240
▁seçmek	-14241
eğli	-14242
▁cr	-14243
▁azaltmak	-14244
▁olsalar	-14245
81	-14246
osuna	-14247
▁fırsatları	-14248
▁başkasının	-14249
▁çıtır	-14250
▁sovyetler	-14251
oluk	-14252
▁santim	-14253
▁robert	-14254
▁dekoratif	-14255
53	-14256
▁düzenlemek	-14257
mama	-14258
▁filminin	-14259
▁hedefe	-14260
▁binalar	-14261
▁çiçekler	-14262
âsı	-14263
▁sperm	-14264
▁kullandıkları	-14265
▁iddiasıyla	-14266
▁hükümetinin	-14267
▁imiş	-14268
▁ideolojik	-14269
▁müşrik	-14270
▁nispet	-14271
▁vücutta	-14272
▁wi	-14273
▁sarık	-14274
▁numaraları	-14275
lanmıştı	-14276
▁yatırımları	-14277
▁erdir	-14278
▁hoşuma	-14279
▁kasaba	-14280
▁kripto	-14281
ılmaması	-14282
▁gidebil	-14283
▁kak	-14284
▁fenomen	-14285
▁içermektedir	-14286
▁....	-14287
▁hist	-14288
▁menkul	-14289
▁tertip	-14290
▁okuyup	-14291
▁soci	-14292
▁serü	-14293
▁hayatlarını	-14294
▁uygulamasını	-14295
.03	-14296
cra	-14297
▁gereç	-14298
ulmuştu	-14299
▁karşılığını	-14300
▁eylemi	-14301
▁alanının	-14302
▁egemenlik	-14303
▁cemiyet	-14304
uluğa	-14305
▁graf	-14306
▁dna	-14307
▁rütb	-14308
▁müdürümüz	-14309
▁gizem	-14310
▁pişirin	-14311
▁tutuş	-14312
yıldız	-14313
▁hizmetlerinin	-14314
▁burjuva	-14315
▁değişmez	-14316
▁stadı	-14317
▁wordpress	-14318
▁eğitimde	-14319
▁teyz	-14320
▁lefkoşa	-14321
asıdır	-14322
larımda	-14323
▁eşinin	-14324
▁silindir	-14325
ayrıca	-14326
▁esaslar	-14327
▁oynar	-14328
▁edince	-14329
▁gitmesi	-14330
▁yaramaz	-14331
▁çıkarıyor	-14332
▁tablosu	-14333
▁nâ	-14334
▁törenine	-14335
▁kalç	-14336
▁toplamı	-14337
▁grubunda	-14338
▁niğde	-14339
▁evliy	-14340
▁oluştu	-14341
▁biter	-14342
▁şöhret	-14343
▁2’	-14344
▁iddaa	-14345
▁görkemli	-14346
star	-14347
leşti	-14348
lock	-14349
▁yönüyle	-14350
▁toplamak	-14351
▁durumunun	-14352
▁yıllardan	-14353
▁yapıyordu	-14354
▁gelirler	-14355
▁konuşulan	-14356
▁elemanları	-14357
mazsa	-14358
▁geçmiştir	-14359
-9	-14360
▁cenk	-14361
îler	-14362
diğer	-14363
▁kabiliyet	-14364
▁güzeli	-14365
▁testleri	-14366
▁tatili	-14367
▁muhafazak	-14368
▁0.	-14369
enter	-14370
▁yunanlı	-14371
▁tanışma	-14372
▁yes	-14373
▁zorunluluğu	-14374
▁namus	-14375
▁tozu	-14376
ilmesiyle	-14377
▁taraflar	-14378
▁kırgız	-14379
eck	-14380
▁nah	-14381
▁kaynat	-14382
▁önü	-14383
▁entelek	-14384
▁süresinin	-14385
00’	-14386
▁cafe	-14387
dekiler	-14388
ovasyon	-14389
▁yardıma	-14390
ojen	-14391
▁mana	-14392
▁yürüyen	-14393
▁yaratır	-14394
▁getirmiştir	-14395
▁ptt	-14396
▁elimizde	-14397
▁gerçekleri	-14398
▁yaya	-14399
▁pic	-14400
▁cildin	-14401
▁baskılı	-14402
▁şov	-14403
ografik	-14404
▁büyüklüğünde	-14405
▁fur	-14406
▁mecl	-14407
▁rent	-14408
▁müfettiş	-14409
▁huzursuz	-14410
oma	-14411
eğinden	-14412
▁depart	-14413
mamaktadır	-14414
▁kültürünün	-14415
▁nus	-14416
▁yapımcı	-14417
▁almasını	-14418
▁markalar	-14419
ilar	-14420
▁kâğı	-14421
▁özer	-14422
▁konulara	-14423
▁more	-14424
▁sıralar	-14425
▁geçtikten	-14426
▁töreninde	-14427
▁zaferi	-14428
▁senedir	-14429
▁sky	-14430
▁çıkarın	-14431
▁lübnan	-14432
▁adımlarla	-14433
▁tıkanıklığı	-14434
▁dağılım	-14435
▁masası	-14436
▁uyruklu	-14437
▁uygulamada	-14438
▁oteller	-14439
▁tamamlanması	-14440
▁verilebilir	-14441
▁özelliğine	-14442
▁geçmişe	-14443
▁düzensiz	-14444
▁stüdyo	-14445
lanmasına	-14446
▁manken	-14447
▁araştırması	-14448
ky	-14449
▁sayısına	-14450
▁read	-14451
▁adresini	-14452
▁hikayeleri	-14453
▁fantez	-14454
▁oynaya	-14455
▁nüfusun	-14456
bazı	-14457
▁yahya	-14458
▁çiv	-14459
cih	-14460
-)	-14461
▁güzeldi	-14462
▁kısıtlı	-14463
▁pır	-14464
amanız	-14465
uku	-14466
▁kuruluşların	-14467
▁ý	-14468
▁şarkılar	-14469
ilmeden	-14470
▁düşündür	-14471
▁tri	-14472
▁lou	-14473
▁putin	-14474
▁jüri	-14475
alın	-14476
▁mantığı	-14477
▁indirimli	-14478
▁ekibimiz	-14479
▁tetkik	-14480
▁albayrak	-14481
▁tipik	-14482
▁tahlil	-14483
▁filiz	-14484
elerimiz	-14485
mparatorluk	-14486
▁habere	-14487
▁denemek	-14488
melere	-14489
▁gücün	-14490
▁kaydır	-14491
▁davr	-14492
▁sema	-14493
▁tasvir	-14494
dana	-14495
▁elmas	-14496
▁hacmi	-14497
▁romanya	-14498
ibet	-14499
▁evlili	-14500
▁niyetli	-14501
▁silâh	-14502
▁william	-14503
▁sivri	-14504
▁sarıyer	-14505
▁sevgisi	-14506
üyoruz	-14507
▁tercüman	-14508
▁2,5	-14509
bahis	-14510
▁mans	-14511
▁atmaya	-14512
▁yüklem	-14513
▁etkinlikte	-14514
▁erkeklerde	-14515
▁manuel	-14516
▁üreticisi	-14517
▁kost	-14518
▁önems	-14519
▁getirme	-14520
▁başlayınca	-14521
▁söyleyebilirim	-14522
.11.2018	-14523
▁belirler	-14524
▁üçgen	-14525
▁mukav	-14526
▁programlama	-14527
▁komit	-14528
▁koruy	-14529
▁sağlığ	-14530
▁kamil	-14531
▁seyirci	-14532
▁göreceğiz	-14533
▁ipuç	-14534
▁metni	-14535
▁denetimi	-14536
▁temizlen	-14537
▁kurye	-14538
▁tutulur	-14539
zo	-14540
▁dun	-14541
▁sapan	-14542
emeyeceğini	-14543
69	-14544
▁demiştir	-14545
▁üretilmiş	-14546
▁>>>	-14547
▁kiraz	-14548
▁felsefi	-14549
▁diktatör	-14550
▁limanı	-14551
▁desteklemek	-14552
▁ruhun	-14553
▁ziyarette	-14554
▁bölü	-14555
▁kapsamındaki	-14556
▁cet	-14557
▁sonuçlara	-14558
▁beceri	-14559
▁kâh	-14560
▁sevda	-14561
▁konumuna	-14562
▁kurmaya	-14563
▁zab	-14564
▁yaşını	-14565
▁seda	-14566
cili	-14567
▁arkadaşlarının	-14568
▁gönderme	-14569
▁önlemleri	-14570
▁belgelerin	-14571
▁üçte	-14572
▁dağınık	-14573
▁dosyalar	-14574
▁esnada	-14575
meyip	-14576
▁ortamlarda	-14577
▁işlerde	-14578
▁öğretmenlerin	-14579
▁örgütleri	-14580
▁faaliyetlerine	-14581
▁ercan	-14582
▁sektörüne	-14583
▁açıklık	-14584
▁restaur	-14585
sonra	-14586
▁bahçesinde	-14587
ımla	-14588
▁tümör	-14589
hon	-14590
▁sinem	-14591
▁yüksektir	-14592
row	-14593
▁videolar	-14594
▁cre	-14595
▁görebilir	-14596
▁hanedan	-14597
▁değerlendirildi	-14598
mana	-14599
▁çi	-14600
▁madal	-14601
▁artacak	-14602
▁renkte	-14603
▁verebil	-14604
▁görüntüs	-14605
▁taar	-14606
▁daral	-14607
▁çevresine	-14608
▁bitlis	-14609
▁bişey	-14610
▁krallık	-14611
iyorduk	-14612
▁geldiniz	-14613
lamasına	-14614
erson	-14615
▁element	-14616
▁vest	-14617
▁düzene	-14618
▁girdim	-14619
▁jose	-14620
kardeş	-14621
▁makina	-14622
▁şunlardır	-14623
viv	-14624
yüksek	-14625
▁donald	-14626
▁yoğunluğu	-14627
▁hort	-14628
▁fiyatlı	-14629
▁temelini	-14630
▁him	-14631
şk	-14632
▁anes	-14633
▁ötesi	-14634
▁atas	-14635
▁heyecanı	-14636
yanın	-14637
▁yapmamız	-14638
▁faaliyete	-14639
▁indirmek	-14640
▁sistemlerinin	-14641
▁bronz	-14642
▁dönmesi	-14643
▁hukuka	-14644
▁hazırlanmıştır	-14645
▁nenni	-14646
▁tunus	-14647
▁çığlık	-14648
▁denizin	-14649
▁erc	-14650
kincisi	-14651
▁tahakk	-14652
lid	-14653
▁alanını	-14654
▁ederseniz	-14655
mazdı	-14656
▁atıf	-14657
▁gönderilir	-14658
▁yolunun	-14659
verdi	-14660
▁içti	-14661
▁kuruluşlarının	-14662
▁savaşları	-14663
▁kamuoyuna	-14664
▁mücadeleye	-14665
▁78	-14666
▁mazlum	-14667
▁suyla	-14668
▁seçenekler	-14669
▁3)	-14670
.08	-14671
uri	-14672
▁ida	-14673
▁kaynaş	-14674
▁kurb	-14675
▁ilçede	-14676
▁blo	-14677
▁doktorlar	-14678
▁harekat	-14679
gem	-14680
▁dizel	-14681
hava	-14682
▁gördüğünü	-14683
thal	-14684
▁network	-14685
▁tamamıyla	-14686
▁biriyle	-14687
▁alanlara	-14688
▁dondurma	-14689
▁açıklamak	-14690
▁vatandaşları	-14691
itli	-14692
▁akç	-14693
▁rektörü	-14694
▁dikey	-14695
rını	-14696
▁kupa	-14697
▁konuşur	-14698
▁yapabileceğiniz	-14699
sinler	-14700
▁dilinde	-14701
▁olduğunca	-14702
▁kutlama	-14703
▁yansım	-14704
▁yakalamak	-14705
▁anlaşılıyor	-14706
▁sağlığını	-14707
▁şırnak	-14708
▁kullanacak	-14709
▁açılışı	-14710
▁değirmen	-14711
▁omz	-14712
▁125	-14713
▁bırakıldı	-14714
▁saldırıda	-14715
▁1997	-14716
▁ipad	-14717
▁sokaklarda	-14718
tb	-14719
/11	-14720
▁açın	-14721
▁sahaya	-14722
▁oğlunu	-14723
▁müzisyen	-14724
▁parasını	-14725
etti	-14726
▁fotok	-14727
▁yardımcıları	-14728
▁demiryolu	-14729
▁mısın	-14730
küçük	-14731
▁2017’	-14732
▁yurdu	-14733
▁kadınla	-14734
▁şahsiyet	-14735
▁noktadan	-14736
▁hazreti	-14737
▁gördükleri	-14738
▁davul	-14739
▁püskür	-14740
▁kelebek	-14741
▁1995	-14742
elenen	-14743
▁kapasite	-14744
▁toplayan	-14745
▁kartları	-14746
▁entelektüel	-14747
▁avantajı	-14748
▁kullandığınız	-14749
▁cab	-14750
▁güngör	-14751
▁üniversiteye	-14752
ılmasıyla	-14753
▁evcil	-14754
62	-14755
▁güçlerin	-14756
▁kurulunun	-14757
▁öncesine	-14758
▁üretiminde	-14759
esterol	-14760
▁babamın	-14761
▁seçerek	-14762
▁evinizde	-14763
▁vereceğiz	-14764
▁maçını	-14765
▁88	-14766
herkes	-14767
▁optik	-14768
▁paraya	-14769
▁kararına	-14770
▁kararıyla	-14771
▁bankaların	-14772
latma	-14773
▁dic	-14774
osunda	-14775
ağan	-14776
▁saçlı	-14777
▁kaybettiği	-14778
▁olmakta	-14779
▁senary	-14780
mediler	-14781
▁balıkçı	-14782
▁sindirim	-14783
▁başvuruda	-14784
fel	-14785
▁hususta	-14786
▁ödenmesi	-14787
pik	-14788
▁telefonda	-14789
lkokulu	-14790
▁polisi	-14791
:))	-14792
▁yaşlarda	-14793
▁saz	-14794
▁ifadeler	-14795
asker	-14796
şbirliği	-14797
▁taşıyıcı	-14798
▁muhtelif	-14799
ilince	-14800
▁nakli	-14801
▁gürcistan	-14802
▁kapsamına	-14803
riye	-14804
▁şapk	-14805
▁bulunabilir	-14806
▁sahibine	-14807
▁gözlerinin	-14808
▁yanıtladı	-14809
▁fiili	-14810
cağından	-14811
▁resep	-14812
▁çalan	-14813
▁kategoriler	-14814
▁girişimcilik	-14815
acının	-14816
▁group	-14817
hip	-14818
▁bölümler	-14819
▁edenlerin	-14820
▁inceleyerek	-14821
▁yöneten	-14822
▁çoklu	-14823
▁cezayir	-14824
▁kişilerden	-14825
▁hesabını	-14826
▁gizlice	-14827
▁şölen	-14828
ifer	-14829
▁projeyi	-14830
stür	-14831
▁içeride	-14832
▁isteyenlerin	-14833
oteles	-14834
▁maksadı	-14835
uver	-14836
▁mutfa	-14837
▁peri	-14838
alari	-14839
▁derse	-14840
▁marşı	-14841
▁pri	-14842
▁ron	-14843
anıza	-14844
▁yıldızlar	-14845
▁yapabilmek	-14846
▁yarıma	-14847
▁eğitimler	-14848
▁kılmak	-14849
▁görüntüleme	-14850
▁sed	-14851
▁sünger	-14852
▁başkasına	-14853
▁vatandaşlara	-14854
▁esasları	-14855
▁mezuniyet	-14856
▁alper	-14857
▁dinledi	-14858
▁hazırlayan	-14859
▁sertifikası	-14860
▁madalya	-14861
▁konuşurken	-14862
laşır	-14863
▁fikret	-14864
74	-14865
▁bildiren	-14866
▁çocukluğ	-14867
[...]
